#version: 0.2
Ġ ì
ì Ŀ
Ġ ë
í ķ
Ġ ê
Ġ t
ë ĭ
ì Ĺ
h e
Ġ a
ëĭ ¤
i n
Ġ í
ìĿ ´
ë Ĭ
ê ³
e r
ëĬ Ķ
Ġt he
ìĹ Ĳ
o n
ì Ħ
ë ¡
ê °
ì ł
ì ŀ
r e
ìĿ ĺ
Ġ o
ìĿ Ħ
ë¡ ľ
č Ċ
Ġì Ŀ
íķ ĺ
ë ¥
a t
n d
§ Ģ
ì ľ
Ġ w
Ġ s
e d
íķ ľ
Ġì ŀ
¸ °
e n
o r
ì ĭ
i t
Ġ c
i s
Ġo f
ìĿ Ģ
e s
ê³ ł
Ġ 1
Ġì ł
a l
a n
ê° Ģ
Ī ëĭ¤
a r
ë ı
Ġ f
Į Ģ
Ġ in
ë ¦
Ĥ ¬
ë¥ ¼
ì ķ
Ġ p
ì Ĭ
ì Ľ
ì §Ģ
Ġ b
Ġê °
ìĦ ľ
ì ļ
ê µ
Ġa nd
Ġë °
ë ĵ
i c
í ĸ
a s
in g
ìľ ¼
ĠìĿ ´
ê ¸°
ë §
Ī ĺ
ì ĸ
íķ ´
ìĬ ¤
i on
o u
ë Ĥ
Ġ 2
Ġ m
Ġê ²
ê ²
ë¦ ¬
ëı Ħ
Ġt o
Ġì ķ
ë ©
Ġì ĭ
ìĿ ¸
ìľ¼ ë¡ľ
ë ¶
ìŀ Ĳ
Ġì Ĺ
ë ł
Ġ h
l e
ë ħ
Ġì Ħ
Ġ d
o m
Ġë §
ë Ĳ
ë °
ìĭ ľ
ĥ ģ
Ġê ³
ë Ŀ
£ ¼
ì Ĥ¬
ë ³
ìĹĲ ìĦľ
Ġì ĺ
ëĿ ¼
ìĽ Ĳ
en t
ëħ Ħ
ê³ ¼
Ġë ĮĢ
ì ĺ
ìŀ ¥
i l
ìĸ ´
í Ļ
ìĿ ¼
Ġë ĭ
ë ĮĢ
Ġì Īĺ
Ġ re
Ġê ¸°
0 0
Ġì ľ
Ġ T
íĸ Īëĭ¤
ì Ļ
Ġ l
r o
ë¶ Ģ
ë ŀ
¹ Ħ
ë ¬
Ġê µ
Ġì §Ģ
Ġë ³
s t
Ġ S
Ġ e
ì §
í ĺ
ìł ķ
o l
ì ¹
Ġë Ĥ
ìł ģ
ë ª
Ġ A
Ġë ¶
Ġ C
Ġì Ĥ¬
â Ģ
í Ĭ
e l
· ¸
Ġ n
Ġ "
Ġìł Ħ
c t
ëĵ ¤
a m
êµ Ń
ì ²
Ġt h
ì Ĩ
Ġë ĵ
íĬ ¸
ë Ł
¤ ĳ
ë ²
Ġ '
a d
ë§ Į
ìĦ ±
ëĤ ĺ
ì ĥģ
ê ¸
Ġw as
Ġê° Ģ
i v
Ġìĭ ľ
ì ¡
´ Ģ
at ion
ìĹ ħ
ìķ Ħ
ìĻ Ģ
u s
ì £¼
Ġìŀ Ī
Ġë ª
ìĿ´ ëĭ¤
ļ Į
e t
ìł Ħ
í ĥ
ì Īĺ
Ġë ı
i d
Ġf or
l y
ìļ ©
ë© °
u r
ë© ´
ëĵ ľ
. .
ë į
ìł ľ
Ġ1 9
íĻ Ķ
ê² Į
Ġ M
c h
Ġìŀ Īëĭ¤
c e
i m
Ġ íķ
í Ħ
¯ ¸
i g
Ġí Ļ
Ġê² ĥ
íķĺ ëĬĶ
Ġê ·¸
Ġëĵ ±
ëĲ ĺ
u l
ë ¹Ħ
ìĽ Ķ
Ġ is
Ġ 3
Ġí ĺ
o t
Ġ B
Ġìł ľ
í Ķ
Ġ (
Ĩ µ
Ġ g
r a
v er
Ġa s
Ġ I
Ġ on
u t
i r
Ġ íķľ
íĦ °
êµ ¬
Ġb e
ë³ ´
Ġì ļ
o w
ê³ Ħ
Ġì ¤ĳ
it h
Ġë ¬
Ġë³ ´
Ġ2 0
í ļĮ
Ĥ °
ì ¶
ĠT he
Ġì £¼
t er
íķ ł
Ġì Ĩ
Ġì ¶
Ġ P
Ġì §
e m
ëı Ļ
Ġs t
Ġìķ Ħ
í ı
N A
Ġì ĥģ
Ġ H
Ġw ith
Ġê³ µ
ëĲ ľ
M E
he r
íĸ ī
Ġëĭ ¤
NA ME
u n
Ġìľ Ħ
ì¹ ĺ
ĠìĿ ¸
íķĺ ê³ł
ì °
Ġìŀ Ĳ
± °
ĥ Ŀ
s e
g e
Ġê² ½
ë £
Ġìł ķ
l a
Ġw h
Ġì °
Ľ Ħ
ëª ħ
Ġê ¸
ìĨ Į
is t
ìĹ ¬
Ġa l
ê³ µ
Ġ R
Ġb y
ë¥ ´
ì Ĥ°
Ġìľ ł
Ġc on
Ġì ĸ
Ġ íķĺ
ëŁ ¬
ìĹ Īëĭ¤
ìļ °
ì ¦
ì¡ °
ë¬ ¸
í Į
Ġ F
Ġ <
ê¸ Ī
er s
t h
ĠìĿ ¼
o p
Ġí ı
ìľ Ħ
ìĦ ¸
Ġ 4
Ġth at
Ġë¶ Ģ
Ġa n
' s
Ġì ²
ê° Ħ
ìĭ ł
r om
Ġì Ĭ
ĠìĹ °
ê° ľ
íķľ ëĭ¤
Ġ D
ìŀ ¬
Ġ L
Ġí Ķ
íķ Ļ
ģ ¬
ì² ´
er e
ì§ Ħ
¶ Į
Ġê° ľ
Ġ G
Ġ 5
Ġë ²
Ġ âĢ
ìĦ ł
Ġì ¡
u m
Ġ W
Ġê ´Ģ
it y
Ġo r
es t
Ġw ere
Ġëª ¨
ìĭ Ŀ
Ġë į
Ġí Į
a y
½ Ķ
ê ·
Ġêµ Ń
Ġ N
ê ´Ģ
ĳ ľ
r i
µ ľ
ëĭ ¨
Ġë Ķ
ë¶ Ħ
Ġë ¯¸
o d
Ġ it
Ġìĺ ¤
ĠìĨ Į
Ġ E
Ġê³ ł
Ġa t
Ġë ¹Ħ
Ġf rom
ëĭ Ī
¢ ħ
Ġ v
ê ¶Į
ê ¹
ĠëĤ ĺ
Ġp ro
Ġí Ĩµ
Ġd e
Ġë° ľ
Ī ¬
ìĺ Ģ
ĠìĦ ł
ë§ Ī
i f
o s
i es
p e
ëł ¥
Ġ 6
Ġìĭ ł
Ġë Ĳ
re s
ìķ Ī
ĠìĦ ľ
ìĹ Ń
êµ Ĳ
Ġc om
at e
Ġì¡ °
Ġë§ Ī
Ġ20 1
ë Ħ
Ġêµ ¬
o c
Ġì ¹
Ġì Ľ
a v
Ġìĺ ģ
ëŀ ĺ
¯ ¼
ì¶ ľ
Ġì Ļ
íĥ Ģ
Ġ he
í ħ
Ġa re
ë ¯¸
Ġ J
ëĤ ľ
a in
ëł ¤
í Ĵ
a nd
ìļ Ķ
ìĺ ¤
ìľ ł
ê¹ Į
Ġ íķ´
ĠëĤ ´
Ġí ĸ
± ´
ì Ī
Ġ r
Ġs u
ëĭ ¹
a c
Ġì µľ
ĠìĬ ¤
ic h
ëł Ī
i an
ĠìĿ ĺ
í ģ¬
í İ
ì ĥĿ
ìŀ ĳ
Ġëı Ļ
ë¡ Ŀ
ĠìŀĪ ëĬĶ
l d
í ŀ
u d
ìŀ Ħ
¤ Ģ
ìĸ µ
ëį °
ë¬ ´
or t
ìļ ´
ë° ĺ
Ġì ´
a b
í ĳľ
ìķ ¼
ar t
ìĿ´ ëĿ¼
T he
ĳ Ĳ
Ġs e
í Ĺ
ì° ¨
Ġê¸ Ī
Ġe x
ê ±°
íĴ Ī
ëª ¨
q u
Ġë° ©
í Ĩµ
íĶ Ħ
Ġí Ĭ
) ,
o re
Ġìĺ Ī
Â ·
í ĽĦ
ã Ģ
Ġ1 8
ķ Į
ê² ½
Ġì ¦
ëĤ ´
ìĺ ģ
n t
í ĭ
ê¹Į ì§Ģ
íŀ Ī
at ed
ĠìĦ ±
ĠìĹ ¬
Ġh is
ê° ģ
e w
ì ¤ĳ
íı ¬
Ġë° ı
i p
an t
ig h
i al
2 0
ê ·¸
Ġ O
Ġ U
m ent
ë Ķ
Ġíĺ Ħ
ìĹ °
Ġí ĥ
ĠìĦ ¸
Ġìĭ ¤
Ġë§ ¤
Ġìķ Ĭ
Ġë¬ ´
ìĿ Į
Ġë ħ
ì¹ ´
ë° ľ
es s
ë ¯¼
ìŀ ħ
ë¬ ¼
ĠëĶ °
Ġë§ Į
Ĩ ł
ìł Ĳ
iv e
a k
ë§ ¤
Ġëı Ħ
ì§Ģ ë§Į
íĺ ¸
il l
Ġ2 00
í Ĥ
Ġ 7
ìĨ į
ë¶Ģ íĦ°
ëĬ ¥
ìĸ ĳ
Ġë ķĮ
Ġwh ich
ìĺĢ ëĭ¤
Ġê ·
Ġ k
Ġì§ Ħ
Ġìļ °
ìĹĲ ëĬĶ
íĸ Ī
ìłģ ìĿ¸
ìłģ ìľ¼ë¡ľ
ar d
al l
âĢ Ļ
ĠëĮĢ íķľ
ë¥ ¸
t e
a p
ì ¤Ģ
b er
Ġë¶ Ħ
e ar
ĺ Ĳ
Ġê ±°
ë° ©
Ġ 8
Ġê² °
ë£ Į
Ġc h
Ġë§ Ĳ
g h
Ġin c
Ġ1 0
Ġ 9
Ġê° ķ
Ġê³ Ħ
ì ´
ìľ¼ ë©°
ĠâĢ ĺ
Ķ ëĭ¤
Ġh ad
Ġìŀ ¥
1 9
i a
ëį ĺ
ĠI n
ic al
ĠíĻ ķ
ìĹ Ī
Ġìŀ ¬
ê² ©
ì ħ
ìĭ ¤
Ġ K
Ġë Ĩ
Ġë ĺĲ
ĠíĶ Ħ
ì ¢ħ
u re
íĺ ķ
ì ¸
Ġ u
Ġì¶ Ķ
¸ Į
ë³ ¸
Ġ le
Ġì¶ ľ
Ġí ĽĦ
ì¦ Ŀ
r ou
om e
ìķ ½
Ġì§Ģ ëĤľ
o g
ct ion
íķ ©
Ġë° Ķ
Ġêµ Ĳ
ar y
ì ½Ķ
ê¸ ī
ou r
Ġì¦ Ŀ
ĠìĹ Ĩ
ìĪ ł
t her
00 0
Ġë° ĺ
Ġ y
p p
ìĭ ¬
Ġìĸ ´
Ġì ĥĿ
a g
on g
o st
as t
íĹ ĺ
ìĹĲ ê²Į
ìļ ¸
Ī¬ ìŀĲ
ë©´ ìĦľ
ë° Ķ
or d
ìĸµ ìĽĲ
Ġë¬ ¸
Ġíı ¬
ìľ µ
ĠìĦ ¤
in e
ëĭ ¬
ĠíĬ ¹
ëĲľ ëĭ¤
ĠìĽ Ĳ
ê° Ĳ
am e
ìķ ĺ
ë² ķ
Ġë Ħ
Ġí İ
ëĶ Ķ
Ġ Ġ
Ġë ©
o v
Ġë¶ Ī
en s
ëĵ¤ ìĿ´
íĮ Į
Ġìĺ ¬
c c
Ġ us
el l
Ġì Ĥ
ìł Ģ
í Ĩł
íĭ °
ĠìľĦ íķ´
Ġë° Ľ
ou s
ĠS t
ol d
p t
Ġ un
íķĺ ê¸°
ëł ¨
êµ °
ë² Ī
Ġ â
ê ±´
Ġn ot
Ġê° Ĳ
Ġí ļĮ
Ġìł ģ
i z
ìĦ ¤
ë£ ¨
ì§ ģ
ë¦ °
Ġì° ¨
Ġëį Ķ
p er
Ġìķ Ī
ī ´
ì ±
Ġëĭ ¨
d u
ig n
is h
ĠíĨµ íķ´
ou nt
íĶ ¼
íķĺ ìĹ¬
Ġs h
Ġê²ĥ ìľ¼ë¡ľ
s o
r an
ĠìĤ¬ ìļ©
íĤ ¤
ì ¼
Ġì ½Ķ
Ġê° Ļ
ìĬ ¹
i re
Ġfor m
ĠëĲ ĺ
av e
Ġëħ ¸
ì¦ Ī
u b
Ġë° Ŀ
ë° °
igh t
ëĲĺ ìĹĪëĭ¤
ĠC h
ìĦ Ŀ
Ĳ ëĭ¤
a ge
it ion
Ġcom p
ĠìĹ Ń
Ġìŀ ĳ
ë² Ħ
ìĻ ¸
íĻ ĺ
ìĿ µ
" ,
Ġre s
ê² °
Ġë° °
íĸ ¥
Ġì ĥ
f f
´ ĳ
Ġìķ Į
ë¦ ½
íķĺ ê²Į
ì§ Ī
ì² Ń
í ļ
r u
ĠíĮ Į
ë§ Ŀ
Ġ V
Ġëĭ ¹
ë¹Ħ ìĬ¤
ë ĳĲ
or m
ëĵ¤ ìĿĢ
ĠíĻ ľ
Ġa r
Ġal so
íķ ¨
ë¡ ł
Ġh as
Ġë°Ŀ íĺ
) .
Ġê³ ¼
íĺ Ħ
ëŁ ī
ìĿ´ëĿ¼ ê³ł
Ġcon t
Ġë§ İ
Ġ1 2
nd er
r y
r it
as s
Ġy ear
ou se
ul t
e ct
Ġìļ Ķ
Ġit s
ĠëĨ Ĵ
Ġìļ ´
i e
Ġ1 1
Ġì ±
Ġp art
Ġíķ ¨
Ġwh o
or k
Ġì° ¸
Ġê² Į
Ġíķľ ëĭ¤
Ġì ¢ħ
w n
at er
ë³ Ħ
ê· ¼
Ġa d
a re
m er
ation s
Ġì Ī
ëŀ Ģ
Ġíı ī
ĠìĻ ¸
âĢ Ŀ
ow n
Ġë¯¸ êµŃ
Ġíķľ êµŃ
l ud
Ġë ¦
Ġìŀ ħ
Ġëį °
I n
Ġë ĳĲ
Ġë°Ŀíĺ Ķëĭ¤
ĠëĤ ¨
i b
Ġëĭ ¬
Ġw he
íĥ ľ
o ver
ĠâĢ ľ
ir st
Ġë ¹
ë¥ ĺ
Ġë Ĭ
ìľ ¡
Ġh ave
id e
Ġal l
Ġì¹ ´
íķĺ ëĭ¤
en ce
Ġì´ Ī
ëĤ ł
ou t
ìĹĲìĦľ ëĬĶ
Ġthe ir
ëª ©
r ic
Ġp er
u e
ë ¸Į
u al
Ġí ģ
u st
ëħ ¸
Ġì »
ê »
at es
ìľ ¨
ìħ ĺ
ìķĺ ëĭ¤
Ġin t
ĠìĿ´ íĽĦ
p h
ëĵ¤ ìĿĺ
ou ld
íķĺ ìĺĢëĭ¤
Ġê ±´
ì »
Ġ19 9
w o
Ġë¦ ¬
Ġê²½ ìļ°
Ġë ¡
o k
íİ ¸
ëł ¹
Ġb ut
ëĵ ±
er v
Ġê°Ģ ëĬ¥
Ġì§ ģ
ì² ĺ
f ter
Ġa b
Ġinc lud
c es
Ġo ther
íĥ Ŀ
Ġì´ Ŀ
am p
" .
ëŀ Į
ic e
Ġf irst
ê» ĺ
ì´ Ī
Ġíķ Ļ
or y
ëĿ ½
Ġìł Ĳ
ĠíĮ Ĳ
Ġê° ģ
c ed
ê° ķ
ëĵ ł
ĠT h
Ġìķ ½
ìķ ¡
Ġâ ĸ
ìĬ¤ íĬ¸
im e
an y
Ġíĸ ī
on e
Ġ ra
Ġs p
ĠU n
Ġê¸Ī ìľµ
Ġë³ Ģ
ë¦¬ ìķĦ
ì ĥ
ë³´ ëĭ¤
Ġí Ī¬ìŀĲ
ĠìĹ ħ
íļ į
an g
Ġ1 5
he d
re e
ĠëĶ° ëĿ¼
c k
Ġa ge
op ul
ì¡ ±
íķĺ ë©°
Ġ im
¤ Ħ
ĠëĮĢ íķ´
Ġon e
Ģ ìĿ´
Ġê ¹
ì² ľ
ĠëķĮ ë¬¸
Ġ 0
a ct
on d
Ġëª ħ
ê° Ŀ
ìŀĲ ëĬĶ
Ġíķ Ħ
íħ Į
íĶ Į
Ġth is
i le
f er
el y
íĮ Ĳ
Ġbe c
l es
ë¦ Ħ
¸ Ķ
ëĲĺ ëĬĶ
ĠìĹ ´
Ġc l
Ġì Ĥ°
Ġê°Ļ ìĿĢ
Ġí Ĺ
ì¡ Į
Ġí Ŀ
ëĲ Ĳëĭ¤
Ġo ver
ent s
ëĤ ¨
ìĹĲ ëıĦ
ë© Ķ
Ġh ouse
ou nd
Ġp opul
Ġíķ¨ ê»ĺ
Ġp la
ë ¨
ĠI t
Ġë§Ĳ íĸĪëĭ¤
ĠíĶĦ ë¡ľ
Ġí ģ¬
f orm
la nd
Ġê· ľ
Ġbe en
ĠìĹ Ĳ
Ġë Ŀ
· ¨
Ġë³ ¸
er m
Ġu nder
ĠìĦľ ë¹ĦìĬ¤
Ġìĭľ ìŀ¥
Ġd is
Ġì§Ģ ìĹŃ
íİ ĺ
ter n
ëŀ ľ
l ic
it ed
Ġì§Ħ íĸī
ar k
ì± ħ
ad e
ac k
Ġìł Ģ
ë³ µ
ë§Į ìĽĲ
Ġ j
Ġ en
Ġìĥ Ī
ĠH e
ìĿĢ íĸī
Ġê¸° ë¡Ŀ
Â ł
ĠíĶ ¼
it e
Ġ1 7
Ġìŀ Ħ
í ģ
ìĨ ¡
ì¶ ķ
Ġë¬ ¼
Ł ģ
ìĬ µ
a ch
Ġê¸° ìĹħ
h old
Ġt wo
ul a
íĻ ©
Ġre c
Ġìĸ ĳ
p ort
Ġì§Ģ ìĽĲ
ìĸ ¸
ou gh
ur ing
Ġt e
Ġcom m
Ġìłľ ê³µ
Ġíķ ł
f t
ion s
ì Łģ
ĠìĤ ¼
ĠíĻ Ķ
ëłĪ ìĿ´
ĠìľĦ íķľ
Ġ1 6
Ġëĭ¤ ë¥¸
Ġê° Ħ
Ġa g
ì¸ ł
Ġyear s
ĠìĹ° êµ¬
Ġì² ´
Ġì§ ĳ
v el
Ġëª ©
ëı ħ
k e
ëıĦ ë¡Ŀ
Ġhouse hold
w e
ì¡ ´
ation al
ì ½
Ġìĭľ ìŀĳ
Ġëĵ ¤
ĠìĿ´ ìĸ´
ìĽ Į
ì Ķ
Ġc an
Ġíĸ Īëĭ¤
il d
o se
Ġê´Ģ ëł¨
Ġë ī´
an ce
Ģ ë¡ľ
ĠìĤ¬ ìĹħ
or s
ëĭ ´
ìŀ¥ ìĿĢ
ëĭ Īëĭ¤
ł ëĭ¤
Ġ ro
n e
ëŀ ĳ
Ġ19 8
íķĺ ì§Ģ
Ġn e
ab le
n g
Ġp res
ë¦ ¼
ëĦ Ī
Ġthe re
ĠíĻ ĺ
íķ Ń
re d
ĠìĿ Į
Ġm ore
am il
ĠêµŃ ëĤ´
ĠëĿ ¼
Ġê°Ģ ìŀ¥
Ġë© Ķ
Ġo ut
Ġê´Ģ ê³Ħ
Ġì¦Ŀ ê°Ģ
ëĲ ł
ë³ ĳ
Ġ20 2
i ed
ĠëĮĢ íĳľ
ëį Ķ
Ġíĺ ¸
ol l
ĠíĺĦ ìŀ¬
Ġê²ĥ ìĿ´
ĠìĪ ľ
ê· ľ
ĠëĶ Ķ
į ¼
Ġd es
ĠëĲ ľ
ëĦ ¤
Ġì¤ĳ êµŃ
an s
âĢ ĵ
Ġê°ľ ë°ľ
in t
Ġì² ĺ
Ġë¡ ľ
Ġíĺ ĳ
ìĺ ¨
Ġê²Į ìŀĦ
ĠíĶ Į
Ġë ł
ëĲĺ ìĸ´
íĺ ĳ
Ġs c
Ġì ¢
ë¥ ł
ĠìĦľ ìļ¸
í Ī¬
ë¦¬ ëĬĶ
Ġ ãĢ
í Ŀ
Ġëĭ¤ ìĸĳ
ì ³
Ġëı ħ
ìĺ Ī
o ol
mer ic
al es
Ġ1 3
Ġa fter
Ġc ent
ê¸° ë¥¼
Ġint o
ĠR e
a w
ìł Ī
ĠA l
Ġìłķ ë¶Ģ
íķĻ êµĲ
Ġthe y
Ġ1 4
Ġìķ ŀ
ì§ ĳ
Ġe v
ê² ¬
1 0
Ġu p
on s
% )
ëĵ¤ ìĿĦ
Ġì± Ħ
Ġ3 0
Ġí ļ
5 0
as e
Ġì º
ìĿ´ ëĤĺ
Ġíķ ©
Ġíĺ ķ
Ġs pe
as ed
ì¡Į ëĭ¤
Ġê·¸ ëĬĶ
Ġëĵ± ìĿĦ
Ġ1 00
Ġ19 7
Ġ čĊ
Ġê¸° ì¤Ģ
re n
Ġp e
ĠìĿ¼ ë³¸
l o
Ġ Y
h ip
Ġp re
at h
Ġí ĳľ
Ġì§ĢëĤľ íķ´
í Ī¬ìŀĲ
Ġs y
al ly
Ġê¸° ìĪł
ak e
íı ī
rou gh
Ġ her
ĠìĿ´ ë²Ī
a il
Ġë§ ŀ
Ġìĥģ ìĬ¹
ĠìĤ¬ ëŀĮ
Ġsu ch
Ġpopul ation
Ġw ork
Ġë ¸Į
Ġcon s
Ġì² Ń
Ġë Ī
Ġì¹ ĺ
ëĿ¼ ëĬĶ
res s
ëĿ¼ ê³ł
ë² ł
Ġn ew
Ġë² ķ
ri b
ì¦Ŀ ê¶Į
Ġb et
ĠìĿ´ ìļ©
ĠA meric
Ġe le
ì Ĥ
Ġc ity
ìł ¸
Ġëĭ¤ ìĿĮ
Ġë² Ī
Ġì ·¨
Ġëł Ī
Ġíı¬ íķ¨
is s
Ġs ome
Ġm e
Ġë ģ
ĠìĿ´ ìĥģ
Ġm ost
Ġìĭ ¬
Ġì° ½
Ġê ´ĳ
ãĢ ĭ
ĠìĨ į
1 8
ê² łëĭ¤
ìĦ± ìĿĦ
Ġì ½
ë¥´ ë©´
ë ī´
íħ ľ
re at
ing s
Ġus ed
Ġre g
ë ¹
ĠìĦ¸ ê³Ħ
in d
Ġê³Ħ íļį
ìĭľ ìķĦ
Ġëª »
Ġof f
al e
ĠíķĦ ìļĶ
ë² Į
ê ´ĳ
Ġê³ł ê°Ŀ
Ġëĭ¤ìĸĳ íķľ
Ġw ould
Ġp r
Ġt ime
íķĺ ë©´
Ġ19 6
ìľĦ ìĽĲ
Ġí ħ
ê¸° ìĹĲ
ìĤ¬ ë¥¼
Ġ íķĺëĬĶ
Ġíķĺ ëĤĺ
Ġl iv
íĻ ľ
ìĭľ ìĬ¤
ë¦¬ ë¥¼
ìķ ħ
Ġ2 5
ĠìĺĪ ìłķ
x t
g an
ĠëĺĲ íķľ
ëħĦ ìĹĲ
Ġp l
c ial
i ous
Ġíİ ¸
Ġl oc
Ġf amil
¿ ł
Ġí ŀ
Ġthe m
Ġm ed
ar ly
we en
Ġë ¨
ì§Ģ ëĬĶ
ª ½
Ġí Ĵ
ic s
Ġc ount
ĠìĻ Ħ
ìŀ¥ ìĿĦ
ĠA s
Ġa pp
ê¸Ī ìľµ
ëŁ ¼
en er
ì§ ¸
ìŀĲ ê°Ģ
ic t
ë¦¬ ê³ł
at ive
ëŁ °
ĠëĶ° ë¥´ë©´
Ġk n
ëĬĶ ëį°
ĠìĦ¤ ëªħ
Ġê¹ Ģ
ëĲĺ ê³ł
Ġn o
ĠĠ ĠĠ
Ġë² ł
Ġc ol
ver y
ĠëķĮë¬¸ ìĹĲ
Ġre l
if ic
Ġê±° ëŀĺ
Ġë Ĵ
Ġêµ °
ran s
ch ool
Ġì ¤Ħ
Ġë§İ ìĿĢ
ë ĥ
a us
Ġin d
Ġë¶ ģ
ì£¼ ìĿĺ
ĠS e
ur n
ĠëĤĺ íĥĢ
ìĿ´ ë©°
ot h
ê¸° ìĹħ
ĠëĬ ĺ
is m
ĠìĿ Ģ
Ġth an
Ġê²½ ê¸°
ĠìĤ¬ ìĿ´
Ġex p
ol og
Ġ2 4
ĠìķĦ ëĭĪ
Ġìĺ¬ íķ´
ëŁ ½
ìľ¼ ëĤĺ
ëł¥ ìĿĦ
Ġê² Ģ
ìĦ± ìĿ´
ëŀľ ëĵľ
ĠìĬ ¹
ë¶ ģ
over n
Ġto wn
ĠíĬ ¸
rou nd
Ġ $
Ġbet ween
Ġform ula
ĠëĮĢ ë¹Ħ
ĠëĺĲ ëĬĶ
Ġë ¯¼
ëĵ Ŀ
Ġs erv
Ġëĵ ľ
ĠìķĦ ìĿ´
ĠA r
Ġì¶ľ ìĭľ
it ies
Ġpro du
ĠêµŃ ê°Ģ
Ġwhe n
ìĽĲ ìĿĢ
a u
ìĥ ī
ìĪ ľ
Ġíĥ Ģ
ëĲĺ ìĹĪ
Ġë¬¸ ìłľ
o od
Ġê²ĥ ìĿ´ëĭ¤
ìł ĳ
t s
ìĿ´ íĦ°
Ġsu b
Ġíģ °
Ġre p
Ġìļ´ ìĺģ
or ld
Ġa cc
ar g
ĠD e
ê· ¹
ë¨ ¸
3 0
ëĮĢ ë¡ľ
ĠìŀĲ ìĭł
Ġat t
w ard
Ġin ter
ĠìĤ¼ ìĦ±
Ġê· ¼
ë° Ľ
op le
ìĶ ¨
ĠìĨ Ĳ
Ġê²ĥ ìĿĦ
i o
v e
ub lic
Ġon ly
Ġh im
ë ¸Ķ
ë ´
ìĭľ ìŀ¥
ĠëĦ ¤
. "
u p
ct ed
ìĦ ¼
y s
íķĺ ë©´ìĦľ
ĠëĲľ ëĭ¤
Ġìķ ł
Ġde c
or th
ì¸ µ
íı °
ì ª½
Ġë³ µ
ĠêµĲ ìľ¡
Ġíĥ ľ
w ay
on t
Ġëª¨ ëĳĲ
id ent
ì± Ħ
Ġí Ĩł
ë¡ Ģ
ur y
Ġëĵ¤ ìĸ´
í į¼
Ġë°ľ íĳľ
ìĹ ´
Ġëı Į
Ġt ra
ìĬ¤ ëĬĶ
Ġ |
¨ ìĸ´
r ad
ìĿ ĳ
ë° ķ
Ġê·¸ ëŁ¬
ëĬĶ ëĭ¤
Ġíķ Ń
Ġth rough
Ġm ade
is hed
ì µľ
ou th
êµŃ ìĿĺ
Ġë ĸ
ĠTh is
in ce
Ġê¸Ī ì§Ģ
Ġë§Į ëĵ¤
a ce
ar s
1 5
ĠUn ited
ë¡ľ ìļ´
Ġë°ľ ìĥĿ
Ġì¶ ©
ì´ Ŀ
it s
Ġs o
Ġp ol
ìĦľ ëĬĶ
ì¼ Ģ
íķ´ ìķ¼
ì¶ Ķ
Ġd uring
Ġë§¤ ì¶ľ
oll ow
Ġê²° ê³¼
Ġw e
Ġëĭ ´
r am
ĠëĴ ¤
Ġìł ĳ
Ġìĸ ¸
Ġì» ¤
il m
Ġ -
ou n
íĸĪëĭ¤ ê³ł
ĠíĬ¹ íŀĪ
em ber
ĠëĮĢ ìĥģ
ĠN ew
er ed
ë¶Ħ ê¸°
ì§Ģ ë¥¼
ê±° ëĤĺ
Ġâĸ ²
1 2
ëĦ Ĳ
in al
o b
t en
ì° °
ĠìĿ´ ëĤł
ĠíĮĲ ë§¤
Ġn um
ìĿ´ëĿ¼ ëĬĶ
st em
Ġre m
Ġíļ ¨
Ġíģ ´
Ġf em
t ed
ìĿ´ ê³ł
ë³ Ģ
ë§ Ĳ
Ġb u
ĠìłĦ ë§Ŀ
Ġa m
Ġì¶Ķ ê°Ģ
Ġse c
ĠíĻķ ëĮĢ
ĠC om
Ġì ¤Ģ
ĠìĤ ´
Ġìµľ ê·¼
1 7
Ġíķĺ ëĿ½
ĠìŀĪ ìĸ´
Ġìĺģ íĸ¥
Ġìĭ Ŀ
Ġêµ¬ ìĦ±
ë ģ
Ġas s
ê°ģ ì£¼
Ġë² Ħ
iv ers
Ġ qu
1 6
Ġí Ī¬
ĠìĿ¼ ë¶Ģ
ë Ĥ¬
or n
ĠìĿ´ ëĬĶ
Ġpla y
Ġb o
Ġì¢ ĭ
at ing
Ġìĺģ ìĹħ
Ġ19 4
Ġinclud ing
ìķ ł
ĵ °
ìĹ Ķ
Ġëª¨ ëĵł
ìĤ¬ ìĹħ
ens us
ĠìĤ¬ íļĮ
o h
ĠAmeric an
ìĭľ ê°Ħ
ë Ĩ
Ġì°¸ ìĹ¬
Ġëĵ± ìĿ´
in s
Ġpe ople
o int
Ġa ct
u g
an n
2 00
e ver
ut ion
ĠìĹĨ ëĭ¤
Ġì² «
Ġê¸° ëĮĢ
ĠãĢ Ĭ
Ġìĥģ íĻ©
Ġc o
Ġê²° ìłķ
íĸĪ ê³ł
Ġë° ķ
l ed
vel op
Ġs et
Ġì ¸
ĠìŀĪ ìľ¼ë©°
Ġm ay
ë£ ¹
in es
ĠìĦ± ìŀ¥
Ġê²½ ìłľ
Ġê¸ ī
ë§Ī íĬ¸
j ect
Ġpro v
Ġëħ ¼
Ġhousehold s
ì§Ģ ê³ł
Ġ =
ìŀĲ ìĿĺ
Ġìļ° ë¦¬
ľ ´
ìĿ´ íĬ¸
Ġê·ľ ëª¨
( :
ìĤ¬ ëĬĶ
Ġm any
Ġt rans
Ġwhe re
l i
Ġsu pp
Ġs k
if e
Ġê²ĥ ìĿĢ
Ġa c
i et
oc k
íĥ Ī
1 4
Ġ .
Ġìµľ ëĮĢ
Ġc all
ic k
ìĽ Ģ
c y
ow er
Ġíĸ ¥
ì° ½
Ġd ist
Ġm od
ëŀ ¨
r al
Ġìłķ ë³´
ê· ł
ĠìłĦ ë¬¸
ê¸ Ģ
ë² Ķ
Ġíıī ê°Ģ
ëł ¸
ëŀ µ
Ġê°ľ ìĿ¸
iv er
ìĿ´ ëĬĶ
c he
Ġì½Ķ ìĬ¤
± ¸
ar ri
ĠíĮ ¨
ĠSt ates
Ġe m
ra ph
Ġg overn
ĠìĿ¼ ë°ĺ
Ġab out
Ġëĵ± ìĿĺ
t on
ĠëĦ ĺ
ì³ Ĳ
Ġì¶ ķ
Ġo ld
Ġìłľ íĴĪ
Ġst ud
t y
ar ch
ìĤ¬ ê°Ģ
ĠF or
Ġì£¼ ìļĶ
Ġìĥģ íĴĪ
er n
Ġre t
Ġl ater
ĠìĺĪ ìĥģ
Ġp os
Ġê¸° ìŀĲ
Ġin v
ĠíĻľ ëıĻ
íĻĶ ë¥¼
f ore
ìĿ´ ìĿµ
ĠìĦł ìĪĺ
Ġê´Ģê³Ħ ìŀĲëĬĶ
t he
ĠëıĻ ìķĪ
Ġbec ame
p s
Ġf ollow
ì§ ķ
ìŀĳ ê¶Į
Ġf ilm
Ġa p
al s
Ġare a
íĮ ħ
Ġliv ing
Ġë¶Ħ ìĦĿ
a j
ĠìĪĺ ì¤Ģ
Ġf ound
ìĺ ¬
Ġde f
ëħ Ģ
ver s
ë Ī
t le
Ģ ëĵľ
Ġf e
ĠíĻľ ìļ©
Ġkn own
i x
Ġë¬´ ëĭ¨
í Ĩ
Ġm an
ëĵ¤ ìĹĲê²Į
Ġ2 2
Ġp h
i el
ë° ±
Ġì¡ ´
íħ Ķ
ë¶ Ī
is e
Ġ2 1
ĠL e
Ġ2 3
Ġsy stem
íĥ Ħ
ĠìŀĪ ìĹĪëĭ¤
Ġì§Ģ ìĨį
ë°° íı¬
in ed
Ġí Ĥ
íķĺ ìĺĢ
ĠëĨĴ ìĿĢ
ĠìĿ´ ë¥¼
ë¦ Ń
ĠìĥĪ ë¡ľìļ´
Ģë¡ľ ë²Į
Ġag ain
ro s
Ġíħ Į
ëı ¼
y le
ë¦¬ ìĬ¤
ìĥģ ìĿĦ
Ġìł Ī
ë ĸ
Ġíİ ĺ
ê¸° ëıĦ
Ġ est
Ġwh ile
Ġan y
ê·¸ ëŀ¨
Ġd o
ĩ ´
ì» ¤
ĠìŀĪ ëıĦë¡Ŀ
ìĦľ ìļ¸
ĠìľĦ ì¹ĺ
ìĪĺ ëĬĶ
ìĿ´ ìĬ¤
ê¸ ¸
iz ed
Ġëĭ¹ ìĭľ
Ġíķ´ ëĭ¹
Ġde velop
ìľĦìĽĲ íļĮ
Ġê¸° ì¡´
u res
Ġì½ ĺ
Ġe nd
Ġc ap
ĠëĲĺ ìĹĪëĭ¤
Ġd if
Ġim p
í ĮĢ
Ġê°ľ ìĦł
Ġth ree
ìĤ¬ ìĿĺ
ìĿ´ ìĹĪëĭ¤
Ġm ov
em ent
Ġìĭľ ìĬ¤
Ġìĭľ ê°Ħ
Ġì¸ ¡
íĻ ķ
at ure
ist s
Ġin st
ìłķ ìĿĦ
ĠìĿ´ ë¦Ħ
Ġ2 6
Ġs he
ĠëĤ ®
ĠìĹ¬ ëŁ¬
ow ever
Ġbe ing
ìłĢ ìŀĳê¶Į
ĠìķĮ ëł¤
Ġthe n
em b
Ġl i
ìŀĲ ë¥¼
Ġì² ł
1 3
ìłĦ ìŀ¬
el f
m an
ë² ¤
Ġ2 8
ce pt
ĠC ount
ìĹĲìĦľ ëıĦ
Ġ2 7
Ġê° ĸ
Ġìº Ĳ
ìĿ¸ íĬ¸
Ġë¬´ëĭ¨ ìłĦìŀ¬
Ġê ¶Į
ìłĢìŀĳê¶Į ìŀĲ
Ġê·¸ëŁ¬ ëĤĺ
Ġle ft
Ġw ell
Ġm et
ê¸° ê°Ģ
Ġs ur
ìĦ¸ ë¥¼
ì ¿ł
Ġ ent
ĠìĭľìĬ¤ íħľ
Ġìļ ©
Ġg ener
Ġ6 5
Ġì¤ĳ ìĭ¬
Ġb el
Ġ5 0
at her
ĠëĪ Ħ
ĠìĻ ķ
ì° ©
a h
ur al
ëĿ¼ ìĿ´
Ġm us
2 5
ĠíĺĦ ëĮĢ
an k
ë¡ľ ëĤĺ
Ġa ver
Ġus e
Ġad d
is ion
Ġë ¸Ķ
íħ Ĳ
er t
ëĤ¬ ëĭ¤
ë¦¬ ê°Ģ
ì¸ ¡
e nd
iz e
ĠíĹ Ī
ord ing
ë§ ģ
ĠI s
íı Ń
Ġìłģ ìļ©
Ġíķ´ ìĻ¸
ìĿ¸ ëĭ¤
Ġê°ģ ê°ģ
e c
Ġëĭ¤ ìĭľ
ê³ ¡
Ġm ain
ê°Ģ ëĬĶ
ĠìĨĮ ë¹Ħ
ëıĦ ë¡ľ
l ished
ê° Ī
ĠìĺĪìłķ ìĿ´ëĭ¤
ĠìĤ° ìĹħ
Ġâĸ ³
ë§ ī
Ġin f
1 1
aus e
ual ly
Ġh igh
ot her
Ġê°ķ íĻĶ
ĠìĪĺ ìĿµ
Ġê¸° ê°Ħ
Ġìµľ ê³ł
Ġíı Ń
Ġíķĺ ì§Ģë§Į
ì¹ ¨
ëį ¸
ëıĦ ë¥¼
Ġc ensus
Ġë ľ
íļĮ ìĿĺ
ëħ Ĳ
Ġë Ł
Ġê¸° ë°ĺ
og raph
ê² ¨
ĠìĽ Ķ
ê°ľ ìĽĶ
ìľĦ ë¥¼
ĠìĿĺ íķ´
ter s
ìĬ¤ ìĿĺ
Ġ ,
ĠíĻķ ìĿ¸
Ġaver age
Ġo b
ĠìłĦ ì²´
Ġthe se
Ġì²ĺ ìĿĮ
Ġìľł ì§Ģ
Ġfamil y
ì¦ Į
íĨµ ìĭł
ĠìĿ´ ìĹĲ
íĶ ½
Ġv ar
Ġb oth
Ġê ±¸
ìķ Ļ
Ġì° ¾
Ġo per
Ġ19 5
Ġì¤ĳ ìļĶ
Ġê·¸ ìĿĺ
Ġë³´ íĹĺ
a ir
Ġê°Ĳ ìĨĮ
íĸĪ ìľ¼ë©°
Ġs ign
ĩ ¼
ìŀ¥ ìĿ´
ì½Ķ ë¦¬ìķĦ
ical ly
Ġl and
ìĿ´ëĿ¼ ë©°
r on
Ġh ist
ĠìĥĿ ê°ģ
ro w
p en
ĠëĨ į
l u
Ġë³ ĳ
am es
Ġìŀ ĺ
iel d
he n
Ġle ad
i ent
ction s
Ġìķ ¼
ê±° ëŀĺ
Ġì¶Ķ ì§Ħ
u ro
Ġst yle
Ġcall ed
Ġch ar
i ew
ì¹ĺ ë¥¼
v ed
ë¶Ģ ë¶Ħ
ĠìķĦëĭĪ ëĿ¼
ĠêµŃ ìłľ
Ġpres ent
ì² ł
Ġê·¸ ë¦¬ê³ł
Ġë° ±
ĠíĤ ¤
ëĭ¤ ëĬĶ
Ġ20 20
ĠS h
a z
ĠE ng
ĠëĮĢíķľ ë¯¼
íģ ´
íĤ ¨
c on
Ġs m
íĨµ ëł¹
Ġmed ian
Ġ2 9
íĮ ¨
Ġê¸ Ģë¡ľë²Į
Ġse ver
Ġor ig
Ġ Â
p r
Ġìĺģ íĻĶ
ëĭ¬ ëŁ¬
Ġe very
ĠCount y
Ġg rou
Ġìĭ¤ ìłģ
Ġgovern ment
Ġe arly
o y
iv ed
Ġì§ Ī
Ġìĺ¤ ëĬĶ
ëĦ ·
ĠêµŃ ë¯¼
Ġo wn
Ġth ose
M A
c ess
Ġìłľ ìŀĳ
ĠëĲ ł
íĶĦ íĬ¸
ĠìłĦ ëħĦ
Ġm on
Ġw rit
ë°Ķ ìĿ¼
u c
ìĭľ ìĹĲ
¿ Ĳ
Ġë¹ ł
ìĨ Ĳ
ĠW h
ĠìĬ¤ ë§ĪíĬ¸
Ġëī´ ìĬ¤
ëĵ¤ ê³¼
Ġê²½ ìŁģ
Ġëį° ìĿ´íĦ°
ĠI nd
ìĿ¼ ê¹Įì§Ģ
ëĵľ ëĬĶ
Ġnum ber
Ġê°Ģ ê²©
Ġë°© ìĭĿ
Ġë© ´
% ,
ĠìĦ¤ëªħ íĸĪëĭ¤
ê¸° ëĬĶ
Ġì£¼ ìĭĿ
Ġch ild
il ity
êµĲ ìľ¡
l ish
ĠìĿĢ íĸī
Ġs er
Ġ Z
íģ ¼
Ġst ate
ë¶Ģ ëĬĶ
Ġê°Ģ ìŀħ
Ġ ~
íĬ ¹
ers on
Ġap pe
ìĿ´ ì§Ģ
Ġe ff
Ã ©
ĠëĤ´ ìļ©
Ġre le
ìłķ ë³´
ib le
Ġê³µ ê°ľ
ìļ´ ëį°
Ġ200 0
ë° Ģ
ëŀ «
aj or
ĠíĶĦë¡ľ ê·¸ëŀ¨
ìĽĲ ìĿĦ
íĦ ¸
Ġìĸ´ ëĸ
a x
le y
¤ ëĭ¤
im es
oh n
ìłĲ ìĿĦ
u nd
a id
ìĿ¼ ìĹĲ
iv id
ëħĦ ë¶ĢíĦ°
ìĹ ¼
Ġs chool
= "
ĠA n
in n
Ġn ame
Ġìĺ ¨
Ġc re
Ġê¸° ëĬ¥
u ch
Ġcent ury
ìĿ¸ ìĿ´
ro l
Ġinc ome
Ġìłķ ì±ħ
ĠB rit
Ġì± ħ
ĠìĥĿ ìĤ°
Ġar t
ĠëĮĢ íĨµëł¹
ĠW ar
ment s
ìĦ¼ íĦ°
ìĻ ķ
ê¸° ìĪł
ëŁ¬ íķľ
ìĿ¼ ë¶ĢíĦ°
Ġê°Ģ ìļ´ëį°
2 4
ĠìĿ¸ íĦ°
Ġcon st
Ġd ire
ê° Ļ
el s
e x
Ġ ed
ìĤ ´
Ġê¸° ê´Ģ
Ġë ´
ĠìĹĨ ëĬĶ
Ġ [
t il
Ġì§ģ ìłĳ
ì¹ ľ
os ed
ĠìŀĪëĭ¤ ëĬĶ
ĠìĦ± ê³µ
ĠìŀĪ ìĹĪ
Ġì¹ ľ
Ġíķľ íİ¸
Ġa ut
f ul
ê¸Ī ìĿĦ
Ġê´Ģ ë¦¬
Ġsec ond
íĦ ´
ìłľ ë¡ľ
Ġcont in
ìĤ° ìĹħ
ĠG erm
ire d
Ġa ir
Ġë ĳ
Ġ4 0
Ġë¶Ħ ìķ¼
Ġíŀ ĺ
Ġë³´ ê³ł
e p
v en
Ġt erm
ĠìĿĺ ë¯¸
Ġf our
Ġm in
I L
Ġí ĮĢ
ra ct
. <
Ġp ublic
Ġë £
ĠìĤ¬ ìĭ¤
ĠìĹ Ķ
ì²ĺ ëŁ¼
ìĬ ¬
ëł¸ ëĭ¤
Ġë³ ¼
ì¹ Ń
Ġì ¼
Ġì² ľ
ĠF ran
ain ed
Ġdif fer
Ġl ong
íķľëĭ¤ ê³ł
Ġ201 0
íı ¼
am ed
ìĬ¤ íģ¬
Ġbe fore
as h
Ġun til
ìĬ Ī
ëĭ ¥
Ġ19 3
Ġë§Ī ëł¨
Ġo cc
ê¸° ê´Ģ
Ġì ħ
ìĬ ¨
Ġs im
ur ch
ì º
Ġ )
ë§ ¹
us s
ê² Ģ
ĠìĻ¸ êµŃ
ì £
ìĬµ ëĭĪëĭ¤
a i
Ġs ame
ëªħ ìĿĺ
ĠëĮĢ ë¶Ģë¶Ħ
ìĭľ íĸĪëĭ¤
íĸĪ ëįĺ
ĠìŀĲ ëıĻ
Ġspe c
ĠëıĦ ìŀħ
ĠC on
Ġsever al
d er
ĠëĮĢ íķĻ
íķĺ ê²łëĭ¤
ivers ity
Ġëľ »
pe nd
ìķ Ķ
ë³´ íĹĺ
Ġê³ ³
Ġêµ¬ ì¡°
i er
íĭ Ģ
r ist
Ġ :
Ġëģ Ŀ
ìĽĲ ìĹĲ
ĠíĻ į
ë¨ ¼
Ġìŀ¬ ë°°íı¬
p an
ĳ ¸
ëł Į
ar m
ê°ľ ìĿĺ
en n
Ġì ĵ°
E MA
2 1
ëıĦ ê°Ģ
ĠíĶĦ ëŀĳ
Ġf l
Ġëª© íĳľ
ant s
i um
e b
ì§Ħ ëĭ¤
Ġë³ Ħ
Ġsh ow
ĠJ ohn
ê³ ³
Ġìµľ ì´Ī
Ġí Ľ
ë¦¬ ìĹĲ
t ing
EMA IL
ë ĳ
p or
ĠëĶ° ë¥¸
ìĭ Ń
Ġdis c
ĠëĤ ł
s on
ë¡ ¯
Ġcomp le
ĠìĿ´ ëŁ¬íķľ
ìŀĲ ë¡ľ
Ġrec ord
Ġd ay
ul ar
Ġíļ¨ ê³¼
2 3
íļĮ ìĤ¬
Ġres id
Ġëª¨ ë°ĶìĿ¼
Ġìĸ »
ros s
is ed
Ġ íķĺê³ł
Ġì ī
Ġdes ign
in c
Ġres ult
ëŁ¬ ìĬ¤
g et
ê¸° ë¡ľ
íħĲ ì¸ł
Ġcon c
as on
Ġcomm un
ì¹´ ëĵľ
Ġm ajor
Ġold er
uro pe
ë¦ ´
k s
Ġagain st
Ġìķ Ķ
v ent
an ge
6 0
u ed
olog y
Ġìŀĳ íĴĪ
Ġb ro
y p
ĠìĿ¸ íķ´
Ġsupp ort
Ġë¯¸ ëŀĺ
ìĭľ íĤ¤
ëŀ« íı¼
ĠC ol
ian s
ëĭ Į
Ġë¶Ģ ë¶Ħ
íļĮ ë¥¼
ìĬ¤ íĥĢ
en e
Ġoff ic
o ber
te nd
ìĹ° êµ¬
te xt
il la
ê² ĥ
4 0
ĠS c
íĺ ģ
Ġë§ ī
ĠìĪĺ ëıĦ
Ġc ould
ìĪĺ ë¥¼
Ġì£¼ ìŀ¥
Ġìĥģ íĥľ
ê°Ģ ì§Ģ
Ġê¸ ¸
Ġ201 5
Ġfem ales
Ġë¬¸ íĻĶ
ĠíĻ Ī
į ¨
cc ess
Ġ201 8
ĠìŀĪ ìĿĦ
m y
ĠìĬ¤ íĥĢ
Ġê³Ħ ìķ½
Ġìľ ¡
ion al
ìĿ¸ ìĿĦ
in a
Ġpart ic
ìĿ¸ ìĿĺ
ëĲĺ ì§Ģ
Ġê³µ ëıĻ
u es
8 0
ĠìĿ´ ìłĦ
2 2
ìłĦ ìŀĲ
ĠíĻĺ ê²½
Ġn on
Ġíķ µ
ĠH is
Ġm ake
ë´ ī
ak ing
íķ ĳ
Ġì½Ķ ë¡ľëĤĺ
Ġìĭľ ì¦Į
ĠìĹ° ê²°
Ġl arg
ar ge
ĠÂ ©
ĠìĦł ìłķ
Ġê°Ĳ ëıħ
ĠìĿ´ ë
ĠëıĦ ìĭľ
ill ion
ìĦľ ë¥¼
Ġê³Ħíļį ìĿ´ëĭ¤
í ĥģ
Ġìĺģ êµŃ
Ġìĸ´ ëł¤
Ġ201 7
Ġë° Ģ
Ġs ince
ìĽĲ ìĿ´
Ġn ear
Ġper form
Ġw orld
Ġ201 4
it al
íı¬ ìĿ¸íĬ¸
ëªħ ìĿ´
th ough
Ġê³µ ê²©
ĠThe re
Ġë°© ìĨ¡
are d
Ġde p
Ġê°ķ ì¡°
Ġê· ¹
Ġ201 6
Ġê´Ģ ìĭ¬
íļ ¨
b le
ëıĦ ìĿĺ
Ġ Q
ĠO n
ĠP ro
ëı Į
Ġof ten
ë°Ķ ìĿ´
ê³ ¨
ë¡ľ ëĬĶ
Ġpro g
Ġê³ł ëł¤
Ġê³ ¨
ì£¼ ëĬĶ
Ġìķ ħ
ëł¥ ìĿ´
Ġsm all
ìļ ±
Ġw ill
i od
ìĽĲ ìĿĺ
Ġë§ ¡
ĠìĦľë¹ĦìĬ¤ ë¥¼
Ġë²Ī ì§¸
ĠìłĦ êµŃ
Ġb ack
ĠìŀĲìĭł ìĿĺ
ëªħ ìĿĦ
ĠCom m
ëĶĶ ìĺ¤
ìĪĺ ê°Ģ
ĠE urope
ar n
Ġëĸ ¨ìĸ´
ìĸ´ ëĤĺ
Ġìľł ëŁ½
Ġí ĭ
ã ģ
Ġan n
r id
Ġl ine
ìĬ¤ ë¥¼
r ing
Ġë³´ ìľł
Ġinc re
Ġ if
Ġì £
l l
Ġs ing
iv es
" )
ìĻ Ķëĭ¤
ìĿ´ ìŀĲ
is ter
Ġcons id
Ġê³¼ ìłķ
Ġd id
ê·¸ ë£¹
arri ed
Ġm il
Ġ3 1
ĠA t
Ġbe gan
he s
ìĤ ¼
ĠìĦ¤ ë¦½
Ġs ize
ìŀĲ ìĤ°
ĠìŀĪ ê³ł
Ġo pen
Ġë°Ķ ìĿ´
Ġë£ ¨
Ġëıħ ìĿ¼
¾ ¸
ìłĦ ìĿĦ
Ġre f
Ġchild ren
ĠíķĻ ìĥĿ
Ġë°Ľ ìķĦ
Ġíı Ĳ
en g
Ġë² Ķ
ir d
ric t
ĠìĹŃ íķł
Ġex t
Ġdes c
Ġì¢ħ ëª©
ìĦľ ë¹ĦìĬ¤
ĠA f
Ġì¦ ī
om an
ê ´
ëĭĪ ìķĦ
íĬ¸ ë¥¼
r is
ĠëŁ ¬
re t
Ġê¸°ë¡Ŀ íĸĪëĭ¤
Ġest ab
ĠëĮĢ ì¶ľ
Ġê³Ħ ìĨį
ìĬ¤ íĦ°
ĠìķĬ ìĿĢ
ìłľ ë¥¼
Ġíĸ Ī
ĠíļĮ ìĤ¬
Ġe ach
Ġì§Ģ ìłģ
Ġìĺģíĸ¥ ìĿĦ
ĠëĪ Ī
A s
ang u
Ġíģ¬ ê²Į
Ġs oc
ìŀ Ī
Ġinclud e
Ġal ong
Ġchar act
ĠìķĬ ìķĺëĭ¤
ë ·
ĠìĹħ ë¬´
Ġìŀ ¡
ĠìĦł ë³´
Ġíĥ Ħ
ĠëĬ Ĳ
âĢ Ķ
ĠìĿ ĳ
Ġìĭľ ëĮĢ
b um
Ġì¡´ ìŀ¬
Ġ vers
ĠB e
ĠM ar
ĠìĦł íĥĿ
ĠI I
Ġp ass
ë¡ľ ë¶ĢíĦ°
ĠíĶĮ ëŀ«íı¼
Ġë¨ ¸
ag es
Ġê° Ī
Ġê°ľ ìµľ
Ġí ľ´
Ġì¤Ģ ë¹Ħ
Ġpol it
et s
Ġì°¨ ì§Ģ
Ġë³´ ìĿ¸ëĭ¤
Ġ( "
ì ¢
ìķĪ ìĿĦ
Ġapp ro
Ġre ce
° ëĭ¤
ê°Ģ ë¥¼
i k
Ġìĺ¤ ë¥¸
ë ¯
ĠìĹ´ ë¦°
t al
un e
Ġl ife
Ġë§İ ìĿ´
Ġì¦ Ĳ
ĠìĹŃ ìĭľ
ëĮĢ ë¹Ħ
Ġëª¨ ëį¸
Ġë§Įëĵ¤ ìĸ´
Ġìłķ ì¹ĺ
ëħĦ ê¹Įì§Ģ
Ġë°Ľ ìķĺëĭ¤
ê´Ģ ë¦¬
ìķ¡ ìĿĢ
7 0
ì¹´ ìĺ¤
ĠâĢ ĵ
Ġa round
Ġ201 2
Ġmus ic
ëĮĢ íĳľ
s hip
ê°Ģ ê°Ģ
ëĪ Ħ
t o
ĠìķĬ ê³ł
Ġê²½ ìĺģ
Ġë¸Į ëŀľëĵľ
g g
Ġin s
Ġê³µ ê¸ī
Ġw ater
Ġìļ° ëł¤
iss ion
ì½ ¤
ul l
Ġ201 9
ĠìĺģìĹħ ìĿ´ìĿµ
Ġbec ause
ivid ual
ìĽĲ ìľ¼ë¡ľ
Ġor gan
ìĿ¸ ìĿĢ
Ġsu ccess
Ġ201 3
re ad
ĠìļĶ êµ¬
Ġt rad
; "
Ġser ies
ov e
Ġh ome
ĠìĿ´ ë²¤
at ic
Ġl arge
ìĹ Ħ
al ign
la ck
ĠëĮĢìĥģ ìľ¼ë¡ľ
ì§Ģ íĦ¸
Ġí Ħ
Ġê ¼
ìĻĢ ìĿĺ
k m
y n
ain s
2 6
ëĿ¼ ìļ°
ìĸµìĽĲ ìľ¼ë¡ľ
í ĩ´
ic es
ëħĦ ëĮĢ
9 0
ĠíĻ ©
Ġêµ¬ ì¶ķ
ut e
ìĭĿ ìĿĦ
Ġë°© ë²ķ
% ),
om et
ìĹħ ì²´
Ġíĺķ íĥľ
il t
ëĬ Ĳ
ch n
ĠìłĦ íĻĺ
ĠW orld
Ġwith in
Ġcl ass
ì¹ĺ ëĬĶ
ĠK ing
ê³¼ ìĿĺ
ê²Į ìŀĦ
ĠìłĦ ëŀµ
i am
con om
ëĶ ©
ĠìĹ¬ ìĦ±
Ġë² Į
ìĿ´ ìĹĪ
ë³ ¼
ĠS chool
ĠH owever
íķľ êµŃ
Ġì» ¨
Ġíıī ê·ł
ì¼ ĢìĿ´
ĠìĹ°êµ¬ ìĽĲìĿĢ
ĠBrit ish
ì ·¨
Ġbu ild
ct or
Ġre qu
p le
Ġíĺ ģ
Ġind ividual
Ġì¡° ìĤ¬
Ġë¹Ħ ë¡¯
in k
íı Ĳ
cc ording
Ġëª¨ ìĬµ
n er
Ġìŀ ł
Ġì¦Ŀ ê¶Į
ìĭľ ì¼
ĠìĹĨ ìĿ´
iv ely
íĸĪ ì§Ģë§Į
Ġf in
Ġret urn
Ġper iod
íĺ ¼
tern ational
Ġì½ĺ íħĲì¸ł
ĠìŀĪëĭ¤ ê³ł
2 8
Ġìĭł ê·ľ
ĠC l
ìĬ¤ ê°Ģ
ĠëįĶ ìļ±
Ġë°ĺ ë©´
Ġgrou p
Ġë°ľ ê²¬
ĠíĶ¼ íķ´
ì į¨
íĿ ¥
ĠM ay
ens ity
ĠThe y
ĠëķĮë¬¸ ìĿ´ëĭ¤
al ity
Ġl g
ì° ¬
Ġfollow ing
Ġal bum
Ġp oint
ê°ľ ë°ľ
emb ers
Ġcomm on
ĠA b
2 7
ìĽ ¨
Ġp ar
Ġm ark
ru ct
ra nd
g y
Ġcon f
Ġìĺ¤ ìłĦ
Ġìĭľ íĸī
ĠìĿ´ ë¯¸
Ġd et
Ġp ower
iv al
ĠíĻķ ë³´
Ġe qu
ëĤĺ ëĿ¼
Ġ201 1
® ¤
Ġl aw
ê¶Į ìĿĦ
res ent
at ely
ren ch
ĠìĦ¤ ì¹ĺ
Ġë ŀ
Ġex amp
if ied
Ġì¹ ¨
pe ct
Ġp ub
g ed
in o
íķ Ħ
2 9
Ġh um
ë°ĺ ê¸°
Ġìĺ¤ íĽĦ
ition s
ì¶ ©
ĠìķĪ ìłĦ
ê¸ ´
Ġw ar
Ġë§Į íģ¼
ìĿĺ ë¥¼
ľ ĺ
oc i
ĠCh rist
Ġc ur
ĠC an
Ġì°¸ ê°Ģ
ã ĥ
Ġìĭ¤ ìĭľ
ĠA d
Ġloc ated
Ġall ow
ìłĦ íŀĪ
Ġm at
ĠP h
Ġdiffer ent
ë£Į ë¥¼
b y
ìŀĲ ìĿ¸
Ġfamil ies
Ġëĵ± ìľ¼ë¡ľ
Ġê³µ ìĭĿ
Ġy ou
Ġê°Ģ ì§Ģ
Ġ4 5
Ġíĥ Ī
ĠìĤ¬ ë§Ŀ
Ġh ous
y l
Ġ200 8
il le
ê³Ħ ë¥¼
ëĶĶ ìĸ´
ro du
ä ¸
ĠAf ric
ëĬ ĺ
ë¥´ ëĬĶ
ro p
ë¦¬ ì¦Ī
Ġëĵ± ìĹĲ
ĠìĤ¬ ê±´
re nt
c l
' ,
Ġcount y
ëĲ Ĳ
ìłķ ë¶Ģ
Ġg u
ĠN orth
Ġ| -
ìĸµìĽĲ ìĿĦ
ĠìłĦ ìŁģ
b o
Ġcol le
Ġp rom
Ġì¡° ìĦł
ëĮĢ ë¥¼
ë¦¬ ì¹´
ĠìĿ´ ë£¨
ìŀ ¡
Ġì½ĶìĬ¤ íĶ¼
Ġd ensity
ìĸ´ ëĤľ
ĠU S
ìĹ ĺ
Ġëĭ¤ìĿĮ ê³¼
Ġb and
ìĤ¬ íļĮ
Ġre st
ĠJ an
Ġd ue
m in
ëĲĺ ë©°
ĠìĿĮ ìķħ
ëıĦ ëĬĶ
Ġì§Ħ ì¶ľ
íĹ Ī
Ġì£ ½
ìĿ´ ìħĺ
ã İ
Ġle g
p ar
Ġl angu
ight s
ìļ ķ
id ed
íĪ¬ìŀĲ ì¦Ŀê¶Į
ĠìŀĲ ì²´
Ġp erson
on y
av ing
Ġr un
Ġê±´ ìĦ¤
ent ly
ĠìĿ¸ êµ¬
ĠC ar
ĠC ent
ĠN ational
Ġ6 0
Ġc ult
m e
ĠìĿ´ ìľł
ĠY ork
m s
Ġre fer
Ġloc al
ìĿ´ ëĵľ
Ġc or
Ġprog ram
i ence
Ġì¡° ì§ģ
Ġìłģ ê·¹
Ġì¹´ ëĵľ
Ġë³´ ìĹ¬
Ġth ough
Ġm embers
Ġm ales
íİ Ģëĵľ
Ġde ath
il y
ëĵ± íķĻêµĲ
ĠíĨµ ìĭł
ë¦¼ íĶ½
íĥ ķ
5 00
Ġn amed
The re
om in
êµ ´
ĠìŀĲ ìľł
¶ ģ
ì¢ Į
ëĤ ¸
ĠíķĻ êµĲ
Ġv al
Ġíĺ ¼
ì³ ¤ëĭ¤
la im
ĠíĽĦ ë³´
Ġë°ľ ìłĦ
Ġê°ĢëĬ¥ íķĺëĭ¤
h or
Ġst art
en ces
ëŁ Ń
Ġê°Ļ ëĭ¤
ĠF rench
it ary
ëł ī
Ġd em
iz ation
Ġë³Ģ íĻĶ
Ġì§Ģ ë°©
Ġb l
ëł ĩ
Ġs aid
ë¬¸ íĻĶ
iv en
ĠëĲ Ĳëĭ¤
Ġë°© ë¬¸
ê¸° ìĿĺ
ì§Ģ ìĹŃ
c om
ĠìĪĺ ì¶ľ
Ġn orth
Ġhe ad
Ġíŀ Ī
Ġte am
Ġì§Ģ ê¸ī
m p
ial ly
os s
ë¡ Ń
ê·ľ ëª¨
Ġë§¤ ìļ°
Ġdesc rib
od e
Ġbo ok
ĠíĴ į
Ġn ow
m ed
Ġli ke
id es
form ula
r ation
ĠëĮĢ ìĿĳ
c o
Ġìłľ ì¡°
Ġim port
ëħĦ ìĹĲëĬĶ
ìŀ¥ ìĿĺ
íĶĦ ëĿ¼
Ġâ Ĺ
ĠíĮĲ ëĭ¨
ìĽ ¨ìĸ´
ëĥ Īëĭ¤
Ġeff ect
Ġ X
ĠíĶĮ ëłĪìĿ´
ĠìĪĺ ìļĶ
Ġre v
Ġì¤ĳ ìĿ´ëĭ¤
ĠíĬ¹ ë³Ħ
Ġf un
Ġ200 9
l ing
b or
ìľ¼ë¡ľ ëĬĶ
ìĹ Ĩ
ìľ¼ ë©´
Ġl ed
ĠJ u
ĠëıĮ ìķĦ
Ġìĸ ¼
Ġê³µ ìĭľíĸĪëĭ¤
ĠìĦ Ŀ
ĠìķĬ ëĬĶëĭ¤
ìŀĲ ëĵ¤ìĿ´
ìĹħ ê³Ħ
Ġpla ce
Ġë¶Ģ ëĭ´
Ġre port
at or
ëī´ ìĭľìĬ¤
Ġë¯¸êµŃ ìĿĺ
ĠíĶĦëŀĳ ìĬ¤
ĠìłĦ íĪ¬
Ġê²½ íĹĺ
o ot
Ġëĭ¬ ëŁ¬
at s
Ġì ¿ł
Ġo pp
oun c
Ġ19 0
v es
ĠëĿ¼ ìĿ´
O n
íķľëĭ¤ ëĬĶ
om en
ĠëĮĢ íļĮ
Ġë³Ģ ê²½
Ġp o
ì§Ģ ê°Ģ
ìĦ¸ ê°Ģ
Ġ es
ĠUn iversity
b s
ëĲĺ ë©´ìĦľ
ĠëĶĶ ì§ĢíĦ¸
ì¹ Ļ
Ġìĥģ ìŀ¥
ìĿĮ ìĿĦ
ri es
Ġl it
ĠìĥĿ íĻľ
Ġst r
Ġrele ased
ĠO r
Ġìłľ íķľ
ĠG e
Ġk t
Ġìī ½
Ġc rit
Ġen g
Ġev en
e y
ĠS he
s h
Ġc our
ê°Ļ ìĿ´
@ <
a f
Ġare as
ìĦł ìĿĦ
19 9
e le
Ġam ong
íķĺ ëł¤
Ġb ased
Ġìłľ ìĻ¸
ĠS outh
ìľ¨ ìĿĢ
Ġcont rol
ìĸ ¼
ĠëĮĢ ìĭł
d ay
Ġë¹Ħ êµĲ
ĠëŁ¬ ìĭľìķĦ
Ġto tal
Ġ200 7
u ary
Ġì§ĳ ì¤ĳ
Ġì§Ģ ìłķ
ĠC ity
íĴ į
Ġë Ľ
Ġst and
ëħĦ ê°Ħ
ĠìĪľ ë§¤
Ġêµ¬ ë§¤
ĠìĿ´ ëıĻ
ĠìĿ´ ëģ
ë¡ľ ìĦľ
Ġê·¸ ë£¹
as es
ĠíĶĦ ë¦¬
es tern
Ġres p
ĠìĬ¤ë§ĪíĬ¸ íı°
ĠíĨµ íķ©
Ġíİ Ģëĵľ
ra ft
Ġg o
Ġin du
íķ´ ìĦľ
Ġê°ĢëĬ¥ ìĦ±ìĿ´
i or
Ġì¢ĭ ìĿĢ
Ġë°ĺ ìĺģ
ol ution
ĠíĹ ¤
ĠíĿ ¬
ìĭ ±
ĠR iver
ĠìķĪ ìłķ
ìĽĶ ìĹĲ
Ġpos s
qu e
ì½ ĺ
Ġm arried
ìĹħ ìĿĦ
ê¸° ê°Ħ
Ġm uch
Ġfem ale
Ġun its
ĠP ar
la y
Ġê· Ģ
Ġform er
iet y
í ľ´
ìĿ´ ìĸ´
Ġê°Ļ ìĿ´
Ġv ot
Ġë³´ íĺ¸
Ġv illa
Ġst ill
Ġì¶ķ êµ¬
Ġëĸ ł
ĠìĿ¸ ìĪĺ
ìĿ´ íģ¬
ë¶Ģ ë¥¼
s c
Ġad v
Ġc ar
Ġs outh
ĠEng lish
ì´ Į
e k
Ġl ast
Ġexamp le
r um
ëıĻ ìĤ°
ëĮĢ ìĿĺ
Ġinf lu
c ing
ìĻ Ħ
Ġì¤ĳ ìķĻ
Ġc amp
Ġe conom
Ġex per
íĮĮ íĬ¸
.. .
ĠìŀĲ ìĤ°
Ġê¸° ë³¸
Ġpro p
íķĺê¸° ë¡ľ
n ess
Ġa v
ĠìķĬ ëĬĶ
ĠìŀĪ ì§Ģë§Į
Ġb us
ĠìķĦ ëĭĮ
ap an
al th
Ġp ort
ìł Ŀ
ëĥ Ĳ
ĠíĬ¹ ì§ķ
Ġpro cess
ìĽĮ íģ¬
Ġëª °
an e
ĠìĹħ ê³Ħ
íĤ ¹
íķĺ ì§Ģë§Į
Ġê±´ ê°ķ
] ]
ug ust
ĠìĬ Ī
ìĤ¬ ìĹĲ
3 5
ì ¿
ìĥģ íĴĪ
re en
ë¦¬ ìĿĺ
Ġë¹Ħ ìļ©
ìĹĪ ê³ł
Ġinclud ed
Ġv is
4 5
id d
ĠA ust
Ġë°° ìļ°
get her
Ġto gether
Ġë¨ ¹
ward s
Ġìķ ķ
o x
od y
Ġbu ilt
ĠW ill
Ġì» ´
ĠíĮ Ķ
Ġë§ Ľ
íķĺ ê±°ëĤĺ
ĠëĮĢíķľë¯¼ êµŃ
Ġë¶Ģ ë¬¸
c ent
er y
en cy
Ġìķ ±
at a
Ġcharact er
ĠìĿ´ë ¤Ħ
he m
ĠS p
ë¶ Ļ
Ġto ok
Ġì§Ģ ê¸Ī
ìŀ¥ ìĹĲìĦľ
ĠìĨ Ķ
Ġwh at
ĠP r
Ġhist or
ëĮĢ ì¶ľ
ĠA ir
ĠìĿ¸íĦ° ëĦ·
Ġë§ŀ ì¶
ì° ¸
ë¦¬ ê·¸
ition al
' (
ìĦ± ê³¼
Ġf act
ĠN ov
ĵ ¨
Ġì ĩ¼
o ok
Ġì£¼ ë¡ľ
íıī ê°Ģ
íĹ Į
Ġë ¿Ĳ
ĠGerm an
ĠM us
ĠìĿ¸ ëıĦ
ì£¼ ê°Ģ
ê´Ģ ìĿĢ
ìĽĢ ìĿĦ
ĠA fter
Ġìĥģ ëĭ¹
ëĿ¼ ëıĦ
ĠëĽ °
lo y
Ġw ay
Ġìĸ´ëĸ ¤
a e
íĿ ¬
ľ íĥĿ
Ġê°Ģ ì§Ģê³ł
Ġt it
Ġë¦¬ ê·¸
Ġ4 4
ograph y
Ġëĵ± ìŀ¥
Ġê³¼ íķĻ
Ġê¸ ´
ë¥´ ê²Į
ëĦĪ ì§Ģ
Ġpopul ar
ì¼ ĵ
am ent
ëĭ¤ ê³ł
Ġì¤ĳìĭ¬ ìľ¼ë¡ľ
ounc il
ĠìĨ ¡
Ġê°ķì¡° íĸĪëĭ¤
ìĦ¸ ê¸°
Ġ200 6
Ġf re
Ġt em
Ġë§Ī ê°Ĳ
Ġìĭł íķľ
ĠA ugust
ìķ ¤
ĠìĪĺ íĸī
Ġì§Ģ ë¶Ħ
Ġn ational
Ġcount ry
re w
ìĤ¬ ìĻĢ
ê¸Ī ë¦¬
ĠìŀĪ ê²Į
ĠìĿ¸ ìłķ
ìķ ķ
Ġì£¼ íĥĿ
ã Ĥ
ìŀĲ ëĵ¤ìĿĢ
Ġì¤ĳ ìĨĮ
ĠëĤ ľ
Ġì²´ ê²°
Ġbel ie
íĻĶ ëĲľ
ĠW est
w ork
ë² ¨
Ġìķł íĶĮ
7 5
Ġíĺĳ ëł¥
es e
Ġs ong
Ġus ing
ì§Ģ ìĹĲ
ìĪĺ ìĿĺ
ĠĠ Ġ
ĠA m
Ġìĭł ì²Ń
íķĺ ëıĦë¡Ŀ
Ġìĥģ ëĮĢ
ëıĻ ìķĪ
ĠL at
Ġì¹´ ì¹´ìĺ¤
Ġrep resent
Ġhe ld
íĬ¸ ëĬĶ
Ġë°ľ íĸī
ĠìĦ ¼
ĠíķĦìļĶ íķľ
ĠëĬ ¥
ëĮĢ íķľ
ĠJan uary
Ġë°Ľ ìĿĢ
Ġl ate
Ġê² ©
Ġ very
ê¹ Ģ
Ġj ust
íĬ¸ ë¦¬
3 3
ë¬¼ ìĿĦ
pt ember
ĠO ct
Ġëħ¸ ëł¥
ì§Ģ ìĽĲ
ĠìĹ° ìĨį
ed er
Ġë¬¼ ë¡ł
Ġìĭľ ë¦¬ì¦Ī
ĠìĹŃíķł ìĿĦ
op h
Ġ6 4
ĠìĹħ ì²´
ĠìľĦ ìĽĲ
ro te
Ġì¤ĳìļĶ íķľ
ur g
ëį ķ
Ġele ct
ìĸ¸ ë¡ł
ìĤ¬ ë¡ľ
ìĥ Ī
in ess
Ġr ad
Ġresid ents
Ġst at
íı ´
Ġd own
e ad
ĠM arch
Ġ202 1
ot t
ì ĩ¼
ìŀĦ ìĿĦ
ĠìĦł ê±°
ĠìĽ Į
ĠìĿ´ ìķ¼
Ġíķł ìĿ¸
ìĥģ ìĿ´
ì ĵ°
Ġíĭ °
Ġëĭ¤ ë§Į
ĠJ une
ĠìĿĺ ê²¬
ìĹĲìĦľ ìĿĺ
) '
ĠThe se
m ber
ĠëĮĢíķ´ ìĦľëĬĶ
Ġíĺģ ìĭł
ëıĻ ìĿĦ
Ġp ost
rib ut
ĠJ apan
ìłķ ì±ħ
ĠM an
Ġs l
o le
Ġra ces
Ġp at
ëĵľ ë¥¼
ë¶Ģ ìĹĲ
in ing
ĠE d
i us
ĠìľĦ íĹĺ
e pend
Ġe l
Ġëª ĩ
Ġê°ĢëĬ¥ íķľ
ĠíĦ °
Ġev ent
S t
Ġh and
Ġ7 0
Ġte chn
Ġì§ĢëĤľ ëĭ¬
ĸ ìĹĲ
Ġìķŀ ìĦľ
3 6
ëĲĺìĹĪ ìľ¼ë©°
ĠSe ptember
í Ľ
Ġìļ° ìĬ¹
Ġestab lished
Ġìłľê³µ íķľëĭ¤
ĠìĨĮ ìĨį
Ġt yp
ãĢ Ĭ
ëŁī ìĿĦ
ĠJu ly
ìķ½ ìĿĦ
Ġpub lished
ìķ Į
l ine
Ġíķµ ìĭ¬
at tle
Ġë¹Ħ íķ´
ìĬ¤ ìĻĢ
Ġis s
Ġsh ort
en se
Ġan other
ri pt
ê°Ĳ ìĿĦ
as ter
ĠìľĦì¹ĺ íķľ
ĠíĨµ íķľ
íħĶ ëłĪ
ĠëĨĴ ìķĦ
ĠOct ober
Ġpolit ical
íķĺìĺĢ ê³ł
ë ľ
Ġì½ĶìĬ¤ ëĭ¥
¢ °
ĠëıĻ ìĭľìĹĲ
ĠìłĦ ìŀĲ
íĶ Ī
pr il
ê· Ģ
s ide
ìĿ´ ê°Ģ
Ġë°Ľ ìĿĦ
ĠëĤĺíĥĢ ëĤ¬ëĭ¤
Ġhist ory
Ġì¹ĺ ë£Į
Ġë³´ ê¸°
Ġê³µ ê°Ħ
l er
í Ĥ¬
Ġëī´ ìĭľìĬ¤
Ġ &
Ġt r
ë¯ Ģë¡ľ
un ic
Ġì£¼ ëª©
Ġìµľ ì¢ħ
ur ther
ë¶Ģ ìĿĺ
ìĿ´ ë²Ħ
Ġc are
3 1
Ġh ig
ëŀĢ ëĵľ
Ġ3 5
Ġg reat
Ġì¶Ķ ìłķ
ak es
å ¤
ce mber
ëł µ
ĠìĦ± ê³¼
Ġë´ ī
Ġc laim
Ġa ff
ĠìĿ´ ëŁ°
ì ī
ì§Ģ ë§ī
ĠìĿ´ íĥĪ
ê³¼ íķĻ
ì½ ľ
Ġì°½ ìĹħ
Ġë°ľ ë§¤
ĠP ark
ĠíĴ Ī
ĠìŀĲ ê¸Ī
B C
íĬ ľ
Ġ199 0
ìĦ¸ ëĮĢ
ìĿ´ ë²Ī
Ġc ou
± ħ
ĠìĹŃ ìĤ¬
ë¦¬ ì§Ģ
ĠRe p
ĠëĲĺ ëĬĶ
Ġhousehold er
g es
ìŀĲ ëĵ¤ìĿĺ
che s
em pt
ĠP ol
Ġconsid ered
Ġì¶ľ ìĭł
ë ¢°
ĠìłĦë¬¸ ê°Ģ
Ġìĭ ±
Ġe ar
Ġorig inal
9 9
Ġë¹Ħ ì¤ĳ
ëŀ Ĳëĭ¤
ëĨ į
íĶĮ ëłĪìĿ´
ĠA pril
Ġ8 0
Ġmod ern
Ġí ĩ´
op e
l or
Ġhous ing
Ġê°Ģ ì¡±
Ġë³´ ìķĪ
íĶĦ ë¡ľ
Ġ /
ìľĦ ìĹĲ
ir c
ëĭ Ŀ
Ġê¸Ī ë¦¬
or ies
ard s
Ġsing le
í ĵ¨
ë§ ¥
4 8
Ġê²° êµŃ
ìĬ¤ ë¡ľ
Ġìłķ ëıĦ
Ġíķ´ ê²°
Ġf ac
ĠëĮĢíķľë¯¼ êµŃìĿĺ
Ġs w
ëĲĺìĹĪ ê³ł
Ġindividual s
ĠDe cember
ĠWh ite
ĠíĶĦë¡ľ ìłĿ
ê°Ĳ ìĸ¸ë¡ł
un g
ì» µ
ra y
íĬ¸ ìĽĮíģ¬
3 8
Ġëıħ ë¦½
í ĳ¸
Ġê·¸ ëħĢ
Ġt ri
Ġê³µ ê³µ
ìĿ´ ì¦Ī
Ġf ive
¤ ëŁŃ
p ed
Ġrece ived
d e
Ġem p
Ġhe l
Ġpre v
Ġse ason
ëĮĢ íķĻ
st er
Ġê² ¬
ĠAl l
Ġë§Į ìĹĲ
ëĤĺ ëĬĶ
iv ing
ĠíķŃ ê³µ
ëĭ ĺ
Ġorig in
ëĭ µ
ê²½ ìłľ
ë¦Ń íĦ°
b e
Ġk b
au gh
Ġê³ ¡
ëĿ¼ìļ° ëĵľ
ĠìŀĲëıĻ ì°¨
ĠB y
Ġl im
T h
Ġëħ ¹
Ġê°Ģ ì§Ħ
ĠëĦĺ ìĸ´
Ġë³´ ëĭ¤
ĠG u
Ġmil itary
Ġbec ome
Ġìĭ¤ ìłľ
ĠíļĮ ë³µ
Ġíĺķ ìĦ±
ĠìĪĺ ìĥģ
ëª °
ìŀ¥ ìĹĲ
Ġë¨ ¼
ìŀħ ëĭĪëĭ¤
¤ëŁŃ ìĭľ
il ar
ë²Ī ì§¸
iv il
t i
h am
Ġê³µ ëª¨
Ġ200 5
Ġíı ´
Ġro le
ĠëĮĢíĳľ ëĬĶ
6 5
Ġdis p
Ġserv ice
ë¶Ģ ê°Ģ
Ġg ame
Ġf ore
ĠìĿĮ ë°ĺ
Ġë¶Ģ ìĤ°
Ġí į¼
Ġê·ľ ìłľ
Ġch ang
ĠìłĦ ê¸°
Ġdevelop ment
Ġíĳľ íĺĦ
ëŀ Ļ
b an
ĠB ro
Ġle vel
Ġëį §
ĠNov ember
ìŀĲ ìĻĢ
Ġê±° ìĿĺ
íŀ Į
Ġë¶Ģ ì¡±
Ġê ¾¸
Ġíĸ¥ íĽĦ
Ġindu st
Ġgener al
Ġë¶ģ íķľ
å ®
2 000
ĠìŀĲ ìĹ°
ë§ Īëĭ¤
ãĢ ĳ
ure d
ìĦ¸ ê³Ħ
ìĪ Ļ
ìľĦ ëĬĶ
s k
Ġë°© íĸ¥
ore d
Ġcomp any
Ġatt ack
ru ction
Ġë§ ¥
Ġê³µ ìĹ°
im ate
Ġíĺ ľíĥĿ
s elf
Ġw rote
Ġt er
Ġf ew
Ġw ord
Ġëĳ ĺ
ĠëĲĺ ìĸ´
ë£¨ ìħĺ
ìŀ¥ ìľ¼ë¡ľ
ĠCh ar
Ġê´Ģ íķľ
al f
ìĺ¤ ëĬĶ
3 7
ĠëĤĺ ìĺ¨
Ġë§Ī ì§Ģë§ī
ĠGe or
ãĢ ī
Ġmon th
ĠH ar
Ġì°¾ ìķĦ
ë¨¸ ëĭĪ
Ġë°Ľ ê³ł
Ġor der
ë¹ Į
b all
Ġin it
êµ° ìĿĺ
Ġíĸī ìłķ
ìĭľ ëĬĶ
Ġsign ific
ìĨĮ ë¥¼
ĠìķĬ ìķĺ
Ġì Į
Ġì´Ī ê¸°
al d
Ġë°Ķ ë¡ľ
íħĶëłĪ ì½¤
Ġs ix
ë ¿Ĳ
Ġ ident
ëĭ ī
Ġm illion
Ġ198 0
ĠìºĲ ë¦ŃíĦ°
Ġvilla ge
å ħ
Ġdire ct
ë¹Ħ ìķĦ
ëģ ¼
Ġs ol
ë ķĮ
Ġ202 2
ĠíĻľ ìĦ±
íķĺê¸° ëıĦ
ìĽĶ ë¶ĢíĦ°
Ġvar ious
le t
h od
ĠëĮĢ íĺķ
ĠCan ad
l ess
s p
Ġte le
Ġ er
ì¹ ł
Ġaut hor
Ġpr im
Ġl ess
Ġë¶Ģ ëıĻìĤ°
land s
l in
ì ĩ
ist ed
Ġt our
ì£ Ħ
ìļ´ ìļ©
Ġìĭł ìļ©
ìľ¼ë¡ľ ëıĦ
íļĮ ëĬĶ
Ġpro te
Ġìĺ¬ ë¦¼íĶ½
ëĮĢ íķĻêµĲ
Ġd el
Ġìļ° ìĦł
Ġc over
os p
ìľ¼ë¡ľ ìį¨
Ġb as
ìĿĢíĸī ìĿĢ
Ġpro f
8 5
Ġê±° ì³Ĳ
ìĿ´ ë¥¼
ëĿ¼ ë§Ī
ĠìłĦ íĨµ
íħ į
3 4
Ġg iven
ne y
le ct
Ġp ract
ìĽĲ ìĹĲìĦľ
Ġwith out
Ġe p
ĠëıĻ ìĿ¼
Ġë§Į ëĵł
Ġbe g
Ġëģ Į
í ľĺ
Ġm ag
b and
ĠWill iam
Ġreg ion
Ġìĭ ¶
v ille
ĠìĦ¤ ê³Ħ
3 9
ĠíĿ Ĳ
ĠíĬ¹ ìłķ
ìľ¨ ìĿ´
ì¼Ģ íĮħ
m it
Ġint rodu
Ġëį§ ë¶Ļ
C h
Ġd r
6 4
ëĨ ĵ
Ġì°¸ ìĦĿ
Ġìķ ¡
ĠìĿĺ ë£Į
ìĦ± ìĹĲ
Ġëª ¸
ì¹ĺ ê°Ģ
7 7
tend ed
Ġì° ©
d om
Ġì Ķ
ì ¤Ħ
et er
Ġ ide
Ġëħ¼ ìĿĺ
ìļ´ ëĵľ
Ġinv ol
Ġt urn
her n
Ġë³¸ ê²©
ĠìĤ¬ ê³ł
ì¶ ĺ
íĻĺ ê²½
Ġëĭ Ī
og n
Ġm en
ur s
re et
an ces
Ġíĸī ìĤ¬
ĠëĤ´ ëħĦ
Ġimport ant
v ision
on es
ist ory
Ġë¡ ¯
Ġ200 4
ĠíķĦìļĶ íķĺëĭ¤
8 8
Ġê¸ Ģ
Ġíĥ ĳ
olog ical
Ġëħ¸ ëıĻ
ĠC al
ĠìĻ Ģ
ĠAfric an
Ġìłľ ê¸°
Ġìľ ¤
as tern
íĬ¸ ë¡ľ
Ġto p
Ġê¸° íĥĢ
ond on
æ Ŀ
ëª ¬
ĠìłĦ ëĭ¬
Ġìľł ëªħ
ĠìĿ´ë£¨ ìĸ´
ĠíĻķ ìĤ°
ìłĦ ìĹĲ
ê² ¼
ĠëĮĢ ì²´
Ġc aus
íĨ ¤
Ġv iew
ìł ł
Ġë¡¯ ëį°
it her
Ġs old
íĺ Ģ
ê´ ´
Ġëĭ¬ ë¦¬
ëĵ¤ ëıĦ
Ġra ce
Ġcom b
ì» ´
Ġë¹ Į
íħĮ íģ¬
ĠíĻĪ íİĺ
Ġìĥ ī
Ġê³ł ìļ©
ĠìŀĲ ë¦¬
Ġc ame
ëĮĢ ìĹĲ
íķĺ ìĿ´
ĠìĹ Ħ
ìĥĿ ëªħ
ĠìĦ ¬
ìĶ ©
ìº Ĳ
Ġrep la
ĠS w
ĠR uss
Ġprodu ction
Ġre al
Ġìĸ¸ ê¸ī
ĠìĿ´ íķ´
ĠìķĦ ì§ģ
Ġne ed
a pe
m m
ĠìĽ ¹
ëī´ ìĬ¤
Ġl a
Ġê·ľëª¨ ìĿĺ
ĠĠĠĠ ĠĠĠĠ
Ġíı¬íķ¨ íķľ
íĽ Ī
Ġê²ĥ ìĿ´ëĿ¼ê³ł
Ġf ield
ë¦° ëĭ¤
est ed
ê±´ ìĦ¤
ë² ½
ĠH igh
Ġw on
est s
ĠëĨ ĵ
ort hern
op s
Ġ5 00
ìĭľìĬ¤ íħľ
Ġê´ĳ ê³ł
Ġìĸ´ ë¦°
Ġm ult
ëŁī ìĿ´
ĠM c
ir on
Ġplay ed
ê¸° ì¤Ģ
ê±° ë¦¬
st it
Ġsim ilar
inn ing
ëĵ¤ ìĹĲ
ĠìŀĪ ëįĺ
ì£¼ ë¥¼
or por
Ġê²Ģ íĨł
Ġìº ł
Ġal one
Ġê°ľ ìłķ
3 2
ìĭľ ìĦ¤
Ġìĭľìŀĳ íĸĪëĭ¤
Ġcommun ity
Ġ197 0
Ġëĭ´ ëĭ¹
ìŀĲ ìĹĲê²Į
Ġíĥ ĢìĿ´
se qu
e g
Ġlangu age
ĩ Į
ì» ¬
Ġê¸° íļį
in ation
Ġa i
Ġê¸°ì¤Ģ ìľ¼ë¡ľ
ãĢ Ĳ
eb ru
íı¬ ì¸ł
ĠP art
c hed
ĠìĬ¤ íİĺ
ot s
Ġìļ´ ëıĻ
ëĭĪ ìĬ¤
ab ly
ebru ary
Ġserv ed
ë°© ìĨ¡
ëĿ¼ ë©°
ìĿ¸ ê³¼
Ġsoc ial
Ġbel ow
Ġì¼ ĢìĿ´
Ġê¸° ì´Ī
Ġê¸° ëħĲ
Ġìļ° ìĪĺ
íķĺ ìŀĲ
êµ¬ ì¡°
4 4
8 9
ĠAs s
Ġëį§ë¶Ļ ìĺĢëĭ¤
ent ion
Ġìŀ¥ ê¸°
t ain
m b
er ing
ĠR oman
is on
Ġs on
Ġ9 0
Ġìłľ ìĭľ
Ġsh ip
Ĭ ìĿĢ
ĠE x
ĠL ondon
Ġìĺ¬ ëĿ¼
oun ced
Ġì¶ľ ìĹ°
ĠìķĦ ìĭľìķĦ
Ġdevelop ed
Ġpres ident
Ġs um
Ġg row
Ġl ow
Ġì¤ĳ ìĿ¸
Ġíķĺ ìĺĢëĭ¤
ĵ Ĵ
ë¬¸ ìĿĦ
Ġatt empt
ìĿ¸ ìľ¼ë¡ľ
íķĺ ëįĺ
Ġcon d
Ġb re
ìŀ¥ ê³¼
Ġìĺ¤ íĶĪ
Ġar g
Ġìłĳ ê·¼
Ġr ate
ĠìłĦ ìĿ¼
ĠìĤ¬ ë¡Ģ
Ġs it
ĠSt ate
Ġëī´ ìļķ
ë¦¬ ìĺ¤
Ġs omet
Ġë°ĺ ìĿĳ
Ġlarg est
Ġë§¤ ê°ģ
ert ain
ìĥģ ìĿĺ
Ġcur rent
he re
ther n
pe cial
Ġass oci
Ġê°Ģ ê¹Į
Ġsignific ant
7 6
íĭ ´
Ã ¡
ĠìķĦ ëŀĺ
ri end
ĠF ebruary
Ġë ĥ
Ġh owever
Ġê³µ ìľł
ree k
8 6
ìĸ´ ë¥¼
Ġspec ies
ĠIt al
Ġed uc
ĠìĿ´ëģ Į
ĠìĿ´ë²¤ íĬ¸
Ġê´ĳ ì£¼
Ġpro ject
Ġcre ated
ĠìĨĮ ê°ľ
Ġm y
ĠS y
Ġê¸° ìĹ¬
ag ue
n s
Ġê·¸ ëŀĺ
ë¡Ń ê²Į
ìĬ¤ íĨł
Ġre du
ĠìŀĲ ê¸°
ĠìĿ´íĥĪ ë¦¬ìķĦ
Ġg en
is c
Ġ200 3
Ġëĭ¨ ê³Ħ
Ġë°Ķ íĥķ
o f
ìĸ´ ë¡ľ
ĠëĤ Ļ
ĠíĴ Ģ
Ġhum an
Ġìłľê³µ íķĺëĬĶ
ì§Ģ ìĿĺ
ìłľ ê°Ģ
Ġê³¼ ê±°
f ord
ĠìłĦ íĸĪëĭ¤
íĭ ±
Ġ18 9
Ġ1 000
Ġh aving
ëıĦ ìĹĲ
Ġact iv
êµŃ ìĿĢ
al k
Ġìłķë¶Ģ ëĬĶ
ĠìĹħ ì¢ħ
ou thern
ëĮĢ ê°Ģ
Ġíİ ¼
ë ĺĲ
Ġappe ar
ìĦ¸ ëĭ¤
ì£¼ íĥĿ
Ġì£¼ ê°Ģ
Ġíļ į
Ġì´ ī
Ġd iv
Ġì¢ħ íķ©
Ġg r
ìĹĨ ìĿ´
ìļ° ìĬ¤
ĠíĹ Į
ĠìĽ Ģ
ĠE l
Ġpro per
r ont
ìħ ĭ
Ġ3 2
m ost
ìĦ± ìĿĢ
Ġrel ig
Ġcontin ued
ĠCh urch
ë© ĺ
Ġê°Ĳ ìĹ¼
ĠëĦ¤ íĬ¸ìĽĮíģ¬
ä º
n a
Ġg e
Ġal though
Ġst ruct
8 4
Ġìľł íĨµ
Ġar ch
w h
z e
unic ip
Ġ i
Ġbe h
ĠRep ublic
rid ge
ìłľ íĴĪ
ĠìłĦë§Ŀ ìĿ´ëĭ¤
ĠR o
Ġd ied
Ġì¹ ¼
Ġì½ ľ
Ġë¯¼ ê°Ħ
Ġìļ´ ìļ©
ĠìļĶ ì²Ń
ĠEurope an
ì²´ ìĿ¸
a ul
Ġëı Ī
Ġdescrib ed
ìķĦ ìĿ´
Ġë¹ ħ
ì² Ļ
ĠìĿ¸ ê°Ħ
Ġs ent
ëį° ìĿ´íĦ°
Ġì¦Ŀê°Ģ íĸĪëĭ¤
at t
5 5
way s
Ġìłķë³´ ë¥¼
Ġìŀ Ķ
ë ±ħ
% (
Ġk ill
ing ton
ìĺ ¥
Ġìŀĳ ìĿĢ
ĠìłĦ ëĤł
Ġí ĳ¸
ĠB ar
Ġman ag
ì§Ģ ë¡ľ
Ġìĭľ ìłĪ
ìĸ´ ëĬĶ
ĠìĿ¼ë°ĺ ìłģìľ¼ë¡ľ
Ġë¶Ī ê°Ģ
ë¥´ íģ¬
ĠC o
ak en
ĠA nd
Ġs our
íļĮ ê°Ģ
y pe
p l
âĢ ¦
Ġë°ĺ ëĮĢ
ist ic
êµŃ ë¯¼
ĠëĶ°ëĿ¼ ìĦľ
ìŀĪ ëĬĶ
6 6
ê° Ķëĭ¤
Ġth ird
ìĬ ·
ĠìĨĮ íĶĦíĬ¸
c er
ent ial
ĠãĢ Ī
Ġc r
Ġ202 3
ĠìĤ¬ ëŀĳ
Ġf urther
Ġëĵ± ë¡Ŀ
Ġë¶Ħ ë¥ĺ
Ġd est
Ġt imes
Ġì¤ĳ ëĭ¨
us ed
Ġ200 2
Ġì±Ħ ê¶Į
ë³¸ ë¶Ģ
1 00
ê²½ ê¸°
ĠìĹ¬ ìłĦíŀĪ
íķĺëĬĶ ëį°
ì¦ ĺ
ìĭľ ìĿĺ
ìĺĢ ëįĺ
ĠS u
ë· Ķ
Ġ z
ë¹ Ī
ìľ¼ë¡ľ ë¶ĢíĦ°
4 7
ĠìĿ¸ íķľ
p art
r ated
idd le
Ġprev ious
ĠìķĦ íĮĮíĬ¸
íĨµìĭł ìĤ¬
Ġê² ª
n ect
> )
ĠìĹ ĺ
Ġ202 4
ĠM in
ë¥´ ê³ł
Ġrel ations
ff ic
ĠëĤ® ìĿĢ
Ġê²ĥ ëıĦ
form ation
Ġìľł ìĤ¬
ĠìŀĪëĬĶ ëį°
íĻ Ģ
Ġíĥ Ĳ
ê°Ĳ ëıħ
ì½ ©
Ġj o
ìłĲ ìĿ´
Ġsome one
íĸĪëĭ¤ ëĬĶ
Ġê²° ìłľ
ĠíĻķ ìŀ¥
Ġra il
Ġê°Ģ ë§¹
Ġsh ould
Ġìķ ¨
ĠP res
ĠE ast
et work
at ures
Ġprodu ced
íĻĶ ê°Ģ
ìķ ŀ
8 7
Ġì¤Ħ ìĸ´
Ġì£¼ ë³Ģ
Ġw omen
Ġre ad
ĠìĽĶ ëĵľ
ĠìĹ¬ íĸī
ie f
ĠT own
Ġê²½ ì°°
ìĦ ¬
ĠìķĬ ìĿĦ
Ġsu gg
ĠS te
ë¥ł ìĿ´
ener al
Ġl ab
ìĭľ ê°Ģ
Ġv ol
Ġíĳľ ì¤Ģ
ĠëĦ Ī
ĠìĺĪìĥģ ëĲľëĭ¤
ê°Ģ êµ¬
Ġëĭ µ
t v
ìĨĮ íĶĦíĬ¸
Ġ196 0
av y
4 9
ë§ĮìĽĲ ìľ¼ë¡ľ
Ġ3 6
ìłĦ ë¬¸
ĠH er
D P
Ġv ac
Ġspe cial
o on
ëĳĲ ê³ł
Ġt ake
ëªħ ìľ¼ë¡ľ
ìħ Ķ
Ġë§Ī ì¼ĢíĮħ
ëłĪ ìĬ¤
Ġoffic ial
it a
ĠëĤ¨ ìķĦ
êµ¬ íķĺê³ł
ì°¨ ë¥¼
Ġt w
Ģ ëĭ¤
ĠìĽĢ ì§ģ
ìľĦ ë¡ľ
> ,
Ġë³´ ìĺĢëĭ¤
le ar
Ġë¬ ĺ
ĠëĳĲ ê³ł
ĠëĤ´ ë¶Ģ
v al
Ġm ater
Ġê¸°ìĪł ìĿĦ
íĸĪ ìľ¼ëĤĺ
it ive
ì£¼ ìĭĿ
ĠëĤ ©
ĠìĿ¼ ìłķ
Ġë¹Ħ íĮĲ
Ġbus iness
Ġst ates
ĠìķĬ ìķĦ
Ġìĸ´ ëłµ
Ġse par
Ġre se
Ġë°Ķ ê
ĠíĽ Ī
ë¥ Ļ
ìĿ´ ê¸°
us band
Ġë¬´ ë£Į
ì» ¨
t ic
Ġf ather
Ġì¡° ìłķ
Ġì¢ Į
ou te
Ġëĭ¬ ìĦ±
ĠìĿ´ë¦Ħ ìĿĦ
am b
Ġìļ ¸
A ccording
Ġm er
ìĩ Ħ
Ġìłľ ìķĪ
ĠFran ce
ĠB o
Ġíķĺ ë£¨
c raft
Ġcou p
Ġliv ed
Ġind epend
íĵ¨ íĦ°
ìħ Ģ
Ġì§ģ ìĽĲ
Ġê³¼ìłķ ìĹĲìĦľ
Ġr ight
Ġ200 1
ĠìĿ´ ìĻĢ
êµ° ìĿĢ
íĿ Ĳ
7 9
Ġì¶ľ ìłĦ
ĠìĦľ ë¡ľ
ë¥ł ìĿĦ
ĠíĿ ĳ
íļĮ ìĹĲìĦľ
ìłľ ëĬĶ
ëĭ¨ ìĿĢ
re g
ĠEng land
ëĲĺ ë©´
Ġë¨¼ ìłĢ
ay s
Ġc ase
Ġìŀĳ ìĹħ
Ġde b
ë³Ħ ë¡ľ
Ġs ide
Ġì°¨ ëŁī
ìĹ° ê¸Ī
ĠW hen
Ġì²ĺìĿĮ ìľ¼ë¡ľ
Ġde v
ĠìŀĲ ë³¸
Ġíģ´ ëĿ¼ìļ°ëĵľ
n ow
et h
ab ility
Ġsk íħĶëłĪì½¤
ĠD uring
Ġf inal
ol ic
ific ation
Ġfe ature
Ġh ost
Ġê²° íķ©
Ġìłľ ì¶ľ
ĠA ng
Ġh usband
u le
Ġbuild ing
ĠìĨĮ ìŀ¬
ìĹŃ ìĤ¬
Ġc irc
ìŀĲ ë¦¬
ìĬ¤ ì½Ķ
ì£¼ ë¡ľ
ìĪĺ ë¡ľ
Ġd ra
Ġì¡° ê±´
ĠìĿ¸ ìĥģ
Ġmake up
ĠH ouse
Ġë°Ķíĥķ ìľ¼ë¡ľ
Ġr ul
Ġë ¯
ĠCom p
H istory
Ġì¡ ¸
4 6
g er
ĠìĿ´ ê²ĥ
ë¹Ħ ë¥¼
ĠPh il
ĠAust ral
( -
im ately
i ation
íģ Ĳ
ac hed
Ġë¬´ ìĹŃ
ë ®¤
oc r
u ck
ĠSe c
ìĿ´ ìĿĺ
Ġìĸ´ ëĬĲ
ĠíĨµ ê³¼
ĠìĨĮë¹Ħ ìŀĲ
ëĮĢ ëĬĶ
ap er
f or
ë¦ ¿
5 000
ĠìĿ´ ìĿµ
us h
ìĽ ĢìĿ´
ë° į
ĠíĿ Ķ
Ġë¹Ħ ìĬ·
ĠìķĬ ëĭ¤
íķŃ ê³µ
Ġì¦Ŀê°Ģ íķľ
ent al
Ġë¶ Ļ
íĺ ľ
. '
Ġe ast
ad em
Ġpr iv
Ġyou ng
ë¯¼ ì£¼
Ġìłľ ëıĦ
Ġë¸Ķ ë¡Ŀ
at ural
ĠìłĦ ìļ©
Ġë°© ì¹¨
íķ Ģ
ìĨ Ķ
ĠìĤ¬ ì§Ħ
Ġwrit ten
ìľ¨ ìĿĦ
Ġìłķ íĻķ
re am
Ġì ı
Ġus ually
Ġw est
Ġvers ion
ĠëĮĢ ìłĦ
ë· °
Ġê³Ħ ìĹ´
ìĥĿ íĻľ
A n
Ġme an
at ter
ãĢĳ <
ê²© ìĿĦ
Ġì¶© ë¶Ħ
Ġne xt
ĠëłĪ ìĿ´
âĢĻ ,
Ġìłķë¶Ģ ê°Ģ
Ġother s
Ġì§Ģ ë°°
Ġmov ed
íĬ¸ ëĤ¨
Ġ3 00
Ġcomp et
Ġdo es
ë° ĸìĹĲ
Ġra cial
ĠëĦ ĵ
ĠìĺĪ ìĪł
Ġne ver
ĠìĤ¬ìļ© íķł
ĠUn ion
Ġpos ition
Ġìĺ¬ ëŀĲëĭ¤
ëĵľ ë¡ľ
Ġb ody
Ġì°¸ ê³ł
Ġwork s
ëıĦ ì²´
6 9
íĨ ¡
Ġe t
ì§Ģ ëĤľ
Ġm ember
íĸĪ ìĿĦ
ìĿ¼ ìĿĦ
Ġìĭľ ìĦ¤
Ġf ail
ĠìłĦ ë°ĺ
Ġpart y
ê² ł
Ġl ight
G e
Ġëĭ¨ ìĪľ
êµŃ ìĿ´
íĬ¸ ìĿĺ
Ġì²ĺ ë¦¬
ĠìķĦ ëĭĪëĭ¤
Ġê¸°ëĬ¥ ìĿĦ
ĠìĿ¸ ìĭĿ
Ġday s
Ġof fer
Ġë°ľíĳľ íĸĪëĭ¤
Ġb est
ĠP e
A l
Ġë ¥
ĠìĤ¬íļĮ ìłģ
ĠCol le
ìĿ´ ì§Ģë§Į
Ġann ounced
Ġì§Ģ ëıĦ
Ġëħ¼ ëŀĢ
Ġëį° ë·Ķ
ëł ´
Ġë¹ Ī
Ġë³´ ë©´
Ġac ross
Ġstr ong
f ield
. >
Ġ3 3
a ff
ĠìķĦ ë²Ħ
Ġex ist
6 7
â ĵĴ
ĠO ne
ìŀ¬ ë°°íı¬
Ġê³µ ê°Ĳìĸ¸ë¡ł
Ġëī´ìĭľìĬ¤ íĨµìĭłìĤ¬
ĠD av
ìĿ´ ìĹĲ
Ġë¶Ī êµ¬íķĺê³ł
ìħ ľ
ëĭ¤ ê°Ģ
ĠíĺĦ ì§Ģ
Ġì§Ģ ëĤĺ
Ġm ot
Ġìľł ìłĢ
Ġìĺģ ìĹŃ
íķĻ ìĥĿ
Ġìĺģ ìĥģ
êµ¬ ë¥¼
į ìłķ
ìłĲ ìĹĲìĦľ
Ġle t
Ġì§Ģ íķĺ
ĠìĬ ¬
min ist
Ġstud y
ĠëĦ £
Ġk e
íĺĳ íļĮ
ê¸° ìĻĢ
ĠëĦ¤ ìĿ´ë²Ħ
as ing
Ġph ys
5 9
Ġë©Ķ ëī´
are nt
Ġear li
Ġrec ogn
Ġg ood
ac y
ĠíĻķ ìłķ
Ġprodu ct
ĠâĹ ĩ
at ors
6 8
ê³ ¤
ĠAmeric a
Ġë§ Ŀ
Ġë³´ ìŀ¥
Ġsp ace
um ent
ĠìĿ¸ ì¦Ŀ
ĠN e
an a
Ġë§Īê°Ĳ íĸĪëĭ¤
ap p
Ġìłķë¶Ģ ìĿĺ
Ġ3 4
Ġêµ° ìĤ¬
Ġ ur
Ġìħ Ģ
ant ed
Ġadd ition
Ġpres s
Ġê³µ ìłķ
ìľ¼ë¡ľ ìĦľ
20 20
Ġë§¤ ìĪĺ
Ġê°Ģ ìłķ
å Ń
ĠH ol
ĠD ist
Ġìķŀ ìľ¼ë¡ľ
Ġì§Ģ ì§Ģ
ĠìĪ Ļ
Ġst ation
Ġcount ries
Ġê±´ ë¬¼
ëħĦ ìĥĿ
um b
en ced
p ite
Ġmet hod
ìĽ ĥ
Ġê¸°ë°ĺ ìľ¼ë¡ľ
Ġmater ial
ĠìĹ° ë°©
Ġk ing
ort s
ul arly
íķĻ ê³¼
ì¹ ¼
ë¡ ¤
Ġin ternational
Ġcomm and
ĠN ative
Ġform ed
¹ ìĿĢ
Ġì±ħ ìŀĦ
. â
ìĤ¬ ìĹĲìĦľ
Ġt reat
i ber
íĸĪ ëĬĶëį°
id ence
u el
Ġê¼ ½
Ġìłķ ìĿĺ
Ġm ale
Ġë¶Ħ ìĸĳ
ain ing
Ġele ction
ĠS ome
Ġë§Į ëĤĺ
Ġbro ad
Ġm ust
F A
íĺ Ī
ë¥ł ìĿĢ
Ġn ov
i ol
Ġê° ¤ëŁŃìĭľ
ê ¶ģ
ĠìĿ´ íķĺ
ĠìĿ¼ë³¸ ìĿĺ
u f
ĠíĻĪíİĺ ìĿ´ì§Ģ
Ġhim self
ib r
Ġíļį ëĵĿ
ìĹ ĩ
ĠìķĮëł¤ ìł¸
ĠìĨĮíĶĦíĬ¸ ìĽ¨ìĸ´
Ġë¡ľ ë§Ī
om b
íķĺ ëĤĺ
ĠëĬĲ ëĤ
Ġì§ĢìĨį ìłģìľ¼ë¡ľ
Ġê·¸ ëłĩ
Ġâ Ķ
Ġê² ¸
ìĨĮ ëħĦ
ĠV al
íĶĦ ë¦¬ì¹´
Ġë¸Į ëĿ¼
Ġìµľì´Ī ë¡ľ
ĠRe g
Ġfun ction
ëį ´
Ġemp loy
ìĭľ ìĺ¤
ãİ ¡
Ġtown ship
t a
Ġ199 9
ĠíļĮ ìĿĺ
ëĤ´ ëĬĶ
Ġìŀĳ ìļ©
ĠíĮ ¬
Ġìŀ¥ ê´Ģ
y d
is ing
Ġm aking
ìĬ¤ ìĹĲ
íĺĦ ìŀ¬
ord er
Ġê¸ įìłķ
ĠìĿ´ ìĤ¬
re st
ĠìĦł ë°ľ
êµ¬ ìĿĺ
Ġìī½ ê²Į
oy al
Ġgrou ps
íķĺìĺĢ ìľ¼ë©°
8 3
ĠìĪĺ ëĬĶ
Ġë¬¸ìłľ ê°Ģ
Ġstud ents
le x
ĠìĤ¼ìĦ± ìłĦ
ĠìłĦ ìĭľ
Ġh old
ĠëĮĢ ê·ľëª¨
Ġë¯¼ ì£¼
g en
Ġfor ces
Ġw id
Ġíķľëĭ¤ ëĬĶ
Ġh alf
Ġëĵľ ëĿ¼ë§Ī
ìłģ ìĿĦ
ê°Ļ ìĿĢ
ëĭ¨ ìĿĦ
Ġì±Ħ ëĦĲ
ĠìĤ¬ ìĥģ
Ġan c
ĠìĦ¤ ìłķ
ìĪĺ ë£Į
7 4
ĠA ct
íĻĶ ìĹĲ
ëıĦ ìĭľ
» ê²Į
as k
Ġì»¤ íĶ¼
´ ëĵľ
Ġpro ble
Ġë¶Ģ ì§Ħ
Ġw in
le ment
Ġoff ice
I I
ĠìĨĶ ë£¨ìħĺ
Ġëĵľ ëŁ¬
Ġp ain
ìĦł ìĿĺ
ìĦ± ìŀ¥
ar ies
Ġro ck
Ġê² ¨
Ġre n
ìĸ´ ëĤ¬ëĭ¤
ĠêµŃ ë°©
Ġh ow
Ġë³´ íĨµ
æ ľ
Ġs ite
Ġê°ģ ì¢ħ
ĠA ccording
Ġan im
ê°Ģ ê²©
ìĹĪ ëįĺ
ĠíĶĦë¦¬ ë¯¸
7 8
qu are
ĠìĤ¬ìĹħ ìĿĦ
Ġ202 5
Ġor d
Ġë²Ħ ìłĦ
ë¶Ī ìĸ´
ë§Į ìĿĺ
os ition
Ġìĭ¤ ìłľë¡ľ
Ġì°¨ ë³Ħ
Ġe ither
ìĿ¸ ëį°
ìŀĲ ê¸Ī
Ġreport ed
Ġag re
e f
Ġm ass
ë¶Ģ ë¬¸
ill s
) âĢĻ
Ġfre qu
Ġë°©ìĭĿ ìľ¼ë¡ľ
Ġìĭľ íĹĺ
B S
Ġìľł ìĿ¼
ĠìĿ¸ ê³µ
Ġst e
Ġë¶Ģ ìłķ
Ġb i
ĠëĮĢ ì¤ĳ
Ġìĥģ íĺ¸
Ġpol ic
ģ .
Ġëª¨ìĬµ ìĿĦ
ĠT e
ĠJ ew
Ġmark et
ì§Ģ ëĬ¥
ĠAb out
ĠS an
Ġsystem s
ĠP al
ĠëıĻ ê¸°
Ġë§Ī ìĿĮ
ĠìĤ¬ìļ© íķĺëĬĶ
u k
ë§Į ìĹĲ
ĠP l
Ġf ull
ĠM ed
Ġì¦Ĳ ê¸¸
ë§ĮìĽĲ ìĿĦ
ëĭ¨ ê³Ħ
ar a
ëįĶ ëĿ¼ëıĦ
Ĳ ìĿĺ
ĠChrist ian
ìĨĮ ëĵĿ
Ġê·¸ ëŁ°
íĬ ¼
Ġeng ine
ì¹ ¸
Ġìµľ ìĨĮ
ë¬´ ë¥¼
Ġocc ur
Ġme as
ìĦ± ìĿĺ
ĠêµŃ ë¦½
Ġì ĵ
ĠëĤ´ ëł¤
ĠìĶ ¨
Ġëĳ Ķ
Ġëĭ¨ ì²´
an c
ĠM e
Ġìĭľ ë¯¼
Ġt re
Ġr ather
ĠìĿ¸ ë¬¼
ĠìĤ¬ìĿ´ ìĹĲ
ì¼ĢìĿ´ ìħĺ
id s
lo od
Ġê°ķ ëł¥
ì² ¨
5 4
ĠìĿ´ ëĭ¬
Ġìĸ´ëĸ »ê²Į
ê³ł ë¥¼
s y
Ġê·¸ ë¦¬ìĬ¤
Ġob s
Ġschool s
ì¤Ģ ëĭ¤
ìŀ Īëĭ¤
Ġp ri
Ġìĥģ ìľĦ
6 3
Ġf und
ĠP er
Ġ3 9
Ġê¾¸ ì¤Ģ
ìĿ¸ íĦ°
Ġ199 8
ìľĦ ê°Ģ
Ġê´Ģ ê´ĳ
Ġìķŀ ëĳĲê³ł
ê°Ģ ìĿĺ
Ġì¶Ķ ì²ľ
ë¡ľ ëĵľ
Ġê°ĸ ê³ł
ĠâĶ ģ.
íķĻ ìłģ
ì§ ľ
ĠêµĲ íĨµ
ë¶Ģ ìĻĢ
Ġb lack
ĠëĤĺ ê°Ģ
Ġopen ed
our s
ìĭľì¼ ľ
ìĨĮ ëĬĶ
ĠB lack
ines e
Ġê°ľ ìĿĺ
Ġê·¸ ê²ĥ
h ib
inc ip
ĠìłĲ ìĿĦ
ĠS ch
ow s
Ġíķ© ë³ĳ
Ġìĭ ¸
ĠëĤ´ ë¦°
7 2
ĠìĿ´ ë¡ł
ĠìŀĪ ê¸°
Ġtit le
ĠëĤĺ ìĺ¤
íĺĦ ì§Ģ
Ġav ail
ict ion
Ġëĵ± ìĿĢ
ĠB er
Ġë§ º
a ign
Ġf riend
pecial ly
Ġimp ro
ĠGeor ge
c ast
Ġë² ¤
8 2
Ġì¡¸ ìĹħ
ìŀĲ ìĹĲ
ìĿ´ ìĤ¬
ĠD em
ĠìĹĲ ëĦĪì§Ģ
Ġfollow ed
ĠW e
Ġm id
íĭ° ë¸Į
ë°ĶìĿ´ ìĺ¤
et ic
íĺ ¹
Ġw ife
Ġd er
Ġen c
ĠëĮĢë¶Ģë¶Ħ ìĿĺ
ì¤ĳ ìĹĲ
ëĭ¨ ì²´
Ġcare er
7 1
w are
ìĦ °ëĭ¤
Ġc ivil
' t
Ġan al
if y
Ġì¸¡ ë©´
f ic
ì§Ģ ì§Ģ
ĠìĤ¬ ìłĦ
ë´ ĩ
Ġêµ¬ ì²´
Ġar r
ĠìĤ¬ ë¬´
ĠëĮĢ íķĻêµĲ
Ġì§ĢìĹŃ ìĿĺ
Ġê·ľ ìłķ
t t
ĠInd ian
ê¸Ī ìĿĢ
em ents
ĠìĿ¸ ì²ľ
ĠìĹĨ ìĹĪëĭ¤
ĠìĿ´ ëĵ¤ìĿĢ
ëĭ¤ ë¥¸
ĠIn ternational
Ġexp ress
ĠìŀĦ ëªħ
Ġw ent
ëĭ¨ ìĿĺ
ĠAr my
ê° Ĵ
Ġë°° ëĭ¹
Ġëħ¸ ëŀĺ
ĠAs ian
Ġse en
ĠH en
ê³Ħ íļį
ĠL a
Ġro ad
Ġì§ĳ ê³Ħ
ĠT V
Ġê°ľ ëħĲ
Ġë§İ ëĭ¤
Ġte xt
Ġì²´ íĹĺ
íĻĶ êµŃ
ëĤĺ ëĭ¤
ĠìĹ° íķ©
ìĹĲ ìĦł
ĠìĹ ¼
ë¨¼ íĬ¸
Ġsu per
ê´ Ħ
Ġob ject
ĠìĿ¼ ìľ¼
ĠC ouncil
Ġc ost
ìĶ¨ ëĬĶ
± ±
ĠíĻľëıĻ ìĿĦ
Ġìŀ¥ ìķł
Ġìµľ ìłĢ
ìļ¸ ëŁ¬
ĠìĤ¼ìĦ± ìłĦìŀĲ
ê³Ħ ìķ½
ĠGerm any
ê´Ģ ê³Ħ
Ġappe ared
Ġinv est
Ġserv ices
Ġt ru
ip p
5 6
½ ĥ
ë¦¬ ìĻĢ
ers hip
ĠíĿ ¥
ĠëįĶ ë¶Īìĸ´
Ġf ire
ĠL ou
ĠìĨĮ ìľł
wo od
Ġrecord ed
om m
4 2
Ġíķĺ ìĿ´
Ġìłľ ì£¼
ìĨĮ ê°Ģ
ê ¼
7 3
Ġì£¼ ë¯¼
ĠìĪĺ ìŀħ
Ġgener ally
ens ive
ëŁ¬ ìļ´
ro wn
an cy
e um
Ġì»´ íĵ¨íĦ°
ëŁ ´
Ġë ®¤
ĠëĤĺ ëĿ¼
Ġsp read
Ġtele vision
ëŁ¼ íĶĦ
ĠPart y
ĠHis pan
Ġ[ [
ĠëĶĶ ìŀĲìĿ¸
ìĭ¤ ìĿĦ
Ġme et
ĠG reat
Ġf ree
ro ad
ĠDist rict
ar ily
Ġë¶Ģ ìĹ¬
ĠìĹ° ê°Ħ
Ġìĥģ ë°ĺê¸°
Ġì£¼ ëıĦ
Ġë§Ī ìĿĦ
ud e
Ġthrough out
ķ ħ
ìķĪ ìłĦ
ë©Ķ ëĿ¼
Ġst ory
" ),
4 1
ëł ¬
Ġë¹Ħë¡¯ íķ´
Ġíķĺ ì§Ģ
ĠìķĦ ëĵ¤
c le
Ġapp oint
ì¡° ìłķ
ĠìĦł ë¬¼
Ġg round
Ġ199 7
Ġle ast
ìĻ Ķ
Ġg rad
ìĸ´ ê°Ģ
Ġrem ained
ë³´ ê³ł
8 1
Ġcoup les
ìĥģ ìĹĲ
ĠíĹĪ ìļ©
. ,
Ġì§ ķ
Ġtem per
ĠíĶĦë¡ľìłĿ íĬ¸
ĠJ ames
it ing
Ġìĺ¤ ëĬĺ
ì¼ ľ
r ight
ĠìĿ¸ ê¸°
ë¯¸ êµŃ
Ġl ist
Ġst ar
ra in
Ġìĭ¤ íĮ¨
ĠìĻ¸êµŃ ìĿ¸
6 1
Ġd ata
Ġê²° íĺ¼
ĠCh ina
ĠR es
Ġpl an
f ace
ì§Ģ ë©´ìĦľ
Ġë¬¸ìłľ ë¥¼
Ġê´Ģìĭ¬ ìĿĦ
ìĭľíĤ¤ ëĬĶ
o ff
ìĥ ¤
Ġì¼ Ģ
f amil
4 3
Ġm unicip
Ġsub ject
n ing
Ġn etwork
ap t
Ġí Ģ
w est
a ut
Ġë§Ĳ íķľëĭ¤
mer cial
Ġíķ© ìĿĺ
Ġë¹ł ë¥´ê²Į
al t
ra p
he st
ĠíĮĮ ìķħ
¤ ë²Ħ
Ġlit er
y ear
Ġsomet imes
v iron
ëĲĺ ê¸°
6 2
Ġp ot
Ġì§ĢìĽĲ ìĿĦ
Ġê ¶ģ
Ġë§Ī ìĿ´
ĠìĿ µ
Ġë§¤ ëħĦ
Ġreturn ed
Ġs ound
Ã ¶
Ġíķĺ ë°ĺê¸°
Ġê²ĥ ìĿ´ëĿ¼ëĬĶ
Ġë§¤ì¶ľ ìķ¡
ĠM on
ĠêµĲ ìĪĺ
Ġìĭľìŀ¥ ìĹĲìĦľ
ë³´ íĺ¸
ra b
ough t
Ġacc ess
ĠSt reet
Ġrese arch
ë Ģ
r ig
Ġent ire
eder al
Ġset t
Ġëı ¼
Ġêµ¬ ê¸Ģ
m a
Ġab ove
ĠColle ge
Ġter rit
íĻ į
Ġv e
ĠëĶ ¸
ìĽ łëĭ¤
ate g
ic o
ìļ° ë¦¬
Ġc ell
Ġprof ess
Ġ199 6
Ġíļ¨ ìľ¨
ot e
ĠëĮĢ êµ¬
ë³´ëĭ¤ ëĬĶ
5 8
íĶĮ ëŁ¬ìĬ¤
Ġac cept
Ġì¤ĳìĨĮ ê¸°ìĹħ
Ġë°° ì¹ĺ
ĠíķĻ ìĬµ
Ġë°ĶìĿ´ ìĺ¤
Ġdef e
ure au
ê°Ģ ë¡ľ
Ġp red
Ġf ind
5 7
ĠP ort
ëĵ± ê¸ī
Ġìłķ ëıĦë¡ľ
ĠE ar
ĠG eneral
ë²ķ ìĿĦ
Ġcomp ut
Ġfound ed
ê´Ģ ìĿĦ
Ġne g
Ġde g
ĠCh inese
Ġ19 50
ìī ¬
ê°Ĳ ìĿ´
Ġë¶Ħ ìľĦ
ĠìļĶ ê¸Ī
Ġë²ł íĬ¸ëĤ¨
ĠíļĮ ìĽĲ
Ġë¯ ¿
ëĳ Ķ
ce ed
Ġwh ite
ëªħ ìĿĢ
ìķ½ íĴĪ
¿ Ī
ìĥģ ìĿĢ
Ġintrodu ced
Ġc ross
ĠìĤ¬ íĥľ
íļĮ ìĹĲ
g o
ĠìĬ¤ íĨł
Ġë°Ľ ëĬĶ
5 2
Ġê·¸ ë¦¼
Ġ ver
ĠìĤ ¶
ìŀ Ķ
om s
ĠëĲĺ ê³ł
l am
ì§Ģ ìĪĺëĬĶ
ĠĠĠĠ ĠĠĠ
ì¡° ìĽĲ
ì°¨ ìĿ´ì¦Ī
ĠìŀĲ ë£Į
> (
v iew
ĠìķĮëł¤ ì¡Įëĭ¤
ĠS oc
A fter
ì´ ī
Ġë°Ľ ìķĺ
Ġíĺ Ī
Ġposs ible
Ġë³Ģ ëıĻ
Ġocc up
ol it
Ġ3 8
5 3
Ġcap ital
ë©Ķ ëĭ¬
ĠìĻ Ķëĭ¤
ìĪĺ ìĿµ
over ty
> <
ìĹ° íķ©
ĠìĹ¬ ê¸°
ë¦¬ ìĬ¤íĬ¸
ĠìķĮ ê³ł
ĠìĺĪ ìĤ°
ĠP ac
ĠìĹĨ ìĸ´
ĠìĻĦ ë£Į
Ġcon nect
Ġeconom ic
ĠR ich
Ġr ange
Ġë³´ ìĿ´ê³ł
ĠPres ident
ëŀľ ì°¨ìĿ´ì¦Ī
ìĦ¸ ë¡ľ
ch ie
Ġcent ral
Ġb orn
Ġthe ory
Ġíķĺ ë©°
Ġìµľì´Ī ìĿĺ
Ġch ange
Ġacc ount
Ġë°Ķ ëĢ
íĹ ¤
Ġsuccess ful
Ġê°Ģ ìł¸
ê²¼ ëĭ¤
Ġê±° ì£¼
Ġfor ce
one y
ĠìķĦ ë¥´
Ġeduc ation
m ing
Ġes pecially
ĠW ith
i que
ì²´ ë¥¼
ĠC ath
ìļ´ ëıĻ
ĠìĽ ¨
ë§ ¨
ĠìłĦ ìĹĲ
Ġcent er
ĠìĤ¬ íķŃ
er ous
íĬ¹ ë³Ħ
Ġì±Ħ ìļ©
Ġmod el
ĠC our
Ġê·¸ ê°Ģ
Ġterm s
Ġprov ided
ĠíĮĮ íĬ¸
Ġhig her
ìĭľì¼ °ëĭ¤
Ġlead ing
Ġíķ Ģ
Ġê±¸ ì³Ĳ
ìĤ¬ ìĿ¸
ìĭľ íĤ¨
ar ian
Ġíİ¸ ìĿĺ
Ġavail able
ĠìĹ¬ ë¦Ħ
Ġpart s
Ġmonth s
ĠëĬĺ ìĹĪëĭ¤
ĠëĤĺ ëĪ
Ġìŀħ ìŀ¥
Ġ199 5
í Ģ
Ġ3 7
ber t
at ives
Ġìĭł ë¢°
ov iet
5 1
Ġp ur
ì¹ĺ ê³ł
Ġele cted
Ġê²½ ëł¥
ĠìĻ¸ ë¶Ģ
Ġìĺ ®
ĠìĿĮ ìĭĿ
Ġstart ed
ç Ķ
ĠëĤĺìĺ¨ ëĭ¤
ĠHispan ic
Ġreg ard
íķ¨ ìľ¼ë¡ľìį¨
ĠA nt
er gy
Ġl ive
l s
Ġë¶Ī ê³¼
ĠëĨĴ ëĭ¤
Ġìĥ ¤
Ġdisc over
( "
ìłĲ ìľ¼ë¡ľ
Ġcrit ic
ìłĦ ìĹĲìĦľ
Ġcamp aign
ëĤ´ ê³ł
Ġs elf
ĠìĨĮ ìĭĿ
Ġl ost
Ġt aken
Ġg ames
ra g
ì¢ħ ìĿĺ
Ġh on
ĠìĺĪ ë¥¼
ĠíĿĲ ë¦Ħ
ĠíĿ¬ ë§Ŀ
ĠíĨµ íĻĶ
Ġìĸ´ëł¤ ìļ´
ëŁī ìĿĢ
Ġp overty
pan ish
ìł ¤
ë§Į íģ¼
b urg
Ġë°© ìķĪ
p ut
Ġìĸ¸ ë¡ł
Ġë¯¸ ëĶĶìĸ´
Ġ Ð
Ġf oc
ìĽĶ ê¹Įì§Ģ
Ġì·¨ ëĵĿ
ì§Ģ ìĻĢ
ĠR ober
Ä ģ
ĠíĻľìĦ± íĻĶ
ĠìĿ´ìļ© íķł
Ġf av
Ġíĥĳ ìŀ¬
Ġinclud es
Ġev ents
ì ģ
g round
i ke
Ġê´Ģëł¨ íķ´
Ġc ast
ëı Ī
Ġ199 4
ĠìĻĦ íĻĶ
Ġê·¸ ëĮĢë¡ľ
êµ° ìĿ´
. )
ìĹĪ ìľ¼ë©°
ro y
ì§Ģ ìĪĺ
ì°¬ ê°Ģì§Ģ
ĠO ther
Ġëį ķ
íĺ¸ ë¥¼
Ġë² ¨
Ġê²½ìļ° ê°Ģ
ĠíĹ ¬
êµ° ìĹĲ
ĠChar les
Ġt est
ĠL ake
Ġìľł íĺķ
Ġì§Ģìłģ íĸĪëĭ¤
Ġn h
il ities
D em
ĠìĨĮ ëĵĿ
Ġli k
, "
ìĽĲ ê³¼
Ġpro t
it es
ĠM or
ĠN o
ĠëĪĦ êµ¬
Ġinst ead
ĠTh om
Ġf all
st and
Ġon ce
ìĭľ ë¥¼
ĠC ensus
ìĿ¼ ìĿĢ
Ġcult ure
Ġdist rict
Ġì¸¡ ìĿĢ
am a
Ġd oc
Ġëª» íĸĪëĭ¤
ê° ĳ
ĠìĿ´ ëĵ¤
ist or
íķ µ
ë©Ķ ìĿ´ìħĺ
ĠìĹ° ê³Ħ
ĠE n
ìłĦ ëŀµ
Ġla un
Ġëª¨ ì§ĳ
íĻĶ íıĲ
Ġë°ľíĳľ íķľ
e e
Ġt ype
å ı
Ġê ´
Ġêµ¬ íĺĦ
Ġcl os
¬ ìĺģ
Ġex ec
h a
Ġí Ĩ
ell ing
ìĿ¸ ê³µ
ĠìĿ¸ íķĺ
Ġhel p
Ġ199 2
Ġl o
ĠQ u
ìĤ¼ ìĦ±
ĠE mp
Ġë¹Ħë¡¯ íķľ
Ġê²°ê³¼ ë¥¼
ĠG od
ĠëĤ´ìļ© ìĿĦ
ĠCanad a
Ġê±´ ì¶ķ
Ġm em
Ġn atural
ĠìĺĪ ë°©
Ġê²ĥ ìĹĲ
ëĿ¼ ìĿ¸
Ġëªħ ìĿĺ
ì½Ķ ë¡ľëĤĺ
ĠE m
ĠìĹ° ê¸°
ë¹Ħ ìłĦ
ìĹĲ ìħĭ
ê³¼ ëĬĶ
ad es
ìĬ¤ íĭ°
ĠA g
ĠLat ino
Ġìĭľ ëıĦ
it or
Ġbro ther
æ ĸ
Ġr ank
Ġê³ §
ìĦľ ëıĦ
ĠA c
Ġstand ard
ĠM et
ĠJapan ese
Ġg ave
Ġì£¼ ì£¼
ĠB l
ĠD es
re m
Ġres pect
Ġê³Ħìķ½ ìĿĦ
n ot
ĠìĥĿ ìĦ±
Ġcon du
Ġs ch
ĠS m
Ġup on
ì½Ķ ìĬ¤
Ġair craft
íĮ ©
ë§Į ìĿĦ
íķ¨ ìĿĦ
Ġf ig
Ġs aw
Ġë§Ī ì°¬ê°Ģì§Ģ
ĠíĽĪ ëł¨
Ġ #
ĠëŁ °
Ġíĺ ¹ìĿĢ
Ġë© Ģ
ê°ľ ë¥¼
ê²½ ìĺģ
at ory
ĠìĬ¤ ìľĦ
ìłģ ìĿ´
ord s
b al
i ers
ĠëĤ´ ëĨĵ
Ġë°° ê²½
ëĭ¨ ìĿ´
Ġtra ck
êµŃ ëĤ´
Ġkn ow
ĠìĹ¬ ìŀĲ
íĶ¼ ìĸ¸
ĠìĬ¤ íı¬ì¸ł
ì¢ħ ëª©
ì¿ Ħ
ìª½ ìľ¼ë¡ľ
ĠH all
ĠíĺĦ ìŀ¥
ĠìķĶ íĺ¸
c ul
ĠìĿ¸ ê·¼
Ġt en
Ġmov ement
ê±´ ìĿĦ
Ġìŀ¬ ë¬´
Ġcour t
Ġm other
Ġì²Ń ëħĦ
Ġ ip
r or
ĠëĤĺ ìĦľ
ì¤ĳ ìķĻ
Ġìłķ ìĥģ
ë¹ Ļ
li ament
ĠìķĮëł¤ ì§Ħ
Ġëª» íķľ
Ġìĭľ ê°Ģ
ë¡ľ ë¥¼
ìĤ¬ ê³ł
Ġse x
her s
ĠìĪľë§¤ ìĪĺ
Ġ4 9
Ġëª¨ ìĸĳ
Ġì¹ľ êµ¬
Ġconst it
ĠíĬ¸ ëŁ¼íĶĦ
ĠìķĦ ìļ¸ëŁ¬
if orn
Ġcom mercial
Ġits elf
ĠN or
ë²ķ ìĿ¸
Ġíĸī ëıĻ
Ġì£¼ìŀ¥ íĸĪëĭ¤
ĠJ er
Ġê´Ģëł¨ ëĲľ
ĠíĺľíĥĿ ìĿĦ
ìľ ¤
íķ´ ì¡Įëĭ¤
ĠB el
0 1
Ġad minist
ĠW estern
Ġp ark
rough t
v ing
Ġì¡° ìĦ±
ri al
famil ies
ë¡ ±
Ġë§¤ì¶ľ ìķ¡ìĿĢ
Ġì§Ħíĸī íķľëĭ¤
Ġë§Ī ìĿ´íģ¬
Ġëĭ¹ ê¸°
Ġb ase
Ġmult ip
s el
ìĦ¸ ëĬĶ
at ch
Ġre d
ĠC or
Ġìŀ¬ ìłķ
ic le
Ġì²´ ê³Ħ
Ġìĭł ê³ł
ìĬ¤ íħĮ
ĠìĥģíĻ© ìĹĲìĦľ
İ ìĿĢ
Ġpr incip
Ġbec om
Ġë¬¸ ìĦľë¥¼
ìĿ¼ ë³¸
ì¡° ìĤ¬
Ġd am
ĠPac ific
ĠìĿ¸ ìĤ¬
Ġìŀ ĩ
Ġì¶ľ ë°ľ
ri an
ìłĲ ìĹĲ
íķĻ ìŀĲ
Ġse e
ĠB ureau
Ġl ower
Ġìķ¨ ë²Ķ
y m
v an
å ·
ì¤ĳ êµŃ
íĮ Ķ
Ġê¸Ī ê°Ĳ
S A
Ã Ń
ĠS oviet
Ġr ights
ê°Ħ ìĿĺ
Ġíķ´ ìĦĿ
Ġc ertain
Ġwho se
Ġind ic
Ġë§Ī ì³¤ëĭ¤
ì§Ģ ëıĦ
Ġevent ually
íĻľ ëıĻ
Ġc op
Ġf ood
Ge ography
Ġìķł ëĭĪ
Ġë² Ĺ
Ġis land
ìłľ ìĿĺ
b it
' .
ãĢĭ (
C A
ì§Ģ ë°©
Ġincre ased
tern al
Ġcl ub
ì£ ł
ëĶ °
Ġê´Ģìĭ¬ ìĿ´
ë¦¬ ë¡ľ
ĠíķĦìļĶ ê°Ģ
Ġê²½ê¸° ëıĦ
ë¥¸ ëĭ¤
o id
Ġì° ¬
Ġìĭľ ì²Ń
ìĨĮ ìĹĲ
ĠWh ile
viron ment
ê¸Ī ìĿ´
Ã ¼
ìĽ¨ ìĿ´
n al
Ġê¸°ìĹħ ìĿĺ
Ġì¢ĭ ìķĦ
Ġobs erv
on st
íĺĦì§Ģ ìĭľê°Ħ
Ġf ar
Ġë¶Ħ ë¦¬
li ke
Ġë°ĺ ëıĦì²´
ran ch
ĠB C
Ġê°Ģ ìĥģ
Ġin formation
Ġf oot
Ġm ar
Ġcon cept
Ġì§Ħ ëĭ¨
ĠíĻķìĿ¸ íķł
Ġë§Į ì¡±
Ġim m
Ġìĭľìŀ¥ ìĹĲ
ìµľ ê·¼
Ġcap t
uf act
ĠìĦ¼ íĦ°
Ġconst ruction
êµĲ íĨµ
Ġë¬´ ìĹĩ
A r
Ġê°Ģ ì¹ĺ
ìĿ¸ ë¯¼
Ġinflu ence
Ġ199 1
Ġd en
Ġad op
Ġresp ons
å ľ
ir th
Ġh om
ĠM ount
iforn ia
Ġë³´ ëıĦ
ĠëĦĪ ë¬´
Ġch urch
he l
se c
Ġb ank
ĠìŀĲ ìľ¨
ĠìĽĲ ëŀĺ
ëĶĶ ìķĦ
e an
Ġì£¼ ë¬¸
íķĻ ëħĦ
Ġp ut
Ġtrad itional
ĠìľĦ ë°ĺ
Ġme ans
ìĸµìĽĲ ìĿĺ
ĠM ich
Ġal most
20 10
¥ Ĳ
Ġê³ł ë¯¼
ĠìĬ¤ íĬ¸
Ġrelations hip
Ġì§Ģ êµ¬
Ġëĭ¤ ìĿ´
ĠìĿĺ íķľ
ĠíĻį ì½©
ĠìŀĲìĭł ìĿ´
Ġn orthern
Ġpriv ate
íĹ ¬
Ġt ax
ìĦ¸ ìĿĺ
ë¦¬ íĭ°
ĠKing dom
Ġcomple x
Ġë§ŀì¶ °
Ġh ard
Ġst ated
Ġsur v
ĠS er
pt ion
is l
ĠìľĦ íĺĳ
ì¡° ìĦł
Ġê°ľ íİ¸
Ġ199 3
ìĪĺ ë¡Ŀ
ĠS panish
ĠIs land
íĸī ìĿĦ
Ġab le
Ġê·¼ ë¬´
Ġì¢ħ ë£Į
Ġìļ°ë¦¬ ëĤĺëĿ¼
et t
" ).
ic a
¨ ë¦¬
Ġa ud
Ġëĭ¹ê¸° ìĪľ
ë¬´ ë¦¬
eng th
ograph ics
r ast
Ġrele ase
Ġê¸ī ëĵ±
ĠëĤĺ ë¨¸
du c
Ġì£¼ ê°Ģê°Ģ
ĠQ ue
med i
ëĿ¼ ìĬ¤
ìŀĲ ë³¸
Ġc j
ìłĲ ìĿĢ
fer ence
ĠìŀĲ íļĮìĤ¬
Ġacc ording
ëĵľ ìĿĺ
ëĤ¨ ëıĦ
ì ¤
W h
Ġc ities
Ġê°Ģ ë¦¬
ìłľ ëıĦ
Ķ íĶ¼ìĸ¸
Ġv ict
Ġê°Ģ ê³Ħ
b ers
Ġappro x
Ġë°ľ êµ´
ìłģ ìĿ´ê³ł
ĠíĺĦ ìĭ¤
Ġcl ose
Ġpartic ip
Ġest im
Ġst ri
Ġdet erm
ìĦ¸ íķľ
ì£¼ ìĹĲ
ì§ģ ìĽĲ
íķĺëĭ¤ ëĬĶ
il es
Ġab s
Ġhe alth
Ġìĺ¤ ìĬ¤íĬ¸
Ġë¶Ī ë²ķ
Ġë°©ì¹¨ ìĿ´ëĭ¤
Ġindust ry
ìľĦ ìĿĺ
Ġnov el
he ad
ĠìĿ¸ íĶĦëĿ¼
í Ī
Ġì¢ħ ë¥ĺ
Ġv iol
ìĥģ ìľ¼ë¡ľ
Ġre b
Ġíħ Ķ
Ã ³
ĠM ac
ëħĦ ìĿĦ
Ġìŀ¥ ë¹Ħ
Ġíķľëĭ¤ ê³ł
Ġassoci ated
[ [
Ġsub sequ
Ġm ount
ĠY ou
ìĽ ħ
Ġìĭľ ê°ģ
Ġìĭ¤ íĹĺ
ê³µ ìĤ¬
ìłģ ìĿ´ëĭ¤
ĠíĬ¹ ìĪĺ
ĠHen ry
pp er
ĠìĤ¬ëŀĮ ìĿ´
Ġth us
Ġë§ŀ ìķĦ
ĠëĬĺ ìĸ´ëĤľ
Ġì£¼ ëĬĶ
ĠíĶĦë¦¬ë¯¸ ìĹĦ
ìĩ¼ íķĳ
Ġë²ł ìĿ´
Ġallow ed
¸ Ĳ
Ġì§Ħ ìŀħ
ì°¨ ê°Ģ
Ġëĭ¬ ëĿ¼
Ġìĸ¸ ìĸ´
Ġìŀĳ ìĦ±
Ġìĥģ ëĭ´
ĠP aul
Ġep is
Ġfe atures
Ġar my
ĠìĭľìĬ¤íħľ ìĿĦ
Ġê²ĮìŀĦ ìĿĦ
Ġac qu
Ġwork ing
ë§Į ìĿ´
Ġë© ¤ë²Ħ
Ġì¢ħ êµĲ
ë³´ ëĬĶ
ĠìĹ° ìŀ¥
ë¬¼ ìĿ´
ĠCal ifornia
Ġdesign ed
ìĭĿ íĴĪ
ĠìĦł ìĸ¸
Ġthough t
Ġë¬¼ ë¦¬
Ġperform ance
ribut ed
Ġì¸¡ ìłķ
ĠíĽĦ ë°ĺ
íĮĲ ë§¤
ĠìłĲ ê²Ģ
ĠâĹ Ĩ
Ġë§ ģ
Ġìľ Ī
Ġ15 0
Ġtr ade
it ect
ĠìĬ¤ ìĬ¤ë¡ľ
ĠíĮĮíĬ¸ ëĦĪ
Ġpartic ularly
em s
Dem ographics
Ġíķĺ ìĹ¬
Ġp c
H e
ê³¼ ìłķ
ĠAl though
ĠìĤ´ ìķĦ
ìĿ¼ ìĹĲëĬĶ
íĤ¤ ëĬĶ
ĠìĥģìĬ¹ íĸĪëĭ¤
Ġê²ĥ ê³¼
ĠU K
ĠìĥģíĴĪ ìĿĦ
Ġìĸ¼ ë§Ī
ìĺ¬ íķ´
Ġì´ ¬ìĺģ
ìĬ¤ íĥĦ
ĠëıĦ ìĽĢìĿ´
Ġc y
Ġs outhern
ĠC ong
ìĭł ìĿĦ
Ġë¯¸ ìĪł
Ġê°Ĳ ìķĪ
Ġíĺ¸ íħĶ
Ġprov ide
Ġì°½ ì¶ľ
it ch
Ġìĭ¤ ìĭľê°Ħ
Ġdep art
ĠìľĦíķ´ ìĦľëĬĶ
Ġê·¸ ëıĻìķĪ
ĠG overn
ìĦł ìĿ´
Ġê° ĳ
m en
Ġa chie
Ġs ay
Ġ ill
ĠìºĲ ëĤĺëĭ¤
ĠëıĮ íĮĮ
ĠìĤ¬ëŀĮ ëĵ¤ìĿ´
Ġrepla ced
ch an
Ġì²ł ëıĦ
ĠêµŃ íļĮ
ê°Ģ ìĻĢ
Ġorigin ally
ì²´ ìĿĺ
i ra
Ġìĸ´ë¦° ìĿ´
Ġë° ¤
ë¥´ íĬ¸
ibr ary
Ġë¶ĦìĦĿ íĸĪëĭ¤
Ġìŀ ĥ
Ġrad io
ĠìŀĪ ìĬµëĭĪëĭ¤
T V
Ġíľ´ ëĮĢ
Ġë§Į ê¸°
Ġë¹Ħ ì¦Ī
ìļ° ëĬĶ
ìĿ¸ ì§Ģ
o ice
Ġì§Ģ íľĺ
Ġco ast
Ġê°Ĳ ìĤ¬
Ġê°Ħ íİ¸
Ġëªħ ëł¹
as ion
ĠíķĺëĿ½ íĸĪëĭ¤
ì§Ħ ìĿĦ
Ġì¹´ ë©ĶëĿ¼
Ġinter est
ĠG reek
ĠìķĦ ë§Ī
ut ure
Ġd augh
Ġê·¼ ë¡ľ
ĠìĻ¸ ìĹĲëıĦ
ìĬ¤ ì¹´
ìĿ´ ëŀĢ
h ood
Ġset tle
- -
Ġì¡° ì¹ĺ
ĠLou is
é ĩ
Ġt ro
ë§ İìĿĢ
Ġan ti
ìķĦ ìĭľìķĦ
a ction
ain t
Ġrelig ious
Ġinst it
ìłģ ìĿĢ
ë£ ¬
ag ed
Ġê´Ģ ì¸¡
íıī ê·ł
r im
ĠìłĦë§Ŀ íĸĪëĭ¤
l im
Ġcol on
ìĭľìŀ¥ ìĹĲìĦľ
Ġsu ff
o e
Ġëĭ¤ ë¥´
Ĳ ë¦¬
ìĭŃ ìĭľìĺ¤
ëĵľ ê°Ģ
Ġinc orpor
ëĭĪ ìĸ´
Ġìĭľê°Ħ ìĿ´
Ð °
ĠìĪĺ ìļ©
a ur
Ġ4 2
Ġìĩ¼ íķĳ
ĠìĻĦ ìłĦíŀĪ
ash ington
Ġc e
se y
rib ution
c is
ĠìĻĦ ìĦ±
Ġrequ ired
ê´Ģ ìĿ´
en ed
a el
Ġb rought
ud d
Ġtra vel
oun ter
ĠëĤĺ ìĦł
ĠíĻį ë³´
Ġph il
9 5
ide o
Ġìĺ ¥
ëĤ ©
ĠíĻľìļ© íķ´
ar i
Ġë³´ìľł íķľ
Ġen ergy
Ġl og
it te
Ġf ront
ê²łëĭ¤ ëĬĶ
ê·¸ ëĬĶ
Ġ Ã
ĠìĬ¤ íħĮ
ê¸Īìľµ íĪ¬ìŀĲ
ìĿĢíĸī ìĿ´
Ġestab lish
Ġex cept
ĠCent er
ĠR ail
Ġì¡° ê¸°
ĠìŀĦ ëĮĢ
Ġê°Ħ ìĿĺ
Ġìĭľìŀ¥ ìĿĺ
ĠRo ad
Ġp ay
Ġë°© ìķĪìĿĦ
um e
in ct
ric k
ë¶Ħ ë¥ĺ
D uring
c ript
ê ±¸
or ough
Ġë¶Ī ìķĪ
Ġa ward
ĠDem ocr
ĠìĮ ĵ
amp ions
ĠìłĲ ìĹĲìĦľ
ĠìŀĲ ì£¼
ĠìĿ¸ ê¸°ë¥¼
Ġê¸Ī ìķ¡
å į
Ġë§¤ ë§¤
Ġev idence
Ġêµ¬ìĦ± ëĲľ
ìĿ´ ê¸°ëıĦ
Ġpart ner
ĠìĤ¬ìĿ´ ìĿĺ
ĠìłľíĴĪ ìĿĦ
å °
ĠR oyal
Ġrefer red
ĠìĽĲ íķĺëĬĶ
ĠLe ague
ĠCour t
ra el
Ġp ers
Ġconc ern
Ġì± ĶíĶ¼ìĸ¸
ĠCent ral
Ġ5 2
re l
Ġr iver
Ġíķĺ ëĭ¤
ê¶Į ìĹĲ
id ing
Ġì§ĢìĹŃ ìĹĲ
Ġëį°ìĿ´íĦ° ë¥¼
Ġcap ita
ĠCath olic
te g
Ġform s
Ġout side
ĠìĺģìĹħìĿ´ìĿµ ìĿĢ
20 16
Ġìŀ ī
Ġê²½ ìĥģ
ĠíķĺëĿ½ íķľ
íĨ ¨
it z
Ġ198 9
ĠM al
Ġìĭ¤ íĸī
Ġíĺķíĥľ ë¡ľ
ìĹĲê²Į ëĬĶ
ì¦Ŀê¶Į ìĿĢ
ĠT o
s w
ur ity
ĠEmp ire
å¤ §
ĠìĿĺ ë¬´
Ġf la
Ġê¹ ¨
êµŃ ìłľ
.â Ĺ
ëĥ ¥
Ġê±°ëŀĺ ë¥¼
Ġt v
Ġsch ol
ìĿ¸íĦ° ëĦ·
ĠíļĮ ìŀ¥
l ied
Ġë°ľìĥĿ íķľ
ul ation
ele b
ìĭĿ ìľ¼ë¡ľ
ĠComp any
and er
Ġmajor ity
Ġì¤ĳêµŃ ìĿĺ
Ġ4 8
ĠìĨĮ ëł¨
Ġman ufact
Ġperform ed
ê·¸ ëŁ¬
20 18
ĠìĻ ľ
Ġ18 0
Ġê·¼ ê±°
Ġne igh
ìĹ ł
ĠìĤ¬ ëĿ¼
ë§Į ëĭ¬ëŁ¬
ì£¼ ì£¼
ì¦Ŀ ìĿĦ
Ġìļ° ì£¼
ìĽĲ ìłĦ
ĠìĺĪ ì¸¡
ĠíļĮ ìŀ¥ìĿĢ
ì§Ī ìĿĦ
Ġk ey
íİ ľ
ëĵ ¬
Ġs at
ib ility
ìĬ¤ ìĹĲìĦľ
ĠíĶĦ ëŀľì°¨ìĿ´ì¦Ī
9 8
Ġf arm
ĠìłĦ ìĽĶ
ìĤ¬ ìĿ¼
å Ĳ
íĺĦ ëĮĢ
ìĭ ¸
ìĨĮ ìĿĺ
Ġval ue
Ġtrans port
Ġì¶ľ íĮĲ
Ġde pend
ë®¤ ëĭĪ
ĠDav id
t ime
ĠìĤ¬ìļ© íķĺìĹ¬
ë±ħ íģ¬
I t
Ġlit tle
Ġ ã
us ion
ĠíĿ ¡
Ġfilm s
Ġíļ¨ê³¼ ë¥¼
ìĽĶ ìĹĲëĬĶ
Ġê¾¸ì¤Ģ íŀĪ
ĠB ay
ìĶ ¬
ĠìĽĶëĵľ ì»µ
ĠìĿ¸ê³µ ì§ĢëĬ¥
ĠíĪ¬ ìŀħ
Ġì°¸ê³ł íķĺ
ì¢ħ íķ©
ìħĺ ìĿĦ
ĠìĦł íĺ¸
ĠíĽĦ ìĹĲ
ëĮĢíĳľ íĮĢ
Ġë²ķ ë¥ł
ag o
Ġê°ľ ë³Ħ
Ġìĺģ ìĸ´
ĠìĦł ìŀĦ
ak er
Ġur ban
all ed
ĠíĻľìļ© íķľ
ë¦¬ íķľ
íĻ Ī
ĠìŀĲ ëħĢ
ëŀĢ ëĭ¤
Ġê¸° ê³Ħ
Ġì´Ī ë°ĺ
Ġadd ed
fic ult
Ġê±° ë¶Ģ
Ġg et
ĠìĦľìļ¸ ìĭľ
Ġa way
Ġcol la
êµ° ìĿĦ
Ġë¹ł ë¥¸
ĠíħĮ ìĬ¤íĬ¸
Ġíĺ ĲìĿĺ
ĠíĻĶ ë©´
Ġìłľ ê±°
Ġìĸ µ
ìĿ´ìĹĪ ëįĺ
ëĳ ¥
ri a
ut ed
ĠS en
ber g
ê³ł ê°Ŀ
st e
Ġst re
Ġìł ĬìĿĢ
Ġë§Į ëĵľëĬĶ
ĠìĬ¤ íĬľ
Ġì£¼ ìĸ´
Ġlg ìľł
Ġe mer
Ġê¸° íļĮë¥¼
Ġë¯¼ ì¡±
Ġëª© ìĨĮ
he ast
Ġì°¸ê³łíķĺ ìĭŃìĭľìĺ¤
ë¬¼ ìĿĺ
s u
ë¡ľ ìĿĺ
ap s
Ġì·¨ ìŀĦ
Ġbelie ved
ĠëĬĺ ìĸ´ëĤĺ
Ġì§Ģ ìĪĺëĬĶ
Ġë ĩĮ
A t
Ġìĺ¤ ëŀĺ
ë ¸Ĳ
Ġvers us
Ġìłķ ê¸°
Ġ198 8
íĺķ ìĿĦ
Ġë³´ ëĤ´
k n
Ġstruct ure
ìĤ¬ íķŃ
Ġíı¬ ìĿ¸íĬ¸
Ġcaus ed
ĠInd ia
Ġë°ľ ìĤ¬
Ġ4 00
ĠìĿĺ ìĽĲ
Ġwork ed
ĠìĿ´ ëłĩ
Ġêµ¬ ë¶Ħ
est ival
ĠìĿ´ ëĤ´
Ġc al
ĠRober t
ë¬¼ ìĿĢ
ìĿĢíĸī ìĿĺ
ĠìĿ´ìķ¼ ê¸°
ĠM ex
per or
ì§Ħ íĿ¥
im ent
ĠTown ship
ĠëĤĺíĥĢ ëĤĺ
ë¹Ħ ìļ©
Ġìĭľê°Ħ ìĿĦ
Ġ +
ĠìĿ´ ë¡ľ
ìĦ Ń
ëł¥ ìĿĢ
ĠI r
duc ation
Ġpro b
20 17
ëħ ¼
20 14
Ġl ack
Ġmean ing
Ġdif ficult
ĠìĺĪ ë¹Ħ
Ġìľ µ
ìĬ¤ íĶĮëłĪìĿ´
ìĬ¤ ëŁ½
ĠëĮĢ ì±ħ
ell ow
íŀĪ ëł¤
Ġë§ŀì¶ ¤
ĠRe c
Ġkill ed
â Ī
Ġëĸ¨ìĸ´ ì§Ħ
Ġê°ĲìĨĮ íĸĪëĭ¤
Ġse ven
Ġíĺĳ ìĿĺ
Ġtrad ition
ĠD an
íĴĪ ìĿĦ
ign ed
20 15
ì²´ ê°Ģ
ëł¥ ê³¼
9 2
ë¿Ĳ ë§Į
Ġpartic ular
Ġ ib
Ġb ar
Ġcomp an
Ġì¶Ķê°Ģ ë¡ľ
ĠW ashington
ë²ł ìĿ´
Ġìŀĳ ê°Ģ
ìĤ¬ ìĿ´íĬ¸
ĠìĿĺê²¬ ìĿĦ
æ °
sy ch
ĠìĿ´ ë¥´
h ab
Ġì§ §
ĠìĬ¤íİĺ ìĿ¸
ĠìĬ¹ ìĿ¸
Ġëĥ ī
ĠíķĺëĤĺ ìĿĺ
ìŀĲ ëıĻ
' ;
Ġ( )
Ġê²½ê¸° ìĹĲìĦľ
ĠìĥĪ ë¡Ńê²Į
ìłĦ íĻĺ
Ġìłľ ëĮĢë¡ľ
at ively
ĠìĻ¸ êµĲ
ëį ľ
ê¸Ī ìķ¡
st on
ĠìĤ¬ìĭ¤ ìĥģ
Ġconsid er
ìĹŃ ìĿĦ
Ġë¹Ħ íĸī
ĠëĤĺ ìĻĶëĭ¤
Ġc reat
Ġincre asing
ĠB ra
ë¦¬ ìĸ´
Ġíĥľ ìĸĳ
ìĺģ ìĹħ
Ġn orm
m ark
Ġg re
ë¡ľ ìĬ¤
íĻĶ ë¡ľ
ĠìĿ´ìĥģ ìĿĺ
ĠìĿ´ ìĻ¸
Ġëĭ¤ ìĨĮ
ĠíıĲ ì§Ģ
ann ed
ĠíĻľ ìķ½
ëĭ¨ ìĹĲ
íı¬ ë¥´
ĠìłľìĻ¸ íķľ
ĠíķĺëĤĺ ë¡ľ
Ġlarg er
Ġincre ase
d s
ìĭľ ë§Ī
Ġëĵ± ê³¼
ĠìĦ¸ íı¬
Ġto o
20 19
Ġrem ov
o res
Ġl oss
ĠìĪľë§¤ ëıĦ
Ġjo ined
Ġsur round
ress ion
ut es
Ġë¹ĦìĬ· íķľ
ĠT ra
ĠíĻĶ íķĻ
Ġì¢ Ģ
ĠíĪ¬ìŀĲ ìŀĲ
ìĦ¸ íı¬
Ġbeg inning
Ġearli er
Ġë¸Ķë¡Ŀ ì²´ìĿ¸
íĬ¸ ê°Ģ
d en
ĠìĪĺ ìĪĺë£Į
Ġì¦Ŀ ìĭľ
Ġíģ¬ ë¦¬ìĬ¤
ix ed
Ġper cent
av al
Ġë²Į ìĸ´
if f
ĠìĹ´ ê³ł
Ġc ouncil
Ġì°¨ ë¡Ģ
ĠëıĻìĿ¼ íķľ
9 7
ë¦¬ ì¼ĢìĿ´ìħĺ
ê² Ĳ
ĠëķĮ ê¹Įì§Ģ
9 4
íķĺëł¤ ëĬĶ
ê²° ìłľ
ëª »
i res
n o
Ġp ast
ìĭľ íĭ°
all s
ant ic
Ġìĭł ê²½
Ġd ou
9 6
Ġì§Ģ ìĪĺ
Ġê°ķëł¥ íķľ
Ġ4 3
íħĮ ìĿ¸
g in
Ġì§ĢìĹŃ ìĹĲìĦľ
Ġtrans l
ìŀ ī
ens ion
Ġìľł ëıĦ
ì§ Ĳ
ĠìĥģëĮĢ ìłģìľ¼ë¡ľ
ĠìĨĮ ìĦ¤
ach ing
íĬ¸ ìĹħ
ĠP at
Ġë¹ Ľ
ëĵ ¯
ĠM ary
Ġv ia
le g
ĠS im
Ĩ Ĵ
ì²Ń ìĿĢ
Ġnum bers
ëħĦ ìĿĺ
Ġ4 1
ìĿ´ ë¡ľ
Ġëĵ± ìĹĲìĦľ
Ġê ¿Ī
Ġë¶Ģ ëª¨
Ġë¶Ģ ê³¼
ĠëĿ¼ ìĿ¸
Ġíģ´ ëŁ½
Ġex c
Ġle arn
an cial
ĠìķłëĭĪ ë©ĶìĿ´ìħĺ
ëĵ¤ ë¡ľ
ëĵ Ģ
Ġwrit ing
ĠìĿ´ë²¤ íĬ¸ë¥¼
Ġhig hest
Ġë¦¬ ìĬ¤íģ¬
ĠìĥĪ ë¡ľ
Ġë°Ķ ëŀĮ
Ġfore ign
êµ¬ ìĹĲ
Ġinvol ved
Ġb ound
ĠìĬĪ íį¼
Ġê·¸ ëĵ¤ìĿĺ
ell ed
ìľł ìĿĺ
ë¦¬ ê¸°
êµŃ ê°Ģ
Ġìŀĳ ê³¡
Ġapp lic
Ġexp and
ìŀĳ ìļ©
ìĬ¤ ì¼Ģ
ìĭľ íĤ¬
ĠëıĦ ì¿Ħ
ĠB ut
Ġ' ;
ĠR ed
Ġre ached
Ġc ut
ë³µ ì§Ģ
êµ¬ ê°Ģ
Ġrel ated
Ġdest roy
ĠM il
Ġíķ´ ìķ¼
3 000
Ġc ases
ĠìĨĮ íĨµ
c m
h ing
m on
ìķĦ ê°Ģ
ê³µ ìĹħ
ke y
ĠëĤ´ ìĹĲìĦľ
ìĦ ¯
Ġìĸ´ ë¨¸ëĭĪ
Ġêµ¬ ê°Ħ
Ġlangu ages
ĠìŀĪìĹĪ ëįĺ
ê°Ħ ëĭ¤
O S
Ġr ule
Ġì¤ĳ ìĹĲ
Ġê¸°ëĮĢ ëĲľëĭ¤
ëıħ êµĲ
Ġìķ ¤
u ation
Ġn ames
Ġëªħ ì¹Ń
ë¦ ī
er o
Ġc eleb
Ġprim ary
ĠìĪĺìĿµ ìĿĦ
ok e
ĠD u
Ġcomple ted
Ġìľł ì¹ĺ
ë°Ľ ìķĺëĭ¤
Ġphil os
Ġìłľê³µ íķł
Ġqu est
ĠìķĪ ìĹĲ
is k
Ġe th
ĠëıĦ ë¡ľ
ĠM any
ĠìĦ± ëĬ¥
íģ¬ ëĿ¼
íĻĶ ìĻĢ
un k
Â °
Ġa ction
Ġíĸ¥ ìĥģ
c ol
íĮĮ ìĿ´
ë§Į ëªħ
ĠëĤĺ ê°Ī
Ġì§ĳê³Ħ ëĲĲëĭ¤
read y
Ġtyp ically
Ġìĭľ ê¸°
Ġê· ł
ĠìĿĺ ìĤ¬
Ġëı ķ
Ġg ra
Ġt rib
ĠìŀĪìĸ´ ìĦľ
ëĮĢ ìĥģ
Ġprom ot
Ġì¤ĳ ê°Ħ
íİ ´
ìľ¼ ë©´ìĦľ
on se
íĶ¼ ìĬ¤
¨ ìĶ¬
ĠíĪ¬ íĳľ
Ġëª©íĳľ ë¡ľ
Ġì§Ģ ìĥģ
ĠìĭĿ íĴĪ
ìĥĿ ìķł
ĠíħĶ ëłĪ
Ġê·¸ ë¥¼
íĻķ ìĭ¤
ĠThom as
ĠëĤĺë¨¸ ì§Ģ
Ġê·¸ ëĵ¤ìĿĢ
Ġappoint ed
ãĢ į
ëıĦ ìĻĢ
. âĢĿ
Ġíķĺ ë©´
ĠM ales
ĠìĬ µ
Ġele ments
arri age
Ġw ind
1 000
Ġê²Ģ ìĥī
Ġì§Ģ ì§Ħ
ĠìĿĢ íĩ´
Ġê±°ëŀĺ ìĿ¼
Ġam ount
ĠíĽ ¨ìĶ¬
Ġìĥģ ëĮĢë¡ľ
Ġ ens
Ġìĺ¤ íŀĪëł¤
and id
Ġìµľê³ł ìĿĺ
Ġpl ant
Ġíİĺ ìĿ´ìĬ¤
i j
m ar
Ġì°¨ì§Ģ íĸĪëĭ¤
Ġë§ĪìĿ´íģ¬ ë¡ľ
Ġëª© ë¡Ŀ
Ġê°ķ ëĤ¨
Ġê°ķ íķľ
ĠJ ack
ĠìĿ´ìļ© íķ´
Ġ x
ĠìĪĺ ìĪł
ì¹´ ìĿ´
ëł Ģëĭ¤
ĠM art
ìĦ¸ ìĹĲ
b ased
Ġs la
Ġsc ient
ĠìĿ´ ìĬĪ
Ġ5 5
Ġí ĥĿ
Ġlim ited
Ġe ight
ĠIs rael
íķĺ ìļ°
Ġê³¼ ìłķìĿĦ
Ġem b
ly ing
ol k
Ġ19 30
Ġb ur
om p
Ġìĭł ìĦ¤
Ġê º
9 3
( <
ìłķ ìĿ´
ĠA ward
Ġ198 6
Ġì» ¬
ĠìķĪ ëĤ´
ĠíĶĦë¡ľê·¸ëŀ¨ ìĿĦ
Ġìłķ ëĭ¹
% .
ê´ĳ ìĹŃ
Ġìĭ± ê¸Ģ
us e
r ate
ë© ¸
Ġìłķ ê·ľ
ĠAustral ia
íķĺëĭ¤ ê³ł
Ġë¿Ĳ ë§Į
ĠìĹŃ ìŀĦ
Ġun iversity
Ġc od
Ġë°ĺ ë³µ
ing u
ìĥģ íĻĺ
Ġst age
un ity
Ġf uture
ĠìĥģìĬ¹ íķľ
am ous
íķĺê²łëĭ¤ ëĬĶ
ĠM er
ë¶Ħ ìĿĦ
ed y
ë£ ¡
Ġìĭ¤ ì§Ī
rou p
íĺ¸ ëĬĶ
it er
Ġwh om
Ġìħ Ī
Ġb attle
e v
pe cted
Ġpract ice
ĠA lex
íİĺ ìĿ´
Ġëį ĺ
ut ive
Ġfeature d
ëį° ìĿ´
F or
ĠìĤ´ íİ´
Ġrev iew
ĠíĪ¬ìŀĲ ìĿĺ
Ġsour ce
íĴ Ģ
Ġpoint s
Ġprop osed
Ġëĵ± ëıĦ
ĠëģĮ ìĸ´
ow ers
ĠêµĲ ì²´
Ġsong s
ut ions
ê³µ ê°ľ
Ġd om
ĠRuss ian
Ġarch itect
Ġpolic y
Ġf ight
ë°Ľ ìĿĢ
Ġ198 7
ĠìłĢ ìŀ¥
as c
ìĨĮ ë¹Ħ
ìľ Ī
Ġmed ia
Ġë³´ìľł íķĺê³ł
Ġd omin
ĠB u
Ġas k
Ġchang es
ëŀ ©
Ġëĵ± ê¸ī
íĿ ¡
Ġ5 000
air s
Ġapprox imately
ìĦ± ëıĦ
ol s
Ġê³Ħ ìĤ°
Ġì¢ħ ì¢ħ
ĠM ont
Ġí ľĺ
Ġìłľ íľ´
ìĿ´ìĿµ ìĿĢ
Ġëĭ¨ ê¸°
Ġleg al
Ġë Į
ĠM iss
Ġm ight
Ġph ot
Ġê·¸ ë¦°
ou l
ric ult
ĠìĹŃ ëĮĢ
ëĦ ¥
ìłķ ìĹĲ
ĠëĦ ·
Ġì²Ń ìķ½
ĠìĪĺ ë¦½
ĠìłĪ ë°ĺ
Ġcons ist
ìŀ¬ ë¥¼
Ġl ines
Ġìĺ¤ ë¥´
Ġn ar
ĠìĮ į
Ġrem ains
Ġì¶ķ ìĨĮ
Ġì£¼ ìĿĺ
itte e
Ġindepend ent
Ġê¹ Ĭ
Ġì¡° ê¸Ī
ìĺĢ ê³ł
Ġchang ed
íķĺ ëĿ¼
Ġw estern
Ġìļ´ íĸī
i ated
ĠìĪ ¨
Ġcl imate
ë©Ķ ë¦¬ì¹´
ĠG reen
ĠëĦĺ ëĬĶ
Ġìłķ ìĭł
ĠPar is
ĠB r
Ġë¯¸ëŀĺ ìĹĲìħĭ
Ġperson al
Ġ7 5
Ġëĵ ¯
8 000
ĠV ir
Ġë©Ķ ìĭľ
ĠìĹĲ ìĿ´
Ġëħ Ħ
Ġì£¼ ê´Ģ
ĠìĽĲ ì¹Ļ
Ġin teg
Ġë§¤ ëıĦ
Ġl ay
ì´Ŀ ìķ¡
ì¡° íķ©
iz ing
ë° ¥
Ġm iss
ëŁī ìĿĺ
Ġìĭľìŀĳ ìľ¼ë¡ľ
ĠìĹ¬ ê¸°ìĹĲ
b on
c ies
Ġlong er
Ġë¶Ī ë¦¬ëĬĶ
ve y
ĠAss oci
Ġsy mb
a o
ĠRe v
ol f
Th is
Ġìŀ¬ ë¯¸
Ġìľ Į
íĻĶ íķĻ
m i
ĠíĺĦìŀ¬ ìĿĺ
ĠBrit ain
Ġ198 4
Ġì§ģ íĽĦ
Ġë¬ĺ ìĤ¬
Ġen vironment
ìĹĲ ë§Į
ĠëıĦ ìĽĢìĿĦ
ìĺĪ ìĪł
ĠëĤ¨ ìĦ±
Ġë ķħ
íĭ ¸
Ġíŀĺ ìĿĦ
vent ion
p ro
Ġìłľê³µ íķĺê³ł
Ġì§Ħíĸī ëĲľëĭ¤
Ġìļ°ëł¤ ê°Ģ
Ġë°ĶëĢ Į
Ġì±Ħ íĥĿ
or ial
ĠìļĶ ìĨĮ
é Ļ
ĠAfric a
Ġgrow th
å ¯
ĠItal ian
ëŀ Ĳ
Ġë°Ŀíĺ Ģ
Ġì§ĢìĽĲ íķĺëĬĶ
ĠS am
Ġìłľ êµŃ
Ġshow s
ìłĦ ìĿ´
ĠìĿ ½
ìĭľ ì¦Į
C l
ĠF C
p re
Ġì·¨ ìķ½
ĠíĬ¹ì§ķ ìĿ´ëĭ¤
a ult
ìŀĲ ì¹ĺ
é ĥ
Ġë ļ
Ġm ach
Ġs il
ĠìĪĺì¤Ģ ìĿĺ
ìĬ¤ íĦ´
i os
Ġb ene
Ġb irth
0 5
ĠìŀĦ ìĭľ
Ġê°ĸ ì¶ĺ
ĠLat in
ĠO ld
ì§Ģ ì£¼
Ġ198 5
Ġì¡° íķ©
Ġloc ation
Ġìĭ¬ ê°ģ
ĠF irst
Ġë° ´ëĵľ
Ġíķ´ ìĨĮ
ĠS al
ìĸ´ ìĿĺ
Ġêµ¬ ìŀħ
ìłľ íķľ
Ġ194 0
ĠW il
u x
Ġdaugh ter
Ġëª» íķĺê³ł
is ions
ur ies
ĠìĤ¬ìļ© ëĲľëĭ¤
ĠT ur
os es
ĠìĦ±ê³¼ ë¥¼
ìĭ¬ íĮĲ
Ġresid ing
ìľł ëŁ½
ìĦł ìĹĲ
ĠìķĦìĿ´ íı°
ĠíķĦ ìĪĺ
ê¶Į ìĿĺ
Ġe ver
sel ves
ë¶Ħ ìĹĲ
íķĻ ìĿĦ
kn own
Ġthem selves
Ġse qu
Ġì¹´ íİĺ
ëĤľ ëĭ¤
ĠìĿ´ ìłģ
Ġal ready
Ġìĭ¬ ìĤ¬
Ġì²Ń ìĨĮëħĦ
ĠëĬĺ ìĸ´
Ġ4 6
Ġoper ations
ĠíĮĮ ê´´
ollow ing
Ġë§Ī ë¬´ë¦¬
op er
Ġl ook
Ġsupport ed
ë²Ħ ìĬ¤
ìĦł ìĿĢ
ĠíĴį ë¶Ģ
ë³´ ì¦Ŀ
Ġë°Ķ ëŀĢëĭ¤
por ary
Ġëĵ Ŀ
ĠëıĻ ë°ĺ
ì°¨ ëĬĶ
g n
Ġì¶ľ ë²Ķ
ĠëĶĶ ìŀĲ
ì§Ī ìĿĺ
ĠíĺĦ ê¸Ī
Ġc it
ĠIt s
Ġê³Ħíļį ìĿĦ
Ġc ause
Ġì ª½
Ġíıīê°Ģ ë¥¼
Ġpur p
Ġë¶Ī íĻķìĭ¤
íĸ¥ ìĿĦ
Å į
¾ Į
Ġ4 7
Ġê¸Īìľµ ëĭ¹
ìĭľ íĹĺ
ist ance
Ġ19 20
Ġj our
Ġë°ĺ ëĵ±
Ġanc ient
Ġspec ific
adem y
ĠëĮĢíĳľ ìłģìĿ¸
ì¡° ë¥¼
ëĿ¼ ìļ´ëĵľ
Ġg l
Ġso on
ìĿ´ íķĺ
ĠìłĦ ë©´
Ġê°ľë°ľ íķľ
ĠìŀĦ ìĥģ
4 000
un n
ĠëŁ° ëįĺ
ĠëķĮ ëĬĶ
Ġn ight
ĠíĬ¹ íĹĪ
ĠíĨµ ê³Ħ
Ġinst rum
ĠRich ard
pp ed
Ġdoc ument
ĠìĿĺë¯¸ íķľëĭ¤
ìŀ¥ ë¹Ħ
Ġë§İ ìķĦ
ĠìĹ° ë§Ĳ
ĠK ore
ê¸° ê¸°
6 000
ìĹĪ ì§Ģë§Į
Ġsur face
ëªħ íķľ
Ġê³Ħ ì¢Į
ìĭł íķľ
ì§ģ ìĿĦ
ĠìĪĺ ìłķ
ê°ľ ìļĶ
i qu
ĠI f
Ġê²Ģ ì°°
on ic
Ġj ud
ìĥģ ê³µ
Ġíķľ íĻĶ
ë´ ¤ëĭ¤
ar ing
Ġal tern
ëłĪ ìĿ¼
Ġd ivid
Ġd yn
Ġn uc
la ce
ëĤĺ ê°Ģ
ĠìĥĿ íĥľ
Ġto wards
êµ¬ ëĬĶ
ĠìĪĺ ê°Ģ
ĠëıĻ ë¶Ģ
Ġë§ ¨
Ġë°© ìĸ´
Ġnum erous
t ained
oc al
ĠìĤ¬ìļ© ìŀĲ
if t
Ġíķĺ ê¸°
ĠìĨĮ ìĨ¡
Ġë©Ķ ìĿ´
ĠìĹĶ ì§Ħ
Ġcharact ers
ĠìĪĺ ì§ĳ
Ġìłľ ìķ½
Ġìŀħ ìŀ¥ìĿĦ
ĠFran k
Ġìºł íİĺ
ĠF rom
é ģ
ìĦľ ìĹĲ
Ġìĭľìŀ¥ ìĿĦ
ì¶ °
Ġíĳľ ìĭľ
ĠEar th
íĮĮ íģ¬
Ġìľł ëĭĪ
Ġpla ced
Ġìļ´ìĺģ íķĺëĬĶ
Ġê·¸ëħĢ ëĬĶ
Ġse at
Ġsum mer
and s
ul f
íķ´ ë¥¼
ĠìķĦìĿ´ íħľ
ë°Ľ ê³ł
ëĵľ ë¦¬
Ġs quare
Ġë§Īì°¬ê°Ģì§Ģ ë¡ľ
Ġs em
ĠìķĦ íĶĦë¦¬ì¹´
Ġus es
Ġdirect ly
Ġë°° ëĭ¬
ĠìĪĺì¤Ģ ìľ¼ë¡ľ
s pe
i ences
ĠG l
ìķĪ ìĹĲ
b ack
Ġ198 2
se e
Ġo pt
Ġdec ided
ĠDe part
Ġë§¤ ìŀ¥
Ġë¹Ħ ëĶĶìĺ¤
ĠH ill
st ant
ic ro
Ġëĭ¨ ìĿ¼
ĠìĦł ì¶ľ
ëĤĺ ë¬´
ìĤ¬ ëĵ¤ìĿ´
Ġë¸Ķ ë£¨
íĦ° íħĮìĿ¸
ĠC DP
Ġì»¤ ë®¤ëĭĪ
Ġc he
ĠCong ress
p g
ë¬ ĺ
ìĿ¸ ëĵ¤ìĿ´
Ġìŀ¥ ê´ĢìĿĢ
Ġì·¨ ìĹħ
Ġcol or
Ġl ength
ìĤ° ìĿĦ
Ġp urch
Ġme chan
Ġì² ¨
Ð ¾
Ġg old
Ġê°ķ ìĽĲ
ä »
Ġê¸°ë¡Ŀ íķľ
Ġëģ Ĭ
ë¬¸ ìĹĲ
ëĦ¤ ìĭľìķĦ
ampions hip
ë¶Ħ ìĿĺ
ĠìĨĮ íıŃ
ĠìĦľ ë²Ħ
ĠìĹ° ì£¼
Ħ ëĬĶ
Ġìī ¬
Ġê³ł ìłķ
íĺģ ìĭł
Ġcon ver
Ġlik ely
íĦ° ë¦¬
Ġresp onse
ru g
h an
Ġìľł ìŀħ
Ġìķ¼ êµ¬
ìŀĲìĤ° ìļ´ìļ©
Ġë° ĸ
Ġleg isl
Ġë¹ħ ëį°ìĿ´íĦ°
Ġbuild ings
ê´Ģ ê´ĳ
ĠF I
ì§Ģ ìĹĲìĦľ
Ġë¸Ķ ëŀĻ
Ġar m
ĠìĨĲ ìĭ¤
ĠëĤ® ìķĦ
Ġì§ĢìĽĲ íķľëĭ¤
0 2
Ġn ature
l ight
ĠíĪ¬ìŀĲ ë¥¼
Ġne cess
Ġclaim ed
ĠìĿ´ë ķĮ
ĠìĤ¬ìĭ¤ ìĿĦ
Ġcom e
w ide
it ation
mit ted
Ġword s
ĠëĤ¨ ìŀĲ
ë§ Ľ
íĻĶ ìĿĺ
ĠìĬ¤íĥĢ íĬ¸ìĹħ
Ġmost ly
el es
ĠAr t
ĠR oute
ĠR ock
ëį° ìĿ´íĬ¸
g b
Ġtro ops
ĠíĶĦ ëłĪ
Ġë°© ìĺģ
Ġ198 3
ìĺĢ ìľ¼ë©°
Ġê³¼íķĻ ê¸°ìĪł
Ġse a
ìĬ¤ ëŁ¬ìļ´
Ġcompan ies
¶ ¤
Ġê°Ģë§¹ ìłĲ
Ġst op
Ġê¸ī ëĿ½
ëħ¸ ëıĻ
Ġëĵ £
ê¸ Ģë¡ľë²Į
ëĮĢ ìĹĲìĦľ
ë¶Ħ ìķ¼
Ġc red
ĠëĮĢ ìļ°
ëłĪìĿ´ ëĵľ
ĠSw ed
Ġê²½ ê³Ħ
Ġer a
ĠìłĲ ì°¨
Ġë° ĳ
Ġê°ĸ ì¶Ķ
Ġì¤ĳ íĻĶ
ìĭĿ ìĿ´
Ġcont ract
Ġtrans fer
ĠVal ley
Ġal ways
lo bal
Ġëľ» ìĿĢ
is es
Ġìµľ ìłģ
Ġc at
Ġìłģê·¹ ìłģìľ¼ë¡ľ
Ġì§Ģ ì¼ľ
Ġë¹Ħ íĬ¸
Ġto day
Ġd ig
ĠìĹ¬ ê²¨
ë¯ ¹
k y
ĠL aw
íĻĶ ëĬĶ
Ġë³´ ìĿ´ëĬĶ
r as
Ġì£¼ ëł¥
Ġëĭ¤ìĿĮ ëĭ¬
íĶĦ ëłĪ
ĠC he
Ġmultip le
ĠêµĲ ìĪĺëĬĶ
Ġpre vent
ĠíķľêµŃ ìĿĺ
Ġ Î
ĠíĴ ĢìĿ´
ĠìĿ¼ ìĿ´
Ġth reat
t ies
ic les
ĠëĴ ·
ìĿ¼ ë¡ľ
Ġexp l
9 1
ĠìĿ´ ìłľ
Ġcommon ly
âĢĻ (
Ġê¸°ìĹħ ìĿ´
ĠDepart ment
íķĺê³ł ìŀĲ
az ine
Ġbo ard
ĠM ost
ë¬´ ìĽĲ
ĠD ay
Ġíļ¨ê³¼ ê°Ģ
ìĿ¼ ìĿ´
Ġcond itions
Ġê°Ī ëĵ±
ĠìĿ´ëłĩ ê²Į
ëį ¤
Ġê²¨ ìļ¸
Ġê´ ´
Ġlead er
ìĭľ ì½Ķ
ëĤ ¼
Ġb all
ĠìĥģíĻ© ìĿĦ
Ġbl ock
at re
Ġc andid
le cted
ĠT rans
av es
ĠëĬ ¦
Ġë³µ ìŀ¡
Ġsepar ate
al ed
7 000
Ġv ideo
ìĤ¬ ìĿ´
Ġ1 20
íķ´ ëıĦ
Ġë¹Ħì¦Ī ëĭĪìĬ¤
ĠM ag
el t
ĠìĬ¤íĬľ ëĶĶìĺ¤
B A
in ary
Ġ197 9
ĠìĹĨëĭ¤ ëĬĶ
Ġrequ ire
) :
w ell
ìĿ¸ë¯¼ ê³µ
ê¸Ģ ëŀľëĵľ
ress ed
ìłľ ìĹĲ
ĠëĪĦ ìłģ
ĠìĿ´ ìĤ¬íļĮ
Ġì¦Ŀ ìłķ
ìĦł ê±°
Ġìĥģ ìĹħ
Ġê±° ë¦¬
ĠìĿ´ ìĬ¤
0 4
Ġvac ancy
gy pt
Ġ194 5
Ġ ess
íĬ¸ë¦¬ ìĺ¨
ë¹Ħ ëĬĶ
ĠêµŃ íĨł
Ġê°Ģê¹Į ìļ´
ì£¼ ê³ł
y a
ĠìĤ¬ìļ© ëĲĺëĬĶ
0 3
Ġp ie
Ġìĺ¤ ë¸Į
ëĦ ĺ
Ġë¶Īê°Ģ ëĬ¥
ĠZ e
U n
ë©´ìĦľ ëıĦ
Ġstat us
ìłĢ ì¶ķ
ëĮĢ íļĮ
Ġëª ¬
ëĿ¼ ìĿĺ
ĠII I
Ġìłķ ì°©
ìķ ±
íĥ ĳ
ĠìłĲ ëł¹
Ġíģ´ ëŀĺ
ëıĻ ê¸°
ĠìĻ¸ íĻĺ
z a
as ons
Ġhistor ical
Ġdisc uss
ëĤĺ ìĿ´
ìĸµ ëĭ¬ëŁ¬
ys is
Ġì§ĳ ëĭ¨
ĠìĹ ĳ
ĠìĿĳ ëĭµ
Ġadd itional
Ġìľł ëıĻ
Ġproper ty
Ġë²Ķ ì£Ħ
ĠìĿ¼ ìĸ´ëĤĺ
Ġfin ancial
ìĬ¤ íĤ¤
ris on
Ġcre ate
ìĿ¼ ìĿĺ
ĠA rab
ê·¸ ëŀĺ
res p
Ġwid ely
íĶĦ ë¦¬
Ġc ust
ëĿ ł
ĠC ap
Ġv ir
am er
ut ch
ëĭĪ ëĬĶ
it ude
ĠìķĮ ìķĦ
ë¥ĺ ë¥¼
ë°ĶìĿ´ ëŁ¬ìĬ¤
Ġ5 1
Ġë³´ ìĪĺ
ĠìłĲ ìľł
Ġplay er
Ġg un
ìĭ¬ ìĿĦ
Ġbook s
Ġtyp es
ĠëıĻ ë¬¼
ĠíĶ¼íķ´ ë¥¼
R e
Ġr ound
Ġbre ak
Ġh ot
Ġê²Ģ ìĤ¬
Ð ¸
Ġ197 2
Ġann ual
Ġâĸ ¶
ì¡° ìĿĺ
Ġë¡ľ ë´ĩ
Ġwe ek
Ġì½ĺíħĲì¸ł ë¥¼
Ġrem ain
it ar
ìĿ¸ ìĹĲ
y r
ĠIn ter
Ġë¹Ħì¤ĳ ìĿ´
ĠëĦ ¥
Ġn omin
æ ĺ
) ;
ĠìľĦíķ´ ìĦľ
ut h
Ġ3 000
Ġaff ect
Ġpass ed
Ġsc ience
ĠëıĻ ìĿĺ
ê±°ëŀĺ ìĿ¼
ëĮĢ ë©´
ĠíĨł ë¡ł
w ing
Ġíģ¬ ëĭ¤
i en
Ġë³µ íķ©
ìĽĮ ëĵľ
Ġì¹ ¸
ĠíĻĶ ìŀ¥
ĠG old
ian ce
Ġvot e
Ġê²° ìĬ¹
Ġins p
ìĭĿ ìĿĢ
e ction
ê°ľ êµŃ
Ġmin or
íĶ¼ ìķĦ
ë§¤ ìĪĺ
Ġdec l
Ġspe ed
Ġëĳĺ ëŁ¬
Ġë°Ľ ëĬĶëĭ¤
ìłķ ìĿĺ
Ġê°ľ íĺģ
ìķĺ ê³ł
Ġì´Ī ê³¼
ë¹Ħ ê°Ģ
ì¢ħ ìĿĦ
Ġbet ter
ëŀ į
Ġëħ¸ ì¶ľ
Ġwhe ther
ì°¨ ë¡Ģ
ëłĪìĿ´ ìħĺ
ê²° ê³¼
ir it
Ġê°Ģ ìĪĺ
ĠìĿ´ìļ© ìŀĲ
Ġim medi
ĠD el
ëĲ ¨
Ġìłģ ìĿ´
íĶĦ ëĬĶ
Ġr ural
Ġê°ĢëĬ¥ ìĦ±ìĿĦ
ĠJ ose
Ġë¶Ħ ìŁģ
9 000
Ġcent re
ì±Ħ ê¶Į
Ġestim ated
ĠG rand
Ġìĥģ íĻĺ
Ġìĭľìŀĳ íķľ
ëĶ ľ
Ġeffect s
Ġìłģ ìłĪ
Ġprodu ce
ĠD on
Ġcont ains
ĠêµŃëĤ´ ìĻ¸
Ġëª© ìłģìľ¼ë¡ľ
Ġprom in
Ġh or
Ġprevious ly
Ġso ft
ch ange
Ġm oney
ĠìĺģìĹħìĿ´ìĿµ ìĿ´
Ġì¹ Ń
Ġê¸° ëıħêµĲ
ìłķ íķľ
ëĭĪ íĦ°
Ġìľł ë¡ľ
Ġconf lic
Ġmus ical
å Ī
Ġê¸Īìľµ ê°Ĳëıħ
ĠíĪ¬ìŀĲìĿĺ ê²¬
ì¹ĺ ë¡ľ
ìĸµìĽĲ ìĹĲ
ĠB attle
o ch
ĠìĿ¼ ìĿĦ
Ġh it
ëĭ¹ ìĿĺ
Ġë§ŀ ëĬĶ
Ġde al
ĠT ex
in i
Ġê° Ĵ
ĠB ur
ĠM iddle
Ġsign ed
Ġì´Ī ëĮĢ
ë³Ħ ë¡ľëĬĶ
Ġdis e
ĠíĬ¸ ëłĮ
ìķĪ ìĿ´
Ġë ½
Ġf le
Ġd i
osp ital
Ġp arent
ĠIn stit
ĠI re
Ġì§Ģ íĳľ
Ġëį° ìĿ´
Ġnot ed
Ġlarg ely
Ġì£¼ ìłľë¡ľ
Ġìŀ¬ íĮĲ
ĠìĿ´ë²Ī ìĹĲ
ĠìĹħ ëį°ìĿ´íĬ¸
ëįľ ëŀĢëĵľ
ĠO f
ĠíļĮ ê³Ħ
ĠíİĺìĿ´ìĬ¤ ë¶ģ
ru cted
ĠíĮ¨ íĤ¤
íĸĪ ê¸°
Ġcl osed
Ġê¸° ë¶Ģ
Ġëł Į
os ing
ĠìĨį ìĹĲìĦľ
ĠìĿ´ìľł ëĬĶ
Ġìĸ ĺ
Ġend ed
Ġ9 5
ëĭ¤ ë©´
Ġc hem
Ġìŀ¥ ìĿĦ
p ing
ĠëĦ Ĳë¦¬
ĠëıĦ ì°©
Ġs us
ëªħ ìĿ´ëĭ¤
ĠJew ish
Ġë³´ ì¡°
ì³ ¤
re me
Ġíı¬íķ¨ íķ´
Ġê°ľìĿ¸ ìłķë³´
Ġsp ouse
Ġê¸° ìĤ¬
ĠS erv
Ġíķľ ë²Ī
Ġl atter
Ġ196 8
Ġpri or
ĠSc ott
Ġê³µ ìĭľ
ëĿ¼ ìĹĺ
ĠItal y
ĠS ince
ìłľ ìķ½
Ġìĵ ´
Ġë³µ ê·Ģ
Ġìĭł ìĨį
Ġm or
ot a
ëĮĢ ìĻĢ
íķ© ëĭĪëĭ¤
Ġê°Ģ ì¹ĺë¥¼
b our
ĠìķłíĶĮ ë¦¬ì¼ĢìĿ´ìħĺ
Ġê´Ģê³Ħ ë¥¼
ĠëĤĺ ë
Ġe astern
ëĭ¹ ìĿĢ
Ġse ction
Ġì§Ī ë³ĳ
Ġëª ½
) Â·
ĠìľĦ ìĹĲ
íĤ¤ ë¡ľ
ĠìłĢ ëł´
Ġmov e
Ġì° į
ìĸ´ ëıĦ
Ġë³´ ëĬĶ
Ġì¤Ħ ìĹĪëĭ¤
ĠìĿ¼ë°ĺ ìłģìĿ¸
Ġtra ining
ĠM o
Ġwe e
Ġcult ural
ĠìĪ ł
0 8
Ġide a
Ġf ederal
ì§ ĵ
Ġë¶Ģ ìĤ¬
Ġë°Ķê ¾¸
ëĵľ ìĭľ
Ġ197 4
ì¡Į ê³ł
led ge
ìľĦìĽĲíļĮ ëĬĶ
Ġqu ick
Ġ197 3
ìłĦ ìĿĢ
Ġìĥģ ì§ķ
Ġê° Ŀ
ra ck
ĠìĿ´ ê³³
Ġíĥľ ìĸ´ëĤ¬ëĭ¤
Ġcon v
u ous
Ġëģ ¼
ë²ķ ìĹĲ
ìľ¼ ë¯Ģë¡ľ
æ Ń
Ġe as
ĠìłĢ ì¶ķ
Ġê°Ħ ì£¼
k a
ìŀ¥ ê´Ģ
Ġb order
Ġë¶Ģ ì´Ŀ
ëª¨ ëį¸
ĠëĤ´ ëĭ¤
ë£ ¸
ë¡ ¬
Ġfoc us
Ġ8 5
ìĽĲ ìĿ´ëĭ¤
Ġë°ľ ëĭ¬
ĠíĻķ ì§Ħ
Ġì¢ĭ ëĭ¤
0 7
Ġ ir
Ġ198 1
ëĵľ ìĹĲ
ë§Ī íģ¬
Ġë¹Ħ ìĥģ
ĠëĤ´ ìĹĲ
Ġre form
o o
Ġes c
Ġë²Ī ìĹŃ
ĠìĪĺ ë°ĸìĹĲ
ĠC ons
Ġì£¼ ê±°
ĠP ri
Ġì§ĳ íĸī
d a
Ġw ood
Ġë¹ ¼
íĺĳ ëł¥
ĠT r
Ġeconom y
ë¶ģ ëıĦ
Ġdef ined
A C
un t
ìĭľíĤ¤ ê³ł
e ch
ĠE gypt
erv e
il ed
ì¹ĺ ë£Į
ed ic
ĠAssoci ation
Ġìĸ¸ ìłľ
Ġinit ially
il s
ĠìĿ´ ì¤ĳ
Ġp en
ìķ¼ ë§Ī
Ġëĭ´ ìĿĢ
ĠP eter
Ġsoc iety
r ative
N ew
ĠìŀĲ ìĤ¬
Ġmag n
Ġ197 5
Ġan t
ish ing
ê°Ģ ëĬ¥
ĠìķĦ ë¬´
Ġíİ¸ ìŀħ
Ġresult s
ì£ ½
ĠìĪĺìļĶ ê°Ģ
id a
ĠìŀĲ ê²©
ìĥĿ ìĤ°
Ġìĸ¼ êµ´
ĠSt ud
Ġbroad cast
íĶĮ ëŁ¬
k t
Ġvar iety
ëĭ Ĳ
Ġact ive
ĠL ab
ë°Ľ ìĿĦ
Ġìĺģíĸ¥ ìľ¼ë¡ľ
Ġìĥģ íĸ¥
Ġg s
ìĭł ìļ©
íļ¨ ê³¼
íĬľ ë¸Į
Ġpol ice
Ġfor ced
Ġsmall er
ëĭ¤ ìĿĮ
íĺĳ ìĿĺ
Ġve h
ì²´ ëĬĶ
Ġterrit ory
ĠìĹ° ì¶ľ
Ġ197 6
ìĦ¤ íĮħ
Ġê¸Īìľµ íĪ¬ìŀĲ
ì§Ģ ë©°
Ġp ric
ìŀ¥ ìĿ¸
Ġnear ly
Ġëĵ± ìĿ´ëĭ¤
ĠìĿ¸êµ¬ ëĬĶ
ĠìĪĺ ë§İìĿĢ
ĠìĦ± ìŀ¥ìĿĦ
Ġë°ľ ìĸ¸
íĬ¹ íŀĪ
ĠAc ademy
0 6
Ġìłģ ë¦½
Ġcomple te
ce nd
Ġë§¤ ìŀħ
Ġë§¡ ìķĺëĭ¤
re y
Ġt aking
ê¶Į ìĿ´
Ġê²½ìļ° ìĹĲëĬĶ
Ġê·¼ ì²ĺ
ĠêµŃ íļĮìĿĺ
ëĤ¸ ëĭ¤
Ġra p
Ġele ment
Ġìľł ìĹĶ
im um
ĠìľłìĤ¬ íķľ
íĹ ¨
ĠìĹ´ ë¦¬ëĬĶ
ĠìĿ´ ëŀĢ
Ġì¤Ħìĸ´ ëĵ¤
ĠìĽ ĥ
ĠíĻĺ ìľ¨
ê°Ģ ê³ł
0 9
Ġp sych
ĠìķĦìĿ´ ëĶĶìĸ´
ëĭ¤ ìļ´
ëª ½
ìª½ ìĹĲ
Ġìķ½ ìĨį
Ġl in
Ġë°© ì§Ģ
ìłģìľ¼ë¡ľ ëĬĶ
ĠëĽ° ìĸ´
in et
Ġìĭľê°Ģ ì´Ŀìķ¡
ĠãĢ Į
olit an
Ġì¦Ŀ ê±°
ĠìĦ Ń
Ġíı¬ ë¥´
Ġf amous
Ġ ult
Ġê³łê°Ŀ ìĿ´
ĠëĤ¨ ë¶ģ
êµ¬ ìĹŃ
ë³ĳ ìĽĲ
Ġpr int
Ġê¸Īë¦¬ ìĿ¸
ìłĦ íķľ
Ġplay ing
Ġd on
Ġstud ies
en a
íĭ° ìķĦ
ĠìŀĲ ë¦¬ë¥¼
ĠìĻ ĢìĿ´
ĠìĦ¤ëªħ ìĿ´ëĭ¤
ìĿ¼ ëŀľëĵľ
Ġê¸°ì¡´ ìĿĺ
ĠD iv
Ġprim arily
Ġìĺ Ľ
íķľ íİ¸
la v
Ġì¶©ë¶Ħ íŀĪ
port s
Ġíıīê°Ģ íĸĪëĭ¤
ë¦¬ íĬ¸
ì²´ ê³Ħ
ë°Ľ ìķĦ
Ġtemper ature
w here
bo ard
Ġan g
ĠìķĪìłķ ìłģìĿ¸
ìĸµìĽĲ ìĿ´
Ġì£¼ ìĿ¸ê³µ
ĠC ast
Ġiss ues
Ġrec ent
Ġë¯¸ ë§Į
et her
ĠíĬ Ģ
ĠíĶĦë¡ľ ìĦ¸
Ġë§Įëĵ¤ ìĹĪëĭ¤
ë²ł ë¥´
Ġë¶Ħìķ¼ ìĹĲìĦľ
ir m
Ġìĺģ íĨł
Ġre ason
Ġê²½íĹĺ ìĿĦ
ĠìħĢ íĬ¸ë¦¬ìĺ¨
ĠIre land
g ing
Ġìłķ ìĭĿ
Ġìĥ Į
Ġë°ľìĥĿ íķĺëĬĶ
Ġg ive
is ation
ĠëĤĺ ì¤ĳìĹĲ
ìĿ¸ ìĿ´ëĭ¤
Ġ196 9
N E
Ġê¸° ìĸµ
ëł¤ ëĬĶ
ĠìłĲ ìĿ´
T A
Ġìłķì¹ĺ ìłģ
ĠM ad
ĠëĪĦêµ¬ ëĤĺ
Ġì¤ĳìļĶ íķĺëĭ¤
Ġg od
Ġrepresent ed
Ġplay ers
ĠìŀĪ ì§Ģ
ë©´ ìĿĦ
ĠíĻľ ë°ľ
Ġíĸī ë³µ
ĠMus eum
ĠFran cis
ìħ ī
ĠëĮĢ ê¸°ìĹħ
Ġpre c
ry ing
ist ics
Ġprov ides
Ġsour ces
b re
Ġdire ctor
Ġsec ret
ĠT er
Ġs af
Ġ197 8
Ġdec la
ĠíĮĮ ìĿ´
Ġbeh ind
íĨ ±
ĠëĨ Ģ
ĠìķĶíĺ¸ íĻĶíıĲ
Ġf if
Ġo p
ĠëĿ¼ìĿ´ ë¸Į
A meric
Ġl ink
ìĹĲ ìĬ¤
ìĨĮ ìĹĲìĦľ
Ġë³´ ìĿ´
Ġdeg ree
Ġì ¿
ë¯¸ ëŀĺ
E x
Ġiss ue
Ġbeh av
Ġin j
ĠìĤ¬ìĿ´ ìĹĲìĦľ
ìĨį ëıĦë¡ľ
ĠM y
g ar
ìĦł ìĪĺ
ven ue
ë°Ľ ëĬĶ
Ġë§ģ íģ¬
f ect
Ġëª¨ ëĭĪíĦ°
Ġpress ure
qu ar
Ġê²ĥìĿ´ ëŀĢ
ĠìĻ¸ ìĹĲ
Ġëį ľ
ĠVir gin
Ġì¡° ìĸ¸
ì¹ĺ ìĿĺ
) "
Ġê°ĲìĨĮ íķľ
à ¸
íķĺê²łëĭ¤ ê³ł
Ġlevel s
Ġëĭ¨ ì§Ģ
ç ¾
ìĺģ ìĥģ
Ġìŀĺ ëª»
Ġíı¬ íĬ¸
Ġcit iz
Ġt arg
ist ry
Ġë§ŀì¶¤ íĺķ
Ġìĥģ ìļ©
ë¦¬ ë©°
ĠTh at
Ġh yd
Ġ197 1
Ġadop ted
S h
Ġê°ľ íĨµ
ëıĻ ìĹĲ
ĠëĲĺ ë©´
ìļĶ ìĿ¼
Ġëĭ¨ ë§Ĳ
ĠëĶĶ ìĬ¤íĶĮëłĪìĿ´
ict or
Ġê¸ī ì¦Ŀ
ï ¼
Ġê°ľ ìĦ¤
ê¸° íļį
ìĥģ ì¦Ŀ
Ġìľł ëŀĺ
Ġëªħ íĻķ
Ġdec ision
Ġìŀł ìŀ¬
ĠìĿ´ ê°ĻìĿĢ
Ġc le
ĠëįĶ íķ´
ĠSm ith
T C
Ġdef in
Ġêµ¬ ìĹŃ
ëª¨ ë¦¬
ĠíĮĲ ê²°
ê·¸ëŁ¬ ëĤĺ
Ġíķ´ ëıĦ
ĠìĬ¹ ë¦¬
Ġdivid ed
ĠëģĿ ìĹĲ
ëĮĢ ì±ħ
ĠìĪĺì¤Ģ ìĿ´ëĭ¤
ķ ìĭľì½Ķ
ĠC ont
ëĵľ ìĻĢ
Ġ196 7
Ġgre ater
Ġp ath
ìĭĿ ìĿĺ
ìĽ ł
Ġ9 9
ĠìĿĮ ìĦ±
ĠìĿ¸íĦ° ë·°
ê¹Įì§Ģ ëĬĶ
ëŀ Ħ
ĠìĤ¬ëŀĮ ìĿĢ
Ġf a
Ġì°¨ ëĭ¨
ëľ ¨
ë¦¬ íı¬
ë§Ī ì¼ĵ
Ġequ ip
Ġr oute
Ġë¬´ ìĦł
c an
Ġë°ĺ ëĵľìĭľ
Ġm ention
íĶĦëĿ¼ ìĿ¸
l it
Ġpl at
Ġte nd
ce an
ĠìĥĿê°ģ íķľëĭ¤
D e
ĠëĮĢ íıŃ
ìĿĮ ìĹĲëıĦ
Ġexp la
Ġpr ison
Ġìłķì±ħ ìĿĦ
ĠM ark
Ġm iddle
Ġë¯¸êµŃ ìĹĲìĦľ
ë¡ł ìĿĦ
ë¨¸ ìĬ¤
ê´Ģ ì¤ĳ
Ġìĥģ íķľ
E arly
ish op
ìłķë³´ íĨµìĭł
b ury
l ers
ë¥´ ìĿĺ
ĠAt l
stand ing
Ġì į¼
ĠW al
ĠëĤ ¸
ë©´ ìĹĲ
ĠêµŃê°Ģ ëĮĢíĳľíĮĢ
Ġíķ© ë¥ĺ
Ġphys ical
Ġcommun ic
Ġì¡° ëĭ¬
Ġë³´ ê±´
å ¾
Ġë³Ģ íĺ¸
Ġë°Ľ ì§Ģ
ê¸° êµ¬
Ġfail ed
ĠìĤ¬ ìŀ¥ìĿĢ
ì¡° ëĬĶ
ĠSoc iety
ĠP enn
Ġen ough
ĠìłĦ ìĦ¸ê³Ħ
ĠìľĪ ëıĦ
ĠíĻ Ģ
Ġnew sp
ëĥ Ī
Ġ196 4
ĠëĪĪ ìĹĲ
Ġo ur
Ġproble ms
Ġìĸ´ ëĶĶ
ĠëĤĺíĥĢ ëĥĪëĭ¤
ë¬¼ ê´Ģ
Ġg as
Ġë°ľìĥĿ íķł
ĠCanad ian
Ġproble m
ä ½
ĠìĹ¬ ë¶Ģë¥¼
Ġìłĳ ìĪĺ
ab les
å ±±
Ġë´ Ħ
Ġëª© ìłģ
Ġíķľ ìłķ
ì¦Ī ëĬĶ
ru st
Ġì¤ĳìĭ¬ ìĿĺ
Ġdis s
Ġpo or
Ġo il
íģ¬ëĿ¼ ìĿ´ëĤĺ
R A
Ġë¬ »
Ġbas is
ĠìĿ´ë¦Ħ ìĿĢ
Ġb orough
íķ¨ ìĹĲ
Ġë ¿
ĠA pp
Ġì§ĢìĨį ìłģìĿ¸
emb ly
Ġ ict
ìŀ¬ ë¡ľ
Ġwho le
I D
ĠF ort
Ġíĺķíĥľ ìĿĺ
ëĦĪ ìĬ¤
Ġë¬´ ê¸°
Ġìłģ íķ©
âĢ ĺ
Ġoper ated
Ġun c
ul ated
ê¸° ëĬ¥
ĠìĦ¸ ì¢ħ
y al
Ġdist inct
m illion
3 00
ĠìłĦ ê°ľ
ìķĪ ìĿĢ
ë¸Į ë¦¬
ĠìľłìĿ¼ íķľ
am s
ë¯¸ ëĶĶìĸ´
ĠìĿ´ìļ© íķľ
ìłĦ ìĿĺ
ĠTex as
Ġm arriage
per ial
Ġbecom ing
Ġì°¨ ìĿ´ê°Ģ
Ġê²½ ê¸°ë¥¼
ann el
ĠíĨµ ìłľ
Ġì§Ģ ìĹ°
Ġìĭľìŀ¥ ìĿ´
Ġinvest ig
resp ond
Ġëĭ¤ ìļ´
ra w
ĠìľĦ íķĺìĹ¬
Ġë² ½
íŀĪ ëĬĶ
Ġ' <
ì ¥Ĳ
ëĵ Ń
íķ´ ìĻĶëĭ¤
ar c
w in
ĠìŀĪ ìľ¼ëĤĺ
Ġê³µ íĻĶ
Ġc arried
Ġìĭ¤ íĺĦ
ans ion
ĠëĤ´ìļ© ìĿĢ
ĠëıĪ ìĿĦ
Ġ NA
ĠíķŃ ìĥģ
ĠìķĦë²Ħ ì§Ģ
Ġìĸ´ëł¤ ìĽĢìĿĦ
Ġad j
ĠìĿĺ íĺ¹
B y
ëħĦ ìĿ´
ĠìĥĿ ëªħ
ĠëĨį íĺĳ
Ġì£¼ ê°ĢëĬĶ
Ġíķ© ë¦¬
ìŀ¥ ìķł
Ġoffer ed
Ġcolle ction
Ġë° Ķëĭ¤
ìķŀ ìľ¼ë¡ľëıĦ
ê²½ ìĿĦ
Ġd ram
ĠìłĦ íĺĢ
ĠH istor
Ġì§ĢìĹŃ ìĿĦ
ĠìħĪ ìĿ´ëĭ¤
Ġag ricult
iv ity
ìĭľìŀ¥ ìĿĺ
ë°ķ ìĬ¤
Ġê ½ĥ
Ġíŀĺ ëĵ¤
ĠIr ish
Ġë° ¸
ĠìĿ´ê²ĥ ìĿĢ
ìº ł
ĠëĤĺë ī
ê´Ģ ëł¨
ìŀĲ ëĵ¤ìĿĦ
ĠìĤ¬ìļ© íķľëĭ¤
ĠíĶĦë¡ľ ëª¨
ìŀ¬ ëĬĶ
Ġg rand
Ġë¬¸ ìĦľ
ëł¥ ìľ¼ë¡ľ
Ġëĵ¤ìĸ´ ê°Ģ
ê°ľ ë¡ľ
ĠìĦł ëıĦ
ë³´ ë©´
ĠìĺĪ ìķ½
ĠìĬ¹ ê°ķ
ìĭľ ëĮĢ
Ġw ide
ĠìĿ¼ ìŀĲë¦¬
ëĿ¼ ë©´
Ġvis it
ad a
Ġcomple t
ĠìĪĺëıĦ ê¶Į
Ġpot ential
Ġlet ter
Ġdet ail
ĠëĦ¤ ëįľëŀĢëĵľ
Ġstud io
Ã ¤
ëŀ Ń
ĠS aint
ĠìĿĺ ìĽĲìĿĢ
Ġë§Ī ë¥´
Ġ5 4
Ġìłĳ ìĨį
ars h
Ġê³ł ëĵ±íķĻêµĲ
Ġke ep
Ġcomput er
Ġdist ribution
ast ic
Ġcomm ission
ĠíĬ¹ë³Ħ íķľ
Ġre ve
ĠA re
Ġìłģ ìĿĢ
ĠìĦ± ê²©
ê¸° ê³ł
ri ef
te en
Ġì²Ń êµ¬
Ġê°ľ ë´ī
Ġmat ch
Ġíķ´ ìĥģ
ĠíĺĦìŀ¬ ëĬĶ
ĠêµĲ íĻĺ
ë²¤ ì²ĺ
Ġì¦Ŀê¶Į ìĤ¬
Ġìŀħ ì£¼
Ġsh own
ess ion
Ġê³łê°Ŀ ìĿĺ
ìĹ°êµ¬ ìĽĲ
ê³¨ ìĿĦ
ĠR ad
íŀ Ĳ
ĠëĲĺ ì§Ģ
Ġìŀī ê¸Ģëŀľëĵľ
Ġcommun ities
Ġë° ĸìĹĲ
Ġê°Ģê²© ìĿ´
Ġë¬¸ìłľ ëĬĶ
Ġsim p
20 13
ĠíħĮ ë§Ī
Ġê¸°ì´Ī ìŀĲìĤ°
ac hes
íĺ¸ ê°Ģ
Ġproduct s
Ġhe avy
Ġê±°ëŀĺ ëĲĺê³ł
Ġëĭ¹ ì´Ī
ë¶Ģ ëª¨
Ġìĺģ êµŃìĿĺ
ĠíĴĢìĿ´ ëĲľëĭ¤
ĠAir port
Ġë¶Ħ íı¬
ìŀ¬ ê°Ģ
ist an
Ġë°ľ ê¸ī
ian t
Ġimp lement
Ġcomp ared
Ġ197 7
Ġíı´ ëŀĢëĵľ
íĸ¥ ìĿ´
ĠìĿ´ìłĦ ìĹĲ
ĠìĿĺ ì¡´
ro vers
Ġat tend
Ġê²°ìłķ íĸĪëĭ¤
Ġ196 5
ĠB est
ìĥģ íĻ©
ì ·
Ġë³Ģ íĻĶë¥¼
ic ago
ĠMich ael
ĠìłĦ íĻĶ
íĥ Ĳ
Ġch ief
ĠìĥģíĻ© ìĿ´ëĭ¤
ãĢ ı
ant a
Ġì·¨ ìĨĮ
Ġr at
Ġë¶Ī íİ¸
ĠëĬĲ ëģ¼
ĠíĴĪ ì§Ī
Ġexper ience
Ġê±° ëĳĲ
Ġíģ¬ ë¡ľ
m ission
Ġë®¤ ì§Ģ
ĠëıĦ ìłĦ
ìĨĲ ìĭ¤
Ġíĺĳ ìĹħ
Ġìľł ì¶ľ
ìĿ į
Ġìľ¡ êµ°
Ġprogram s
ë§ ŀ
Ġ æ
a ver
stit ution
ĠB udd
ë¶Ģ ë¡ľ
Ġë¶Ī ëŁ¬
Ġê¸°ëĮĢ íķľëĭ¤
íıī ìĸĳ
ê´ĳìĹŃ ìĭľ
ĠëĮĢíĨµëł¹ ìĿĢ
Ġë¸ĮëĿ¼ ì§Ī
Ġnear by
Ġex hib
Ġschol ars
Ġd ate
ĠìĹ° ê¸Ī
Ġd one
S C
und red
Ġìľłëªħ íķľ
ĠS un
ĠMin ister
ë¦¬ ì¦ĺ
Ġincorpor ated
ĠëĮĢ ê¸°
rop olitan
ĠM at
Ġserv e
Ġcons um
Ġê³ł ëĮĢ
Ġê¸´ ê¸ī
y e
ìĤ¬ ìļ©
Ġb lood
Ġíİ¸ ì§ĳ
Ġì¡° ì§Ģ
Ġk ind
ìľ¼ ëĭĪ
ê³ł ëĵ±íķĻêµĲ
Ġë§Ĳ ìĿĦ
ĠëĤĺ ëĪĦ
ìĶ¨ ê°Ģ
ĠN orthern
íĤ¨ ëĭ¤
Ġhigh ly
Ġë¶Ħ ê¸°
Ġc ateg
Ġìľ¡ ìĦ±
íĪ¬ìŀĲì¦Ŀê¶Į ìĿĢ
ĠF in
Ġpe ace
Ġmil es
Ġtechn ology
Ġëĭ¬ íķĺëĬĶ
ĠIs lam
Ġë¬¸ ìŀĲ
ĠSu per
êµŃ ìĹĲ
ìķĺ ëįĺ
ĠìĪĺ ë¡Ŀ
ëł¥ ìĿĺ
ĠìĿ´ìĸ´ ì§Ī
ĠêµŃ ë¬´
Ġpo et
Ġcomp os
Ġíķľ ìĿĢ
à ¤
ĠìĦ¸ ë¶Ģ
Ġê°Ģê²© ìĿĢ
Ġepis ode
íĺ¸ ë¡ľ
ĠF ore
b ed
ìŀĲ ëĵ¤ìĹĲê²Į
ĠìŀĲ ìĦ¸íķľ
ê³Ħ ìĿĺ
ë¶Ģ ë¥´íģ¬
å º
ad o
Ġlaun ched
ĠA p
Ġcont em
Ġë³´ ê¸ī
Ġë¶Ħ íķł
Ġ5 9
u ated
ĠíĻķ ìĭ¤
ìļ´ ìĺģ
ou ra
Ġìĺ¤ëĬĺ ëĤł
ë³´ ë¥¼
Ġd ro
ĠíĻĺ ìľ¨ìĿĢ
ìĿ´ ìĻĢ
ê°Ģ íı¬ë¥´
Ġst ru
on a
Ġhe av
ì°½ ìĹħ
Ġìĭł ì¢ħ
ĠìĿ´ìĬ¤ ëĿ¼ìĹĺ
ì²´ ìľ¡
Ġì¡° ê°ģ
Ġê°Ħ ëĭ¨
ĠëıĦ ìĦľ
ĠìĿ¸ëıĦ ëĦ¤ìĭľìķĦ
ĠìłĦëħĦ ëĮĢë¹Ħ
ì§Ģ ê²Į
Ġin tended
Ġreg ular
Ġdiscover ed
Ġ5 6
Ġìľł ë¦¬
od es
Ġin hab
Ġì¡° ìŀĳ
Ġconc ent
Ġ9 8
E C
ĠíĬ¹ ìĦ±
ë¬¸ ìĿ´
ìŀĲ ê¸°
ig r
Ġì¦ī ìĭľ
Ġappe ars
ĠìłĦìĿ¼ ëĮĢë¹Ħ
l g
u ing
Ġr out
ol ved
Ġë¬¼ ì§Ī
Ġì¶ľìĭľ íĸĪëĭ¤
ĠRepublic an
ëª© ìĿĦ
Ġ5 3
s et
ë ®
ë Ĵ
i ot
Ġun it
ĠAr ch
Ġë°Ķê ¿
ì¹´ ì¹´ìĺ¤
ëĭ Ľ
ë¹ ł
Ġì¶© ì¡±
ìĿ´ íĽĦ
ĠìĿ¼ ìĭľ
Ġmunicip al
Ġì¶Ķìłķ ëĲľëĭ¤
ĠL iber
å ¹
ĠëĲĺ ìĹĪê³ł
ĠíĺĦëĮĢ ì°¨
ĠíĺĦìŀ¬ ê¹Įì§Ģ
Ġcor respond
ĠìĪĺ ì¹ĺ
Ġe arn
ann ing
g l
F C
ĠSy stem
ìħĺ ìĿĢ
Ġinter view
Ġì°¾ ëĬĶ
Ġ6 00
n ic
ĠíļĮ ìĤ¬ëĬĶ
Ġë³´íĹĺ ë£Į
ëªħ ìĹĲ
ĠíĹĮ ë²ķ
Ġìĺ¤ ëŀľ
cept ion
Ġc er
ì´Ī ëĵ±íķĻêµĲ
Ġê´Ģ ì°°
ĠíĮĮ ê²¬
ĠC amp
Ġë°©ë²ķ ìĿĦ
ëł¤ ê³ł
ĠCl ub
Ġê°Ģ ëĬĶ
Ġëĸł ëĤĺ
b c
Ġcour se
Ġc ounter
ì¡° ê°Ģ
Ġsugg ested
ĠëĤ¨ ë¶Ģ
Ġíħ į
ìľł ê°Ģ
ê³µ ê°Ħ
Ġê·¹ ë³µ
Ġê³µ ìĤ°
Ġì² Ļ
um n
Ġvar i
Ġindust rial
ë¹Ħ ìľ¨
Ġwe ap
Ġê³¼ ëıĦ
Ġëªħ ìĺĪ
Ġactiv ities
íĬ¸ ëĿ¼
ĠíĨµ ì¹ĺ
Ġìµľ ìĭł
ë©Ķëĭ¬ ìĿĦ
Ġê°ķ ìĦ¸ë¥¼
l ies
ìĦł ë¬¼
20 21
Ġìľł íĬľë¸Į
Ġíķ´ëĭ¹ íķľëĭ¤
Ġìķħ íĻĶ
r ich
ĠI m
Ġb ig
ëĳ ĺ
u it
Ġimp act
ìĽ¨ ëį´
Ġë¶ ķ
ĠíĽĦ ìĨį
Ġn ation
oph y
Ġs al
ĠSec ond
Ġmet al
ell ig
ë¬´ ëĬĶ
ĠìĥģíĻ© ìĿ´
Ġê´Ģ íķł
ëħĦ ê³¼
ĠëĨĴ ìĿ´
Ġë¯¸ ë¦¬
ê²½ ìŁģ
ë¦¬ íķĢ
ë³´ ìŀĲ
íĨµ íĻĶ
Ġìŀ¬ ê°ľ
ĠíıŃ ë°ľ
ĠìĿ´ë¦Ħ ìľ¼ë¡ľ
Ġë¦¬ ëįĶ
Ġíķ´ëĭ¹ íķĺëĬĶ
ĠE astern
at o
ĠìĿ´ ë¥¸
in ter
Ġì§Ī íĻĺ
on om
Ġsettle ment
ĠìĬ¤ íĥ
Ġëľ ¨
Ġm ur
ì£¼ ìĭľ
ĠìŀĦ ì§ģìĽĲ
ent h
Ġë§¤ ìĿ¼
ĠSp ain
ĠìĹĨ ìĿĦ
Ð µ
i ents
Ġë¹ ¨
ë¯¸ íĦ°
Ġc lear
Ġm ission
Ġ196 3
éĩ ĳ
20 11
Ġfor t
ĠëĦĺ ê²Į
Ġë§¤ì¶ľ ìĿ´
Ġë²Ĺ ìĸ´ëĤĺ
k b
ëħ¸ íĬ¸
at ers
Ġorgan ization
ir ing
ĠL u
Ġê¸° íĽĦ
ec ause
ëª¨ ë°ĶìĿ¼
Ġmain ly
Ġìĭł ìłľíĴĪ
ĠìĽĲ ìŀĲ
Ġdisp lay
Ġinit ial
íķľëĭ¤ ë©´
w ar
Ġ196 6
ĠPar liament
Ġdiv ision
ly mp
Ġëĭ¤ ë£¨
ĠëıĦ ëĭ¬
Ġë³¸ ëĭ¤
ac es
Ġcolle ge
ĠF l
ĠìĿ´ íĭĢ
ĠìĹĲ ìĬ¤
Ġë¶Ģ íĴĪ
Ġw anted
Ġìĭ¤ìłģ ìĿĦ
Ġëħ¸ ëł¥ìĿĦ
Ġê²ĥìĿ´ ìĹĪëĭ¤
al le
Ġar ran
Ġì¶Ķ êµ¬
Ġrem aining
ë¨ ¹
ol a
ìĬ¤ ë§ĪíĬ¸
ë¡ľ ê·¸
ëĬĲ ëĥĲ
Ġë¹Ħ ë°Ģ
Ġê°Ģ ë¥´
Ġë§İ ìķĺëĭ¤
Ġh ours
Ġìľłì§Ģ íĸĪëĭ¤
Ġo x
ëĭī ìĬ¤
wh ich
ĠG roup
Ġë°° ì¶ľ
Ġì§Ģ ìĭĿ
ìĹĲ ìĿ´
ĠíĽĦ ìĽĲ
ìĿ¸ ì¦Ŀ
Ġre nt
ĠW ood
Ġdem onst
Ġdes pite
u ge
Ġown ed
ĠInstit ute
ĠCar ol
20 12
Ġë¥ ´
ê³ł ê°Ģ
Ġcon ne
ĠO ff
ëĲĲëĭ¤ ê³ł
ìĿ¸ ëıĦ
Ġ" "
Ġl isted
Ġê¶Į íķľ
ĠL ord
ĠìĿ´ëıĻ íĨµìĭł
ĠìŀĪìĹĪ ê³ł
ĠìĤ¬ ìŀ¥
Ġch all
Ġw oman
ĠR ome
ê³µ íķŃ
Ġíĩ´ ì§ģ
Ī ľ
e ff
ê±´ ì¶ķ
Ġìŀĳ ëıĻ
Ġê³µ íķŃ
ĠP et
ill ed
Ġcent uries
Ġìľł ëĮĢ
ĠFor ce
ĠìĪĺ ìĦĿ
ĠìŀĲ ì¹ĺ
ì§ĢëĤľ íķ´
Ġìĭ¤ìłģ ìĿ´
Ġun ivers
ëĭ¤ ìĿ´
ê±° ìļ´
Ġë¹Ħ ëĮĢë©´
íķĺìĺĢ ìľ¼ëĤĺ
ĠìĦłìĪĺ ë¡ľ
I C
Ġb omb
ìŀ¥ ê¸°
Ġqu ant
Ġr an
ë°° ëĭ¹
Ġê¸° ìļ¸
ĠìĿ´ìķ¼ ê¸°ë¥¼
Ġmin ister
Ġneigh bor
Ġê³łëł¤ íķ´
Ġfour th
íħ Ģ
Ġë¹ĦêµĲ ìłģ
æ Ī
Ġrun s
ĠH aw
ĠB BC
Ġp aper
Ġê²ĥ ì²ĺëŁ¼
ì¹ĺ ì§Ģ
m ore
ìĺģ íĻĶ
ĠëĤ´ ëł¸ëĭ¤
ĠV ictor
ìĿ¸ ëĵ¤ìĿĢ
ç İ
ìĬ¬ ëŀĮ
y ing
Ġìŀ¥ ì°©
Ġì´Ī ëĵ±íķĻêµĲ
w ith
ìłĦ ê¸°
ĠìĿ´ íĸī
ird s
ì£¼ ìĻĢ
ë ĩĮ
ĠìĤ Ń
ìĥģ ê³¼
ĠìĹĲ ìĸ´
Ġreg ions
Ġíŀĺ ìŀħ
Ġc ode
ĠëĬĲëĤ Į
ìĺ¬ ë¦¼íĶ½
Ġë¶Ģ íļĮ
Ġë°Ķ ë¥´
ĠìĤ¬ ëª¨
ĠêµŃ ìłķ
Ġro yal
Ġdire cted
ĠìĿ´ìĥģ ìĿĦ
ĠìĿ´ ëŀĺ
Ġcan not
ëł¥ ìĹĲ
Ġìº ĺ
Ġê³łê°Ŀ ìĹĲê²Į
Ġship s
ë§Ī ìĿĦ
ru pt
ĠìķĦ ëıĻ
r d
ĠíĮĮ ë¦¬
Ġìŀħ ëĭ¨
Ġê·ľëª¨ ê°Ģ
ìĿ¸ ê°Ģ
ëľ »
Ð ½
Ġê¸°ê´Ģ ìĿ´
Ġmeet ing
Ġìŀĳ ìĹħìĿĦ
W hen
ĠìĥģíĻ© ìĹĲ
Ġresult ing
Ġìĭľ ë²Ķ
Ġë°± ìĭł
Ġìľł ê°Ģ
Ġì£¼ ê³ł
ĠSe a
ëĨį íĺĳ
ĠìĿĺ ê²°
ĠìķĦ ì¹´
en es
ĠëĤĺ ìĺ¤ëĬĶ
ê° Ķ
ĠìĿ´ ìŀĲ
ìĽĶ ëĵľ
ic an
Ġë³´ ì¡´
ìĦĿ ìĿĦ
A d
Ġëĭ¨ ëıħ
ĠEd ward
Ġ ...
Ġê·ľëª¨ ëĬĶ
Ġë°ĽìķĦ ëĵ¤
Ġr isk
ìĭ ¼
ĠìĪĺ íķĻ
ron ic
ĠRev olution
Ġagre ed
Ġìłľ ìĸ´
Ġë¯¸ ì¹ĺëĬĶ
íĬ¸ ìĹĲ
Ġmeas ure
ëĮĢ ìļ°
ë¶Ģ ì±Ħ
Ġopen ing
Ġíķ´ êµ°
Ġfore st
Ġì§Ģíķĺ ì²ł
um ents
Ġë²ķ ìĿ¸
Ġë¬´ë£Į ë¡ľ
Ġoper ation
Ġth ink
ĠëĮĢíĨµëł¹ ìĿ´
Ġmag azine
ĠJose ph
v a
ĠëĤĺ ìĦ°ëĭ¤
ë¬¸ ìĿĺ
ĠN avy
Ġst ations
ĠAs ia
Ġê¼ ¬
ìĬ¨ ìĿĢ
íĦ°íħĮìĿ¸ ë¨¼íĬ¸
ç Ľ
on ents
Ġrap id
Ġê²Į ìĿ´
I A
Ġra re
ë¯¼ì£¼ ëĭ¹
ĠìŀĲ ê¸ĪìĿĦ
Ġì¶© ëıĮ
ĠìĺģíĻĶ ìĿ´ëĭ¤
íĬ¸ ìĻĢ
ig en
ĠëĤ´ëĭ¤ ë´¤ëĭ¤
íĶĦ ê°Ģ
h y
Ġarr ived
ìĦľ ìĿĺ
ĠìĬ¤ íĶ¼
ìĿ¼ ë°ĺ
Ġappro ach
Ġì§Ģê¸Ī ê¹Įì§Ģ
w rit
Ġcont rast
ĠìĭĿ ë¯¼
ĠD utch
Ġìĸĳ ìĦ±
Ġìĭ¬ ë¦¬
Ġìĸ´ëłµ ëĭ¤
Ġtru e
Ġêµ ´
Ġprov ince
ĠFI FA
Ġask ed
am m
ĠComm ission
u an
ìĬ ´
Ġìľł ìłĦ
Ġê°ľ ë°©
Ġart ists
ĠL os
Ġb ring
Ġdem and
Ġstud ent
ĠSc ot
Ġì¡° ì¹ĺë¥¼
n am
íĳľ ë¥¼
" (
Ġíİĺ ë¥´
ì§Ģ ê¸°
ê²łëĭ¤ ê³ł
ĠêµŃë¯¼ ìĿĺ
Ġmed ical
ĠíħĶëłĪ ë¹ĦìłĦ
h i
Ġ196 2
Ġquest ion
Ġactiv ity
Ġthere fore
Ġprofess ional
ĠìĹĨëĭ¤ ê³ł
Ġs ens
ĠP la
Ġì§Ħíĸī íķĺê³ł
Ġ5 7
ëĭĪ ì§Ģ
ëĭ´ ë³´
Ġë½ ĳ
Ġbo x
ĠìĬ¤ íģ¬
S T
ĠìłķíĻķ íķľ
ê³Ħ ê°Ģ
Ġìħ °
Ġteam s
è ¡
ìłĦ ìŁģ
ë¶Ħ ìĿ´
Ġìļ°ìĬ¹ ìĿĦ
ìĪĺ ìļĶ
Ġìŀ¥ ì¹ĺ
ìĤ Ń
Ġto ld
ì¹ĺ íĤ¨
ĠMex ico
ëĲĺ ê¸°ëıĦ
ĠP re
ĠM od
Ġëħ¼ëŀĢ ìĿ´
ĠRuss ia
ĠìĪĺ ìĤ¬
Ġreg ional
Ġë²¤ ì²ĺ
Ġ5 8
ĠíĮ¨ ë°°
id er
Ġíķĺ ëĵľ
Ġappear ance
Ġm akes
Ġbene f
êµŃ ìĿĦ
Ġauthor ity
ĠíĻľìļ© íķł
ĠM ore
ĠB en
w s
Ġê¸°ë°ĺ ìĿĺ
ìĿ¼ ê³¼
Ġmat hem
Ġê³ ¤
ict ed
ĠS outhern
ĠíĸĪ ì§Ģë§Į
yl van
Ġíķĺ ê³Ħ
Ġëį ´
ĠìķĦ ì¹¨
ĠìĥģìĬ¹ ìĦ¸ë¥¼
ĠM ass
Ġë¨¸ ë¬¼
Ġsold iers
Ġë§¤ì¶ľ ìĿĢ
Ġ ut
Ġê´Ģ ëŀĮ
c el
ìĥĿ ìĿĦ
ce ment
ĠìķĬ ëıĦë¡Ŀ
ìŀĦ ìĬ¤
ak ers
ĠìķĦ ìĭľ
Ġre pe
ad d
æĿ İ
Ġrun ning
Ġíİ¼ ì³Ĳ
ĠìĹĨ ê³ł
ìĻĢ ëĬĶ
ĠìĥĿ ì¡´
cent ury
Ġsh are
ĠD o
ĠG ra
ëł¤ ë©´
Ġê±° ëĵŃ
Ġíİ¸ ë¦¬
Ġì¹ĺ íĤ¨
ip l
ë¬¸ íķĻ
st ate
ìĦľë¹ĦìĬ¤ ë¥¼
et te
Ġìļ° íģ¬ëĿ¼ìĿ´ëĤĺ
ĠMus ic
Ġíıī íĻĶ
ĠìĿ´ìľł ë¡ľ
Ġê°Ģìŀħ ìŀĲ
ĠìĹħë¬´ ë¥¼
Ġëĭ¹ ìĦł
ĠF red
Ġent ered
Ġneed ed
Ġ9 7
Ġê¸°ê´Ģ ìĿĢ
p ass
ìŀĲëıĻ ì°¨
h ouse
Ġê¸° ìĽĲìłĦ
ê±´ ê°ķ
on ed
ì§Ģ ë©´
Ġtown s
ip s
Ġìľµ íķ©
iver se
Ġcons ists
ĠO lymp
ëĶ ĺ
ë¹ Ľ
ì· Ħ
ĠíĺĦ íĻ©
ĠQue en
Ġê²Ģ ì¦Ŀ
Ġoccup ied
Ġê²ĮìŀĦ ìĿĺ
Ġ194 8
ëĤĺ ìĿĺ
ĠL and
ê ½ĥ
Ġíķ´ ìĸĳ
Ġì¡° ìłĪ
Ġrespons ible
Ġê·¸ ë¦¬
Ġíĸī ìĤ¬ë¥¼
Ġìŀħ íķĻ
Ġhel ped
ĠC up
erv ation
ë¡ľ ê°Ģ
ë£¨ ìĬ¤
Ġê·¸ëħĢ ìĿĺ
Americ an
Ġíŀĺìŀħ ìĸ´
íĸī ìłķ
Ġtreat ment
Ġturn ed
ĠT or
ail y
ìĦł ìĹĲìĦľ
ëĬĶ ì§Ģ
200 8
Ġmanag ement
Ġl ove
ĠìĦłë³´ ìĿ¸ëĭ¤
ëĭ¨ ê³¼
ĠC ivil
ìĦľ ê°Ģ
íį¼ ëŁ°
ĠëĴ¤ ë¥¼
ĠìĹ° ëł¹
Ġì¢ħëª© ìĿĢ
E ducation
Ġê¸° ëĭ¤
Ġsp ent
Ġê³ł ìľĦ
ĠêµĲìľ¡ ìĿĦ
ì²ł ëıĦ
Ġquick ly
Ġmunicip ality
Ġpresent ed
Ġb rief
íŀĮ ëĭ¤
Ġrel atively
B e
Ġth ous
Ġíİ ľ
iz ations
Ġdecla red
Ġë°©ìĭĿ ìĿĦ
Ġdef end
Ġê¹ Į
Ġredu ced
ìļ° ê³ł
ë¡ľ ëıĦ
ìĽĶ ë§Ĳ
Ġcont rovers
Ġaccept ed
Ã ¨
O ther
íİĺ ìĿ´ìĬ¤
ell s
Ġê³Ħ ê¸°ë¡ľ
un ction
ê° ¤ëŁŃìĭľ
it t
Ġì§Ħíĸī íķł
íĬ¸ ìĹĲìĦľ
Ġ9 6
Ġpres ence
ä¸ Ń
Ġiss ued
Ġì¡´ìŀ¬ íķľëĭ¤
Ġaward ed
íĶ¼ íĥĪ
ĠS pr
Ġhe art
Ġëª¨ ìķĦ
Ġs en
Ġconstit ution
Ġ2 50
ĠìĿ¼ ìłľ
Ġfrequ ently
Ġë¯¸ ìĤ¬ìĿ¼
d i
Ġê²½ìŁģ ëł¥ìĿĦ
ĠìĿ¸ ì§Ģ
ĠëĽ° ìĸ´ëĤľ
ister ed
ol id
Ġìĭľ ì¤ĳ
Ġpass eng
ĠìłĪ ì°¨
Ġqu ar
Ġh y
Ġìĸ» ìĿĦ
ì¦Ī ìĿĺ
¼ Ī
Ġë§Į ìķ½
ĠCh icago
Ġrecord s
ĠAng eles
ĠMus lim
Ġj ob
on n
íĺ¸ ìĦł
ĠëĨį ìĹħ
Ġet f
Ġpat tern
Ġf lo
ĠìĨį ìĹĲ
ë²Ī íĺ¸
Ġë¥ ĺ
Ñ Ģ
ë³´ ëĵľ
ous ly
P A
Ġìľł ìĥģì¦Ŀ
Ġê¸°ëĮĢ ê°Ĳ
ste in
Ġadminist ration
est ic
Ġadd ress
ĠC reek
Ġìļ´ìĺģ íķĺê³ł
íİ Ļ
Ġì·¨ ê¸ī
ëĺĲ íķľ
Ġdefe ated
ĠF er
ì§Ħ ìĿ´
ĠCon f
ĠP C
ìĹ°êµ¬ ìĨĮ
ĠìĿ¼ ìĥģ
ëį° ë¯¸
ĠíĻĺ ìŀĲ
Ġoccur red
ĠD r
Ġch arg
å ¸
ìĿ¸ êµ¬
ĠëıĻ ë§¹
ĠìļĶ ë¦¬
ĠíķĺëĬĶ ëį°
ĠëıĻ ë£Į
ĠìĽĲ ê²©
ver t
Ġëŀ ľ
Ġarg ued
ĠìłĦ ìĹŃ
Ġsex ual
Ġì§ģ ìĹħ
ìĪĺ ìĹĲ
ëĲĲ ê³ł
Ġinflu enced
Ġëª» íķĺëĬĶ
Ġeff orts
ì į
ë²ķ ìĿĢ
ìĸ´ ìĦľ
Ġfla g
ìĭľ ë¶ĢíĦ°
Ġë© ķìĭľì½Ķ
an ced
ĠìĤ¬ìļ© íķľ
Ġìŀ¬ ë£Į
Ġìłľ ìŀ¬
ĠìĪĺì¤Ģ ìĿĦ
Ġde ep
ĠìłĦ íĮĮ
Ġknow ledge
Ġl if
u a
ĠìĿ¼ íĻĺ
Ġcomp osed
Ġord ered
ìĬ¤ íı¬ì¸ł
Ġlaw s
ê¶Į ìĿĢ
ĠG o
Ġìĭľìŀ¥ ìĿĢ
ìĤ° ìĿĢ
Ġìĵ ¸
ë§¤ ë§¤
Ġconst ructed
Ġgu itar
ê³µ ê°Ĳìĸ¸ë¡ł
Ġì¤Ħìĸ´ ëĵł
ib ly
Ġíİĺ ìĿ´
Ġê¸° íļĮ
ĠA ut
ĠThe ir
Ġë¶Ģëĭ´ ìĿĦ
Ġìļ°ìĪĺ íķľ
Ġex tended
Ġ8 4
Ġìĭ± ê°Ģíı¬ë¥´
ì¹´ ëĵľëĬĶ
Ġë°°ìļ° ìĿ´ëĭ¤
ĠìłĦëħĦ ëıĻê¸°
Ġê°Ģê¹Į ìĿ´
Ġë³´ ìĥģ
ph as
Ġê³ł ê¸ī
Ġass um
ĠM ill
om a
~ )
Ġê¸ī ê²©
Ġf ace
Ł ìķĦ
ĠëĤ¨ ìª½
ylvan ia
Ġsugg est
ĠìĦ¸ ìĽĮ
Ġn ine
ë¥ĺ ìĿĺ
ê¸° ëĭ¤
ĠK n
íĺ Ķëĭ¤
ê¸Ī ìĿĺ
Ġmethod s
Ġelect ric
Ġê°Ģ ìĨį
ur b
om er
Ġoffic ially
Ġì²ł ìłĢ
ĠìĪĺ ì£¼
Ġë³´ ì¦Ŀ
Ġd ial
ìĭľìŀ¥ ìĹĲ
Ġprote ct
ĠBro wn
ìĭ± íĦ´
Ġê·¸ëŀĺ íĶ½
ĠêµĲ íĻ©
ĠAmeric ans
ìķ¡ ìĿ´
Ġì¶Ķ ì²¨
Ġê°ľë°ľ ìĿĦ
Ġêµ¬ì²´ ìłģìĿ¸
ìŀ ł
ĠT wo
ìĭľ ë¡ľ
Ġì¶© ì²Ń
Ġë§ŀ ìĿ´
Ġfoot ball
Ġê¼ Ń
ĠìĿĺ ìĭ¬
Ġì±ħ ìŀĦìĿĦ
ĠìłĲ ëıĦ
ed s
ĠR ob
Ġsu c
ĠëĬ¥ ëł¥ìĿĦ
Ġhon or
it ted
al and
az z
a res
ĠëĮĢ ìĤ¬
ê±´ ìĿĺ
Ġpromin ent
ĠëĮĢ ë§Į
ìĦ± ìľ¼ë¡ľ
Ġë¯¸ ìĦ¸
Ġíķĺ íĸ¥
Ġë³Ħ ëıĦìĿĺ
Ġstre ng
Ġcom ment
ĠìĭľëĮĢ ìĹĲ
Ġíĥ ĵ
Ġp il
ëª¨ íĨł
ĠìĪľ ê°Ħ
ĠíĶ¼ ë¶Ģ
Ġkb ê¸Īìľµ
ë§ĮìĽĲ ìĿĺ
Ġresult ed
ĠìłĦ ëł¥
ĠG r
Ġë§Ľ ìĿĦ
Ġs ense
Ġwee ks
Ġìłķ ë¦¬
Ġf lu
ì§Ģ êµ¬
ĠC D
Ġìļ ķ
Ġì»¤ë®¤ëĭĪ íĭ°
ĠAustral ian
ĠìĤ¬ëŀĮ ëĵ¤ìĿĢ
Ġê¸įìłķ ìłģìĿ¸
ëĭ¨ ìľ¼ë¡ľ
Ġfun ctions
ĠìĬ¤ ìĽ¨ëį´
ìĤ¬ìĹħ ìĿĦ
ĠG al
Ġê·¸ëŀĺ ìĦľ
Ġëĵ Ģ
ĠìłĦ ìĨ¡
ĠìĪĺ ëĬ¥
ad ed
Ġë¶ģ ë¯¸
ĠìĨĮìĭĿ ìĹĲ
Ġmay or
íĪ °
Ġd u
ĠPr ince
st ra
ìī ½
ë²Ķ ìľĦ
ì¿ ¨
íĨ¨ ë¦Ń
Ġì£¼ íĮĮ
ĠìłĦ ëĤ¨
ë ĩ
k en
ĠT om
Ġaut om
Ġmain tain
ĠÂ £
¨ ëĭ¤
Ġê²½ìŁģ ëł¥
ors hip
ĠY ear
Ġ196 1
Ġrec ording
ĠìķĦ ëĤ´
Ġë¡ Ŀ
Ġê²° ìĿĺ
Ġh undred
Ġì§Ģ ìŀĲ
Ġab ility
ĠìĻ Ķ
íıŃ ìĿ´
Ġremov ed
ul ly
Ġì¹ ł
Ġmod els
ĠëĮĢíķ´ ìĦľëıĦ
ĠS ur
ìłķ íĨµ
Ġident ified
ë¯¼ êµŃ
v ement
Ġìłľìŀĳ ëĲľ
ĠëĤĺ ë¬´
Ġìłľ ìłķ
Ġë³´ ê´Ģ
Ġë³´ìĹ¬ ì£¼
ĠìĨĮ ìĥģê³µ
ìĬ¤ëŁ½ ê²Į
ì²´ ìĹĲ
Ġb r
ĠìĤ¬ëŀĮ ìĿĦ
íĺģ ëªħ
Ġd rug
Ġli ber
Ġ194 4
ĠíķĢ íħĮíģ¬
ìĸ´ ìķ¼
ĠB ank
Ġele ctions
ìħĶ ëĦĲ
ë¬¼ ë¡ľ
Ġì°¸ìĹ¬ íķľ
ì¤Ģ ë¹Ħ
Ġë°ĶìĿ´ ëŁ¬ìĬ¤
g ram
Ġsc reen
íķ´ ì§Ħ
ê°Ģ ìĹĲ
Ġë Ń
ast y
ĠíļĮ ìĤ¬ìĿĺ
ëĭ¹ ìĿ´
ĠìĦ± ìłģ
Ġth r
Ġhous es
Ġë¶Ģ ëĵľ
Ġë¹Ħ ëĤľ
ur t
Ġoper ating
Ġcamp us
ĠCol umb
ans as
Ġre ject
um ber
Ġd edic
ĠíĨµ ìĿ¼
Ġc ard
ĠìĪĺ íĺľ
ĠC at
ĠU nder
Ġíľ´ëĮĢ íı°
Ġì¶ľìĭľ ëĲľ
ĠDiv ision
he t
ë¯¸ ëĤĺ
ffic ient
Ġres our
ĠC la
Ġë¬¸ íķĻ
Ġa im
ceed ed
Ġst aff
ìĹĨ ëĬĶ
ĠìķĬ ìľ¼ë©´
ìĪĺ ëıĦ
Ġcont ain
Ġliter ature
Ġm ax
ìĿĮ ìķħ
Ġê³µê²© ìĿĦ
Ġë¯¸ ëĭĪ
Ġnot able
ë°ĺ ëıĦ
] .
ê³ł ëĬĶ
ìĹĪ ëĬĶëį°
ed om
Ġdise ase
Ġcitiz ens
ëĭ¹ íķľ
ĠK h
ëª ĩ
Ġcontin ue
Ġê¸Ī ìĨį
ìłķ ìĿĢ
Ġdestroy ed
ĠìĽĢì§ģ ìŀĦ
Ġm ill
Ġn ative
ĠF re
ĠìķĦ ë¦Ħ
Ġdire ction
ĠW ind
Ġh ar
Ġsec urity
Ġì½Ķë¡ľëĤĺ ë°ĶìĿ´ëŁ¬ìĬ¤
íĻĶ ìłĲ
Ġkb êµŃë¯¼
Ġìĥģëĭ¹ íķľ
Ġfav or
Ġlgìľł íĶĮëŁ¬ìĬ¤
Ġsubsequ ently
th ing
Ġë¬¸ ìĿĺ
Ġê³µ íĻĶêµŃ
z z
ĠíķĺëĤĺ ìĿ´ëĭ¤
ĠëĮĢ íĻĶ
å Ł
Ġpl ans
Ġim age
d o
Ġìĺģ ìĸĳ
ì±ħ ìŀĦ
ĠìľĦìĽĲ ìŀ¥ìĿĢ
Ġê·ľëª¨ ë¡ľ
ĠD en
ĠEm peror
Ġëħ¸ íķĺìļ°
in ated
Ġle aving
Ġë°ĺ ë°ľ
ĠC E
Ġdec re
ĠìĦ± ìļ°
ĠìĦł ì§Ħ
ìĸ´ ìĻĢ
Ġì¤ĳ ë°ĺ
ì§ Ŀ
ĠìĪ «
íĻľ ëıĻìĿĦ
v is
ìĸ Ģ
augh t
Ġport ion
ĠìĿ¸ ëł¥
Ġê¹ ĬìĿĢ
Ġcomb ined
Ġed ition
Ġra ised
at ur
Ġìļ´ ìĨ¡
ĠëĮĢ ë¦¬
Ġprob ably
Ġêµ¬ìĦ± ëĲĺìĸ´
ī ìĿĢ
Ġì ĩ
Ġg rew
ĠëĮĢ íķĺìĹ¬
Ġëĭ¨ ë°±
Ġì£¼ìĭĿ ìĿĦ
Ġagre ement
Ġpl anned
Ġì¡° íļĮ
Ġpart ies
Ġë¶Ħìķ¼ ìĿĺ
Ġëħ¹ ìĿĮ
ĠìĤ¬ëŀĮ ìĿĺ
Ġê¸°ë¡Ŀ ìĿĦ
ê±°ëŀĺ ìĨĮ
ĠìķĦ ìļ°
ĠP ublic
Ġìķ Ļ
.âĹ İ
Ġanal ysis
Ġpos itive
ĠJ ust
ĠìłĢ íķŃ
ĠìĹ¬ íĮĮ
Ġíı °
ĠGovern ment
im al
Ġcrit ical
Ġë¶Ģ ë¥´
Ġcre ation
ìĬ¹ ìĿĦ
Ġce o
ĠìĦľ ìĭĿ
Ġy et
Ġë°©íĸ¥ ìľ¼ë¡ľ
ëłĪìĿ¼ ë¦¬ìķĦ
ë Į
p lay
Ġìŀĳ ëħĦ
Ġê ¶¤
Ġin n
ëĬ Ħ
Ġë¶Ģ ì±Ħ
ag ing
Ġco al
Ġìłľ ìĿ¼
Ġt akes
íģ¬ ëĬĶ
Ġë¶ģ ìª½
c a
ìķ¡ ìĿĦ
â ĨĴ
Ġcell s
ìłľ ìĻĢ
S S
ë§Ŀ ìĿĦ
Ġar rest
Ġbelie f
um an
ĠìĹ¬ ìĿĺ
ĠìĨį íķĺëĬĶ
Ġsurround ing
ĠB oth
Ġê¸°ë¡Ŀ íķĺë©°
200 9
ĠìłĦëŀµ ìĿĦ
Ġfl ight
íĻĶ íķľ
ê¹ ¨
Ġ6 6
c her
Ġsay ing
Ġë³¸ê²© ìłģìĿ¸
i as
Ġst ay
Ġcap ac
ol es
ì ¯
Ġìłķ ë¹Ħ
Ġcolla bor
ì¹´ ìĻĢ
S ome
Ġê¸°ìĪł ìĿ´
Ġì¸ µ
Ġíı¬ ê¸°
ad ium
Ġ ri
Ġìĺ¬ ëŀĲ
Ġê°Ĳëıħ ìĿĺ
ê°ľ íĺģ
Ġìĥģíĥľ ëĭ¤
Ġìĺ µ
ìĪĺ ìĻĢ
g a
Ġl ic
Ġë¶Ħ ëªħ
ë¬¸ ìĿĢ
Ġam b
ĠíĿ ĺ
Ġh yp
ĠJer sey
Ġì±Ħ ë¬´
Ġê°Ģ ë¡ľ
ëĲĺìĹĪ ëįĺ
lud ing
Ġì²´ íı¬
la nder
ë¦¬ ìĹĦ
ĠìĹ° ê·¹
Ġìłľì¡° ìĹħ
Ġê¸Īìľµ ìľĦ
ĠìĦłìĪĺ ê¶Į
ĠìŀĲìĭł ìĿĦ
ĠìĹŃ ëŁīìĿĦ
sh ire
Ġst ories
ë¦¬ ì¸ł
ê±´ ìĿ´
ĠMart in
Ġrespect ively
ĠDemocr atic
ìĻ¸ ë¶Ģ
Ġìĭľ ê¸°ìĹĲ
Ġstart ing
Ġìĺ® ê²¨
Ġìĭ¤ ì²ľ
Ġíĺĳ ìķ½
Ġlead ers
Ġel s
ĠDes pite
Ġ194 1
ìĤ¬ ëĵ¤ìĿĢ
um p
íĤ¤ ìķĦ
ìĭł ìĿĺ
Ġì į¨
ĠM a
al a
íĦ° ëĬĶ
Ġê°ĲìĹ¼ ì¦Ŀ
ë§Ī ìĿ´
Ġì§§ ìĿĢ
Ġë³´ ìĻĦ
ĠB ook
ĠìĪĺ ë¹Ħ
" ;
Ġcont act
ĠëĲ Ĳ
ìĭ¬ ìĤ¬
Ġëĭ¹ ë¶Ģ
Ġëĭ¤ ê°Ģ
Ġwork ers
ì¸µ ìĿĺ
ë°ľ ìłĦ
Ġíĭ Ģ
ĠK e
ê¸Ī ë¦¬ë¥¼
it tle
Ġcont ribut
Ġëĭ¤ ìĪĺ
íģ´ ëŁ½
if orm
ĠíĺĲìĿĺ ë¡ľ
Ġvot es
c ont
ë§Ī ìĬ¤
Ġext ra
Ġtarg et
ĠìĤ¼ìĦ±ìłĦ ìŀĲëĬĶ
ĠëıĻ ëĤ¨
Ġê°Ģë¦¬ íĤ¨ëĭ¤
ĠVirgin ia
B M
ism s
ĠìĿ´ ìĬ¬ëŀĮ
g ian
Ġfl ow
ê±´ ìľ¼ë¡ľ
ì¤ĳ ê³µìĹħ
ĠìĪĺ ìĹ¬
ì° Į
Ġê²½ìļ° ëıĦ
ĠìłĪ ëĮĢ
ĠRec ords
Ġav oid
ëł Ģ
ä ¹
Ġëħ¸ ìĺĪ
Ġì» ¸
Ġëĭ´ ë³´
ĠAn other
ri ed
os en
Ġëĭ¹ê¸°ìĪľ ìĿ´ìĿµìĿĢ
Ġë²ķ ìłģ
Ġcer em
Ġnew s
ear ch
Ġlab or
ĠF estival
ĠB as
Ġìī½ ì§Ģ
ìŀĲ ìĽĲ
ë¯¸ ìĪł
Ġgo ing
ĠìŀĪìĹĪ ì§Ģë§Į
Ġsc ript
Ġì¤ĳ ìĹĲìĦľ
Ġë¿ Į
Ġì¤Ģ ëĭ¤
Ġêµ¬ì¡° ë¥¼
Ġu nd
Ġsimp ly
æ ³
ĠS ir
ë¸Į ëĿ¼
ë§Į ìľ¼ë¡ľ
ĠJ es
ĠìĨį ëıĦ
Ġìĥģëĭ¹ íŀĪ
Ġê³µ ë¶Ģ
ĠìŀĳíĴĪ ìĿĦ
Ġexpand ed
ot ed
ìĨĮ ë¡ľ
Ġìłģê·¹ ìłģìĿ¸
ë£ ©
ĠD is
ì»¤ íĶ¼
ìĹĲ ëĦĪì§Ģ
ì§Ī íĻĺ
b ur
Ġapp lied
¾ ¼
ĠS um
Ġsc ene
Ġì¶ľìĭľ íķľ
Ġìľł ë°ľ
ëĿ½ ìĿĦ
ĠìĦĿ ìľł
ìĤ¬ ì¹´
Ġsp irit
ard en
Ġëª¨ëĭĪíĦ° ë§ģ
ê´Ģ ìĹĲìĦľ
ëĦĲ ë¦¬ìĬ¤íĬ¸
Ġfig ure
± Ģ
ĠìĤ° íķĺ
g ress
ĠìĤ¬ìĿ´ ë²Ħ
r ical
Ġê´Ģëł¨ íķľ
Ġì´Ŀ ê´Ħ
Ġk m
on ent
Ġcolle ct
Ġde ad
Ġrail way
ë³´ ìķĪ
Ġ195 6
ë¶Ħ ìĦĿ
iz es
ìĭł ìĿ´
ì½Ķ ëĵľ
Ġqu ality
íģ¬ ë¡ľ
Ġë¶ķ ê´´
Ġab and
Ġpr ime
Ġpla ces
ìĤ° ìĿĺ
P h
ìĭľ ìĻĢ
ìĿ¸ ëĵ¤ìĿĺ
ĠìŀĲ ëŀĳ
Ġr ise
Ġì½ ©
F rom
Ġexp ansion
w an
íĦ° ë¥¼
Ġìłľ ìĭľíĸĪëĭ¤
w ater
ìĿ¼ ê°Ħ
s ylvania
Ġm is
Ġìĭľ ìĥģ
ĠìĿ´ ê°ĻìĿ´
Ġë¯¸êµŃ ê³¼
ĠL ater
ĠìĨĮ ë°©
Ġanim als
ĠíĥĦ ìĥĿ
Ġnuc lear
ì» ·
oc ated
ç ¥
is ters
ĠëĨĵ ê³ł
ĠëĤ ³
Ġëħ¸ ìĦł
Ġp ra
ĠìķĮ ëłī
Ġopp osed
Ġ195 8
ĠìĪĺìĿµ ë¥ł
Ġvict ory
æ ł
Ġë© ¸
Ġm ess
P ro
ê¸Ī ìĨį
Ġ194 6
ĠF lor
lud ed
ĠìĹĺ ë¦¬
Ġs ns
b orn
ĠíĥĢìĿ´ íĭĢ
ĠT imes
ge nd
Ġëĸ¨ìĸ´ ì¡Įëĭ¤
Ġcurrent ly
ĠìĦłë³´ ìĺĢëĭ¤
ì§Ħ ìĿĢ
Ġ6 3
ĠSen ate
( )
Ġë®¤ì§Ģ ì»¬
ĠãĢ İ
O ne
Ġëį ¸
íĿ ĺ
ê²½ ì°°
ĠìĨĲ íķ´
Ġsh ot
ëģ Ķ
Ġem phas
Ġìĺ¬ ëł¸ëĭ¤
ëĿ¼ ë¹ĦìķĦ
ĠìĦłìĪĺ ìĿ´ëĭ¤
ë¯¸ ë¥¼
Ġmem ory
íķ¨ ìĿ´
ĠìĤ¬ ëĬĶ
ìĹ ĳ
Ġìŀ¬ ëĤľ
ou red
ĠíĴįë¶Ģ íķľ
ĠComm ittee
ìĿ´ ëįĺ
ê°ľ ìĿ¸
êµ° ê³¼
ob ile
Ġp oll
Ġconflic t
ĠĠĠĠĠĠĠĠ ĠĠĠ
Ġsett led
æ ´
ë¹Ħ íĬ¸
Ġfin ally
Ġm m
ĠìĿĮ ë£Į
Ġhyd ro
et y
Ġsl ow
Ġìĭľ ìłĲ
Ġê²½ìłľ ìłģ
Ġë¹ ļ
os is
ĠíķĦ ë¦¬íķĢ
Ġìŀħ ëł¥
Ġë§Įëĵ¤ ê³ł
Ġë¶Ģ ìĥģ
Ġê³µ íĨµ
ĠëĤĺ ìĻĢ
Ġë¹ł ìł¸
Ġanc est
Ġê³łê°Ŀ ìĿĦ
Ġrul es
Ġwin ter
Ġìĺ¬ ë¦¬
ìĿ´ ëĦĪ
Ġair port
Ġe c
ric ts
Ġíĺ¼ ëŀĢ
ir l
ing er
Ġë ·
Ġìĺ¤ íĶ¼ìĬ¤
od ies
ĠìĿ´ìĸ´ ì¡Įëĭ¤
Ġì§Ģ ìłĲ
ĠìľĦ ê¸°
ëĵ± ë¡Ŀ
ĠJ ud
ĠìłĦ íķ´
Ġì§ĳ íķ©
Ġë°ľìĥĿ íĸĪëĭ¤
o ir
Ġ8 00
Ġclaim s
Ġë³¸ê²© ìłģìľ¼ë¡ľ
L e
b l
Ġì¦Ŀ ëªħ
Ġê¸°ë¡Ŀ íķĺê³ł
ĠìĦľ ë¶Ģ
ìŀĲ ë£Į
ab eth
Ġë©Ģ íĭ°
Ġë°Ŀ íŀĮ
Ġsp orts
Ġì£¼ ìµľ
Ġref used
Ġsk íķĺìĿ´
Ġë§Ī ìĿĮìĿĦ
ìĹ° ìĿĦ
Ġìĺ Ĩ
Ġíķ© ê²©
Ġge nder
Ġ193 9
Ġë¹ĦíĬ¸ ì½Ķ
k g
Ġìľłì§Ģ íķĺê³ł
Ġìłľ ëª©
Ġimmedi ately
Ġì»¨ ìĦ¤íĮħ
Ġì§ĢìĹŃ ìĿĢ
Ġmark ed
ê¸° ìłķíĨµ
ì¦Ī ë¥¼
ĠìĹ° ê´Ģ
Ġë³¸ ë¶Ģ
ur a
Ġíı¬íķ¨ ëĲľëĭ¤
ĠíĻĶìŀ¥ íĴĪ
Ġìľł ê¸°
ĠìĿ´ëģ ĦëĬĶ
Ġ19 00
íı´ ë¦¬ìĺ¤
ĠëĬĲëĤ Ħ
an o
Ġê ±±
ì±Ħ ëĦĲ
Ġrec over
ëł Ľ
ĠëĿ¼ ëĶĶìĺ¤
ìĭ¬ ìĿĺ
Ġìĸ¼ë§Ī ëĤĺ
ĠìĤ´ íķ´
Ġê³µ ëŀµ
Ġë© ľ
Ġder ived
ad y
Ġìłľ ê³ł
Ġë©Ķ ìĿ¸
ver se
ub e
> .
P S
Ġê·¸ëŁ° ëį°
ëĿ¼ìĿ´ ë¸Į
Ġ Â·
Ġgr anted
Ġwrit er
ìĪ Ń
Ġë¹Ħìļ© ìĿĦ
ìĿ´ëĿ¼ ë©´
ĠëĤ´ìļ© ìĿ´
ħ ìĬ¤
Ġê²ĮìŀĦ ìĿĢ
Ġc ru
Ġat tended
Ġb ranch
Ġatt ention
íĻĶ íķĺëĬĶ
Ġë¹Ħ ìľ¨
ë²ķ ìĿ´
Ġìĭ Ń
ì¡° ì§ģ
Ġì§Ħíĸī ëĲľ
Ġ195 9
Ġg lobal
Ġ å
Ġsymb ol
Ġì²´ê²° íĸĪëĭ¤ê³ł
Ġjour nal
Ġê°Ģ ëŁī
ĠíĥĢ ê³ł
Ġback ground
Ġìļ´ ìłĦ
ĠìĿ¼ ìĸ´ëĤľ
ĠëĮĢíĳľ ìĿ´
Ġê³¨ íĶĦ
ĠìĺĪìĥģ íĸĪëĭ¤
Ġex pected
ê°ľ ê°Ģ
ì¶ľ ìĿĦ
Ġë¡ľ ìĬ¤
ĠëĨĴ ìĿ´ëĬĶ
íĻĢ ëĶ©
ì ©
Ġb ridge
ĠìĦľë¹ĦìĬ¤ ëĬĶ
ĠìĦ¤ë¦½ ëĲľ
u ate
Ġcont ent
Ġìĺ¤ìĬ¤íĬ¸ ë¦¬ìķĦ
ĠSec ret
Ġa st
Ġ7 2
Ġfollow s
Ġìłģ ìŀĲ
Ġrelig ion
êµĲìľ¡ ì²Ń
Ġíİ¸ ìĦ±
ĠëĤĺ ëĬĶ
ul s
Ġre ign
Ġpl ants
Ġëĭ¬ íķľëĭ¤
Ġìĭľìŀĳ ëĲľ
ë¶Ħ ê°Ħ
Ġì§ĢìĽĲ íķł
Ġì¢ħëª© ìĿ´
Ġìĭłìļ© ì¹´ëĵľ
Ġê³³ ìĹĲ
Ġì¼ĢìĿ´ ë¸Ķ
ì§Ģ íĳľ
Ġê¸° ìŀ¬
ĠìŀĪ ìĿĮìĿĦ
Ġíĳľ ê¸°
ëªħ ê³¼
nd ing
ìłķ ì¹ĺ
ë¥ĺ ìĹĲ
Ġg ained
ĠëĤ¨ ìĿĢ
Ġearli est
ĠF ilm
ĠêµĲ íļĮ
Ġbel ong
ĠìĿ´ ì£¼
ĠíĿ¡ ìĪĺ
Ġc orn
Ġ *
ĠL ong
ĠêµŃë¯¼ ìĹ°ê¸Ī
ëĵ¬ íķ´
ĠìĽĲ ìŀĳ
Ġrecogn ized
ìĭľ ê¹Įì§Ģ
ĠD NA
ĠB ill
Ġorgan ized
Ġìĭł ìŀĦ
Ġë°Ķ ëĿ¼
Ġart icle
it able
Ġacqu ired
Ġìĸĳ ìŀĲ
Ġ194 2
Ġopp osition
Ġgrow ing
ê´Ģ ìĿĺ
ĠìŀĲ ê·¹
y ond
Ġ194 9
Ġë³ĳ ìĽĲ
âĢ ľ
ĠìĦł ë°ķ
Ġìĭ¬ê°ģ íķľ
Ġgovern or
Ġb ord
ĠìĻ ¼
ĠL ibrary
Ġë§Į íķľ
Ġval ues
ĠC O
Ġlab el
Ġserv es
Ġwith d
ow nt
Ġu pper
Ġëĭ¨ìĪľ íŀĪ
Ġê°Ģ ìĿ´ëĵľ
Ġpresident ial
m ond
Ġê°Ħ ëĭ´
ëħĦ ëıĦ
ĠJohn son
Ġê°ľ ìŀħ
Ġper man
il i
Ġc arri
ë¦¬íı¬ ëĭĪìķĦ
Ġìľł íļ¨
ĠíĻĺê²½ ìĿĦ
ìĹ ½
Ġdou ble
ëĲĺ ìŀĲ
Ġtra in
ĠPort ug
åŃ ¸
Ġs ister
Ġê³µ ìĤ¬
Ġëĭ¤ìĿĮ ìĿĦ
Ġhead quar
ĠíĮĮ ìĥĿ
Ġindepend ence
Ġform al
200 7
ent ed
W ith
Ġhe re
Ġìĺ¬íķ´ ëĬĶ
ĠìĬ¤ìľĦ ìĬ¤
M S
ìĶ¨ ìĿĺ
ìĦľ ë¡ľ
ĠìĭľëĮĢ ìĿĺ
ĠëıĻ ìª½
Ġar ms
b a
Ġ7 00
æ Ľ
Ġê²½ ê³ł
ĠëıħìĿ¼ ìĿĺ
d es
Ġd ia
b p
íĨł ë¦¬
Ġalong side
Ġt able
Ġë¶Ģëĭ´ ìĿ´
ĠìŀĦ ê¸Ī
Ġserv ing
Ġdist ance
Ġë§ĪìĿ´íģ¬ë¡ľ ìĨĮíĶĦíĬ¸
20 22
out heast
ìĦ¸ ìĿ´
Ġë³µ ì§Ģ
ê°Ģ ìŀħ
ĠìĹ´ ìĸ´
Ġbl ue
Ġìļ°ë¦¬ ê°Ģ
Ġë°Ŀ íŀĪ
Ġconnect ed
Ġsol id
Ġê°¤ëŁŃìĭľ s
Ġcondu cted
ìĤ¬ ëŀĳ
Ĳ ìķ¼
ĠLe e
ìŀĲ ëĵ¤
ĠìłĲ ìłĲ
Ġì²´ íģ¬
Ġprov in
Ġë°° íı¬
ëĭ¨ ì§Ģ
Ġì°¨ì§Ģ íķĺëĬĶ
ren ce
Ġëļ ľ
Ġê·¸ ê³³
ì¤ĳ ìĿ´ëĭ¤
ap ed
Ġf elt
Ġíķ´ ìĦľ
ĠPenn sylvania
ĠM el
l ines
ë°© íĸ¥
Ġrefer ence
Ġíķĺ ë©´ìĦľ
ì Į
Ġ6 2
Ġch art
ĠìłĦë¬¸ê°Ģ ëĵ¤ìĿĢ
ĠZe aland
Ġìĥģ ê´Ģ
ìĹħê³Ħ ìĹĲ
Ġ194 7
ed ing
Ġê°Ģ ì¡Įëĭ¤
Ġì¡° ìķ½
Ġ8 8
ì¡° ê±´
Ġro t
Ġd im
ĠëĮĢíĳľ íĮĢ
ê³Ħ ì¢Į
Ġì§ ĵ
ë¥ĺ ê°Ģ
Ġê²°ìłķ íĸĪëĭ¤ê³ł
F L
ĠëĮĢíļĮ ìĹĲìĦľ
Ġsoft ware
Ġìĭł íĿ¥
Ġsim ple
ĠAd d
ìĥģ ìĬ¹
Ġp un
Ġíķľ ë¯¸
ìĿĺ ë£Į
ĠíĶĮ ëŀĺ
Ġ6 8
Ġspe ech
Ġëıħ íĬ¹
ĠíıĲ ìĩĦ
ìĤ¬ ëł¹
ëĿ¼ íģ¬
Ġallow ing
ĠìĥĿ ë¬¼
al ing
íĶĦ ëĿ¼ìĿ´
ĠìĪĺ ê¸ī
ĠO tt
ĠG re
Ġíĺĳ ëł¥ìĿĦ
Ġshow ed
ĠíĶ¼ ìķĦ
Ġthe ore
ĠíĤ¤ ìĽĢ
ĠA D
ĠN ot
Ġac adem
Ġg iving
iqu es
v in
Ġad ult
íĺķ ìĿĺ
Ġp al
ì¢ħ ìĿ´
on ia
g al
Ġser ious
ĠServ ice
íĮ ¡
ĠM ain
Ġscient ific
ĠìłĪ ì°¨ë¥¼
Ġm ile
ĠìłĲ íı¬
Ġnecess ary
ĠëĤ´ ìĦ¸
Ġfig ures
r ong
ì¹ľ ëĭ¤
Ġê³µê³µ ê¸°ê´Ģ
ĠìĿ´ë¦Ħ ìĿ´
Ġp owers
ë²Ħ íĬ¸
Ġìľł ë£Į
Ġíĳľ ë©´
ìĿ¸ë¯¼ê³µ íĻĶêµŃ
s s
le ction
ĠIn c
Ġë´ī ìĤ¬
ë©Ķ ìĿ´
Ġmat ter
Ġê·ľ ì¹Ļ
ê²ł ì§Ģë§Į
Ġ {
Ġìļ° ë¦¬ëĬĶ
Ġëĭ¤ë¥´ ëĭ¤
íļĮ ê³Ħ
ì²´ ë¡ľ
ìļ© ìľ¼ë¡ľ
Ġoffic ers
Ġìŀ¬ ì§ģ
ëĶĶ ì§ĢíĦ¸
ëĶ° ëĿ¼
ĠíķĺëĤĺ ëĬĶ
Ġì°¨ ìĽĲìĹĲìĦľ
ĠR om
ran ge
ĠV iet
Ġë¶ģ ë¶Ģ
ĠM u
ĠìĿ¸ ë¯¼
ĠCl ass
Ġvers ions
Ġf ell
A R
ĠìľĦ ìķĪ
ĠIs lander
Ġad apt
z il
Ġë³´ ëĭĪ
Ġê°ľ ë§ī
ĠëłĪ ë²¨
ĠìĦľ ìª½
ĠëĮĢ ë³Ģ
Ġn ort
d b
ĠíĮĢ ìĿĺ
ĠíĮ¨ íĦ´
Ġrec omm
Ġìµľ ìĦłìĿĦ
ĠìľĦì¹ĺ íķ´
Ġì§Ģ íĤ¤
V D
¬ ëĭ¤
ian a
ĠP an
ê ¾¸
Ġìŀ¬ ìĤ°
íĪ¬ ìĬ¤
Ġë¶Ģ ìĭ¤
I S
l ow
ound s
é ĸ
Ġ6 7
ty pe
ìĤ¬ ëĵ¤ìĿĺ
ê°ľ ìĦł
Ġas pect
ĠJ ul
Ġpe ak
ur ches
ĠêµŃê°Ģ ìĿĺ
in ate
ë¬´ ìĹŃ
Ġëĸ¨ìĸ´ ìł¸
ĠëĮĢíĨµëł¹ ìĿĺ
Ġê°Ģ êµ¬
Ġ195 7
p ret
íĽĪ ëł¨
ruct ure
Ġë¬´ ê²Į
ìĺ¨ ìĿĢ
Ġí ľ
erv ative
ra q
Ġê¶Į ê³ł
ĠìĿ´ ì§ĳ
Ġë§ŀ ì¶Ķ
Ġconst ant
ĠìĤ¬ íĽĦ
Ġst ra
é Ľ
ĠìĬ¤ íĬ¸ë¦¬
w ise
g u
Ġë° ´
Ġs qu
ë³´ ê¸°
Ġcond ition
ĠìķĮ íĮĮ
íĸĪ ìĬµëĭĪëĭ¤
Ġ è
Ġê²Į ìĭľ
Ġì¶ľ ìĥĿ
Ġi ot
ê´Ģ ìĹĲ
Ġì ¤
ãĢĭ ,
Ġì§Ħíĸī íĸĪëĭ¤
i i
Ġcover ed
Ġìłĳ ì´ī
ĠB et
ëĭ ·
íİ ł
ì¹ĺ ìĹĲ
Ġë¡ ¤
ìĤ° íĻĶ
ĠD ou
ê¸Ī ìķ¡ìĿĢ
ĠAre a
Ġì£ Ħ
Ġsit es
Ġ6 1
Ġdec ades
Ġinsp ired
ĠE r
Ġparent s
Ġf ully
Ġ195 5
ĠJew s
Ġpolit ics
Ġì§Ģ ìĸ´
Ġíĺĳ ìĥģ
Ġatt ra
a it
ograph ic
Ġëħ¸ ë¥´
form ed
Ġattempt ed
Ġíı¬ë¥´ íĪ¬
Ġë°© ìĤ¬
ĠMc C
ĠDu ke
íķĺëĭ¤ ê°Ģ
D es
Ġëħ¸ íĽĦ
ĠëĮĢ ë¥Ļ
Ġê¸° íļĮê°Ģ
Ġ9 4
Ġag ed
ì¡Į ìľ¼ë©°
Ġíı¬íķ¨ ëĲľ
Ġê°Ģ íĨ¨ë¦Ń
Ġchar ge
ou d
ĠíļĮ ìŀ¥ìĿ´
Ġtw ent
Ġpart n
m iss
Ġì§ģ ìłĦ
ìłķë¶Ģ ê°Ģ
ê³ł ê¸°
ìķĪ íĥĢ
ĠE v
Ġen em
ĠS o
Ġdam age
m as
ëĮĢ ìłĦ
Ġê³ł ëıĦ
ĠíĮ¨ ìħĺ
Ġex tend
Ġfe el
íĺķ ìĿ´
ĠìĻ¸êµŃ ìĿ¸ìĿ´
Ġìĸ» ìĹĪëĭ¤
ì¡° ìĹĲ
Ġì°¸ìĹ¬ íĸĪëĭ¤
Ġold est
Ġp ack
íİ¸ ìĿĺ
ĠëĤĺíĥĢ ëĤ´ê³ł
Ġíı¬ ì§Ģ
Ġmathem at
Ġì´Ī ì²Ń
ê°Ģ ìĬ¤
E FA
Ġì «
Ġsp lit
Ġmus eum
Ġíķ´ ìķĪ
Ġequ al
íĥĢ ìĿ´
ëĲĺìĹĪ ì§Ģë§Į
æ Ĺ
200 6
íĶĦ ëŀĳ
Ġì°¨ ìĦ¸ëĮĢ
ĠëıĻ ê³Ħ
Ġmy th
n h
ĠìĨĮ ìħľ
Ġìļ¸ ìĤ°
Ġìŀĳ ìłĦ
ĠíĨµ ìĥģ
ë°Ķ ë¡ľ
Ġallow s
Ġê°ĢëĬ¥ íķĺë©°
ĠìĿĺë¯¸ ë¥¼
tern et
Ġart ist
Ġrail road
Ġê°ľë°ľ ìĹĲ
Ġê·¸ ëł¤
Ŀ ê°Ģ
ac he
ìĭ¤ ìłģ
Ġëĭµ ë³Ģ
æ µ
ĠìķĦ ìĿ¼ëŀľëĵľ
Ġcon text
Ġê³µ íı¬
ĠìłľìĻ¸ íķĺê³ł
íĶĦ ë¥¼
se x
Ġide as
Ġ9 3
ĠìķĦ íĤ¤
ĠìĦ± ìĿ¸
Ġrecomm end
Ġíķľ ì§Ħ
íķ© ë³ĳ
Ġì°½ ë¦½
Ġë¶Ģë¶Ħ ìĿĦ
Ġë¹ĦêµĲ íķ´
Ġìķ¡ ìħĺ
Ġequip ment
or ter
ĠO per
Ġê¸° ìĥģ
ĠH u
ĠìĪĺ ìĹħ
Ġíŀ Ĳ
Ġë¬¸ìłľ ë¡ľ
Ġle ave
Ġprog ress
Ġì§Ģë¶Ħ ìĿĦ
Ġë© ĺ
ë¥ ¨
Ġfac ilities
Ġì´ī ì§Ħ
ì²ĺ ë¦¬
ĠìĦľë¹ĦìĬ¤ ê°Ģ
Ġneg ot
ìĹĲìĦľ ë§Į
Ġë³Ħ ëıĦ
ĠM em
Ġì´ī êµ¬
Ġë©´ ìĹŃ
Ġlead ership
ì¤ĳ ìĿ¸
ĠO ver
ĠìľĦ ì¶ķ
ëħĦëĮĢ ìĹĲ
re ct
ĠS pe
ĠìĹ°êµ¬ ë¥¼
S c
Ġl te
Ġeth nic
âĪ ¼
Ġis lands
Ġê²½ ëĤ¨
ĠìĬ¤ íĤ¬
Ġcontem porary
ĠìĿ´ ëĵ¬íķ´
Ġ9 2
Ġë®¤ ì§ģ
" :
Ġì¿ł íı°
ĠìŀĪëĭ¤ ë©´
ë²Ħ ê·¸
Ġmaterial s
Ġs ought
Ġre ach
ĠìĽĮ ìĭ±íĦ´
Ġë²ķ ìłķ
Ġê°Ģ ìĿĦ
Ġë³¸ ìĿ¸
Ġle ague
Ġíķĺ ê²Į
Ġcompet ition
Ġfe at
ëĿ¼ìĿ´ ìĸ¸
Ġë²ł ë¥´
Ġg reen
Ġqu al
A F
Ġì¢ ģ
Ġ ç
Ġkt ëĬĶ
Ġ195 4
Ġ q
êµĲ íļĮ
Ġport ray
Ġì½ĺ ìĦľ
Ġst ars
if ically
íıŃ ìĿĦ
ĠìĤ¬ìĹħ ìĹĲ
ì§Ģ ìŀĲ
Ġproper ties
Ġsubsequ ent
ĸ ¶
Ġì½Ķ ë¦¬ìķĦ
Ġnorm al
Ġëĭ¨ ìľĦ
Ġdist ingu
ê¸¸ ìĿĦ
ĠíħĮ ìĿ´
Ġì§Ģ ì£¼
Ġë¶Ģ ì²ĺ
ë§Į íķľ
Ġsl ight
ì£¼ ë¯¼
Ġh arm
Ġê³ł ìĸĳ
Ġë°ĺìĿĳ ìĿĦ
ĠBudd h
Ġ202 6
le vel
ĠìķĦ ì£¼
ìĨĮ ìĻĢ
ĠìĨį ëıĦë¥¼
íĮĲ ìĿĦ
oc c
ê³Ħ ìĹĲ
Ġcapt ured
Ġattack s
ĠDe f
Ġal le
ëĵ¤ ìĸ´
ĠíĬ¸ ëŀľ
Ġequ ival
ĠëĤĺëĪ ł
Ġp urs
Ġac id
ĠìķĮ ë¦¬
ëĦĪ ì§Ģë¥¼
æĿ ĳ
íķĻ ìĿĺ
Ġb illion
ê´Ģ ìľ¼ë¡ľ
ĠìĤ¬ìļ© ëĲĺìĹĪëĭ¤
ĠN az
ĠìĻ¸ ìĭĿ
ter ed
êµŃ ê³¼
ĠëĦĵ ìĿĢ
ì° į
e es
Ġp aid
Ġact ually
A ll
ĠS k
Ġs ac
Ġë°° íĦ°ë¦¬
ig ration
Ġíı¬ ìĬ¤ì½Ķ
ëĭ´ ìĿĦ
Ġë¹Ħì¤ĳ ìĿĢ
Ġìı ł
Ġregard ed
Ġíļ ¡
ĠíĶĮëŀ«íı¼ ìĿĦ
e qu
é Ģ
Ġfin ished
Ġìĭ¤ ë¬´
og ue
C on
Ġmention ed
ĠëĤ ¼
Ġw ear
Ġíĺ¸ ì£¼
Ġë¹ Ļ
Ġìĭľ ìĤ¬
Ġspe ct
ĠI nt
íķĺë©´ìĦľ ëıĦ
Ġëª©íĳľ ì£¼
Ġsupp ly
ìĭĿ ìĹĲ
ëĵľë¡ľ ìĿ´ëĵľ
n y
Ġpla ys
or ph
ê³µ ìłķ
ĠM ur
Ġfriend s
Ġdedic ated
Ġíı¬íķ¨ ëĲĺìĸ´
ĠíĿĳ ìŀĲ
ì§Ģ ëĭĪìĸ´
ann er
æĸ ĩ
Ġexpress ed
ë§Ī ë¸Ķ
ê³µ ìĽĲ
ëħ ģ
ì¤ĳ íķľ
ĠF ollowing
cl ass
Ġìķł ëĦĲë¦¬ìĬ¤íĬ¸
Ġê´ĳ ë²ĶìľĦ
é Ŀ
Ġhistor ic
ownt own
Ġeffect ive
ìĬ¤ íı¬
Ġ194 3
ĠìĿ Ħ
ê³ ±
ĠëĶ ľ
ĠíĶĦëŀĳ ìĬ¤ìĿĺ
ë¯¼ ì¡±
Ġë°Ľ ê²Į
Ġmach ine
ĠComm unity
Ġear th
Ġofficial s
ìĿ¼ ëŁ¬
iz abeth
Ġì°¨ë³Ħ íĻĶëĲľ
ì±ħ ìĿĦ
ĠíĺĦ íĸī
ĠS il
Ġwe ight
ie val
ë¦Ń ìĬ¤
ĠB ow
Ġë¶Ī êµĲ
ĠëıĻ ìĸĳ
ëĲĺìĹĪ ìľ¼ëĤĺ
Ġl ibrary
ë¡ Ģë¡ľ
Ġren amed
Ġë°ľë§¤ ëĲľ
Ġch ap
ìŀ¬ ëĭ¨
in ity
ĠìłĦ ìĦ¸
ìĬ¤ì¼Ģ ìĸ´
C C
la h
Ġcal cul
en cies
ĠìłĦëĤł ë³´ëĭ¤
ëĤ Ļ
ap ers
Ġê°ķ ìĿĺ
ĠíĮĮ ìĿ¼
ìĺ ¹
Ġìĭ¶ ìĿĢ
Ġë§Ī ìĬ¤íģ¬
ê¸°ìĹħ ìĿĺ
ë¥¼ ë¦°
Ġ6 9
ëĵ Ī
Ġë§¡ ê³ł
Ġ195 2
ìĹ° ë§¹
Ġgo al
Ġins ide
Ġlet ters
íĺ¸ íħĶ
Ġë¶Ģë¶Ħ ìĿ´
Ġìĭł íĺ¸
Ġcomp ar
ìģ ĺ
l is
ĠH el
Ġëĭ¤ ìĦ¯
Ġnewsp aper
ĠìłĦ ìĤ¬
Ġì°¸ìĹ¬ íķĺëĬĶ
ar p
ĠìŀĲ ìĽĲ
Ġìĺ¤ íĶĦëĿ¼ìĿ¸
Ġex am
Ġdist ricts
Ġ195 3
T O
s i
ound ed
Ġme ant
íĮ ¬
Ġêµ¬ ìĨį
ĠëłĪ ëĵľ
ad s
ëĭ´ë³´ ëĮĢì¶ľ
Ġs amp
Ġm om
Ġb al
ĠOff ice
ìºĲ íĶ¼íĥĪ
Ġë¬¸ ìĿĦ
Ġcon qu
íĻĶ íķĺê³ł
íķľ ìĿĺ
ìķĦ ìĽĥ
Ġb urn
ĠìĹ° ëıĻ
ë ļ
Ġì²ĺ ë¶Ħ
Ġëª¨ëį¸ ìĿĦ
Ġj oint
Ġì¹ĺ ìĹ´
ĠìĺĪ ê¸Ī
ëłĪ ìĿ¸
b ra
Ġel se
Ġìį¼ ëĭ¤
Ġê²° ìĦ±
Ġw ild
st one
ĠëıĻ ìĽĲ
ë²ķ ìĽĲ
íķĺëł¤ ê³ł
Ġì¹ľ íĻĺê²½
k ins
Ġsuff ered
ĠëĶ° ëľ»
ëĲĲ ëįĺ
Ġeff ort
ĠíĸĪ ëįĺ
ĠìłĦ ë¶ģ
Ġident ity
ĠìĿ´ëģĮ ìĸ´
ê¸° ì§Ģ
ë¸Ķ ë¡Ŀ
ì¡ ¸
ĠPe ople
Ġë¶Īê°Ģ íĶ¼
erv ed
Ġth ings
Ġpurp ose
Ġdom estic
ë³´ íķ©
Ġro om
Ġë¶Ħ ìĤ°
ĺ ĳ
Ġa x
ĠU N
ĠìłĪ ê°Ĳ
ĠëĬ¥ ëł¥
Ġì°© ìļ©
ĺ ŀ
Ġìłķ ëıĦìĿĺ
ĠìĬ¤ ì½Ķ
Ġin ternal
Ġun ique
ion e
Ġì¢ħ ìĿ´
Ġê³ł ëĵ±
Ġìłľê³µ ëĲľëĭ¤
ad ing
ë¶ĢíĦ° ëĬĶ
I V
ĠìĿ´ ëĵ¤ìĿ´
íĭ° ìĬ¤íĬ¸
Ġprote ction
íĶĦ ìĿĺ
Ġê·¹ ëĮĢ
ic ian
ĠB ridge
ìĿĢíĸī ê³¼
æ Ļ
ëĬ¥ ëł¥
Ġchem ical
Ġìĺ ·
ëĭ¹ ìĿĦ
ĠìľĮ ë¦¬ìĹĦ
Ġì§Ģ ëĥĪëĭ¤
P U
ëĩ ¨
Ġëľ» ìĿĦ
Ġë²Ķ ìľĦ
Ġì£¼ ê¸°
Ġ7 6
I nd
ì§Ģ ìĸ´
Ġìĺ¤ìĬ¤íĬ¸ ëłĪìĿ¼ë¦¬ìķĦ
Ġown er
ĠìĿ´ ëĵ¤ìĿĺ
ìĭ¤ ìĹĲìĦľ
Ġë§Įëĵ¤ìĸ´ ì§Ħ
ëĭ¤ ë§Į
ìĹ¬ íĸī
Ġs ales
w er
Ġopp ort
ĠAlex ander
ê°Ģ ì¹ĺ
ĠìĿ¼ ëĭ¨
Ġele v
ë´ Ħ
Ġmov ing
ĠC ro
al y
ĠK enn
Ġb rand
Ġê·¼ ë³¸
Ġmount ain
ĠëģĿ ëĤĺ
Ġë§Įëĵ¤ ê¸°
Ġp le
ĠìĤ¬ìļ© íķ´
Ġmov ie
ĠPro t
ĠT ele
Ġìŀ¥ ë¥´
ĠJack son
Ġì£¼ ë§Ĳ
Ġtra ffic
ig er
Ġg raph
ëĶĶ ìĽĢ
Ġê·¸ëłĩ ê²Į
ĠíĬ¸ ë¦¬
ĠìĿĳ ìļ©
Ġfield s
Ġ7 7
E R
ĠN ap
Ġdes cend
ë° ¸
ĠíĿĲë¦Ħ ìĿĦ
ĠëıĻ ìĭľ
Ġì¦Ŀê°Ģ íķĺê³ł
r m
ed d
d own
Ġê´Ģ ê°Ŀ
Ġê°ķ ìłľ
Ġê¸° ê¸°
Ġ iron
Ġra in
Ġê³µê°ľ íĸĪëĭ¤
íģ °
Ġê¸¸ ìĿ´
Ġvir t
it age
ĠCh ampionship
ĠìĿ¼íĻĺ ìľ¼ë¡ľ
ri e
Ġë§Ĳ ê¹Įì§Ģ
Ġì°¸ìĹ¬ íķł
Ġref lect
ĠìłĦ íĽĦ
ìĺĢ ìľ¼ëĤĺ
ĠìĦľìļ¸ íĬ¹ë³Ħ
Ġse em
Ġë°© íĨµ
Ġê°ķ íĻĶë¥¼
íķ´ ì£¼ëĬĶ
Ġpre fer
ĠT em
Ġobserv ed
Ġë³ĢíĻĶ ê°Ģ
íĺķ ìĿĢ
Ġd ut
ì½ĺ íħĲì¸ł
c op
Ġê·¸ ìĹĲ
ìĦł ìľ¼ë¡ľ
act er
ìħ °
g ia
íĺķ ìľ¼ë¡ľ
Ġtri ed
ĠScot land
ìĥĿ ìĿĺ
ì¢ħ ìĿĢ
Ġë²ł ìĬ¤íĬ¸
Ġwe alth
Ġpre p
ĠíĶĦë¡ľ ëĵĢ
ë²ł ìĬ¤íĬ¸
Ġìĸĳ íĺ¸
aw a
ĠìłĦë§Ŀ ëĲľëĭ¤
ĠìĤ¬ ëł¹
ĠìłĦ ëĿ¼
ê³Ħ ìķ½ìĿĦ
Ġì²ĺ ë²Į
ìĭł ì²Ń
Ġì°¨ ìĿ´
Ġìłľ ëıĦë¥¼
ì°¨ ë¡ľ
Ġform ation
ĠëıĮ ëł¤
Ġìłķ ì²´
ìĽ °
ĠAm ong
ê°Ģ ì¡±
Ġplat form
ĠìĹħë¬´ íĺĳ
th ur
er a
ĠìĦ¸ê³Ħ ìĹĲìĦľ
Ġìĭ¬ ìĿĺ
ĠI raq
Ġp et
ãĢĭ (:
. (
íŀ ĺ
Ġë°ĺ ëŀĢ
Ġm ut
Ġ9 1
Ġbe yond
ìľĦìĽĲíļĮ ê°Ģ
Ġobject s
Ġsy nt
ian o
ë¦¬ ê²Į
ĠIs lands
ĠEx p
Ġw inning
Ġm ind
ĠìĿĺ ìķ½íĴĪ
Ġ8 7
Ġ8 9
Ġê³ĦìĹ´ ìĤ¬
Ñ ģ
é «
Ġì°½ ìŀĳ
ellig ence
ìĹĪ ìĿĦ
ë§¤ ì¶ľ
Ġcomplet ely
Ġcre w
Ġproject s
Ġê°ĢëĬ¥ íķ´
Ġstruct ures
Ġcod ice
b u
Ġìłľ êµŃìĿĺ
ëĲĲ ìľ¼ë©°
Ġcondu ct
Ġëĭ¤ ìĪĺìĿĺ
ac her
Ġëªħ ìĿ´
ĠTe chn
Ġìºĺ ë¦¬íı¬ëĭĪìķĦ
ĠìĪĺ ìĽĲ
Ġìļ° ëĮĢ
Ġke pt
Ġse ek
Ġland s
Ġext ensive
Ġì¸¡ë©´ ìĹĲìĦľ
Ġcapac ity
ëŀĺ íĶĦíĬ¸
Ġprop os
Ġê°Ģ ìĭľ
Ġìĺģ ìĥģìĿĦ
Ġìı ŁìķĦ
íĤ¤ ìĬ¤íĥĦ
Ġì²Ń ìĻĢ
ìķŀ ìľ¼ë¡ľ
ĠH ot
ĠO h
b i
å ¼
Ġì¶ ĺ
Ġìŀ¥ ì¤ĳ
Ġoffic er
ĠìĪĺ ìĨĮ
ìľł ë¡ľ
Ġadv ant
Ġ7 8
Ġclass ical
Ġë¶Ī ë¦°ëĭ¤
ì£¼ íĸī
Ġë¬ ¶
ĠG ree
Ġvis ited
ĠJ ac
ĠFlor ida
W e
ĠëĮĢ ìĻ¸
» į
ìĺ µ
ĠìĹħ ê·¸
am ber
Ġ7 4
Ġë°ķ ìĤ¬
Ġt ank
Ġëªħ ìĭľ
Ġent er
velop ment
Ġf ish
ë°© ìĿĦ
Ġsy n
os a
ar io
Ġê°ĢëĬ¥ ìĦ±ëıĦ
ir med
is a
Ġë²Ħ ìĬ¤
ĠA v
Ġexist ence
ìĿĮ ìĿ´
å Į
ĠëĤ´ ê³ł
s m
Ð ²
Ġpar liament
ĠëĤĺ ìĺ¬
Ġíı¬íĬ¸ íı´ë¦¬ìĺ¤
Ġë°Ķ ëĭ¥
ĠìĹ°êµ¬ ê°ľë°ľ
Ġì§Ħíĸī ëĲĺëĬĶ
ê°ģ ìĿĦ
Ġnot es
ê´ĳ ì£¼
Ġê³µëıĻ ìľ¼ë¡ľ
íĻĶ íķł
Ġr ang
ìĦ¤ ìĿĦ
ê³Ħ ìĹ´
ĠìĦ±ê³µ íĸĪëĭ¤
Ġlim it
Ġexist ing
íĭ° ëĵľ
Ġâĸ ł
ĠìŀĦ ìĽĲ
ĠI ran
ëŀĺ ê³¤
ëĿ¼ ê°Ģ
ĠìłĲ ìĿĢ
Ġaltern ative
ì¢ħ ìľ¼ë¡ľ
Ġê³¨ ëĵľ
Ġê°Ģ ëıĻ
ìĿ¸ ì¹ĺ
Ġìĺ¬ ëł¤
ë©´ ìłģ
ĠW ales
ëĲĺ ì§Ģë§Į
Ġref ers
ìĤ¬ ë¬´
ìĥģ íĥľ
Ġpower ful
ĠskíħĶëłĪì½¤ ìĿĢ
Ġover all
Ġinhab it
ĠH an
Ġd rum
Ġf uel
ĠìĦł ìłľ
ĠìĦŃ ì·¨
p oint
ĠO ut
Ġìĺģ ìŀħ
Ġë³´ìĹ¬ ì¤Ģëĭ¤
Ġf ast
Ġdyn asty
l ig
ĠB ern
ìĹĪ ìľ¼ëĤĺ
Ġíĺ¼ íķ©
ëıĻ ìĿĺ
ect or
ë¬¼ ì§Ī
ìķĺ ìľ¼ë©°
Ġsp ring
ĠëĤ´ìļ© ìĿĺ
Ġêº ¼
Ġê±´ ì¡°
Ġm ole
íĢ ´
Ġdesign ated
Ġìľł ìļ©
ĠK ar
Ġv ary
ì¯ ¤
ëľ °
Ġeff ic
ê·ľ ìłľ
Ġap art
Ġgreat est
Ġprov iding
Ġì¶ľ ìŀħ
ol y
ìĺ¤ ëĬĺ
Ġv oice
t ical
çİ ĭ
ĠC orpor
Ġíķ© ìĦ±
ĠT reat
ĠL ine
ĠAn n
inn er
ĠBro ad
er al
ĠìĺĪ ê³ł
ĠW ork
Ġìŀħ ì¦Ŀ
Ġd ark
ê¸Īìľµ ê·¸ë£¹
Ġexec utive
en ing
Ġneg ative
ĠT ri
ĠH ow
ĠìŀĲ ë£Įë¥¼
Ġh ab
Ġê°Ģ ì¹ĺê°Ģ
Ġë°ľë§¤ ëĲĺìĹĪëĭ¤
Ġoper ates
ê³µ íĹĮ
im a
Ġê³¼ ê¸°ìłķíĨµ
êµ¬ ë¡ľ
Ġbas ic
ìĿ´ ìĥģ
ig an
Ġìĸ´ëł¤ ìĽĮ
ĠëĤĺ ìķĦê°Ģ
Ġwrit e
Ġex change
Ġëª¨ ìĹ¬
ĠPol ish
Ġì§Ģ ë¶Ī
ê³¼íķĻ ê¸°ìĪł
ĠìŀĲì²´ ê°Ģ
Ġsit uation
-- )
ĠWilliam s
own er
ĠìķĦì¹´ ëį°ë¯¸
ĠìĬ¹ ë¦¬ë¥¼
Ġresp ond
ĠI ll
Ġì¹¨ íķ´
Ġìķ± ìĿĦ
ì£¼ ìļĶ
ìĺĢ ì§Ģë§Į
ĠBo ard
os h
Ġ15 00
© ëĭĪëĭ¤
ìłĲ ê³¼
ĠA wards
ì¶ķ êµ¬
ĠìĿ¼ë¶Ģ ëĬĶ
Ġì§Ħíĸī íķľ
Ġë³´ëıĦ íĸĪëĭ¤
Ġíĸī ìľĦ
Ġê²°ê³¼ ê°Ģ
Ġinv asion
ĠìĪ ²
Ġê³µ ë§¤
Ġìµľê·¼ ìĹĲëĬĶ
Ġass ist
ĠìĿ´ íĨµ
Ġhe at
Ġreg ul
ì½ĶìĬ¤ íĶ¼
ĠKore a
ê¸° ê¹Įì§Ģ
Ġt ree
æ ²
Ġëªĩ ëªĩ
ĠAtl antic
ìĿ´ ìļ©
ĠíĻķëĮĢ íķ´
Ġrent al
ë£ °
Ġê³µê°ľ ëĲľ
Ġê³µ ê¸°
Ġrank ed
Ġcor por
ĠëĮĢíķ´ ìĦľ
Ġexamp les
Ġìķķ ë°ķ
Ġinstit utions
íķ´ ìĸĳ
Ġìĭł ìŀĳ
Ġë¶ĦìĦĿ ìĿ´ëĭ¤
ĠS ol
ĠP ost
ìŀ¬ ìĤ°
Ġs ail
ĠìĽ¹ ìĤ¬ìĿ´íĬ¸
Al though
Ġì¦Ŀê°Ģ íķł
Ġv r
Ġê²°ìłķ ìĿĦ
ĠìĤ¬ìĭ¤ ìĿ´
i h
ĠS up
íĬ¸ ë¡¤
ìĦ¸ ìĻĢ
ì²ĺ ë¥¼
Ġ193 6
Ġë¶ģíķľ ìĿĺ
Ġto ward
Ġtit led
! "
ĠëĮĢíķĻ ìĥĿ
Ġíıī ì°½
ìķ Ĺ
ĠëĬĺ ê³ł
ĠEl izabeth
Ġsub s
Ġê¸°ë°ĺ ìĿĦ
ëıĦ ìĹĲìĦľ
ëĤ´ ìļ©
Ġmain tained
ĠìłľíĴĪ ìĿĢ
ĠìķĦ ëŀį
S p
ë® ¬
ê¸° ë¡Ŀ
Ġìŀ¥ ë©´
Ġcom es
ĠW ater
Ġse lected
ĠíĸĪëĭ¤ ê³ł
ĠíĹĪ ê°Ģ
Ġ193 8
ë¹ ħ
g rad
Wh ile
Ġì¶© ìłĦ
Ġê°ľìĦł ìĿĦ
Ġf lood
ĠH ung
A S
ë¡ľ ë¡ľ
ëªħ íĸĪëĭ¤
l t
ë¬¼ ìĹĲ
ë§ĮìĽĲ ìĹĲ
ĠìĨĮ ìŀ¥
ì¦Ī ê°Ģ
Ġìĺģíĸ¥ ìĿ´
Ġcreat ing
Ġv s
or a
Ġocc asion
Ġê¸°ìĹħ ìĹĲ
igen ous
ĠF e
Ġë¡ ł
ĠìĿ¸ ê¸°ê°Ģ
íĺĦ ìĭ¤
ìĪľ ìľĦ
o is
Ġì§Ģìłķ ëĲĺìĹĪëĭ¤
ĠíĿ¥ íĸī
ë¯¼ì£¼ ì£¼ìĿĺ
Ġê¸°ì¤Ģ ê¸Īë¦¬
Ġmanag er
ìłĲ ìĿĺ
and a
Ġst ock
Ġê° ¤
ĠAss embly
ĠìĪĺìĿµ ìĦ±
åľ ĭ
ĠìĨĮ ìļĶ
ĠìĹ¬ê¸° ìĦľ
Ġbehav ior
Ġat m
Ġr ough
ê¸° ë°ĺ
ĠìĪĺ ìĭŃ
Ġë²ł ëĦ¤
Ġíĺĳ íļĮ
ĠìĿĺë¯¸ ê°Ģ
ĠThe atre
ìĹ¬ ê°ľ
Ġì´Ī ìłĲìĿĦ
Ġëį ®
Ġëĭ´ ìķĦ
Ġìĩ¼íķĳ ëª°
ĠU EFA
Ġ ice
ĠSe ver
ëĲĺ ê±°ëĤĺ
Ġíı¬ë¥´íĪ¬ ê°Ī
ĠìĿ¸ ìļ©
Ġag es
Ġë§Ī ì¹ĺ
4 00
h aps
Ġpol y
ì² ©
ĠS ub
Ġê¸°ëĬ¥ ìĿ´
l ov
Ġway s
ĠJ ones
igh ter
Ġê²½ ë§¤
Ġdeb ut
ĠV ol
ìĭľìŀ¥ ìĿ´
ĠíĪ¬ ëªħ
Ġì¢ħ ìĤ¬
Ġp ict
íĮĢ ìĿĢ
íĻĶ ëĲł
Ġbelie ve
ĠíĴĪ ëª©
Ġch air
Ġë³Ģ íĻĺ
Ġcust om
ĠP o
Ġê°ĸì¶Ķ ê³ł
Ġredu ce
Ġe igh
ĠëĳĲ ìĤ°
Ġg ives
or ing
ĠìķĮê³ł ë¦¬ì¦ĺ
200 5
Ġc ry
ìĹŃ ìĿ´ëĭ¤
è ¨
Ġë¬¸ìłľ ìĹĲ
ëĲĺìĹĪ ëĬĶëį°
Ġê°ľ ìĭľ
ĠêµĲìľ¡ ë¶Ģ
ëħ ¹
ĠìĿ´ìĸ´ ì§ĢëĬĶ
ĠìĿ¸ê°Ħ ìĿĺ
ĠìĽĮ íģ¬
Ġfact ors
ĠB ig
c i
Ġë¬¼ ëŁ¬
ë¡ľ ë§Ī
Ġìĺ¤ ìĬ¤
H O
Ġmanag ed
Ġë¶Ģ ìĿ¸
ĠìłĦ ê³µ
g t
ĠìĹ¬ ê°Ŀ
Ġë§ ¹
ë¡¯ ëį°
ëĵ¤ ë¡ľë¶ĢíĦ°
ĠìĽĲ ê¸Ī
Ġê°ľìĿ¸ ìĿ´
ê¹ Ŀ
Ġdig ital
ĠìĻ¸êµŃ ìĿ¸ê³¼
Ġëıħ ìŀĲ
ëĪ Ī
íĨµ íķ©
20 23
Ġ8 6
ĠU p
ag on
ì¤ĳ íķĻêµĲ
Ġp an
ĠJ im
ĠSt ar
ant ry
Ġrece ive
r s
Ġult imately
Ġìŀħ ì°°
Ġê³ł ëł¹
Ġc ab
Ġì§Ģ ëĭĮ
ĠìĨĮ ê·ľëª¨
ĠBra zil
Ġ7 3
ĠìĿ´íĽĦ ìĹĲ
ition ally
ĠìľĪëıĦ ìļ°
Ġresour ces
ou ri
r ine
k in
ĠëĴ¤ ìĹĲ
ĠíķĻ ë¶Ģëª¨
Ġì¶ľìĭľ ë¥¼
íĶĮ ëŀ«íı¼
ê²Ģ ìĤ¬
od ox
Ġmin utes
Ġêµ¬ ëĭ¨
ĠP en
ĠêµŃ ê²½
Ġstru gg
Ġìķ½ ìĦ¸ë¥¼
ĠV er
Ġh op
ì¸¡ ìĿĢ
Ġíķľ ëķĮ
ĠíĮĮ íĭ°
Ġro les
ĠíĸĪ ê³ł
ìĹħ ë¬´
Ġstud ied
íĶĦë¡ľ ê·¸ëŀ¨
ì£¼ ëħĦìĿĦ
ĠB al
ĠìĦł ê³ł
ĠìĹŃ ëŁī
Ġvac ant
Ġsh ared
ĠìłģìłĪ íķľ
ĠM ot
Ġí ĥģ
p hen
Ġs now
ĠìľĦ ìĦ±
Ġë§Īëł¨ íĸĪëĭ¤
Ġ8 2
Ġã ħ
Ġmed ic
ĠìŀĲëıĻ ìľ¼ë¡ľ
Ġëĭ¹ë¶Ģ íĸĪëĭ¤
ĠëĤĺ ìĿ´
Ġìĭł ìĦł
ĠíĮĮ ëĿ¼
erm an
g s
m ir
S ince
ëĨ Ģ
ë¥´ íĥĢ
ìĦ¤ ê³Ħ
ĠJ o
T rans
íĶĮëŁ¬ ìĬ¤ëĬĶ
ë¶ ķ
ĠíĻķëĮĢ ë¥¼
ild ing
ìĥĿëªħ ìĿĢ
19 90
Ġêµ¬ìĦ± ëĲľëĭ¤
Ġpos itions
Ġê¸Ī ë¦¬ë¥¼
ĠìĦłë³´ ìĿ¸
Ġê³µ ìŀ¥
ify ing
Ġphilos ophy
Ġf air
ĠìłĦ ì£¼
Ð »
Ġrev olution
å· ŀ
la b
ĠM ax
Ġì¶©ë¶Ħ íķľ
Ġinst ance
Ġm aster
Ġì§Ħíĸī íķĺëĬĶ
cl us
ĠCo ast
Ġrec ently
Ġking dom
ĠíĿĶ íŀĪ
ĠìĹ¬ ìĭł
Ġexper im
Ġp hen
Ġì£¼ ìĹ°
Ġm ixed
Ġë©Ķ ëĶĶ
Ø §
ìĨĮ íķľ
ĠìĤ¬ìĹħ ìŀĲ
Ġv on
ì·Ħ ëĭ¤
Ġ7 9
Ġdepart ment
Ġìŀ¡ ìķĦ
Ġê¸°ì¤Ģ ìĿĦ
ìķĪ ìĿĺ
Ġnew ly
r ations
ê¸° ê¸Ī
Ġset s
ĠM os
Ġconc ert
Ġìĸµ ìłľ
Ġfeat uring
Ġa ctions
ĠìĦ±ê³µ ìłģìľ¼ë¡ľ
Ġsy m
ĠìĤ¬ ìļ°
Ġse g
Ġìĥģ íķĺìĿ´
f ort
ĠP ers
ĠìłĢ ì§Ģ
u ff
Ġëĭ¨ë°± ì§Ī
ĠíħĮ ëŁ¬
ìĹĪëĭ¤ ê³ł
ĠìŀĪëĬĶ ì§Ģ
ĠG ar
Ġinter pret
it ness
ë¶Ģ ëıĻìĤ°
Ġpurch ased
Ġmot or
ĠëĮĢíĳľ ê°Ģ
ĠìŀĲê¸Ī ìĿ´
íļĮìĿĺ ë¥¼
ag n
ĠV illa
g i
Ġw alk
ĠìłĢ ëħģ
Ġìŀł ìĭľ
ĠAr ts
ĠRail way
ë© ľ
Ġê³µ ìĿ¸
ë°Ķ ë¥´
Ġê·¸ëŁ¬ ë©´ìĦľ
Ġhum ans
ĠN ations
ĠìĿ¸ ëĶĶ
ĠìĤ¬ìļ© íķĺê³ł
ê» ´
ĠìĥĿíĻľ ìĿĦ
ĠíĿ °
Ġsomet hing
ĠAl so
Ġìŀł ìłķ
ĠëĤĺíĥĢ ëĤ´ëĬĶ
Ġì´Ī ëŀĺ
Ġê ½
k i
Ġsc ale
ĠìļĶ ìĭľ
íķĺëł¤ ë©´
ë³´ ìŀ¥
Ġê¸°ëĮĢ ê°ĲìĿ´
Ġìĭł ì²´
Ġë¯¸ ì¹ł
Ġ195 1
Ġì²ľ ìĹ°
ud get
k es
Ġìķŀ ìľ¼ë¡ľëıĦ
Ġìĺ¤ íĨł
Ġ13 0
âĢ ĭ
ĠëıħíĬ¹ íķľ
Ġë¬¸ íĹĮ
ìĭľíĤ¤ ê¸°
Ġm icro
Ġê¸°ìĹħ ëĵ¤ìĿ´
Ġë§ī ê¸°
ëıĻ ë¬¼
Ġl ies
ĠB ecause
íĸī ìľĦ
åŃ Ĳ
Ġì¹¨ ê³µ
ĠëĤ Ń
Ġweap ons
ad el
ë¹Ħ ëĵľ
og rap
ĠìĬ¬ ë¡ľ
ĠëĤ® ì¶Ķ
ĠBe ach
ĠìĪľ ìľĦ
ĠíĽ Į
Ġê³µìĭĿ ìłģìľ¼ë¡ľ
ĠìĥĿ ê¸´
ĠíŀĪ ë¡ľ
Ġbecom es
Ġêµ ³
ĠO s
Ġsignificant ly
ĠìĿĺ ëıĦ
Ġocc urs
ëł ·
ìĪĺ ìĪĺë£Į
Ġê³ł íĨµ
ìĦ¸ íĬ¸
Ġêº ¾
ĠêµŃ ì±Ħ
ĠëĮĢì¶ľ ìĿĦ
ìľĦ íĹĺ
Ġê²Ģ ìĿĢ
ë¶Ģ ì²ĺ
Ġìļ°ë¦¬ ìĿĢíĸī
Ġê°Ĳ ìłķ
ĠYou ng
ĠComm on
ëıĦ ìĦľ
ric s
Ġlaun ch
a ctions
ris is
Ġg ot
ĠëĳĲ ëĵľ
Ġê¸°íļį ìŀ¬
Ġh ap
ĠJ ean
ìķĦ ìĿĺ
Ġê³ł ìłĦ
ĠA venue
Ġsh oot
ic ed
Ġorgan izations
ĠëĨĴ ìĹ¬
Ġfail ure
ĠCon stitution
ĠìĨĮ íĺķ
in du
Ġaut h
Ġë²Ħ íĬ¼
ìĸµìĽĲ ìĿ´ëĭ¤
Ġê¸Īê°Ĳ ìĽĲ
ĠI V
Ġprov ed
ë° ´ëĵľ
ĠW ay
ĠHigh way
ì¼ Ī
Ġ193 7
Ġì¤ĳ íķĻêµĲ
Ġs ays
ĠìĿ´ ë¥´ëĬĶ
ĠìĪľ ìľ¼ë¡ľ
S e
Ġì¶© ê²©
ĠìĿ´ë¥¸ ë°Ķ
Ġaud ience
Ġ19 18
ĠíķŃ ëª©
Ġmon arch
Ġìĭľìŀĳ ëĲĺìĹĪëĭ¤
ìļ° ì£¼
ìľł íķľ
ì°¨ ìłĦ
ĠìķĮ ê²Į
Ġpric e
Ġsp ok
ĠFrancis co
ëĤĺ ìĻĢ
ĺ ìĸ´
Ġë²ķ ë¬´
Ġst ore
Ġì°¸ ì¡°
Ġh ospital
ĠP lay
Ġprodu cer
Ġë©ĶìĿ´ ìłĢ
ĠSoc ial
ëĲ¨ ìĹĲ
Ġc old
Ġjo in
Ġì¤Ħ ìĹ¬
ĠìĹ ł
Ġì°½ ìĿĺ
ĠìłĢëł´ íķľ
Ġê²½ ê¸°ìĹĲ
ĠìłĦíĨµ ìłģìĿ¸
Ġê´Ģê´ĳ ê°Ŀ
Ġres istance
ä¸ ī
ĠìĽĲ ìŀ¥ìĿĢ
Ġalbum s
Ġvot ed
ĠìĦ¸ ë¥´
Ġëıħ ìłĲ
ĠíĬ¸ ëŀĻ
ĠC amb
ĠìĦľ ë¯¼
Ġê¸įìłķ ìłģ
ìĤ¬ ì±Ħ
Ġì° °
Ġ19 19
av en
Ġíķ© ëıĻ
ĠìĹŃìĤ¬ ìĥģ
Ġf at
Ġíĺķ ìĭĿ
Ġë³´ìĹ¬ ì£¼ëĬĶ
ĠêµŃëĤ´ ìĹĲìĦľ
Ġimport ance
ĠíĮĲëĭ¨ íĸĪëĭ¤
Ġtechn iques
Ġë¹ ¨ë¦¬
ĠêµŃë°© ë¶Ģ
äº º
ĠìĿ´ ì²ĺëŁ¼
Ġê³µ ê°Ĳ
Ġë°° ìłķ
ĠìĻĦ ë²½
Ġenc oura
¤ ¼
Ġj ur
Ġachie ved
ë²ķ ìĿĺ
Ġë§Īì§Ģë§ī ìľ¼ë¡ľ
ĠêµŃ ìĻķ
Ġc art
Ġë¬¼ ë¥ĺ
Ġê²½ ìĭł
Ġchall eng
Ġê³µ ë¦½
Ġcrit ics
íķ´ ìĻ¸
Ġê¸Ģ ìĿĦ
ĠìĤ¬ë¡Ģ ê°Ģ
Ġíħ Ĳ
Ġdeterm ined
Ġst one
Ġ7 1
ent ially
ĠS a
ĠV en
Ġì¶ľìĭł ìĿĺ
ol t
is f
D A
Ġìĥ ĺ
Ġì¡° ìĤ¬ë¥¼
Ġëĥ Īëĭ¤
ì¶ ¤
Ġìĵ° ëĬĶ
ur ation
Ġex act
ìĭľì¼ °
Ġê°Ģ ëĵĿ
u nder
ì¢ħ ìĿ´ëĭ¤
ĠTh us
ĠM id
Ã³ n
ìĹ° íŀĪ
ĠìĿ¼ë¶Ģ ë¥¼
ĠL ew
od ay
ĠBer lin
ĠJ eff
Ġê·ľëª¨ ëĭ¤
íļĮ ìĤ¬ìĿĺ
Ġph ase
hes is
P C
Ġíķĺ ìľĦ
ë¶Ģ ìĤ°
íķ¨ ê³¼
Ġìĭľ íĭ°
ĠCarol ina
g ent
Ġst reet
íĥĢ ìļ´
ĠìĿ´ê²ĥ ìĿ´
Ġëľ» ìĹĲ
ĠìĹ¬ ë¶Ģ
Ġì°¸ìĦĿ íķľ
Ġreve aled
j oy
ê³¼ ìĹĲ
ĠO x
Ġsett lers
Ġê²ĥìĿ´ ë©°
ĠëĮĢ ìĦł
Ġë¶Ģì¡± íķľ
ìĭľ ìĹĲìĦľ
Ġw ave
ĠëķĮ ë§Īëĭ¤
ìĭľíĤ¨ ëĭ¤
Ġë°©ë¬¸ íķ´
Ġê²°ê³¼ ìĹĲ
ĠH am
L A
p c
Ġì´ Į
Ġë¡ľ ëĵľ
ìĸ´ ëĤ¬
Ġê·Ģ ì¡±
ìĸ´ ìĬ¤
Ġì°¨ ìĿµ
ĠâĢ Ķ
Ġcon sequ
ëĦĲ ëĵľ
ur rent
ìĪĺ íķľ
ĠíĦ ¸
Ġìº Ħ
ĠCorpor ation
ĠìĹ° íľ´
íĪ¬ìŀĲ ìŀĲ
N e
ĠìłĦ ë¶Ħê¸°
Ġcar bon
ä ¿
8 00
ë¡ľìĦľ ìĿĺ
Ġë©´ ìłģìĿĢ
Ġauthor ities
le m
ĠëĤĺìĦł ëĭ¤
ens ions
ĠHol y
ĠìŀĲ ë¬¸
ë¦¬ ìĸ¼
Ġìĭľ ëĤĺ
Ġapp arent
æ ķ
g r
Ġp ick
ĠColumb ia
ê³µ ìĭľ
ĠRad io
Ġìĭ¤ ëĤ´
ëŁ¬ ë¦¬
ë²Ī ìĿĺ
ë¡ł ìĿĢ
ìĥī ìĿĦ
ĠìĥģíĴĪ ìĿĢ
Ġìĺ ¹
Ġë¹Ħì¤ĳ ìĿĦ
ĠìĹ´ë¦° ëĭ¤
Ġë¯¸ìĦ¸ ë¨¼
ĠN orm
ìĸ´ ë¦°
ĠëĤ´ ê°Ģ
ĠìĤ¬ ê³¼
ĠìĪĺ ìĭł
her it
ire ct
ĠíĻľìĦ± íĻĶë¥¼
ĠF ederal
ĠìĪĺìĥģ íĸĪëĭ¤
ĠB re
ë¯¸ ëĦĲ
ĠSt at
Ġarchitect ure
ìĦľ ì¹ĺ
ìģ ľ
Ġheadquar ters
ĠC r
êµ¬ ìĻĢ
ëª¨ ëĵł
Ġìĸ¸ê¸ī íĸĪëĭ¤
Ġvol ume
ë°° ìļ°
Ġë¶Ħìķ¼ ìĹĲ
Ġed itor
pt on
ĠìķĦ ë©Ķë¦¬ì¹´
ëĥĲ ëĬĶ
ĠB ab
ĠS ing
íĸī ìĤ¬
ĠëĤ´ ìĻ¸
ì¹ĺ ê²Į
ĠìĿĺ íķĺë©´
ĠìłĦ ê¹Įì§Ģ
ĠO l
ĠìĿĺ íļĮ
ĠíķĺëĤĺ ìĿ¸
ĠF our
Ġheav ily
ĠìĿ¸ ìŀ¬
± ·
Ġë¶Ģë¶Ħ ìĿĢ
ĠëĤ¨ ëıĻ
Ġëĵ±ìŀ¥ íķĺëĬĶ
ĠL ove
ê±´ ìĿĢ
Ġê±´ ëĦĪ
ê³µ ëıĻ
ost on
ony m
ë¬¸íĻĶ ìŀ¬
Ġt im
ĠíĬ¸ ìľĦ
ĠìĻĦ ìłĦ
Ġact s
che ster
Ġëĭ´ ê¸´
Ġne ut
Ã §
Ġdefe at
Ġs n
Ġë°©ë²ķ ìľ¼ë¡ľ
Ġë¶Ģ ê°ģ
Ġhand s
Ġs le
Ġs ides
l ife
Ġreject ed
20 24
ĠëĤĺ ìĦ¤
è ĩ
ëł¹ ìĿĦ
Ġëįķ ë¶ĦìĹĲ
ĠìĤ¬ ìĻ¸
ìĸ´ ìļĶ
it led
b t
Ġch o
st ream
ĠV an
ĠPol and
ë¬ µ
ĠìĭĿ ë¬¼
ëŁ¼ ìĹĲëıĦ
íį¼ëŁ° ìĬ¤
Ġattempt s
Ġìĸ» ê³ł
Ġclos ely
ĠìĹĦ ì²Ń
ĠíĨµíĻĶ ìłķì±ħ
or ation
Ġë°© ìĹŃ
Ġë²Īì§¸ ë¡ľ
ĠìķĪ ëĵľë¡ľìĿ´ëĵľ
Ġíĥľ êµŃ
em p
Ġappro ved
Ġìĭľì¦Į ìĿĦ
Ġíıī ìĨĮ
ëĭĪ ìłĢ
Ġìłķë³´ íĨµìĭł
Ġìĭ¤ ìĹħ
ìĿ¸ ìĹĲê²Į
ìĪĺ ì¤Ģ
íķĺ ìĹĲ
i xt
Ġíķĺ ëĬĺ
Ġmot ion
ĠíĮ¨íĤ¤ ì§Ģ
Ġì§Ģ ì¶ľ
Ġë¶Ģ ëĮĢ
Ġì§ĢìĽĲ íķĺê³ł
ĠíĮ Ŀ
ĠSt an
res h
Ġìĭłíķľ ê¸ĪìľµíĪ¬ìŀĲ
ĠT our
er c
ĠëĤ´ ê°ģ
Ġì± Ļ
ìĿ¼ ìĿ´ëĭ¤
íĳ¸ ëĵľ
ì¡° ì°¨
hed ral
.âĹ ĩ
å ¥
I s
Ġb ad
ĠìĿ¼ ì¹ĺ
Ġë°ĺ ëĮĢë¡ľ
Ġliter ary
ĠCar l
Ġíĺģ ëªħ
ot ic
ĠëĮĢíĳľ íķĺëĬĶ
ìĿ´ ë©´
Ġê³Ħ ìĬ¹
ê³µ ê¸ī
g or
ĠS and
ìĨĮ ìĭľ
ĠìĤ¬ìĿ´ íĬ¸
ag er
os ite
Ġinhabit ants
Ġë§Į íĻĶ
ĠëıĻ ìŀĳ
Ġview s
ĠB ob
Ġì»¤ ë²Ħ
Ġìĥģíĥľ ë¡ľ
ê³ ½
Ġëĭ¹ ì²¨
ìĥ µ
Ġê±° ìłĪ
Ġì½Ķ ëĵľ
Ġíķĺ ìŀĲ
Ġê°ĢëĬ¥ íķł
Ġcaus es
Ġ( ),
ĠC orn
Ġë°© íķ´
Ġë§ŀ ê²Į
ĠìĦ¸ íĬ¸
Ġh un
ìĿ´ ëĤł
ê² ģ
ìĭł ìĿĢ
ask a
Ġë³Ħ ëıĦë¡ľ
ìĺ¤ ì¹´
Ġd aily
ĠìĹ° ëĤ´
Ġê²ĮìŀĦ ìĿ´
ëĵľ ëĿ¼
Ġapplic ations
Ġb ill
Ġfor ward
ãĢ Ģ
6 00
Ġìĭľìŀĳ íķľëĭ¤
Ġë¯¼ ê°Ĳ
ĠPhil ip
ìĭł íĥģ
ìŀ¡ ê³ł
ĠëĮĢì²´ ë¡ľ
ĠF air
ëį° ìĬ¤
ìĤ° ë¬¼
ìķĪ ìłķ
ìŀĦ ê¸Ī
Ġtri al
Ġdec line
Ġtit les
Ġincreasing ly
ìĥģ ìĹĲìĦľ
n ce
ëĭĪ ìĿĺ
ìľł ë¥¼
ĠíķĻ ìĪł
ë¥´ ê¸°
an i
Ġ19 10
Ġn or
ë¡ł ìĿ´
Ġë©Ķ ë¥´
Ġëħ¼ ìŁģ
ìłĦ ìľ¼ë¡ľ
ĠëĨĴ ìķĺëĭ¤
Ġband s
ut her
ì¦Ŀ ìĿ´
ìķ¼ êµ¬
Ġì½Ķ ë¯¸
Ġse arch
S P
Ġì§Ģ ëªħ
ĠìłĦ íĺķ
S O
ĠL y
ĠRes earch
Ġfif th
Ġpar alle
Ġcont aining
ë¥ ľ
Ġdefin ition
ri x
Ġentire ly
Ġê¸°ìĹħ ìĿĢ
ê º
ì¸µ ìĿĦ
Ġal t
Ġê¸°ìĹħ ëĵ¤ìĿĺ
ĠìłĲ ìĿ´ëĭ¤
Ġworld wide
Ġëħ¸ íĬ¸
ĠëĨĴ ìĿ´ê³ł
ìŀĲ ìĿ´ëĭ¤
Ġse ats
ĠGovern or
Ġë§Ī ë¦¬
A m
ĠìĿĺ íķĺìĹ¬
Ġë³´ ëĥĪëĭ¤
Ġcandid ate
w id
Ġ193 3
im b
ĠìĦ¸ ìĽłëĭ¤
Ġpolic ies
ìĦľ ìĻĢ
ĠëĦ¥ ìĬ¨
Ġëª©íĳľ ë¥¼
Ġsub stant
y es
Ġìĭł ëĿ¼
H z
ut ation
Ġsecond ary
Ġanim al
re es
Ġsh ape
Ġì§ģ ë¬´
Ġdo ct
ìĿ¸ ëĭ¹
Ġìĸĳ ëıĦ
T o
ĠìŀĲìĤ° ìļ´ìļ©
Ġë³µìŀ¡ íķľ
Ġm el
Ġop in
ĠSt ation
ĠSup reme
ê¸ Ģë¡ľ
Ġr ates
æĿ ±
ĠìĽĲ íĻľ
ĠìľĦ íĥģ
Ġë¶Ģ ë¥¸ëĭ¤
Ġìĺ¤ ë¦Ħ
th odox
ëĳ ĳ
Ġìŀ Ń
Ġch urches
ë¹Ħ ìĿĺ
Ġì§ Ĳ
ĠëĤĺ ìĬ¤
ì°½ ì¡°
ce ived
am in
b ro
ëł¸ ê³ł
ĠìĦłìłķ ëĲľ
Ġext rem
Ð º
ĠE p
ĠPro v
ĠìĹ¬ìĿĺ ëıĦ
ol n
ĠìĻ¸êµŃ ìĿ¸ìĿĢ
ìłľ ê³µ
Ġconne ction
ë§Ī ìĿĺ
ĠìķĬ ì§Ģë§Į
Ġres ident
Ġë¸Į ë¦¬
Ġemploy ed
ĠíļįëĵĿ íĸĪëĭ¤
ĠëĲĺ ë©´ìĦľ
Ġìŀħ ë²ķ
ĠëĿ Ħ
Ġoff ers
Ġfle et
ëĲľëĭ¤ ëĬĶ
ĠìłĦë§Ŀ ìĿ´
Ġë©´ ìłľ
Ġëŀ ĺ
Ġc ore
ĠìĬ¤ íĭ°
in em
ĠNew s
Ġê³³ ìĹĲìĦľ
Ġd ipl
Ġcont ributed
Ġ8 3
Ġì§Ģ ëĬ¥
Ġnh íĪ¬ìŀĲì¦Ŀê¶Į
at i
ĠíĨł ëĮĢë¡ľ
Ġë°ľ ìłĦìĿĦ
Ġëŀ Ń
ist ical
Ġhe ro
Ġëļľ ëł·
Ġì°¨ ê¸°
ĠíĨµíķ´ ìĦľ
Ġê¸Īìľµ ê¶Į
ĠìĨĲ ìĿĦ
Ġê°ľìĿ¸ ìĿĺ
h d
ĠìĤ¬ë§Ŀ íĸĪëĭ¤
Ġê°ķíĻĶ íķĺê³ł
P r
ĠëĮĢ ëŁī
B O
Ġun ion
ìĦĿ ìĿ´
Ġë¬¼ ê°Ģ
us es
Ġst ream
or gan
ell er
200 4
Ġë¹Ħ ìłķ
ĠìŀĪìĸ´ ìķ¼
Ġ19 14
Ġíķ© ëĭĪëĭ¤
Ġê°ĲìķĪ íķĺë©´
Ġê²½ìļ° ëĬĶ
ĠìĿ´ ìĽĥ
Ġch osen
ĠìĦłë³´ ìĿ¼
Ġê³µ ìŀĳ
t op
Ġê°Ģ ìĬ¤
Ġê²ª ê³ł
ĠìĿ¸ ìłĳ
Ġê¸° ìķĦ
er ick
Ġíķľ ì¸µ
Ġfight ing
f all
Ġcont ained
il ing
Ġì§Ħì¶ľ ìĿĦ
ëı¼ ìķ¼
Ġdescrib es
Ġb ul
ë²ł ìĿ´ìĬ¤
ìļĶ ê¸Ī
ìĿĺ ìĽĲ
ĠìĭľìĬ¤íħľ ìĿĢ
ra cy
ĠëĮĢíĳľ ìĿ´ìĤ¬
Ġì¢ħë¥ĺ ìĿĺ
Ġì¶Ķì§Ħ íķł
ì¦ Ĳ
Ġ193 5
r ons
Ġcolon ial
ru it
st ead
ran ce
n el
ĠíĶĦ ëĿ¼
ĠêµĲ ê³¼
ë©Ķ ëī´
f e
il ly
Ġsign al
ĠK ent
ĠPhil ipp
å Ľ
Ġì§ĢìĨį ëĲł
íĮ ľ
Ġhistor ian
v est
æ ī
it ors
ĠL ittle
l an
Ł ³
Ġê´Ģëł¨ ìĿ´
ĠScott ish
Ġfa ith
c ious
ĠíĶ ½
Ġy our
th let
ĠíĬ¹ ìĦ±ìĿĦ
å ĭ
Ġìľł ë§Ŀ
ĠíĺĦ ìŀ¥ìĹĲìĦľ
ëªħ ìĹĲê²Į
Ġtransfer red
ìĦ¤ ëªħ
ĠSecret ary
Ġì£¼ ê°Ħ
Ġê²ĥ ìŀħëĭĪëĭ¤
Ġëª¨ ìĥī
ëĦ ¬
Ġëĭ¨ ì¶ķ
Ġ id
I P
ìĿ´ëĿ¼ ëıĦ
ìĪ ¨
ĠChar l
ĠL uc
Ġdesc ript
as y
Ġcount ies
ìĿ´ ì§Ģë¥¼
ìº Ķ
ë³´ ê°Ģ
Ġìĸ» ìĿĢ
ê³ł ëıĦ
ê ¶
Ġìłķ ë§Ĳ
Ġpopular ity
ĠìĹ°êµ¬ ìĹĲ
ìĬ¤íĭ° ë²Į
ë¦¬ ëĭ¤
å Ĭ
ìĤ¬ ìĬ¤
ĠìķĦìĭľ ìķĪ
c ou
ĠëģĿ ëĤľ
Ġsuc ceeded
k ing
ĠF ound
Ġëª¨ ë©ĺ
Ġc ool
Ġìĺģ ìĽħ
ĠConf eder
ìķĦ ë¥´
Ġmed ieval
ìłĦ íĻĶ
og en
ĠìĿ´íĽĦ ìĹĲëĬĶ
Ġsc ope
Ġsequ ence
Ġtre es
ìłĦ ê³¼
Ġìĩ ł
ĠìķĦ íĬ¸
ĠìŀĲê¸° ìŀĲë³¸
m et
Ġrul ed
Ġë¬´ ëłµ
Ġperform ances
ê°Ĳ ìĤ¬
ĠìĦłíĥĿ íķł
ĠëĤ¨ íİ¸
we ight
ou nder
Ġre in
Ġëħ¸ëł¥ íķĺê²łëĭ¤
ag an
Ġë¬´ ìŀ¥
ĠN ether
Ġb ass
Ġíķ´ ì²´
Ġì£¼ìŀ¥ íķľëĭ¤
ĠìĹĲ íĶ¼
ĠP ope
Ã ±
ìĿ´ìĹĪ ê³ł
Ġ4 000
ĠìķĬ ê²Į
Ġì¦Ŀ ìĭľê°Ģ
Ġapplic ation
Ġì§ ľ
Ġl y
ìľĦìĽĲ ìŀ¥
ê±´ ìĹĲ
Ġê¸¸ ìĿĦ
Ġë²łìĿ´ ì§ķ
ëª¨ ë¥¼
ë§ µ
ĠìķĦ íĭ°ìĬ¤íĬ¸
íĥĢ ë¥¼
Ġê¸Ī íĺ¸
ĠSwed en
Ġìķ¼ ë§Ī
ê¹ ĥ
ĠìĽĲ ìĿ¸
w estern
Ġcontin ues
ad or
ĠìŀĳíĴĪ ìĿĢ
Ġìķŀ ìĹĲ
Ġì¶Ķê°Ģ ìłģìĿ¸
ĠìĤ¬ìļ© ìŀĲê°Ģ
port ation
Ġì¢ĭ ì§Ģ
ìĤ¬ ëŀĮ
Ġê¸Īê°Ĳ ìĽĲìĿĢ
Ġacadem ic
Ġê¸Īìľµ ê¸°ê´Ģ
Ġìº Ķ
íĭ° ëĤĺ
ë° Ķëĭ¤
Ġë¶Ģ ìŀĳìļ©
Ġë§Ĳ ìĿ´ëĭ¤
ĠëĶ° ë¡ľ
Ġf irm
ë¶Ģ ìĹĲìĦľ
Ġ8 1
Ġë§¤ ëł¥
ë¹ Ĺ
orn ing
Ġë©Ķ ëª¨ë¦¬
Ġstand ards
Ġw ant
ĠëĦ£ ìĸ´
Ġê²½ íĸ¥ìĿ´
Ġìłķë¶Ģ ìĻĢ
id ents
Ġë¬´ìĹĩ ë³´ëĭ¤
Ġdevelop ing
Ġliv es
ĠêµŃíļĮìĿĺ ìĽĲ
ach us
ê³ł ìĿĺ
ĠìĿ¼ ìŀĲ
Ġrout es
ì£¼ ìĹĲìĦľ
Ġcomb at
Ġnar row
Ġë°©ë²ķ ìĿĢ
ë¶Ģ ìŀ¥
.â ĸ¶
ĠìĨĶë£¨ìħĺ ìĿĦ
ĠìŀĲìľł ë¡Ńê²Į
ëĶĶ ìħĺ
ìķĦ ë²Ħ
Ġcontin uous
c ome
Ġd og
Ġíĸ¥ íķ´
ly wood
ĠëıĻ ìĥĿ
Ġë°° ìłľ
ì° ¾
am ing
ĠíĻķëĮĢ íķł
å »
Ġ11 0
ĠT ai
ĠíĶĮ ë¡ľ
inal s
Ġëĵ¤ ê³ł
ĠLe g
cript ion
ĠìĬ¤íĥ ł
ìķĦ ìķ¼
Ġíķĺëĵľ ìĽ¨ìĸ´
ì§Ħ ìĿĺ
ì°¨ ìĿĺ
Ġun iform
Î ±
ĠSh ow
Ġf estival
Ġv ess
ĠëıĻ ìĺģìĥģ
ĠìĬ¤íĨł ë¦¬
Ġíİĺ ìĿ´ì§Ģ
ĠOh io
Ġê ±·
Ġar ts
ĠìłĢ ìŀĳê¶Į
ìĪĺ ì¶ľ
ëł ĺ
Ġre asons
Ġcom edy
i enced
Ġf r
ĠTreat y
Ġíı¬íķ¨ íķĺìĹ¬
ĠíĿĶ ëĵ¤
ĠìĹĦ ê²©
ĠìĿ´ ë°ĸìĹĲ
Ġë°©íĸ¥ ìĿĦ
bo ok
ë³µ ìĿĦ
Ġsc he
Ġcon vers
Ġtrack s
z er
op her
ĠHistor ic
ĠëıĦ ìĻĢ
Ġê³µ êµ°
ĠìĤ¬íļĮ ê³µíĹĮ
Ġëĭµ íĸĪëĭ¤
Ġform at
Ġì¶Ķ ìłģ
ì¸µ ìĹĲ
ë°ľ ìĿĦ
Ġíķľ íķ´
ĠìĤ¬ê±´ ìĿĦ
Ġì¤ĳ ìĹĲìĦľëĬĶ
ë±ħ íĤ¹
Ġreg istered
ĠComm un
ì£¼ ëħĦ
Ġìŀ¬ ìĥĿ
ĠìĥĿ ê²¨
Ġëª½ ê³¨
Ġreport s
Ġì²ł ê°ķ
ĠT im
Ã ¸
Ġë· °
Ġã Īľ
ĠìĿ´ ë¯¼
ĠG ro
Ġact ing
Ġ ic
ĠìŀĲ ìĤ´
ê¸°ê°Ħ ìĿĢ
i ary
ìŀ¬ ë£Į
êº ¼
Ġìĺ¤ëŀĺ ëĲľ
Ġmax imum
Ġspec ifically
Ġhome owner
Ġcy cle
Ġê² ¹
Â· <
Ġrel ative
Ġëª¨ ëĵľ
Ġprincip al
íĤ ·
ĠìĿ´ìĻ¸ ìĹĲëıĦ
ìĽ į
ĠêµĲ ìĤ¬
ĠìķĪìłĦ íķľ
Ġëĭ¨ íĸī
b b
ĠF ield
ìĭĿ ê³¼
Ġf olk
Ġslight ly
ìĭľ ìŀ¥ìĿĢ
ëĮĢíķľ ë¯¼êµŃ
Ġìľł ìĿĺ
Ġëĭ¬ ì½¤
Ġê°Ĳ ìĭľ
Ġd raft
iet ies
ĠB a
ĠíĿ¬ ìĥĿ
ìĬ¤íĨł ìĸ´
d p
ĠìĺĪ ìĦł
Ġequival ent
ëıĦ ë¥´
E A
Ġìľł ìĹ°
êµĲ ìĿĺ
et ts
Ġìļ°ë¦¬ ìĿĺ
ë°Ģ íķľ
ĠëĤ´ ëĬĶ
Ġíģ Ĳ
Ġê°ľ ìŀ¥
ĠìĬ¤íĥĢ ëĶĶìĽĢ
Ġacc ur
Ġ193 4
Ġíķ «
ìĺ¤ íĶĦ
ìĤ° ìľ¼ë¡ľ
ĠìĤ¬ìļ© íĸĪëĭ¤
Ġpublic ation
ĠìĦ¸ê³Ħ ìłģìľ¼ë¡ľ
ìĪĺ ìĪĺ
i at
Ġdiffer ences
wid th
ĠC ross
Ġëĭ Ń
ĠíļĮìĤ¬ ì±Ħ
Ġel im
ĠíĽĦ ìĹĲëĬĶ
Ġst ep
is er
Ġdet ect
Ġìĭł ë¬¸
Ġstreng th
ĠìĪľ íĻĺ
s uch
ĠíħĮ íģ¬
ëĿ¼ ëħ¸
ĠëĬĺìĸ´ ëĤł
ĠìĦ± ë¦½
ëĭ Ń
Ġë°ľíĳľ ëĲľ
ĠC op
íĺ¸ ìĹĲ
Ġveh icles
ĠìĤ¬ ëĤ´
ter m
ĠE ach
ut en
Ġíŀĺ ëĵł
om ew
ĠìĦ¸ ëĮĢ
ìĪľ íĻĺ
Ġclass es
Ġì²ľ íĻ©
ìĬĪ íĥĢ
Ġëĭ¤ ìļ°
Ġìķ½ ê°Ħ
Ġíı¬íķ¨ íķľëĭ¤
Ġfact or
ê³Ħ ëĬĶ
ĠíķĻìĥĿ ëĵ¤ìĿ´
ut s
Ġìĺ¤ë¥¸ ìª½
Ġëĭ¤ìļ´ ë¡ľëĵľ
Ġre action
ĠRail road
ĠìĹ ĩ
rast ructure
Ġìĸ» ìĸ´
Ġp op
ĠìłĦ íķ´ì¡Įëĭ¤
Ġun able
ê°ľìĽĶ ê°Ħ
¼ ìĨĲ
ìłķ ìľ¼ë¡ľ
ìĹ¬ ëªħìĿ´
Ġìĥģ ìĥĿ
la w
Ġì¦Ĳ ê¸°ëĬĶ
Ġê²½ ë¶ģ
inc oln
ĠA ge
Ġfac ility
II I
ĠêµĲ ë¥ĺ
Ġadv anced
Ġê³³ ìĿ´
ìłĦ ìŀĲëĬĶ
Ġê¸°ìĹħ ìĿĦ
Ġë²ł ìĿ´ìĬ¤
è Ī
Ġ19 29
ĠìłĦ ìŀ¥
ĠTh ree
ì¼ °ëĭ¤
Ġ' (
Ġìĭł ìķ½
Ġì¤ĳ ìĹĲëĬĶ
Ġsc ore
âĪ Ĵ
Ġë³´ íķ©
ĠR h
M an
ĠíĮĮ ìĽĮ
íĭĢ ëŀľëĵľ
Ġout put
ĠìłĦì²´ ìĿĺ
íĮĮ ìĿĺ
Ġë³´ ìĿ´ë©°
Ġë¯¼ì£¼ ëĭ¹
Ġset ting
ĠíļĮ ìĤ¬ê°Ģ
ĠBro ok
ë¯¸ ê°Ģ
r ates
Ġì§Ģê¸Ī ìĿĢ
ĠìĿ´ìĿµ ìĿĦ
ĠìĿ´ìĸ´ ì§Ģê³ł
ult ure
Ġë°ľìĥĿ íķľëĭ¤
Ġcontrol led
Ġìĭľ ëĤ´
ĠìĨĮ ìĪĺ
Ġaffect ed
ĠInd epend
Ġob tained
Ń ī
Ġoffic es
Ġb it
Ġê±° ëĮĢíķľ
Ġìłģìļ© íķ´
? "
Ġëĵ¤ ìĹ¬
Ġhost ed
Ġpie ce
ĠíĹ Ŀê°Ģ
Ġêµ¬ì¡° ì¡°ìłķ
Ġê°Ģ ê³µ
ê²° íķ©
Ġìłķ ì§Ģ
Ġêµ¬ ë³Ħ
ê´Ģ ê³¼
Ġê°Ĳ ì§Ģ
Ġëĵ¤ ìĹĪëĭ¤
Ñ Ĥ
íį¼ ìĬ¤
I N
ĠL ife
ĠSwed ish
ìĤ° ìĿ´
ëģ Ħ
Ġmur der
ĠëĨĴ ê²Į
ĠíĻĶ ìĿ´íĬ¸
200 2
Ġë° ¥
êµŃ ìĹĲìĦľ
C O
Ġíĥľ ìĸ´ëĤľ
M P
ĠT re
ë²ł ë¦¬
Ġì´Ŀ ë¦¬
ĠìĤ¬ì§Ħ ìĿĦ
Ġt al
Ġìľł ìłĦìŀĲ
com m
ĠSc ience
Ġc as
ĠCl ark
ĠCast le
ĠM ah
ĠB us
ou ch
Ġen joy
ë§Ī ìĿ¼
Ġc ars
ĠíļĮ ìŀ¥ìĿĺ
ëĪĦ ë¦¬
Ġroad s
the n
ì£¼ ê¸°
ĠíĮĢ ìĿĢ
ìŀĲ ìľł
Ġet c
ĠíĻĶ ëł¤
ìķł íĶĮ
ĠR og
ĠëĮĢìĥģ ìĿ´
ì§Ģ ìĿ¸
ĠìĹĨ ì§Ģë§Į
19 80
íĻķ ìĿ¸
inc luding
Ġstr ateg
Ġë³´íĹĺ ìĤ¬
ìĤ¬ìĹħ ìŀĲ
íģ¬ ìĿĺ
Ġbro ke
Ġip o
v ant
Ġì§Ģìłģ ìĿ´
Ġsugg ests
Ġposs ibly
ĠìĤ¬ìĹħ ìĿĢ
ĠWil son
am ic
Ġê³³ ìĿĢ
Ġìĭľ ë¦¬ìķĦ
Ġë²ł ë¥¼ë¦°
ĠB oston
Ġr ing
Ġìĺ¤ ëĶĶìĺ¤
ë°Ľ ì¹¨
el la
Ġcomb ination
Ġë »
ĠF orm
Ġë¶Ģ íĻľ
M L
er ry
ìĭľ íĶ½
om y
Ġìłģ ìĿĳ
Ġê±± ìłķ
Ġì ĮĢ
Ġì¹ĺ ë£Įë¥¼
M us
il arly
ĠìĪĺ ë°±
ĠF oot
Ġexp ed
Ġë¹Ħìļ© ìĿ´
Ġìµľ ìļ°
he tic
1 50
ĠíĮĲë§¤ ë¥¼
Ġadminist rative
ĠìĦ ¹
ĠìĹ° ì²´
êµŃ ìľ¼ë¡ľ
Ġ193 2
ĠìĦ¸ ê¸Ī
ìĶ¨ ìĨĮíĶĦíĬ¸
ĠíĪ¬ìŀĲ íķĺëĬĶ
Ġaband oned
Ġìħ ĭ
ĠëĤ© ë¶Ģ
T S
Ġë¨¸ ë¦¬
ĠëĨĴ ìĺĢëĭ¤
L a
Ġìķ ī
ì¹ĺ ìĻĢ
ãİ ŀ
Ġco ord
bur gh
de f
Ġagricult ural
Ġcar ry
Ġê¼½ íŀĮëĭ¤
ê±´ìĦ¤ ìĿĢ
Ġê¹ Ķ
Ġì°¸ìĦĿ íĸĪëĭ¤
ëĭ¹ ìĭľ
re te
el er
ĠëĬĲ ê»´
Ġsaf ety
íħĮ ìĿ¼
ëĲĲ ì§Ģë§Į
ĠìĦ¸ê³Ħ ìłģìĿ¸
Ġë¹Ħ ìľ¨ìĿ´
Ġconf irmed
Ġa id
Ġëĭ¨ìĪľ íķľ
ìĥģ ëĭ´
ìłķë³´ ë¥¼
H is
Ġcaus ing
ĠíĺĦ ìĥģ
Ġdiffer ence
ĠGu ard
Ġopp osite
ĠíĨł ì§Ģ
Ġmom ent
ëį ±
n ament
ìĿĺ ìķ½íĴĪ
U S
re c
ìĦ± íķľ
éģ ĵ
Ġperman ent
re al
ìĹħ ì¢ħ
g est
ĠD ar
ĠìľłìĿ¼ íķĺê²Į
Ġposs ess
ĠìĤ¬ëŀĮ ëĵ¤ìĿĺ
ĠìĤ ½
Ġë¦ ´
Ġp air
Ġb irds
Ġê¸ī ìĹ¬
Ġcou ple
ĠìķĪ ìĭ¬
ĠF ire
Ġê°Ģ ì§Ī
ap h
C ol
ĠíĮĢ ìĿ´
ĠëĤĺíĥĢ ëĤľëĭ¤
Ġcop y
Ġb odies
ĠAs h
Ġìľł ëł¥
ĠëĮĢë¶Ģë¶Ħ ìĿĢ
Ġ19 17
Ġpro s
e en
j o
ë¶Ħ ìĸĳ
Ġdecl ined
ĠB ell
Ġrepe ated
20 25
ins on
ëłĪ ëĤĺ
ç ¦
íģ¬ ë¥¼
Ġë°© ì¶ľ
2 50
em ic
Ġnot ably
Ġëĭ¹ ìĿ¼
ĠêµŃíĨł êµĲíĨµ
Ġs un
Ġë³ĢíĻĶ ìĹĲ
Ġë¬´ ìĭľ
Ġì£¼ ì§Ģ
ĠëıĮ ìŀħ
Ġì¡°ê±´ ìĿĦ
Ġe ld
Ġëĭ¹ ìĤ¬
ì°¨ ìĽĲ
Ġë³´ê³ł ìĦľ
Ġê°ĸ ëĬĶ
ê¶Į ê³¼
Ġíķĺ ê²łëĭ¤
ĠO cean
ĠìĿ´ëģĮ ê³ł
Ġì¡°ìĤ¬ ëĲĲëĭ¤
Ġbur ied
ë³´ ëĭĪ
ĠPr ime
ĠìĬ¹ ê²©
ok ing
Ġf iction
ìĦ¸ ê¸°ìĹĲ
Ġon es
ì§Ī ëŀľëĵľ
åŁ İ
Ġê°Ģê²© ìĹĲ
ro om
Ġw ides
Ġê³ĦìĨį íķ´ìĦľ
Ġì ¥Ĳ
ê¸° ìĦľ
Ġsh op
Ġíĥľ íıīìĸĳ
ë£¬ ëĭ¤
ĠìĪĺìĿµ ë¥łìĿĦ
Ġregard ing
el d
Ġìŀ¬ ë°°
ĠìĦľìļ¸ ëĮĢ
a wn
ì§Ģ ê¸ī
Ġsur vey
Ġinstit ution
) )
Ġcr im
Ġtemper atures
ĠíķľêµŃ íĪ¬ìŀĲì¦Ŀê¶Į
Ġë¶Ģ ê·¼
Ġìĭ¤ì§Ī ìłģìĿ¸
Ġê³Ħ ê¸°ê°Ģ
Ġd owntown
ĠM en
ĠS ar
Ġë© Ī
Ġepis odes
I f
ĠíļĮ ìĪĺ
Ġë°° ìĨ¡
ĠíĻķ ë¦½
he im
Ġíĺ Ĳ
Ġì°¸ìĹ¬ íķ´
ivers ary
Ġb ond
ìĦ °
Ġd ance
Ġê³ł ìĨį
Ġê°Ĳëıħ ìĿĢ
ak a
Ġdel iver
Âł čĊ
Ġsing er
Ġch oice
Ġ ;
ìĬ¤íĬ¸ ëĿ¼
ĠìĤ¬ëª¨ íİĢëĵľ
ĠìŀĲë¦¬ ìĹĲìĦľ
Ġë ķ
Ġíķľ ëĭ¬
Ġlearn ing
ĠM unicip
ë¡ł ìĿĺ
ê´ĳ ê³ł
Ġíĥľ íĴį
ĠìŀĪìĹĪ ëĬĶëį°
i ro
ĠB ul
ĠìĹ´ ìĹĪëĭ¤
ìĬ¤íĬ¸ ëĬĶ
Ġë¨¸ ëĭĪ
ëĮĢ êµ¬
Ġê·¸ ì³¤ëĭ¤
ë¬¼ ìĿ¸íĦ°ëĦ·
ĠìĿ´ìĥģ ìľ¼ë¡ľ
ĠìłĦëŀµ ìłģ
Ġìĭ¶ ëĭ¤
ë¦¬ ìķĪ
Ġcom ing
Ġíİ Ģ
Ġyoung er
ĠíķľêµŃ ê±°ëŀĺ
ĠëĨĴ ìĿ¼
ĠêµĲ ë³´
Ġì¡° íķŃ
ĠìĹħê·¸ ëłĪìĿ´ëĵľ
Ġíģ¬ ê¸°
Ġìĭľìŀ¥ ìĹĲìĦľëĬĶ
ĠNether lands
Ġê³¼ëıĦ íķľ
p read
ĠF ar
ĠìĿĺê²¬ ìĿ´
Ġìłľê³µ íķ´
ëĭĪ ì¦ĺ
Ġíģ¬ ê³ł
ĠìĿĮë°ĺ ìĿ´ëĭ¤
Ġê¸°ë¡Ŀ íķ´
Ġë°ķ ë¬¼ê´Ģ
ìĪł ìĿĦ
ĠìķĪ ìĹĲìĦľ
ëĵ¤ê³¼ ìĿĺ
av a
ĠìłĦ ìĽĲ
ĠíļĮ ìĿĺë¥¼
ì²´ ìĻĢ
ĠS ong
Ġì§ģ ìŀ¥
Ġenvironment al
ê²½ ê¸°ìĹĲ
ë²Ķ ì£Ħ
íķĺ ìĿĺ
Ġs we
Ġê·¸ëŁ¬ íķľ
200 3
Ġsol o
Ġë³´ ìĿ¸
ìĦ¸ ì¢ħ
overn ment
Ġìĥģ ë¬´
ĠíĮĢ ìĿĦ
Ġìŀ¥ ìķħ
z y
íĸ¥ íĽĦ
ĠìĤŃ ìłľ
Ġì£¼íĮĮ ìĪĺ
Ġviol ence
íİĺ ëĿ¼
Ġgener ation
Ġë§º ê³ł
ĠìŀĪ ìľ¼ë©´
ĠëģĮìĸ´ ìĺ¬
ĠBl ue
Ġë ±ħ
ĠìĤ¶ ìĿĦ
ë¯¸ ëĬĶ
ê ¾¼
íĥĢ ìŀĦ
ĠG ood
Ġev olution
che stra
Ġë°ľ íľĺ
Ġhap pen
Ġë³´ ëĤ¸
ĠíĤ¤ ìĽĮ
ĠìĬ¹ ì§Ħ
Ġest ate
ì¹ĺ ê¸°
ĠM arsh
ë ¿
ĠìĹ° ë£Į
Ġíķ ¸
Ġìłľìŀĳ íķľ
ĠíĮĲë§¤ íķĺëĬĶ
íĻĶ ìŀ¬
Ġë¹ Ĺ
Ġê±´ ë¦½
Ġw all
ĠD VD
ĠìĦľìļ¸íĬ¹ë³Ħ ìĭľ
Ġìĭł ìŀħ
ł íķľ
Ġê²°ê³¼ ëĬĶ
ĠK ong
Ġgood s
ãĥ »
Ġalle ged
Ġwrit ers
au g
ëħĦ ê²½
ë¶Ģ íĴĪ
Ġad ap
ino is
Ġd ang
C om
Ġle gend
ĠíĶĦ ëĿ¼ìĿ´
Ġìłĳ ëª©
ĠìĦ¤ ë¹Ħ
w orth
Ġv en
Ġpract ices
Ġì¶Ķì§Ħ íķĺê³ł
ìľł íĨµ
Ġattack ed
Ġpie ces
ĠHe alth
Ġtyp ical
ê³ł ìļ©
ĠìŀĲ ìĦ¸
Ġadvant age
C D
id ge
ìĿ´ ëıĻ
Ġê±°ëŀĺ ìĨĮ
Ġíĺ¸ íĿ¡
Ġm ap
Ġ1 19
Ġë¶Ģìłķ ìłģìĿ¸
Ġëĵ£ ê³ł
Ġf ellow
ĠìĹ° ë§¹
ĠëĿ¼ íĭ´
Ġë§¡ ìĿĢ
f a
Ġìĥģ ìŀĦ
Ġestablish ment
E n
d r
ĠìĦ¸ ìļ´
Ġëĭ¹ ë¶Ħê°Ħ
Ġë³¸ ìĤ¬
ìĹĲ ë¥´
Ġw arm
ĠC y
ĠìĺĪìĥģ ëĲĺëĬĶ
Ġun known
ĠëĤ© ìŀħ
ĠT ime
ash ion
Ġê³µê°Ħ ìĿĦ
ĠW ild
ëĲĺìĸ´ ìķ¼
Ġê´Ģ ë¦¬ë¥¼
Ġì²ĺìĿĮ ìĹĲëĬĶ
Ġf ram
lic it
ĠT ay
ĠE lect
ë¥ Ń
Ġb udget
ĠìķĦë§Ī ì¡´
Ġì¤ĳ ìŀ¥ê¸°
ĠJ r
ĠG ames
Ġíĸī ìĤ¬ëĬĶ
ĠSte phen
G B
ĠìĹ´ ëł¸ëĭ¤
ĠìłĢì¶ķ ìĿĢíĸī
ìĹħ ìĿ´
ëĿ¼ê³ł ëıĦ
ĠIslam ic
Ġhe ight
T P
Ġìĥģ íļĮ
Ġìĭ¤ìĭľ íķľ
Ġì¦Ŀìłķ íķľëĭ¤
ëħĦ ìĹĲìĦľ
Ġill ust
ëĵ¤ ìĿ´ëĭ¤
Ġìķħ ìĦ±
Ġfrequ ency
Ġì»¤ ì§Ģê³ł
Ġëĭ¤ ëĭĪ
Ġhom es
ag ement
ĠW ars
ĠD i
E D
Ġen for
ìĦ¼íĦ° ë¥¼
ĠìĤ¬ëŀĳ ìĿĦ
ê¹Įì§Ģ ìĿĺ
ĠíĤ ¹
ìĿ¼ ë¶Ģ
Ġì§Ģë°° êµ¬ì¡°
ĠìĦ¤ ë¬¸
ĠëłĪ ì½Ķ
ĠR ay
Ġê·¸ê²ĥ ìĿĢ
ê²¬ ìĿĦ
ĠìķĬìķĺ ì§Ģë§Į
ĠìĤ¼ìĦ± ë¬¼
ĠíĬ¸ ëŀĺ
Ġì£¼ ëĭ¹
occ up
ĠëĿ¼ìĿ´ íĶĦ
ĠJes us
Ġfre edom
íĳľ ì¤Ģ
Ġsh all
Ġed ge
Ġs olution
Ġf ixed
Ġê·¸ ê°Ħ
Ġact ual
p et
w a
is hes
Ġvot ers
ĠM P
ess or
Ġquar ter
ĠìĤ¼ìĦ±ìłĦ ìŀĲê°Ģ
Ġpain t
ìŀĦ ëĮĢ
ĠíĨµ ë³´
g ers
ĠH un
Ġë ĺĳ
ĠìķĮëłī ìĤ°
Ġì§Ģ ìĪĺê°Ģ
ìķĦ íĶĦë¦¬ì¹´
Ġord ers
Ġìłľ ìŀĦìĬ¤
ĠíļĮ ìłĦ
ĠìŀĪìĹĪ ìľ¼ë©°
ĠìĪľ ìĿ´ìĿµ
Ġfoc used
Ġc oll
ĠìŀĲìľ¨ ì£¼íĸī
ĠíĪ¬ìŀĲ ê°Ģ
ë¥´ ì§Ģ
ĠëĿ ł
ĠC ub
ĠB at
Ġë¹Ħ ìľ¨ìĿĢ
ĠP u
ĠìĪ Ń
Ġgl ass
Ġë§¤ ìĽĶ
ìłĲ ê²Ģ
ĠCor ps
Ġì¹ ©
Ġíİ ł
ìĨĮ ìĨ¡
Ġ19 28
ĠG all
Ġdec ade
Ġtw ice
Ġëª¨ ìĬ¤íģ¬
ë°© ìķĪ
Ġëį´ ë§Īíģ¬
ĠìĿ¸ ìĩĦ
Ġìŀħ ìĿĢ
bo x
Ġìĵ° ê³ł
Ġìĥģ ìĨį
Ġì¤ĳìĨĮ íĺķ
ĠCh ief
Ġâ ĺŀ
Ġdra w
Ġexper ienced
ë¦¬ ìłģ
el a
ìĥĿ ë¬¼
Ġimpro ved
ì ¥
Ġcr ime
200 1
ì ¾Į
ĠS anta
Ġë©Ķìĭľ ì§Ģë¥¼
Ġ ign
Ġë´ ¤ëĭ¤
ĠìĨĮ ë©¸
Ġthous ands
ful ly
Ġì¤Ģ ìĪĺ
ãģ ®
ì¡° ë¡ľ
ë²ķ ìľ¼ë¡ľ
ĠíĶĮ ëĿ¼
ì¤ ĺ
ê¸° ì¡´
Ġìŀ¥ìķł ìĿ¸
Ġtwent y
ê³µ íķĻ
Ġë°©ìĭĿ ìĿ´ëĭ¤
m od
ĠìĤ¼ìĦ± s
Ġnegot i
ĠF ree
Ġex clus
Ġêµ¬ë§¤ íķł
ĠëĳĶ íĻĶ
Ġh all
c ar
ĠíĬ¸ ëłĪìĿ´
Ġê·¼ ìľ¡
Ġdev ice
Ġê³µ ë¬´ìĽĲ
Ġë¶ģ ìĦľ
ĠM ajor
Ġintrodu ction
ĠIn f
ĠìĿ¼ ê°ģ
Ġstat ement
o es
Ġë°ĺìĺģ íķ´
Ġpromot ed
Ġr ival
b ell
ìĬ¤ íĶ¼
Ġâ ĨĴ
Ġê²½ê¸° ìŀ¥
Ġìłľì¡° ìĹħì²´
r at
Ġsupport ing
ĠíĻ© ìłľ
ì½Ķ ëĬĶ
ĠO pen
ìĤ¬ íĤ¤
Ġì£½ ìĿĮ
Ġìłģìļ© ëĲľëĭ¤
Ġì» µ
ĠìłĦê¸° ì°¨
Ġneighbor hood
Ġf ought
ìłľ ìĿ¼
ac ent
ale nd
os ure
c oh
Ġ10 1
Ġì²ł íķĻ
å® ī
h at
Ġìĭł ìĦ¸ê³Ħ
Ġact or
ë¯¸ ëħ¸
achus etts
ĠCent re
ĠF urther
Ġ19 22
ĠìĿ¸ íħĶ
Ġwides pread
is d
ĠëįĶ ë¸Ķ
ke e
Ġìĥģíĥľ ë¥¼
ìī½ ê²Į
Ġass igned
ith m
ì£¼ ìĿ¼
Ġcan cer
Ġro ll
Ġcirc um
ct s
êµŃ ìĿ¸
ìĹħ ìĹĲ
Ġinflu ential
ĠìĪĺ íĹĺ
Ġconc luded
ĠM ic
ëł¨ ìĿĺ
ìĦ¼ íĬ¸
Ġëĭ¬ íĸĪëĭ¤
ĠìĹĲ ëĵľ
Ġch annel
in us
ëĦ Į
ç «
Ġê±´ê°ķ íķľ
ëł Ĳ
al so
ìĦ± ìļ°
ĠëĮĢ ëĭ¤
Ġê¸°ëħĲ íķ´
ë¡Ģ ë¥¼
Ġsen ior
th rop
Ġëª¨ ëĵĪ
J ohn
ĠM arg
íĥĢ ë¯¼
Ġhold s
Ġeas ily
ìĹŃ ìĹĲìĦľ
ĠH or
ĠìĹ¬íĮĮ ë¡ľ
ĠìĤ¬ ë¦½
ĠìĤ´ ê³ł
ĠAnd rew
Ġì£¼ ìĹĪëĭ¤
ĠëĨĴ ìĿ´ê¸°
igr ants
un a
osp here
Ġìĸĳ êµŃ
Ġìķŀ ìĹĲìĦľ
ĠìĦ¤ ëĵĿ
ĠìĪĺ ìĪĺ
ĠìĪĺ ë¦¬
Ġdipl om
S u
ĠìĹĶ íĦ°íħĮìĿ¸ë¨¼íĬ¸
ìĺĪ ê¸Ī
Ġm arg
Ġf ear
Ġë³´ ìĿ¼
ĠíĢ ĺ
Ġl aid
ĠGeor gia
ì°¨ ìĿµ
Ġê²½ê¸° ê°Ģ
Ġë§¤ì¶ľ ìĿĦ
Ġengine ering
ìĺ¤ ìĬ¤
Ġprodu cing
ëĭ¤ìĿĮ ìĿĢ
íĥĢ ë¥´
ĠëĳĲëĵľ ëŁ¬
ĠìĬ¤íģ¬ ë¦°
Ġë§Ĳ ìĿ´
ĠíĺĦ ìĥģìĿ´
Ġì´Ī ëĵ±
ë§Į ìĿĢ
íĦ° ê°Ģ
p ri
ĠìĨĲ ìĥģ
Ġcon vent
ĠëĤĺìĬ¤ ëĭ¥
Ġc amer
ĠìĹ° ëĮĢ
ê·¸ ëĿ¼
Ġê¶Į ë¦¬
Ġab ol
Ġëª¨ìĬµ ìĿ´ëĭ¤
Ġfl at
Ġíĺ¼ ìŀĲ
Ġëª©íĳľ ì£¼ê°Ģ
Ġearn ed
Ġë§¡ ìķĦ
ë§Ī ë¥´
ëŀ« ëıĻìķĪ
ĠìľĦ ë¡ľ
ĠìµľëĮĢ ì£¼ì£¼
ĠPal est
Ġíķ©ë¦¬ ìłģìĿ¸
Ġìĥģíĥľ ìĹĲìĦľ
ĠìĪĺì¹ĺ ëĭ¤
ĠìłĦ ìĦ¤
ak s
ĠAb b
ĠìĿ¼ë³¸ ìĹĲìĦľ
ĠMount ain
Ġacc omp
ĠM inn
ê·¸ë£¹ ìĿĺ
ĠE ducation
Ġê°ĢëĬ¥ ìĦ±
ĠíĨµ íķĺìĹ¬
olog ist
ĠëĤ´ ìĪĺ
Ġê¸° ìĨĮ
ĠìķĦ ìĽĥ
s en
Ġwe bs
i y
ĠAr thur
ĠìķĬìķĺ ê³ł
ê°Ģ ëŁī
Ġìĭľ ì´Ŀ
ĠëĲĺ ìĹĪìľ¼ë©°
hed ul
Ġì§Ģìłģ ìĿ´ëĭ¤
Ġíģ¬ ë¦¼
ìŀĲ ëıĦ
ìĹĪ ê¸°
ĠíĶĦ ë¦°
Ġlead s
ul ate
ĠìĦľ ë¥ĺ
Ġê·¸ íķ´
Ġê³Ħ ìłĪ
Ġìĭłìļ© ëĵ±ê¸ī
Ġdro pped
Ġê·¸ ëŁ¼ìĹĲëıĦ
íħĮ ë¥´
å¤ ©
íĬ¹ë³Ħ ìŀĲì¹ĺ
ĠìĿ´íĽĦ ìĹĲëıĦ
Ġê²½íĹĺ ìĿ´
Ġconver ted
R C
íķĻ ìĬµ
ĠW in
ĠSever al
ĠìĭĿ ë³Ħ
ol is
Ġíķ´ ìłľ
Ġìľł íĸī
ì¹´ íİĺ
Ġê¸Īìľµ íļĮìĤ¬
ĠíĻĪíİĺ ìĿ´ì§Ģë¥¼
ĠëĤĺíĥĢ ëĤĺëĬĶ
ins ula
Ġë³Ģ íĺķ
Ġê±°ëŀĺ ê°Ģ
Ġì°© ìĪĺ
Ġem peror
ëĿ½ ìĿ´
Ġê°ľ ì²Ļ
om pan
é« ĺ
ì¼ Ħ
Ġadv ance
Ġë¯¸ ëĵľ
Ġ19 24
Ġëĵ± êµĲ
ĠL incoln
ĠìĦłìĪĺ ê°Ģ
ì¡° ìĽĲìĿĦ
Ġê²¬ ìĿ¸
ĠS her
ìħ Ī
ĠAr m
Ġê´Ģ ìłĲìĹĲìĦľ
F ollowing
ĠìĦ±ê³µ ìłģìĿ¸
íķ´ ìĺ¨
ìłķë¶Ģ ìĿĺ
Ġê³µìĹ° ìĿĦ
Ġì¡° ì¢ħ
Ġì¹´ ë¥¼
Ġê°Ģ ìĬ´
ĠìĽ °
Ġ193 1
Ġì°½ ì¡°
Ġatt ract
Ġì²´ê²° íĸĪëĭ¤
ĠìĹĨ ìľ¼ë©°
ãĥ ¼
Ġsp ort
er ts
Ġëĭ´ ê³ł
Ġì£¼ ì°¨
Ġê³µ ì¤ĳ
ian g
Ġì¤ĳ ëıĻ
Ġar med
è ¦
ir ls
ĠìĿ´ëģĮ ìĹĪëĭ¤
Ġanal y
ĠìĹĩ ê°Ī
Ġë¯¸êµŃ ìĿ´
íķ´ ì§Ī
Ġon line
Ġse ctor
ĠìłĦíĪ¬ ìĹĲìĦľ
ì£¼ êµĲ
Ġdev ices
ì£¼ ê°Ħ
Ġì¹´ ìļ´
ĠSpr ing
Ġì¤ĳ ëıĦ
Ġë¶ģ ëıĻ
Ġì¤ĳ ìĪľ
Ġìĺ¤ ë¦¬
ìĨĶ ë£¨ìħĺ
Ġad vert
ìľĦ ìĻĢ
Ġcop ies
Ġb ott
Ġd ry
Ġd ates
Ġê°Ħíİ¸ íķĺê²Į
M any
Ġpurp oses
ë¸Į ëŀľëĵľ
Ġc rown
ìĺ¤ ê³ł
íĦ° ìĿĺ
ĠìĿ¸ ê¶Į
ĠíĶĦë¡ľ ê·¸ëŀĺ
ê¸ī ìĹ¬
ì¡± ìĿĺ
Ġìŀħ ìĤ¬
Ġíķ´ íĤ¹
ĠT w
Ġê·ľëª¨ ë¥¼
Ġê°ķ íķĺê²Į
Ġrequ est
Ġê¸°ê´Ģ ìĿĺ
ĠíĻ Ģë¡ľ
Ġì¡°ìĸ¸ íĸĪëĭ¤
íĥĢ ëĬĶ
ì°¸ ê³ł
ī ìŀ¥
Ġs and
Ġdescrib e
ul pt
ìĿ´ ëŁ¬íķľ
Ġë§¤ ì£¼
ĠíĻĶ ìŀ¬
å ¿
ĠìĥĿíĥľ ê³Ħ
Ġì°¸ìĹ¬ íķĺìĺĢëĭ¤
ar ia
Ġìĺ¨ ëĿ¼ìĿ¸
ĠCh ap
Ġì²ĺìĿĮ ìĿ´ëĭ¤
Ġdr ive
ĠìĿ´ë¡ľ ìį¨
ĠíĬ¹ íĻĶ
Ġíıīê°Ģ ëĭ¤
ĠìĦ¸ ë¯¸ëĤĺ
Ġìŀ¥ íķĻ
Ġê°ľìĿ¸ ìĿĢ
ĠìĺĪ ìĻ¸
íĮ¨ ë¥¼
Ġê·ľ ìłľë¥¼
ĠìĤ¬ìĹħ ìĿĺ
Ġsub st
Ġ19 25
ìĹŃ ìĿ´
Ġpr on
ĠëģĮ ê³ł
Ġë¨¹ ëĬĶ
ĠìĤ¶ ìĿĺ
ra v
íļĮ ìŀ¥
Ġê°ĢëĬ¥ ìĦ±ìĿĢ
ĠëĮĢ ê±°
Ġthem e
ĠìĽĲ ìłķ
Ġë¯¸êµŃ ìĿĢ
ĠìļĶêµ¬ íĸĪëĭ¤
ĠìļĶêµ¬ íķĺëĬĶ
Ġcost s
ê¸Ī ë¦¬ê°Ģ
m ers
Ġloc ations
Ġcons isted
ìļ© íĴĪ
ĠìłĦ ëĭ´
ä¸ Ģ
ê¸° íĥĢ
Ġì§Ħíĸī ëĲł
Ġì§Ģê¸ī íķľëĭ¤
av ig
Ġì§Ħíĸī ëĲĲëĭ¤
Ġdef ense
ëĤ Ń
ë³´ ê±´
Ġì¶ľ ê°Ħ
íı¬ íĬ¸
ĠìĤ´íİ´ ë³´ë©´
Ġì²¨ ëĭ¨
Ġê·¸ ìĹĲê²Į
Ġì¶Ķ ìĦĿ
Ġro b
Ġend ing
Ġrequ ires
Ġhor se
I T
Ġë³´ íİ¸
ĠíĮ¨ ëĦĲ
Ĩ į
Ġë³ĳ íĸī
ìĭľ ë¦¬ì¦Ī
Ġìŀ¥ ìĭĿ
ĠìĹŃìĤ¬ ìłģ
Ġì ¾Į
ì§Ī ìĿ´
Ġprocess es
ĠIll inois
ĠíĸĪ ìľ¼ëĤĺ
Ġìĭłíķľ ìĿĢíĸī
ìĬ¤íĨł ëŀĳ
ĠìĦ± ìłģìĿĦ
or ters
Ġ19 12
ĠSt one
Ġíı¬íķ¨ íķĺëĬĶ
ĠìĿ´ë¦Ħ ìĿĺ
Ġcour ts
ĠS S
Ġê³³ ê³³
Ġg ar
N ot
Ġpro port
Ġëĭ¤ ì¹´
ĠC a
ëĨ Ĵ
Ġprincip le
Ġrecogn ition
ĠMass achusetts
ĠìĦ±ê³µ ìĿĦ
ë¸Į ë¡ľëĵľ
Ġë¶ īìĿĢ
Ġpro ced
Ġë°©ìĭĿ ìĿĺ
Ġnorth west
Ġë°ľê²¬ ëĲľ
Ġê¸°ìĹ¬ íķł
ĠN ight
Ġmer ch
ĠìĿ¸íĦ°ë·° ìĹĲìĦľ
ìĸ´ ì§Ħ
ĠëĦ· ë§Īë¸Ķ
ĠìĿ´ìĸ´ ê°Ķëĭ¤
Ġìłľìŀĳ ìĹĲ
Ġë²¨ ê¸°ìĹĲ
Ġì°½ ìĦ¤
Ġc risis
ĠëĮĢ ì²ĺ
ĠíĶĦë¡ľëª¨ ìħĺ
O C
a fter
Ġpass es
Ġre act
Ġì¡°ê¸° ìĥģíĻĺ
Ġìłģ ë°ľ
Ġimpro ve
k o
lement ary
ĠìĨĮ ëħĢ
Ġch ampionship
Ġë§Įëĵł ëĭ¤
ĠS und
Ġnort heast
c les
ĠN ic
Ġì°¾ ìĿĦ
Ġoper ate
Ġsu st
Ġbusiness es
Ġê³¼ ìłľ
Ġmanufact uring
Ġê°ľë°ľ íķĺê³ł
ĠëįĶë¶Īìĸ´ ë¯¼ì£¼ëĭ¹
ĠíĤ¤ìĽĢ ì¦Ŀê¶Į
Ġast ron
ĠëĤ¨ ëħĢ
ĠProt est
ĠíĻķ ì¶©
Ġê¸Ī ë¦¬ê°Ģ
ĠìĹŃìŀĦ íĸĪëĭ¤
Ġdial ect
ĠìķĦ ëĤĺ
ë¦¬ íķĻ
åį Ĺ
ìĨĮìĭľ ìĹĦ
ĠìķĮ ëľ°
Ġemer g
Ġshort ly
Ġíĺķ ìĤ¬
ĠíĥĢ ê²©
ĠìĬ¤ íĮĮ
Ġ18 90
Ġeng ines
Ġphen omen
ĠìľĦ ìĿĺ
ĠëĳĲ ëł¤
Ġv an
Ġíİ Ħ
Ġìķķ ëıĦ
ĠOx ford
Ġg ain
ĠìĤ¼ìĦ± ì¦Ŀê¶Į
ë¹Į ë¦¬íĭ°
ìĹ° ìĿĺ
Ġl ake
ë§Ī ë¦¬
Ġíķ© ì³Ĳ
Ġë² ¡
in ian
ĠìķĬ ìľ¼ë©°
ëĭ¹ ìĹĲ
è Ģ
ìķĦ íĬ¸
Ġpopul ations
Ġê³łê°Ŀ ëĵ¤ìĿ´
ĠF ox
ê¸°ìĪł ìĿĦ
el ve
Ġê³µ ìĿĦ
Ġë©´ ìłĳ
ëĦ¤ íĬ¸ìĽĮíģ¬
ìĥģíĴĪ ìĿĦ
ìĩ ł
Ġcomp onents
ë²Īì§¸ ë¡ľ
Ġrough ly
ĠìĹ° ì¤Ģ
rol l
he astern
ê¸° ìĹĲëĬĶ
ìŀ¬ íĮĲ
Ġê²ĮìŀĦ ìĹĲ
ĠíĥĢ ìŀĦ
ìłľ ìŀĳ
ĠëĮĢ ë¦½
ed ia
Ġì§Ģ íĸ¥
Ġë³´ ìĿ´ì§Ģ
Ġíĸī ëıĻìĿĦ
íķĺìĺĢ ëĬĶëį°
m ann
Ġìĺ¬ ë¦°
ĠëĮĢ ìŀ¥
Ġì¶ľ ìŀĲ
ĠF A
ìĭĿ ìĹĲìĦľ
ë©Ķ ë¦¬
Ġê¸°ì¡´ ìĹĲ
ĠíĥĦ ìĨĮ
ĠëĤĺìĺ¤ ê³ł
ĠCon ference
Ġw or
Ġveh icle
et ime
ë°° ë¥¼
Ġcomp osition
ĠëķĮ ìĹĲëĬĶ
ĠíĶĦë¡ľê·¸ëŀ¨ ìĿ´ëĭ¤
Ġsever e
Ġ19 21
ìĭľ ìŀ¥ìĿĦ
Ġis ol
ê³¼ ê±°
iv als
ĠìĦ¸ ìĽĶ
Ġn one
ĠSt and
ĠëŁ¬ìĭľìķĦ ìĿĺ
Ġcommand er
Ġê·¸ ëĵ¤ìĿ´
ëįĶ ë¸Ķ
ìĦ¼íĦ° ìĹĲìĦľ
ë² ¼
b ar
ĠíĿ ī
Ġê¸°ìŀĲ íļĮ
Ġ19 23
Ġë°ľ ê°Ħ
ĠìĪĺì¤Ģ ìĹĲ
ĠìłĦë°ĺ ìĹĲ
Ġv ent
ĠíĶĦë¡ľìłĿ íĬ¸ë¥¼
Ġs ons
Ġíİ¸ìĿĺ ìłĲ
ìĿ´ìĸ´ ìĦľ
Ġì£¼ëª© ìĿĦ
ê°ľ ìĤ¬
Ġëĭ¨ ìľĦë¡ľ
Ġvict im
ê¸Ī ìľ¼ë¡ľ
Ġì§Ħ íĻĶ
Ġch ain
Ġë§Ī íģ¬
ìĿ´ìĹĪ ì§Ģë§Į
Ġìļ´ ëıĻìĿĦ
ĠíĽĦ ì¿ł
oc racy
olog ies
Ġsil ver
ë¡ľ ì§ģ
Ġìŀħìŀ¥ ìĿ´ëĭ¤
g on
Ġunder standing
Ġìĭ¤ìĭľ íķľëĭ¤
ìķĦ íĭ°ìķĦ
ëĲĲëĭ¤ ëĬĶ
ë¶Ģ ëĭ´
Ġpre m
iss ipp
Ġsem i
ĠìĦ ŀ
Ġìłģ ìłķ
Ġë³¸ ëŀĺ
un te
ì¸µ ìĿ´
Ġê°ķ ìĦ¸
ìĭ¤ íĹĺ
int on
Ġëª» íķ´
Ġì¦Ŀê°Ģ íķĺëĬĶ
ì¤ĳ ìĨĮ
Ġë¶Ģ íķ©
ë§Ī ìłĢ
Å «
Ġëĭ ¥
Ġê±° ë¡ł
z o
íķĺì§Ģ ëĬĶ
ne x
ay a
íĮ İ
ìķĦ íĮĮíĬ¸
Ġê·¸ ë§Įíģ¼
rop ical
ĠìĭľëĮĢ ë¥¼
Ġbeg in
ill ing
in ction
ĠA C
Ġìŀ¬ ë°ľ
Ġëĭ¤ ë¥´ê²Į
Ġë¦ °
Ġacc ompan
Ġtrad itions
Ġìĭľìŀĳ íķ´
ĠìĹ° ìĬµ
Ġì»¨ íĬ¸ë¡¤
Ġì¡´ìŀ¬ íķĺëĬĶ
Ġëĭ Į
æ° ı
ìĬ¤ ë¦¬ê·¸
Ġconsist ing
ìłľ ì¡°
M y
ĠíĸĪ ìľ¼ë©°
Ġpre par
Ġìĭ¤ ë¦°
Ġste el
Ġì¶ľ ë§Ī
ĠìĻĦ ê³µ
Ġauth ors
us al
ìłķ ì§Ģ
ĠìĦľë¹ĦìĬ¤ ìĹĲ
ĠKore an
ìħ Ģë¡ľ
Ġìĺ¤ ìĤ¬ì¹´
ì²Ń ìĿ´
Ġì¹ĺ ëŁ¬
ĠëĵĿ ìłĲ
ëħĦ ë§ĮìĹĲ
íĹĪ ê°Ģ
Ġë©Ķëī´ ë¥¼
ĠìłľíĴĪ ìĿĺ
Ġwe ather
Ġì§Ģ ì¹¨
íı¬ ìĬ¤
Ġcomm ittee
ìľĦìĽĲíļĮ ë¥¼
Ġf ranch
ê³µ ê³µ
æ ±
ĠíĶĦë¡ľ íĨł
ĠëĿ¼ ìĿ´íĬ¸
Ġ rom
op les
ĠìļĶ ìĨĮë¥¼
ĠF ord
ë§ĮìĽĲ ìĿ´ëĭ¤
Ġz one
Ġread ing
ì§ĦíĿ¥ ìĽĲ
Ġìĭ¬ ì§Ģìĸ´
Ġëŀ ©
gh an
ĠìĭľìĬ¤íħľ ìĿ´
ë¶Ħ íķł
Ġneed s
Ġì½ĶìĬ¤íĶ¼ ëĬĶ
ĠëıĻ íķ´
el lect
ê³µ ìłľ
v ard
Ġíĺ¸ ìĨĮ
Ġc ert
ĠìłĦ ë¶Ģ
Ġ19 27
ë§ĮìĽĲ ìĹĲìĦľ
Ġëĵ¤ìĸ´ ìĦľ
Ġëĳĺ ì§¸
Ġlin ks
Ġêµ¬ì²´ ìłģìľ¼ë¡ľ
íĺ¸ ìĿĺ
Ġê´Ģ íķ´
in ations
Ġsouth west
ĠP oint
Ġë¬´ ìĿ¸
Ġê¸°ìĪł ìĿĢ
íļĮìĿĺ ìĹĲìĦľ
ĠëıĮìķĦ ê°Ģ
p a
ë¬¼ ê³¼
Ġpl ot
ĠViet nam
ĠìĤ¬ ê¸°
Ġê´ĳ ìĹŃ
l ong
Ġb an
ëħ ķ
ĠCon stant
7 00
Ġíķ´ ì§Ģ
ind er
ĠìĿĢíĸī ìĿĺ
ëįĶ ìĬ¤
ĠGold en
ĠêµĲìľ¡ ë¶ĢëĬĶ
ìĦ¼ ìĦľ
Ġcall s
ìĸĳ ìĿĦ
ìĦł ê³¼
Ġcor rect
ëĤ´ ê¸°
ĠìķĦë¥´ íĹ¨
Ġli qu
Ġassoci ation
ì²´ íĹĺ
Ġtext s
Ġt alk
Ġìļ´ìĺģ ìĿĦ
Ġìĺ¤ ëŀ«ëıĻìķĪ
Ġb rain
Ġëªħ ëªħ
å £
ëĭĪ ìĬ¤íĬ¸
m outh
Ġíķľ ë°ĺëıĦ
j i
Ġqu ite
Ġì¶Ķ ì¸¡
Ġë§Ī ì¹¨
ĠíĥĪ íĩ´
íħį ìĿĢ
e ed
ì¶Ķ ì§Ħ
ëĭĺ ìĿĺ
ìĶ¨ ë¥¼
Ġcandid ates
c ode
Ġus er
Ġëĳ ¥
ĠìĤ¬ ìłĦìĹĲ
ĠOr der
j e
ann a
al i
m at
Ġother wise
ĠíĮ ©
Ġform ally
ĠL i
ë¬´ ëĿ¼
Ġì¡ ±
Ġexpress ion
íļĮ ìĻĢ
Ġdesign s
ìĿ¼ ë¦¬
are t
ëĦ¤ ìĬ¤
adel ph
Ġë¶ĦìĦĿ íķľ
Ġìķŀ ëĳĶ
ĠìĦ±ìŀ¥ ìĿ´
Ġë³´íĨµ ì£¼
il a
Ġinit i
Ġcommunic ation
Ġì£¼ìĭĿ íĺķ
ĠFore st
ëĵ¯ ìĿ´
ĠëĤ´ ëĨ
ĠëĮĢë¶Ģë¶Ħ ìĿ´
Ġprogram ming
Ġì£¼ ìłľ
ĠìķĦ ìī¬
Ġíķĺ ìĹĲ
itz er
ĠìĪĺ ë¥¼
Ġformer ly
Ġv oc
Ġëª¨ëį¸ ë¡ľ
Ġë§Ī ìĤ¬
ç Ļ
Ġì¶Ķì²¨ ìĿĦ
ìľĦìĽĲ ìĿĢ
Ġì°¾ ê¸°
Ġhab it
ĠíĻĶ íķ©
ĠìĤ¬ëŀĮ ëĵ¤ìĿĦ
ĠìĿ´ë£¨ìĸ´ ìł¸
Ġì ³
enn es
ê¼ ¬
angu age
ĠG ame
Ġëª» íķł
Ġì½ ¤
Ġë¬´ ëĮĢ
ĠìķĬ ê¸°
Ġpoet ry
Ġì£¼ëª© íķł
Ġíĺģìĭł ìĿĦ
Ġw ing
Ġì¢ħ ê°Ģ
rel ated
ĠìķĪ ë³´
ĠNor way
cou ple
ĠìĤ¬ë¡Ģ ë¥¼
wh o
ark s
ĠìĤ¼ìĦ±ìłĦ ìŀĲìĿĺ
Ġìłľê³µ íķĺê¸°
Ġhold ing
Ġexper iment
Ġìłģ ì§Ģ
Ġinstrum ents
Ġê³łê°Ŀ ëĵ¤ìĿĺ
Ġb at
Ġê¸° ìĽĲ
ìķĦ ë©Ķë¦¬ì¹´
ĠE le
ìĿ´ëĿ¼ê³ł ëıĦ
Ġy outh
ues e
Ġì§Ģ ëĭĪ
ĠìĿĳ ìĽĲ
Ġëĭ¹ ìŀ¥
ìĤ¬ ìļ°
ĠìĤ° ì¶ľ
ä ¼
ĠìĤ¬íķŃ ìĿĢ
Ġìŀ¬ ê±´ì¶ķ
Ġf ans
ë¦¬ ìŀĲ
m l
og y
Ġì¹´ì¹´ìĺ¤ íĨ¡
Ġsc hedul
Ġíķ¨ ìĪĺ
ĠìĦ±ìŀ¥ íķł
ĠìĦłìłķ ëĲĲëĭ¤
os m
Ġë¬´ ê´Ģ
Ġìłģíķ© íķľ
h ire
ì§ĳ ìĿĦ
ĠëĿ¼ìĿ´ ìĦł
ĠìľłëıĻ ìĦ±
Ġê¸°ìĹħ ìľ¼ë¡ľ
Ġdep ict
Ġ ?
ìĿ´ìĹĪ ìľ¼ëĤĺ
ìĭ¬ ìĿ´
ĠChrist mas
ëŁ¬ ëĭĿ
ĠìĤ¬ìļ© ëĲľ
ro g
Ġì¢ħ ë¡ľ
ĠìĨį ëıĦê°Ģ
ĠìĨĲ ìĭ¤ìĿĦ
Ġëĭ¬ìĦ± íĸĪëĭ¤
Ġthr one
Ġon to
ë³µ íķ©
ê¸° ìķķ
z en
Ġê³łê°Ŀ ëĵ¤ìĹĲê²Į
ĠHol lywood
Ġëª©ìĨĮ ë¦¬ë¥¼
Ġbrother s
Ġpre mi
t ra
Ġíĺķ ìłľ
Ġìļ°ëł¤ ë¥¼
Ġcon ference
ìĭł ê³ł
ĠìĹ°ê²° ê¸°ì¤Ģ
Ġb ought
é ł
ìĨĮë¹Ħ ìŀĲ
Ġso le
Ġcritic ism
â Ĺ
Ġê³łê°Ŀ ìĿĢ
å· Ŀ
ĠìłĦ ì§ģ
êµ¬ ìĹĲìĦľ
Ġì« ĵ
ĠìľĦì¹ĺ ë¥¼
æ Ķ
Ġemer ged
ĠìĤ°ìĹħ ìĿĺ
Ġconcern s
occup ied
ìłĦ ëł¥
Ġê·¸ ëłĪìĿ´
ëĭĪ ê¹Į
ĠFred erick
ĠFound ation
ĠìķłëĦĲë¦¬ìĬ¤íĬ¸ ëĬĶ
Ġterrit ories
Ġë¶Ī ë¦¬
ĠìķĪ íĮİ
amp ion
Ġìĸ´ ê¹¨
Ġê¸°ëĮĢ íķĺê³ł
ĠíĶ¼íķ´ ê°Ģ
ìĿ´ ëħ¸
Ġê´Ģê³Ħ ê°Ģ
ĠìĿĮìķħ ìĿĦ
ìķĺ ì§Ģë§Į
Ġë°ľ íļ¨
Ġíı¬ íĦ¸
c ell
Ġë°Ķê¿ Ķ
íį¼ ëĭĪ
Ġf il
Ġn ations
Ġst y
ìĬ¬ ëŁ¬
ìĤ° ìĹĲ
Ġë§Ĳ ëłĪìĿ´
ri f
ok ed
Ġíģ¬ ì§Ģ
ĠíĻĪ ëŁ°
ĠìĹĲíĶ¼ ìĨĮ
Ġì±ĶíĶ¼ìĸ¸ ìĭŃ
Ġê°Ģ ê¹Ŀ
Ġìĸ´ëĸ łíķľ
ĠíĺĪ ìķ¡
Ġm ist
an cing
ĠëĤ´ ìĿĺ
ìĺĪ ìłķ
ĠíĮĲë§¤ íķľëĭ¤
b n
íĭ° ìĬ¤
ĠìĦľë¹ĦìĬ¤ ë¡ľ
ì£¼ ìĸ¼
p lace
ĠíķĦìļĶíķĺëĭ¤ ëĬĶ
issipp i
ê²° ìĿĦ
Ġw arn
ĠZ h
Ġim perial
Ã¡ n
ĠíĻķëĮĢ íķĺê³ł
Ġhyp ot
ĠìĪĺ ìĺģ
Ġê³¼íķĻê¸°ìĪł ìłķë³´íĨµìĭł
Ġì¦Ŀê°Ģ ë¡ľ
Ġìłľ ìĿ´
che n
Ġê°ľìĦł ìĿ´
ĠìĹ¬ìĦ± ìĿĺ
Ġë§¤ ëĭ¬
ĠíķľêµŃ ìĿĢíĸī
Ġì§Ģ ìľĦë¥¼
ĠìĤ¬ ëĥ¥
ĠëĮĢíķ´ ìĦł
orm al
ë¦¬ ìĹĲìĦľ
Ġpub lish
ĠE st
ĠLew is
pp ing
ĠìĤ¬ìļ© ëĲł
Ġë¬¸íĻĶ ìŀ¬
p rodu
ĠìĨĮ ìķ¡
Ġê°Ĳëıħ ìĿ´
ĠëĴ· ë°Ľì¹¨
ì§Ģ ìĪĺê°Ģ
ìľĦìĽĲíļĮ ìĿĺ
Ġtechn ique
Ġì§ĢìĹŃ ìľ¼ë¡ľ
ĠìĤ¬íļĮ ì£¼ìĿĺ
Ġtechn ical
Ġì¡° ë¦¬
ant ly
Ġint elligence
Ġenem y
ê·¸ë£¹ ìĿĢ
ĠìĿ´ìĸ´ ê°Ģê³ł
Ġê²½ìŁģ ìĿ´
å ł
al se
ì½Ķ ìĿĺ
Ġsuccessful ly
Ġs an
Ġadj acent
ĠìĬ¹ê°ķ ìŀ¥
m es
ê°ķ ìĿĺ
ë¸Ķ ë¦¿
ĠëıĻ ì°¸
ĠMiss ouri
Ġse vent
ìĸµìĽĲ ìĹĲìĦľ
Ġper haps
ĠU s
ĠìĤ¬ëŀĮ ëĵ¤ìĹĲê²Į
ĠëĬĺ ëł¤
ëıĻ ìĿ´
ic ians
íĺĳ ìĥģ
Ġë¬´ ëĦĪ
ë¯¸ ìĿĺ
ĠìĤ¬ê±´ ìĿ´
ë¬¸ ìłľ
ie uten
ĠíĿĺ ëŁ¬
ĠH ospital
ro ph
Ġë§Ľ ê³¼
Ġparalle l
Ġëĭ¹ê¸°ìĪľ ìĿ´ìĿµ
Ġí Ī
ë§Į ìĹ¬
r un
ĠìĬ¤ ë¯¸
Ġìĭ¤ìĭľê°Ħ ìľ¼ë¡ľ
ëĭ¤ ìĭľ
Ġëĭ «
ĠìĿĺ ì§Ģë¥¼
Ġse asons
ĠíĥĪ ì¶ľ
ĠOr gan
ĠíĶĮ ëŁ¬ìĬ¤
íļĮ ëĭ´
ìĸĳ ìĿĺ
íĪ¬ íĳľ
Ġìĺ¤ ìĹ¼
Ġmeas ures
Ġb ra
Ġt aught
è ª
Ġsu fficient
Ġvilla ges
Ġê°ķ ìĦ¸ëĭ¤
i ar
ĠëĨĴìķĦ ì§Ģê³ł
ĠëĶ°ëľ» íķľ
es ota
Ġì¦ī ê°ģ
ĠìĨĮ ìĻ¸
ê¸° ëħĲ
ĠDe v
ĠìĭľìĬ¤íħľ ìĿĺ
ĠìĤ¬ ìļ´ëĵľ
Ġwe ak
Ġê°Ģê³Ħ ë¶Ģì±Ħ
íķ´ ì£¼
Ġê´Ģ ìĦ¸
Ġem ot
Ġvis ual
ëĲĺëĬĶ ëį°
Ġë¦¬ ë²Ħ
ĠìŀĲìĭł ëĵ¤ìĿĺ
Ġaccount s
Ġê°ķìĽĲ ëıĦ
Ġfav our
Ġê³ł ìĨįëıĦë¡ľ
ëĿ¼ ìļ´
ë¹Ħ ìĻĢ
Ġmanufact ur
Ġbound ary
ĠìĿ´ ë©Ķ
ĠìĦł íı¬
Ġcritic ized
çĶ °
ĠëĮĢ ë¶Ģ
ĠìłķíĻķ íŀĪ
Ġë²Ī íĺ¸
Ġì»¸ ëĭ¤
ë¦¬ íŀĪ
Ġìº ¡
ĠìĿ¸ ì¢ħ
ì½ĶìĬ¤ ëĭ¥
Ġd iam
ĠU k
ĠR am
ĠìĻ¼ ìª½
b ec
ĠM ov
ìĥģ ìľĦ
ëĶĶ ëĬĶ
íĥ ±
Ġbo y
ë°Ľ ëĬĶëĭ¤
Ġperform ing
åħ ¬
Ġrest rict
ĠMich igan
Ġê°Ħëĭ¨ íķľ
ì¤Ħ ê±°ë¦¬
Ġì£¼ì£¼ ì´Ŀ
ĠëĮ Ħ
ãĢ Ī
ĠìĿ´ ëĿ¼íģ¬
Ġìľłì§Ģ íķł
ĠëĤ´ ëĤ´
Ġdeb ate
Ġst ating
ĠíĴĢ ìĸ´
ĠìĦł ì°©
íĮĢ ìĿ´
ë¦¬ ë©´ìĦľ
íĥĢ ìĽĮ
ĠìĤ¼ìĦ± ë°ĶìĿ´ìĺ¤
Ġtra ins
ìĹŃ ìĿĢ
ĠëĬĺ ìĸ´ëĤ¬ëĭ¤
pr ise
ĠìĦł ìĤ¬
ë°Ķ ëĿ¼
Ġnot hing
ê°ķ ìĿĦ
ëĮĢ ë¬¸
Ġë¬¸ íĻĶë¥¼
Ġë¦¬ ìĦľì¹ĺ
ĠìĺĪìłķ ìĿ¸
D on
Ġsc ulpt
Ġhe ard
ìĽ ¹
9 00
Ġpar ish
adelph ia
ĠìĪĺ ìĨ¡
ĠìĿ´íķĺ ìĿĺ
ĠR el
ë© į
Ġì¶Ķì§Ħ íķľëĭ¤
Ġjur isd
ĠìĬ¤ íĤ¤
ĠìĽĲ íĻĶ
Ġìĺģ êµ¬
ĠìĨĮê°ľ íĸĪëĭ¤
Ġpasseng er
ĠOr thodox
ific ations
Ġfe et
ì§ĢëĭĪìĸ´ ë§ģ
Ġpl anning
Ġíİ¸ ìĿ´ëĭ¤
Ġrep utation
Ġn ick
Ġê°Ģê²© ìĿĦ
Ġê¼½ ìķĺëĭ¤
ĠìļĶê¸Ī ìłľ
k er
Ġexp lor
Ġì¦ī ìľĦ
Ġabs or
Ġcharacter ized
Ġë°ĽìķĦëĵ¤ ìĹ¬
Ġëī´ ì§Īëŀľëĵľ
Ġw aters
ĠìĿĳ ëª¨
æł ¡
Ġì§Ħ ë£Į
Ġë§Ī ì¹ľ
ĠíıĲ ê¸°
Ġc u
ìĹ¬ ìŀĲ
ê°Ĳ ê³¼
ì´Ŀ ë¦¬
Ġëĸł ìĺ¤
ë¶Ħ ê¸°ìĹĲ
Ġì§ķ ìĹŃ
go ing
ĠìĦ¸ ìĿ´
ĠìĭĿë¯¼ ì§Ģ
Ġìĭł ë¶Ħ
Ġdep loy
ĠìĬ¹ ê°Ŀ
ìłķ ê³¼
ĠíķľêµŃ ìĹĲìĦľ
st ar
ĠìŀĲ ê°Ģ
ìŀ¬ ë¬´
Ġê¸Ī ë©Ķëĭ¬ìĿĦ
Ġmer ged
ĠìĹ° ìŀ¬
ĠëĦ· íĶĮ
Ġacc used
Ġph r
ĠSp ace
Ġì¶Ķ ì¶ľ
ĠìłĦëħĦëıĻê¸° ëĮĢë¹Ħ
Ġe u
ìłĪ ìĿĦ
Ġëľ» íķľëĭ¤
Ġë°© ìľĦ
ëĶĶ ìĬ¤
over e
ĠìľĦ ì£¼ë¡ľ
Ġì¢ĭìķĦ íķĺëĬĶ
ìĿ´ìĹĪ ìľ¼ë©°
Ġinstrum ent
Ġê¸° ì§Ģ
Ġsp ons
ĠAl f
Ġë¶ĦìĦĿ ìĿĦ
Ġ18 80
ĠDis ney
ĠëĳĺëŁ¬ ìĭ¼
Ġdepend ing
ĠìłľìķĪ íĸĪëĭ¤
alend ar
ĠìĿ´ ëĵ¤ìĿĦ
ĠìĬ¤ ì¹´
Ġë°ĽìķĦ ëĵ¤ìĿ´
ìłĦ íĺķ
Ġ19 26
ì ĵ
ëĵľ ìĹĲìĦľ
Ġgreat ly
Ġfund ament
ĠìĥģíĴĪ ìĿ´ëĭ¤
Ġëį° ëĭ¤
ë°ķ ë¬¼ê´Ģ
Ġm s
ìĬ¤íĬ¸ ë¥¼
íļĮ ë³µ
íĻĶ íķ´
enn a
i ography
ĠìĿ¼ ì¢ħìĿĺ
Ġê³ł ìĦ±
nd s
Ġìµľ ëĭ¤
ë©´ ìľ¼ë¡ľ
ĠF le
Ġpre ced
Ġrapid ly
ìŀĲ ëĵ¤ê³¼
Ġë¶Ģ ê°Ģ
y an
Ġrest aur
rom e
ĠíĽĦë³´ ë¡ľ
le ts
ĠSer ies
ìĤ¬ ì§Ħ
ĠìĿ¼ ìĿĢ
Ġinter ests
ìĤ°ìĹħ ìĿĺ
Ġspok en
Å ¡
Ġëª¬ ìĬ¤íĦ°
ĠìĹĳ ìĬ¤
Ġê²Į ëĭ¤ê°Ģ
ĠK BS
Ġmult i
O f
ĠìĿ¼ ëĮĢ
oc ol
Ġìı ĺ
ĠìĨĶ ë¡ľ
Ġê³ł êµĲ
i ency
ëĤĺ ê°Ī
ens es
Ġv ocal
íķł ìĿ¸
ph one
Ġe gg
Ġmov ements
Ġs outheast
ĠìĿ´ë£¨ìĸ´ ì§Ħ
Ġìī¬ ìļ´
Ġs omew
ĠH ong
ĠìĨĮ ë§¤
Ġë§Į ëĤľ
Ġwhere as
Ġlink ed
M ar
ĠìĥģìĬ¹ ìĿĦ
ĠK en
Ġflo or
Ġtra v
Ġìłķë³´ ê°Ģ
ĠíĥĪ ëª¨
Ġê·¸ê²ĥ ìĿĦ
y er
Ġf ile
Ġelect ron
ĠëĤĺíĥĢ ëĤ¸ëĭ¤
ëłĪ ëĵľ
ë°© ìĿĺ
Ġâ ĳ
Ġëª¨ëĳĲ ê°Ģ
an es
Ġrec re
Ġin form
ë¥´ íĤ¤
Ġdeg rees
å¹ ³
Ġnh ëĨįíĺĳ
ĠA I
ĠInd ust
ĠìķĬìķĦ ëıĦ
ĠI BM
äº ĭ
ë³¸ ìĿĦ
ĠT al
ĠD am
ë°Ģ ë¦¬
ĠëĨ ĢìĿ´
Ġëĭ¬ ëł¤
ĠíĻĺê²½ ìĹĲìĦľ
Ġê° ±
ë°Ķ ë¥¸
Ġrepla ce
Ġlim its
ìĬĪ íį¼
ë³ ¶
k et
in y
ĠìĹĶ ìĶ¨ìĨĮíĶĦíĬ¸
Ġìłķ êµĲ
ĠB on
Ġì¢Į ìļ°
Ġtreat y
íĥĦ ìĿĦ
ch ang
Ġìłķ ë³µ
ìĭľ ë¯¼
ĠëķĮ ë¶ĢíĦ°
Ġnomin ated
ĠìĦł ìłĦ
Ġt ur
Ġì´Ī ê³ł
Ġê²½ê¸° ëĬĶ
ĠìĤ¬ ìŀĦ
rap y
Ġìĸ´ ìļ¸
iss ance
Ġsepar ated
ĠìĪĺ ëł¹
ĠOtt oman
ĠD ub
ĠìķĦ ëª¨
ĠìĹŃ ìĤ¬ë¥¼
ìĹŃ ìľ¼ë¡ľ
ĠìľĦì¹ĺ íķĺê³ł
ìį ¸
Ġëħ¹ ìĥī
ĠìĹ´ ëĮĢ
ĠB rad
íķĺ ëįĶëĿ¼ëıĦ
Ġìĭľìŀĳ íķĺìĺĢëĭ¤
ëĦ¤ ìĿ´ë²Ħ
Ġstrong ly
ĠíĶĦë¦¬ë¯¸ ìĸ´
Ġë¶Ģì´Ŀ ë¦¬ëĬĶ
ë§Ī ëĬĶ
ĠíĪ¬ìŀĲ ìŀĲëĵ¤ìĿĺ
ĠP ak
ĠE ven
ĠíĶĦë¡ľê·¸ëŀ¨ ìĿĢ
ì²ĺ ëĬĶ
Ġê¸°ìĪł ê³¼
Ġpers ons
ëħ¸ ë¯¸
Ġaspect s
um es
ĠíĶĦëłĪ ìŀĦ
Ġret ired
ĠìĤ¬ìļ© ìĿĦ
Ġê´Ģ ìĹ¬
Ġíı¬ ëŁ¼
Ġë¶ĦìľĦ ê¸°ë¥¼
ã Ĩį
Ġë°© ìłķ
Ġl at
ĠíĪ¬ ìĸ´
ĠC ard
ĠìĹ°ê²° íķĺëĬĶ
Ġte aching
in ally
ìĥģ ìŀ¥
j a
Ġìĵ° ìĿ¸ëĭ¤
Ġë³´ ìĬ¤
ĠíĻĪíİĺìĿ´ì§Ģ ìĹĲìĦľ
Ġpro hib
Ġ18 00
Ġsym pt
Ġth ir
ìĻķ ìĿĺ
Ġì²´ ìľ¡
Ġì¤ĳêµŃ ìĹĲìĦľ
Ġr ivers
Ġëĭ¨ë§Ĳ ê¸°
Ġinc ident
ĠìłĦ ìŀĳ
Ġsuccess or
ĠìĨĮìĥģê³µ ìĿ¸
Ġìłķë¶Ģ ìĹĲ
ì¡° ëĭ¬
Å Ĥ
íķĺ ìļ°ìĬ¤
ĠìĦł ëĳĲ
Ġê°ĸ ì¶°
Ġcerem ony
Ġìĭłì²Ń ìĿĦ
O r
Ġíķ¨ ìľł
Ġd oll
íĬ¸ ëŀĻ
Ġrat io
ìĿĮ ìĿ´ìĿĺ
} }
or age
or pg
Ġê±°ëŀĺìĿ¼ ë³´ëĭ¤
sk i
íıī ìĿĦ
ëĵł ì§Ģ
Ġw alls
ĠìĦłë³´ ìĿ´ëĬĶ
ì¡Į ì§Ģë§Į
ë©´ ìĿĺ
f rom
ĠPol ice
ì¹´ ê³ł
erson al
ĠíĪ¬ ìĪĺ
Ġë¶Ģ íĥģ
Ġëĵ ł
Ġê³Ħ ê¸ī
íķĻëħĦ ëıĦ
ĠíķŃê³µ ê¸°
ain e
ĠëĲĺ ë©°
Ġpo em
ĠìĬ¹ ìĿ¸ìĿĦ
Ġìĥģëĭ¹ ìĿĺ
' )
k h
â ĸ
Ġëĵ¤ìĸ´ ê°Ķëĭ¤
199 9
Ġtrans ition
íİ Ģ
ĠìļĶ ìĥĪ
ĠìĽĲ ì²ľ
ap pe
Ġê·¸ë£¹ ìĿĺ
Ġëħ¸íķĺìļ° ë¥¼
ĠS us
ìłĦ ë§Ŀ
Ġíĺ¸ ìĿĳ
ĠìĥģíĴĪ ìľ¼ë¡ľ
al o
ĠëłĪ ìĬ¤íĨłëŀĳ
ë¯¸ ìĤ¬ìĿ¼
Ġob tain
i able
Ġ14 0
Ġëĵ¤ìĸ´ ê°Ħ
ĠìłĲìľł ìľ¨
c rib
ĠíĽĦ ìĨĲ
íĶĮ ëŀĺ
ĠìķĦë¦Ħ ëĭ¤ìļ´
pect ive
ĠíĦ° íĤ¤
Ġtransport ation
Ġê´ĳë²ĶìľĦ íķľ
ĠìĤ° ìĿĢ
Ġ ille
Ġco oper
ĠëĪĪ ê¸¸ìĿĦ
ĠìĹĦì²Ń ëĤľ
Ġì»¬ ëŁ¬
Ġp ul
ì¡° íķľ
Ġì¹´ëĵľ ë¥¼
ĠíĶ¼ìķĦ ëħ¸
ĠH on
ĠìĿĺ ìĽĲìĿ´
Ġì£¼íĥĿ ëĭ´ë³´ëĮĢì¶ľ
ĠIm perial
R el
ĠìļĶ ìĿ¸
ë³´ íĨµ
ĠìĨĮ ìĬ¤
ìĹ¬ ìĦ±
Ġë³¸ ì§Ī
ìĤ¬ ëĭ¨
ë°© ìķĪìĿĦ
Ġë°Ľìķĺ ê³ł
l usion
ëĲĺ ëıĦë¡Ŀ
Ġë©´ ìĦ¸
ĠíĥĦ íķµ
Ġdo ing
ëĭ´ ëĭ¹
ĠëĲĺ ê¸°
A M
íĨµ ìĥģ
ìħĢ ëŁ¬
ĠëıĦ ìĭ¬
ĠìĥģìľĦ ì¢ħëª©
ĠMiss issippi
Ġê²½ìļ° ìĹĲ
ëª© ìłģ
ĠëĮĢ ìķĪ
ĠìĥĪ ë²½
rib ute
ĠíķĢ ëŀĢëĵľ
ì¢ ĭ
ĠìĿ´ë¤Ħ ì§Ī
Ġent itled
Ġì§ģìłĳ ìłģìĿ¸
ëĤĺ ë§Ī
íĺ ľíĥĿ
ĠE s
Ġìºłíİĺ ìĿ¸
at ically
Ġl ot
Ġëħ¼ ë¬¸
Ġf ra
ë¶Ģ ëĮĢ
ĠTur k
ìłĢ ê°Ģ
ĠìºĲ ìĭľ
Ġgovernment s
ë¦¬ìķĦ ìĿĺ
Ġtrib es
Ġë ¼Ī
Ġres emb
ĠHaw ai
ìĪĻ íķľ
ĠPortug uese
Ġ18 70
Ġbe aut
íķ´ ê°Ģ
ĠìĤ¬ ë²ķ
ĠëĤ´ ìłķ
Ġatt ributed
ì¤ĳ ìĭ¬
ë¸Ķ ë¦¬
Ġêµ¬ìĦ± ìĽĲ
ìĽĲ íķľ
Ġal coh
ĠAl bert
Ġì°¸ìĹ¬ ë¥¼
Ġent ertain
Ġdia gn
ĠVictor ia
íĻĶ ëĲĺê³ł
ä ¾
19 70
Ġfound ing
ëĤĺëĿ¼ ìĿĺ
ĠìĻĦ ìłĦíķľ
ĠR od
oth ing
ĠìĬ¤ íİĻ
N S
ĠìļĶì²Ń íĸĪëĭ¤
Ġê°ķ ìĹ°
ĠIn ternet
ĠìĹ´ ì°¨
ĠìľĦìĽĲ íļĮ
ĠìķĶ ìĤ´
m ìĿĺ
ĠìĤ¬ ëĵľ
ĠëĤ´ëĨĵ ìĿĢ
êµ° ìľ¼ë¡ľ
p se
Ġêµ¬ìĦ± ëĲĲëĭ¤
íķĺ ë¯Ģë¡ľ
ĠëıĻ ìķĦ
ĠìĹ°êµ¬ ëĬĶ
Ġdeterm ine
ĠëıĦ ëª¨
íķľ ìĿĢ
ĠTay lor
Ġim ages
ìĬ¬ ëĿ¼
ĠìľĦíĹĺ ìĿ´
ëĸ ¡
Ġstra ight
Ġë§¤ ì²´
ìłĲ ìĿ´ëĭ¤
ĠìĦł ìĥĿ
Ġíĺĳ ìķ½ìĿĦ
Ġíİĺ ìĬ¤íĭ°ë²Į
Ġve get
Ġche ck
Ġìłķì±ħ ìĹĲ
Ġse ems
um in
qu es
ĠëĶĶ ìłĢ
ĠìĦłê±° ìĹĲìĦľ
ìłĦ ê±°
Ġìľł ëĤĺìĿ´
ìĻ ľ
Ġr ich
ĠìĪĺ ëł´
Ġextrem ely
n ame
Ġê³ł êµ¬
Ġann iversary
Ġthe rm
ìŀĲë¡ľ ìĦľ
Ġrepresent ation
ĠìłľíĴĪ ìľ¼ë¡ľ
Ġë§Ī ìĬ¤íĦ°
ĠCh ild
ĠìŀĲ ë°ľ
Ġexcept ion
ĠëģĬ ìŀĦ
ë¡ľ ìļ°
Ġgun s
Ġë§Ī ëĵľë¦¬
ì²Ń êµ¬
Ġíķ´ ë°©
ĠìĤ¬ ë¡ľ
Ġpain ting
ê·¼ ë¡ľ
ĠìĦ¤ì¹ĺ ëĲľ
ìĮ į
ĠF ame
ë²ķ ê³¼
ĠMinn esota
Ġunivers ities
Ã Ĺ
ĠìĿ¸íĦ° íİĺìĿ´ìĬ¤
ç ī
ĠìĽ¹ íĪ°
íķĺ ë¥¼
c alled
ì§Ģ ê¸Ī
ĠM oon
em et
Ġê°Ģìŀħ íķł
Ġfac ed
Ġì¶ľìĭľ ëĲĺìĹĪëĭ¤
Ġì¤ĳ ë³µ
ĠëĤĺíĥĢ ëĤł
Ġë¶ĪíĻķìĭ¤ ìĦ±ìĿ´
Ġf resh
ĠT rum
Ġend s
Ġì°¨ì§Ģ íķĺê³ł
Ġì į
wh ile
in er
Ġìľłëªħ íķĺëĭ¤
Ġrec on
Ġmusic ians
ro c
ĠN H
ĠV i
ĠìĿ¸ì¦Ŀ ìĿĦ
Ġconsider able
w ick
ad er
ĠH ay
h and
ê³µ ëĭ¨
è ³
ìĨĮ ìĬ¤
Ġìŀ¡ ê³ł
ë¦Ħ ìĿ´
Ã© e
ĠìĿ´ëĤ´ ìĹĲ
ëĵ± ìĿĦ
Ġib k
ê³ł íķľ
Ġìĸ´ëł¤ ìļ¸
St ar
ut er
ìŀ¥ ì¹ĺ
il it
Ġëª¨ ìľ¼
ê°Ģ ìĥģ
Ġê³ł íĸ¥
Ġk eb
ì°½ì¡° ê³¼íķĻ
ìľĦìĽĲ ìŀ¥ìĿĢ
Ġíĥľ ìĸ´ëĤĺ
Ġsk in
ĠëĮ ĵ
ĠT op
ĠìĹ° íıīê·ł
st ring
ëŁ¬ ìĭľìķĦ
ê°Ħ ëĭ´
Ġì²ł ìĪĺ
ocr atic
ĠìŀĲ ìĺģìĹħ
ĠíĬ¸ ë¡ľ
ĠíıŃ ìľ¼ë¡ľ
ì¡° ìĤ¬ë¥¼
ĠFoot ball
ê¶Į ìĹĲìĦľ
Ġì¤Ģ ìļ°
Ġarch ae
Ġfund s
Ġcorn er
ĠS om
ì¸µ ìĿĢ
ìŀĪ ê²Į
Ġlgìľł íĶĮëŁ¬ìĬ¤ëĬĶ
ĠO b
ìĺĪ ë¥¼
Ġê°Ī ìķĦ
ĠëĮĢ íķŃ
ë° ¤
Ġc row
Ġpe oples
ĠíĽĦ ê¸°
Ġfe ed
íı´ ë¦¬
ĠVilla ge
Ġê°ĸ ëĬĶëĭ¤
ĠH a
Ġê·Ģ êµŃ
ĠëĮĢíķľ íķŃê³µ
Ġì§ĳ ìĹĲìĦľ
ieuten ant
Ġdel ay
Ġassum ed
ĠìĽĲ ìľł
Ġëĭ¤ ìĿ´ìĸ´
Ġtransl ation
Ġt ask
amil y
ĠëıĦ ëĦĲëĵľ
Ġim ag
ìĭľ íĬ¸
ëħĦ ìľ¼ë¡ľ
av ed
Ġë ®
ëī´ ìĸ¼
Ġì£½ ìĿĢ
Ġìŀĩ ëĬĶ
íķ´ ìļ´
ëĺĲ ëĬĶ
ëĭ¬ ëĿ¼
Ġres erv
Ġìĭ¤ìłģ ìĿĢ
R T
ì¿ ¼
Ġspirit ual
ìĦĿ ìĿĢ
Ġì¤ĳ êµ¬
Ġë¶Ģëĵľ ëŁ¬ìļ´
Ġì§Ģ ì§Ģë¥¼
ĠìĥĿê°ģ ìĿĦ
Ġì²´ ê³Ħë¥¼
ìĺ¤ ìłĦ
ë¹Ħ ì¹ĺ
ĠìĬ¤ íĶĦ
Ġstri ke
Ġagricult ure
ĠëĪĦ ë¦¬
l arg
ĠìĹ° ì´Ī
ĠëĮĢ ë¡ľ
act ive
ë¦Ħ ìĿĦ
Ġë§Īëł¨ ëĲĲëĭ¤
êµ¬ ìĦ±
Ġê¸īê²© íŀĪ
ic y
Ġë§¤ ìŀ¥ìĿĦ
Ġë¬¼ ëŁī
ìĪ į
Ġocc as
Ġì§Ģ ìĭľ
Ġuse ful
Ġì§Ī ë¬¸ìĹĲ
Ġex ternal
Ġmed ium
Ġì±ĦëĦĲ ìĿĦ
Ġíĥĵ ìĹĲ
ĠìĪľ ì°¨
ĠìŀĦ ë¬´
Ġë°Ģ ëł¤
ĠJust ice
ĠíĬ¹ ìľłìĿĺ
ëĭ¹ íĸĪëĭ¤
ĠP ier
ĠMex ican
ìĿ¸ ëł¥
Ġa er
Ġì¦Ŀ ìĭľëĬĶ
ĠìĦłì°© ìĪľ
f l
Ġn aval
Ġìŀ¥ ìĨĮ
ĠíİĢëĵľ ëĬĶ
att les
Ġì½ĺìĦľ íĬ¸
Ġìłľìĭľ íķľ
Ġê°ĳ ìŀĲê¸°
ĠPri ze
is p
Ġrece iving
Ġhum id
Ġìľłíĺķ ìĿĺ
Ġt rou
Ġch ose
ê³ł ìĨįëıĦë¡ľ
Ġst ring
Ġex ists
Ġê°ľëħĲ ìĿĦ
ĠG en
Ġle aves
ì§ģ íķľ
ĠìĨĮë¹Ħ ìŀĲëĵ¤ìĿĺ
íķĺê¸° ë¥¼
Ġv ice
íĵ¨ íĮħ
E S
Ġíģ¬ ëłĪ
Ġadap ted
ĠD et
ĠìŀĪìĹĪ ìľ¼ëĤĺ
ë´ Ĳìķ¼
Ġmet ropolitan
Ġarran g
å ī
ìĸ´ ìł¸
Ġus ers
ë¶Ħ ìŁģ
ë¦¬ ìļ°
ì½ľ ë¦¿
ĠíĽ ¼ìĨĲ
Ġíģ¬ë¡ľ ìķĦíĭ°ìķĦ
ë¥ĺìĹĲ ìĿ´ìħĺ
ĠíĻĺ ìľ¨ìĿ´
Ġë¡ł ì¹Ń
Ġ9 00
ak h
ĠíķĺëĿ½ ìĦ¸ë¥¼
Ġê¸°ìĹħ ê³¼
Ġëĭ¹ìĭľ ìĿĺ
ĠPhil adelphia
íĽĦ ë³´
ĠíĮ¨ ëŁ¬
ĠH it
lu es
ĠëĤĺëĪ Ķ
ìµľ ê³ł
in th
ì²ĺ ë¶Ħ
ĠAr k
sk y
Ġemploy ees
ĠB oy
ìĭł ê²½
ĠìłĦìŁģ ìĿĦ
Ġb ow
ĠH ome
g reg
ìĭľ íĶ¼
Ġfund ing
ĠìŀĦ ìĿĺ
Ġëª¨ìĬµ ìĿ´
ĠìĿ¼ ì°į
ot o
íĭ° ëĬĶ
ìĨĮ ìĦ¤
ant ine
Ġstar red
Ġì¶ķ ìłģ
Ġë§Ĳ ìĹĲ
Ġre ality
ĠAdd itionally
ĠìĤ¬ ìľł
Ġë©Ķ ê°Ģ
Ġext ent
ĠD C
ĠW all
Ġì½ĺ ìĨĶ
Ġê¶Į ë¦¬ë¥¼
ĠT est
Ġeffect ively
ìĭ¤ ìĹĲ
ĠìłĦ ìŀ¬
ĠD un
ĠëķĮ ëıĦ
ĠìĿ´ ë¥¸ëĭ¤
ĠëĦ¤íĬ¸ìĽĮíģ¬ ë¥¼
Ġp ure
Ġprom ote
ĠS pecial
ĠìŀĦ ì§ģ
Ġag o
ĠGree ce
C ar
ìľł ì¹ĺ
å İ
Ġë°ĺ íĻĺ
ë°ĺ ëıĦì²´
gl as
Ġë¡ľ ë²ĦíĬ¸
ë²ł ë¥´íģ¬
Ġso il
ëıĻ ìĿĮìĿ´ìĿĺ
ëĲľëĭ¤ ê³ł
Ġ19 16
ĠìĿ¼ ëł¨ìĿĺ
Ġsat ell
ĠíĻķìĿ¸ ëĲĲëĭ¤
Ġliber al
us hed
Ġëı ĭ
Ġcap able
Ġíĺķíĥľ ë¥¼
ìĿ¸ ìĭĿ
ctor al
Ġm ic
Ġappro pri
ëĲĺìĹĪ ìĿĦ
Ġdoc uments
Ġê°ľìĿ¸ ê³¼
Ġ19 11
Ġint ellect
æ³ ķ
ĠëĨĴ ê³ł
Ġcred ited
ĠìĿ´ë²¤ íĬ¸ëĬĶ
ë³´ ìľł
M ost
ëĮĢ ìĿĳ
ĠK ansas
íĻľ ìļ©
Ġë°°ê²½ ìľ¼ë¡ľ
Ġy ield
Ġground s
so ft
ĠëĳĺëŁ¬ ìĭ¸
ê²¨ ì§Ħ
ĠEn ter
ĠìĥĿê°ģ íķĺëĬĶ
Ġinn ov
ë¡ľ ìĹĲ
Ġìķŀ ìŀ¥
Ġìĥģíĺ¸ ìŀĳìļ©
Ġ3 60
mm et
Ġì½ĺ ìħī
Ġv o
us cript
íģ´ ëĿ¼ìļ°ëĵľ
Ġgen re
ĠìĬ¤ ì¼Ģ
Ġì¡°ìĦł ë¯¼ì£¼ì£¼ìĿĺ
Ġë¬´ ëł¤
Ġê°Ģê³Ħ ëĮĢì¶ľ
ĠDav is
ĠAust ria
Ġë¸Į ë£¨
ĠìĿ´ ìĹĪëĭ¤
Ġun su
ìľĦ ìķĪ
ĠEng ine
Ġì£¼ ìŀ¥ìĿĦ
Ġ16 0
Ġí Ĥ¬
ë³ĳ ìĿĦ
Ġcall ing
ìĸ´ ëĤł
Ġinter pre
ĠëıĻ ìĦ±
ľ ëĭ¤
ĠìĿĺ ìĭĿ
Ġì§ĢìĽĲ íķĺê¸°
Ġê¸°íļįìŀ¬ ìłķë¶Ģ
? .
Ġarrest ed
om c
ĠìĦ¸ ìĥģìĿĦ
n es
or i
Ġë¬´ ë¦
Ġê³Ħ íĨµ
Ġopin ion
Ġíģ´ëŀĺ ìĭĿ
Ġm ort
Ġê¸°ê°Ħ ìĿĦ
Ġthe atre
ĠìŀĲìĹ° ìĬ¤ëŁ½ê²Į
ĠìĬ¤íİĺ ìħľ
ìĬ¤ íĮħ
ìĭ¤ ìĿ´
Ġsc enes
å ½
Ġê¸° ê¸Ī
Ġë§Ī ì¼ĵ
Ġë§ŀ ìĦľ
Ġë§ŀì¶ ĺ
ĠìĿ´ë£¨ìĸ´ ì¡Įëĭ¤
E T
ì§Ģ ë¦¬
ĠìĿ¼ ê´Ģ
Ġnov els
ĠN etwork
s pan
Ġëª¨ ë¥´
ĠíķľêµŃ ìĿĢ
Ġìŀ¡ ì§Ģ
ë¦¼ ìĿĦ
Ġê²°ê³¼ ë¡ľ
Ġval ley
ĠëĤ¨ ìĦľ
ĠH y
íĨł ë¡Ŀ
Ġdist ributed
Ġ190 5
ĠH o
Ġê°ķíĻĶ íķł
ĠE lementary
Ġ19 15
ĠíĻĺê²½ ìĹĲ
Ġal gor
ĠìĨĮ ë¦¬
ê¸° ìĽĲìłĦ
ê² Ķ
Ġse lect
Ġlg ìłĦìŀĲ
ë¹Ħ ë¡ľ
ĠB ush
Ġë¶ĦìĦĿ íķ´
ë©´ ìĹĲìĦľ
Ġìĭľë¦¬ì¦Ī ìĿĺ
ĠPro f
Ġë©Ģ ë¦¬
ĠB or
Ġê±° ëĴ
t es
Ġbeg ins
Ġdr ink
emet ery
Ġf rag
olog ists
ĠìŀĪ ìľ¼ë¯Ģë¡ľ
ĠìłľíĴĪ ìĿ´ëĭ¤
ìłĦ ëĤ¨
ìĺĪ ì¸¡
Ġíķľ ê¸Ģ
D S
Ġì²ł íļĮ
í ī
as ters
ìłĢ ìļ°
Ġse ctions
Ġìŀł ìĪĺ
Ġkeb íķĺëĤĺ
y o
ë³¸ë¶Ģ ìŀ¥ìĿĢ
Ġì¹ĺ ì¦Ī
Ġë²Ķ ìľĦë¥¼
ĠNaz i
m o
ĠìĿ´ìłĦ ìĿĺ
Ġì¹´ ë¥´
Ġbrief ly
Ġz ero
Ġp ione
Ġíı¬ ìŀ¥
Ġê°¤ëŁŃìĭľ ëħ¸íĬ¸
" |
Ġêµ īìŀ¥
ĠëĮĢ ëŀµ
m ad
ark ed
Ġê°ķíĻĶ íķ´
Ġext ension
ĠL ady
Ġperiod s
ìĽĲ ìĿ¸
íķ´ ì§Ģê³ł
ĠS quare
ĠìľĦíĹĺ ìĿĦ
ĠíĥĪ ëĿ½
ĠìĿ´ìļ© íķĺìĹ¬
st al
ì¤ ¬ëĭ¤
ĠëĤĺ ìĻĶ
laim ed
Ġst ores
ìļ° ë¦¬ëĬĶ
Ġë¶Ģë¬¸ ìĹĲìĦľ
Ġwh y
Ġex isted
ĠìķĦìĿ´ ìĬ¤
ë¹Ħ ìĹĲ
Ġin put
Ġë¶Ħ ëħ¸
ë¹ µ
ê¸Īìľµ ì§Ģì£¼
Ġì§ĳ ìĿĦ
Ġ12 00
Ġì²´ ìłľ
êµĲìľ¡ ìĿĦ
Ġê¹Ĭ ìĿ´
Ġë§¤ ìŀ¥ìĹĲìĦľ
ê·¸ ìĿĺ
ĠíĻĶ ë¬¼
Ġì§Ī ë¬¸
ĠUn ivers
Ġview ed
Ġdis miss
Ġex pect
íį¼ ìĭľíĶ½
ĠìłĢ ê¸Īë¦¬
Ġì»¨ ìĨĮìĭľìĹĦ
ê°Ģ ìĿ¸
ë°Ķ ìĿ´íĬ¸
ëĬ ¬
ì¹ĺ ë©°
Ġì±ħ ìĿĦ
ì§Ģ ìłĲ
Ġíĩ´ì§ģ ìĹ°ê¸Ī
ë© Ģ
ĠìŀĲë³¸ ìĭľìŀ¥
Ġë°ľ íĥģ
N o
ĠëĮĢ ìĦ±
Ġìŀħ ê³ł
ê²ĮìŀĦ ì¦Ī
Ġf ashion
ĠìĿ´ë¤Ħ ì¡Įëĭ¤
v i
Ġëª¨ ìĿĺ
ock s
ë³¸ ë¶ĢëĬĶ
Ġarr ival
Ġt ail
ĠJ on
ĠëıĦ ì¤ĳ
Ġland sc
ĠE U
Ġh app
Ġíıī ìĥĿ
ĠLab our
hen s
ĠìĦ¤ë¦½ íķľ
Ġreview s
as te
it o
ĠìĪĺ ìĿĺ
ìĻĢ ìĿ´
Ġ6 000
Ġê¸°ë¡Ŀ íĸĪëĭ¤ê³ł
Ġíģ´ ë¦Ń
ĠCol or
ĠíļĮìĿĺ ìĹĲìĦľ
ĠT ok
ĠìĤ¬ë§Ŀ íķľ
Ġì£¼ ìŀ¬
Ġê±´ êµŃ
ì£¼ìĿĺ ìłģ
Ġit ems
Ġì´Ŀ ìŀ¬ëĬĶ
Ġs ell
ĠE nd
ĠH ills
Ġm ix
Ġì§Ħ ìłķ
ap es
Ġsh if
ĠMem orial
íĮĲ ìĿ´
Ġgrad ually
ëŁ¬ ëĬĶ
ĠìłĦë°ĺ ìłģìĿ¸
Ġë¡ ±
ĠíĹĪ ìľĦ
int s
ĠP ower
ĠO k
Ġelect ronic
f c
ĠìĿ´íĽĦ ë¡ľ
Ġìĭľ ìłķ
ĠC ab
Ġcom ic
199 8
ĠìŀĲ ë¦¬ìĹĲ
ĠM r
Ġë¬¼ ìĿĦ
íĻĪ ìĩ¼íķĳ
ìľµ íķ©
ust er
Q u
ìłľ ì£¼
ate gy
Ġstr ategy
Ġhistor ians
íķ´ ìł¸
im ens
Ġsp oke
ĠìŀĳíĴĪ ìĿ´ëĭ¤
ĠAnt on
Ġm outh
ê¸° ìĹĲìĦľ
Ġ \
ĠCon c
ë ¤¼
Ġë¬´ íķľ
ĠskíķĺìĿ´ ëĭīìĬ¤
Ġì½Ķë¯¸ ëĶĶ
ĠW omen
Ġìŀħ ìĿĦ
Ġpl ane
Ġreturn ing
ĠìĹĨ ìķł
p o
ì§Ħ ëĭ¨
ëĭ¹ ìĹĲìĦľ
Ġpartn ership
ê¸Ī ê³¼
Ġì§Ħíĸī íķľëĭ¤ê³ł
ê ¿Ī
ĠìĽ ħ
ĠìĤ¬ìĹħ ìĿ´
Ġì§Ģ ìĬ¤íĥĢ
un ior
res ents
ĠìķĦ ìĬ¤
Ġê²ĥ ìĿ´ëĿ¼
Ġthe ories
ang el
' m
ĠDan iel
id ers
Ġal leg
ê³µ ìŀ¥
ot es
ĠS at
Ġpass ing
ë§Ī ì¼ĢíĮħ
ĠíĬ ľ
íķĺê¸° ìĹĲ
Ġass ess
Ġass ass
v ements
ĠJ oe
Ġê²Į ìŀ¬
ìĭ¤ ìĿĢ
Ġclass ified
ĠEar l
Ġent ry
Ġê°ģê°ģ ìĿĺ
ow ered
ìķ¤ ìł¤
ê´Ģ ê³Ħë¥¼
Ġì¤Ħ ìĿ¼
Ġê¸°ì´ĪìŀĲìĤ° ìľ¼ë¡ľ
ë ķħ
êµĲ ë¥¼
ac c
ëħ¸ ìĬ¤
Ġë¯¸ëŀĺ ë¥¼
Ġíĥĳ ìĬ¹
Ġìłķ ë°Ģ
Ġê°ľìµľ ëĲľ
Ġm ent
v ious
ë³´ ìĪĺ
ì¡Į ëįĺ
ĠìĿ´íĽĦ ìĿĺ
ç ¶
Ġì¤ĳ ê³Ħ
ĠëĤĺê°Ģ ê²łëĭ¤
Ġì§Ģìĥģ íĮĮ
Ġadv oc
y gen
Ġdram a
Ġw ars
Ġì´Į ìĿ´ëĭ¤
ìĤ° ê³¼
è ģ
b les
ëŀĮ íļĮ
em an
Ġco ach
Ġìĭľ ìľĦ
hy th
Ġret ained
ĠìłĦ ë¶ĢíĦ°
Ġë°Ľ ê¸°
s es
Ġê±´ ìĿĺ
ëĦ Ľ
Ġ19 13
Ġê´Ģ ë£Į
ill ery
ĠëıĦ ìĽĢ
Ġì¤ĳ ë¶Ģ
ì¦ ī
ĠìĿĺ ë¢°
Ġë©ĺ íĨł
em or
Ġë²ł íĥĢ
Ġfound ation
Ġíı¬ì§Ģ ìħĺìĿĢ
Ġcrim inal
Ġcon sec
Ġacc ident
M I
è Ń
ian ts
ick s
Ġlg íĻĶíķĻ
d in
ë³ ĢìĿ´
Ġíĸī ìľĦë¥¼
Ġgen us
Ġprincip les
ëĦ ¨
Ġsp ot
ê°Ģ ìĿ´ëĭ¤
ĠC rown
ìĹ° ëĮĢ
ĠìĪĺ ì²ľ
Ġìĥģ ìŀ¥ìĿĦ
Ġv ast
Ġcomm it
ĠH art
ë°° ê²½
enn is
Ġkill ing
ĠRep resent
ĠíĮ ½
Ġë¡ľ ì¼ĵ
ĠP ass
ìŀĳ ìĿĢ
Ġinst alled
Ġì¹ĺë£Į ìłľ
ĠTh ough
ĠëĮĢ ëĮĢ
ĠìĬ¤ì½Ķ íĭĢëŀľëĵľ
Ġm anner
Ġprote cted
ë²ķ ìĥģ
Ġë°©ë²ķ ìĿ´
Ġì§ĢìŀĲ ì²´
ĠëıĦ ìķ½
ĠP ict
Ġê²½ìĥģ ë¶ģëıĦ
Ġdocument ary
Ġinvol ving
Ġ ãģ
ĠA P
iv ation
ëĲĺìĹĪëĭ¤ ê³ł
ĠT urn
Ġìĺ¤íĶ¼ìĬ¤ íħĶ
Ġre aching
Ġcoast al
ĠB ase
ĠCol on
æĸ °
re nder
ĠL ike
íĮĢ ìŀ¥ìĿĢ
ëĿ¼ìĬ¤ íĭ±
ç §
Ġíĺ ľ
ĠH uman
ĠPl an
Ġâ ĵĴ
Ġëį°ìĿ´ ë¹Ħëĵľ
ë°ĺ ê¸°ìĹĲ
Ġíĭ Ī
Ġgu ard
Ġì§ģ ë©´
Ġc ited
Ġê ¿
Ġadop t
Ġíķĺ íļĮ
Ġrese arc
Ġëħ¸ ìĤ¬
íĿ ĳ
ĠíĻķëĮĢ ìĹĲ
ĠD ue
ĠëĨį ì´Į
e z
ìĥģ ìĹħ
Ġìķ½ ìĦ¸
ìłĢì¶ķ ìĿĢíĸī
ĠëĤ´ ì§Ģ
ĠB ru
Ġë¯¸ ìĤ¬
íĨµ ìłľ
Ġëª° ìķĦ
Ġëªħ ìĿĦ
ĠíĥĿ ìĭľ
Ġíŀ Į
Ã º
ìĥ ĺ
Ġmor al
Ġd ating
ëŀĢ íŀĪ
Ġë³¸ ìĦł
E l
ìĬ¤íĬ¸ ë¡ľ
ĠìĭľëĤĺ ë¦¬ìĺ¤
ê°Ģê²© ìĿĺ
ëĿ¼ ìĻĢ
Ġret ire
Ġë¶ģíķľ ìĿ´
Ġtrans form
Ġë³´ê³ł ìĦľë¥¼
ë¦¬ ë¸Į
Ġoper a
ê°Ĳ ìĿĢ
Ġcover s
Ġmunicipal ities
Ġ190 8
t rack
Ġë¹Ħ ë¡Ŀ
ĠíķĻ ìľĦë¥¼
Ġë³µ ìĽĲ
R O
ĠS ant
or row
Ġìľł ìķĦ
ì²´ ìłľ
Ġ190 7
ìĭ¤ ë¡ľ
ĠëĪĦ ë¦´
ĠC ape
ì°¨ ìĹĲ
Ġm orning
ĠíķĦìļĶ ë¡ľ
ìĬ¨ ìĿĺ
Ġìĭľíĸī ëł¹
ìķ¡ ìĿĺ
ê²° ìłķ
Ġì¶Ķ ìĦ¸
Ġêµ ½
ìĦ¼íĦ° ëĬĶ
ĠìĨĮ ìĭĿìĿĦ
Ġì¹´ ìĿ´
Ġlearn ed
ĠíĬ¹ì§ķ ìĿĦ
Ġìĭľ ëĦĪì§Ģ
ĠìĦ±ê³µ íķľ
Ġíı¬ ìĬ¤íĬ¸
Ġëª¨ëį¸ ìĿĢ
p x
Ġide al
Ġcapt ure
Ġreb u
ĠPal ace
Ġexped ition
Ġaccompan ied
ìĿ´ ë¯Ģë¡ľ
ìłķ ë¶ĢëĬĶ
ert o
Ġë¶Ļ ìĹ¬
è «
ĠU TC
ĠëĲĺ ëıĮ
ĠëıĻ ê²°
Ġíı¬ ê´Ħ
Ġachie ve
ìĦ¸ ìĬ¤
ĠìĺģìĹŃ ìĿĦ
ëĦ¤ ìĿ´
ĠìĪĻ ë°ķ
Ġìĭł íĥģ
s a
ĠíĥĢ ìŀħ
Ġë°± íĻĶìłĲ
Ġë§ĪìĿ´ ëĦĪìĬ¤
Ġë§ĪìĿ´ íģ´
ĠìĬ¤íĬ¸ ëłĪ
ĠìĹĨ ê²Į
Ġfact ory
Ġìĺ¤ ë¥´ê³ł
Ġbord ers
idd en
ì¹ĺ ìķĦ
Ġê³ł ê°Ģ
Ġequ ation
Ġê¸´ ìŀ¥
p m
ur ance
íĻĶ íĸĪëĭ¤
Ġê²½ ì£¼
ê²° ìĬ¹
íļĮ ìĤ¬ê°Ģ
ĠìĹħê³Ħ ìĹĲ
Ġf ounder
ĠìĤ¬ëŀĮ ëĵ¤
Ġê·ł íĺķ
Ġâ Ī
Ġê³¼ ìĿ¼
ps on
íģ´ ëŀĺ
amil ton
ì°¨ ë³Ħ
Ġëħ¸ ë²¨
Ġëª¨ìĬ¤íģ¬ ë°Ķ
ĠBe at
ìĿ¸ë¯¼ê³µ íĻĶ
ê¸° ë³¸
Ġë¹ĦíĬ¸ì½Ķ ìĿ¸
ĠìĿ´ì§ĳ íĬ¸
Ġh air
ĠìĬ¤íĥĢ ìĿ¼
en ge
Ġ3 50
ĠìĨĲ ëĭĺ
Ġê°ľë´ī íķľ
Ġê³łëł¤ íķł
Ġcol ony
Ġmin ing
ë³¸ë¶Ģ ìŀ¥
d oc
Ġì¶Ķêµ¬ íķĺëĬĶ
Ġsy nd
Ġinf rastructure
ĠE conom
ck now
ĠE arly
ìĹ° ê³Ħ
Ġa ware
ĠëĤĺíĥĢ ëĤ´
Ġíŀĺ ìĿ´
Ġrest ored
Ġë³Ģíĺ¸ ìĤ¬
Ġê¶Įíķľ ìĿĦ
Ġë©Ķ ëĭ¬
a is
Ġc alendar
Ġan nex
Ġrep resents
t own
in herit
iv ered
Ġrepresent ing
ì¡° ì¹ĺ
Ġëĭ¨ ìĸ´
ê¸Īìľµ ìĿĢ
Ġì§Ģê¸Ī ìĿĺ
Ġinvest ment
ê²Į ëĬĶ
Ġpil ot
ìļĶ íķľ
ë¯¸ ëĭĪ
Ġeng aged
eder ation
ê²½ ìĿĺ
Ġê·¸ ëķĮ
Ġì¤ĳ ë¦½
ĠíĦ° ì¹ĺ
ĠW eb
ĠíĶ¼ ìŀĲ
Ġì¶© ìĭ¤
Ġë¹Ħ íĥĢë¯¼
ëłĪ ìĺ¤
P olit
ë§Į ëªħìĿĦ
Ġìĭ¬ ìĤ¬ë¥¼
Ġincre ases
ìĬ¬ ë¦¼
Ġpat ients
om ing
Ch ar
Ġf ishing
ëĵľ ëŀĺê³¤
ra it
ĠìĪľ ìľł
Ġê¸°ë³¸ ìłģìľ¼ë¡ľ
c ular
íĬ¸ ë¦Ń
Ġëľ» ìĿ´ëĭ¤
Ġsat isf
ĠíķĺëĤĺ ê°Ģ
Ġë¶Ģ ìĥģìĿĦ
íķĺ ëĿ¼ê³ł
ç ´
ìĿ¸ ì²ľ
Ġstre ets
Î ¿
is her
Ġë© °
An other
Ġlin ear
E conom
ë°Ģ íŀĪ
Ġinter se
ìĹ¬ ëªħìĿĺ
Ġíĥľ ë¸Ķë¦¿
ĠU r
ĠìĦ±ëĬ¥ ìĿĦ
Ġìĭľê°Ħ ìĹĲ
ĠìķĬ ëĭ¤ëĬĶ
L eg
ell o
ë¥ĺ ëĬĶ
Ġë¬ µ
Ġìĥģ ë¥Ļ
ĠìĤ° ìłķ
ì²´ ìĬ¤íĦ°
ĠWind ows
ìĭł ìłĢ
Ġê±° ì§ĵ
Ġshe ll
íĮ Ŀ
ìĺĢ ëĬĶëį°
ĠíļĮ ìĤ¬ë¥¼
Ġìļ© ìĸ´
ì¹ ©
om ic
it ual
Ġíķ ĳ
Ġpro c
ê³¡ ìĿĦ
Ġì°¬ ìĦ±
Ġë³´ ì»¬
ìĹ° íķľ
Ġìŀ¬ íķ´
P ar
Ġìłģìļ© íķł
ìĤ¬íķŃ ìĿĦ
Ġìłķë³´ ë³´íĺ¸
Ġëª¨ìĸĳ ìĿĺ
ë°ľ ìĿ´
Ġan sw
nt ario
Ġadapt ation
ĠN ob
ë¯¸ ë¥´
ç ļ
ĠDe velopment
ĠëĦ¤ ìĿ´
ĠìĬ¤íĬ¸ë¦¬ ë°į
Ġì¤ĳ ê³ł
Ġcon vention
á »
Ġì±ĶíĶ¼ìĸ¸ ìĬ¤ë¦¬ê·¸
Ġexpl os
Ġprovin ces
Ġde leg
Ġìļ´ìĺģ íķľëĭ¤
Ġtest ing
Ġcol span
ĠChristian ity
ĠìĹ° ë´ī
íİ¸ ìĿĦ
ĠPak istan
ê·¼ ë¬´
the less
Ġst ret
Ġly rics
ì»´ íĵ¨íĦ°
ĠTem ple
ĠìŀĦëªħ ëĲĺìĹĪëĭ¤
ìĿ´ ê²Į
ì£¼ìĿĺ ë¥¼
Ġext reme
Ġë§Īëł¨ íķ´
Ġgr ant
Ġê²ĥ ë³´ëĭ¤
Ġêµ¬ ìĥģ
Ġind ex
ëĲ ©ëĭĪëĭ¤
Ġ10 5
ĠMount ains
á ¹
Ġê¸Īë¦¬ìĿ¸ ìĥģ
Ġst orm
íģ¬ ê°Ģ
ĠëıĦ ë§Ŀ
Ġìľłì§Ģ íķĺëĬĶ
Ġìľł íķ´
Ġ190 6
Ġìĭľì¤ĳ ìĿĢíĸī
Ġëľ» ìĿ´
ë§ĮìĽĲ ê¹Įì§Ģ
ĠA M
ĠìķĮëľ° íı°
ĠBe fore
Ġ Å
Ġpl ate
Ġdiv or
Ġesc ape
íĺĳìĿĺ íļĮ
ĠLe on
ail ed
ĠOlymp ic
Ġì¶Ķ ìĤ°
Ġlegisl ation
ĠG ulf
ê³µ ìĭĿ
ze ch
Ġê¾¸ì¤Ģ íķľ
c ient
Ġìĭł ì¤ĳ
ĠíĻľëıĻ ìĹĲ
ĠìĥĮ ëĵľ
199 7
ĠíĨ ±
er ted
ĠB and
Ġëıķ ëĬĶ
ê¹ Ķ
Ġê±°ëŀĺ ëĮĢ
Ġtre ated
Ġens ure
ëª¨ ë¹ĦìĬ¤
Ġceleb rated
Ġ( ;
Ġdiv isions
Ġra ise
ìĺ¨ ìĿ´
ìĬ¤ íĨ¤
Ġê±° ì¹ľ
Ġa cknow
ĠìºĲë¦ŃíĦ° ë¥¼
Ġsubject s
ĠBy z
Ġìŀ Ĭ
Ġì¶ľìĭł ìľ¼ë¡ľ
ĠíķĦìļĶíķĺëĭ¤ ê³ł
Ġtradition ally
Ġìĭľ ë®¬
Ġsubs id
Ġt or
ĠìĹĨ ìĹĪëįĺ
ĠTai wan
Ġindic ate
íĶĮ ëĿ¼
ĠìŀĦ ë¬´ë¥¼
Ġtheore m
Ġì§ģ ìŀ¥ìĿ¸
Ġê¸°ìĪł ìĿĺ
ĠëıĦìŀħ ìĿĦ
ĠS uch
ĠìĿ¸êµ¬ ìĿĺ
ì²Ń ëħĦ
ĠìĹĨ ê¸°
Ġë§¥ ì£¼
R es
Ġê´Ģ íĸī
ĠS av
ĠíĻĶ ìĦ±
Ġìľł ì§Ħ
Ġë°¸ ë¥ĺìĹĲìĿ´ìħĺ
ìŀĲ ìĹ°
Ġìłķ íĨµ
ograph ical
ĠëıĦìĭľ ë¡ľ
ĠH ug
ĠìŀĲìĤ° ê´Ģë¦¬
own ed
ult ural
êµĲ ìĤ¬
Ġëħ¸ ìĿ¸
ĠëĮĢë¹Ħ íķ´
Ġdra wn
Ġmm orpg
Ġmark ets
ĠMet ropolitan
Ġëħ¸ ì¡°
Ġìµľì´Ī ê¸°ì¤Ģ
Ġìĸĳíĺ¸ íķľ
ĠìĽĲ ìĿ¸ìĿ´
ĠíĪ¬ìŀĲ ìŀĲëĵ¤ìĿ´
ĠAut hor
íķĺ ëĿ¼ëĬĶ
Ġë§İ ê³ł
Ġman uscript
æĽ ¸
ë¡ľ ìĻĢ
id ae
n ew
Ġfranch ise
ĠìĿĮ ìĭĿìĿĦ
ont o
ĠìłĦìĽĶ ëĮĢë¹Ħ
ĠìĪľë§¤ëıĦ íĸĪëĭ¤
Ġë§Ĳ íķĺëĬĶ
ìĹħ ìĿĢ
ĠíĻľëıĻ íĸĪëĭ¤
Ġì¤ĳ ìĿĺ
ĠK u
Ġìķ¼ ìĻ¸
Ġcontrovers y
Ġind igenous
ëĲĺ ëįĺ
Ġê°Ħ ìłĳ
C omm
Ġì´Ŀ ìŀ¬
Ġê²ª ëĬĶ
ĠìķĬëĬĶëĭ¤ ëĬĶ
Ġnetwork s
et ary
Ġ20 30
la in
ĠK ir
e u
ĠC irc
Ġst ress
Ġref uge
ìĺģ êµŃ
Ġê³§ ë°Ķë¡ľ
Ġë§Ī ë¦¬ìķĦ
Ġcomp r
] ,
Ġìĭľ ê³µ
i pe
Ġê°Ģ ì§Ħëĭ¤
ĠI C
en h
Ġwebs ite
ëŀĢ ìĭľìĬ¤
ë°± ìĿĦ
Ġmil it
Ġform ing
Ġì Łģ
ĠìĤ¬ìļ© ìĿ´
Ġê°Ģê²© ìľ¼ë¡ľ
Ġth ick
ì»¤ ìĬ¤
Ġë¯¸ìĦ¸ë¨¼ ì§Ģ
Ġval id
il ation
c ers
er g
Ġìŀĺëª» ëĲľ
ant on
ìĬ¤ íİĺ
Ġë¶Ģì§Ħ íķľ
ĠëĮĢ ì¡°
ìĹ´ ìĿĦ
Ġì¶Ķì§Ħ íķĺëĬĶ
ìĹŃ ìĿĺ
è »į
el le
Ġs overe
ĠL im
ĠìľłëŁ½ ìĿĺ
ëĭ¹ ê³¼
Ġì²ŃìĻĢ ëĮĢ
Ġëª¨ ìŀĦ
Ġprofess or
Ġtw elve
A P
ĠNap ole
ç ľ
A nd
ĠìĦľ ì´Ī
Ġren ew
Ġê³µê°ľ íķľ
Ġprom pt
Ġhost s
ĠëĤĺ ìĿĢ
Ġë¶Ģë¶Ħ ìĹĲ
we alth
ë§Ī ê°Ģ
Y ou
x ual
ĠAr gent
Ġclub s
Ä «
ë ¤Ħ
Ġìĭł ìķĻ
ĠìĿĺ ìĤ¬ë¥¼
ĠíĸĪ ëĬĶëį°
ë°© ì§Ģ
Ġìĸĳ ìĤ°
Ġdel ivered
P l
ì²Ń ìĹĲ
Ġcomm itted
Ġê³ł ìľł
Ġê°Ģ ìĦľ
ch o
sc ale
Ġì¼ Ħ
íĶĦëŀĳ ìĬ¤
Ġpub lis
Ġcomp ris
Ġì¤ĳíĻĶ ìĿ¸ë¯¼ê³µíĻĶêµŃ
Ġì¤Ģë¹Ħ ë¥¼
Ġì£¼ íĸī
ĠC oll
ĠH ard
Ġ10 2
Ġì¦Ŀ ìĥģìĿ´
ä¸ Ĭ
Ġíķľ ê³Ħ
ĠJ oh
íķľ íĻĶ
ĠíĪ¬ìŀĲ ìĭ¬
Ġcompos er
i ac
Ġm and
Ġw orth
Ġus age
ran e
Ġs ed
ë§Į ì£¼
Ġê·¼ ìłĳ
Ġsurv ived
Ġnuc le
r ating
é ķ
ĠìĤ°ìĹħ íĺģëªħ
Ġìľ¡ ìĥģ
ĠD ie
Ġë¡ľ ê·¸
c ov
å¯ º
ìĨĮ ìŀ¬
ìĽĮ ì¹ĺ
é ¦
ĠG reg
Ġag ent
Ġtrad ing
Ġdomin ant
id el
Ġë¶Ģ ìĸĳ
Ġdep os
Ġì£¼ ëĳĶ
ost er
ĠíĨ °
Ġcateg ory
z h
Ġíĺ¸ ê°Ģë¡ľ
Ġìŀ¬ ëĬ¥
ê³µ ìĹ°
ĠPr uss
ĠìłĦìŁģ ìĿ´
Ġê¸°ë³¸ ìłģìĿ¸
Ġë°ĺìĺģ íķľ
Ġexpla ined
Ġìĥģ ìĥģ
ĠG ram
ak i
Ġíķ© ìŀĳ
ĠìĨĲ ìī½ê²Į
Ġëľ» íķĺëĬĶ
ìłĦë¬¸ ê°Ģ
Ġst rict
ëĨ ĢìĿ´
Ġoccasion ally
ìĤ¬ íĥľ
ìĽĲ ìŀ¥
Ġnot e
ĠíĮĮíĬ¸ëĦĪ ìĭŃ
Ġge omet
Ġam end
n ight
Ġê¸° ìĤ¬ëĬĶ
Ġsit uated
Ġë§Ĳ ê³ł
Ġìķ½ ë¬¼
ëıħ ìĿ¼
Ġê³³ ìľ¼ë¡ľ
Ġë°©ìĭĿ ìĿĢ
ëĦ¤ íĬ¸
Ġì¤Ħ ìĿ´ê³ł
Ġfl ights
ìŀ¬ ìĥĿ
Ġë¬´ ìĤ°
Ġë°ķ ìĬ¤
E E
Ġíĺķ ìĭĿìľ¼ë¡ľ
Ġìŀ¥ êµĲ
ĠìĨį ëıĦë¡ľ
ĠìĿ¸ íħĮ
Ġëĸł ìĺ¬
ie ge
Ġmod er
ĠA ri
ìľĦ ìĹĲìĦľ
Ġê¸°ë¡Ŀ íķł
ĠìĪľ ìĪĺ
ĠìķĦìĿ´ëĶĶìĸ´ ë¥¼
ĠìłĦëħĦ ë³´ëĭ¤
Ġper fect
ĠíĻ© ê¸Ī
ìĬ¤ ëŁ¬
ĠìĤ¬íļĮ ìĿĺ
B ill
ĠìľĦì¹ĺ íķľëĭ¤
ĠíķľêµŃ ìĸ´
Ġë¶Ģìłķ ìłģ
Ġp ray
Ġadd ing
el and
ĠìĹ° ìĦ¤
ë³´íĹĺ ë£Į
Ġpar am
è ²
ĠGerm ans
Ġrep ublic
Ġë§Ĳ ìĶ
and y
ë² ³
ĠìĦ± ëĤ¨
ëĭĪ ê°Ģ
ìĺ¨ ëĭ¤
ĠìĹ° ìĺĪ
íĿ¬ ë§Ŀ
Ġë¶Ģ ìŀĦ
Ġìĸĳ ìĿĺ
Ġdiscover y
ĠëĤĺ ì¹´
arg o
Ġpasseng ers
f ather
Ġcol umn
Ġê° Ķëĭ¤
ìĿ¸ ìĪĺ
Ġê¸°ì¤Ģ ê¸Īë¦¬ë¥¼
ĠE P
ĠB la
H istor
Ġëĵ±ìŀ¥ íķľëĭ¤
as ure
Ġmess age
ĠíĬ¹ ìĿ´
ĠSt adium
Ġexp lo
ic ide
ĠìĦľ ëªħ
Ġìļ© ìĸ´ëĬĶ
Ġsympt oms
uck y
ĠìĹ¬ê¸° ìĹĲëĬĶ
Ġt ry
ĠëĮĢì±ħ ìĿĦ
it an
Ġro ot
Ġre ar
Ġê²½ìĥģ ëĤ¨ëıĦ
Ġdetail s
æ ħ
ĠS ab
Ġìľł íķľ
Ġìķķ ì¶ķ
Ġb atter
íĨ¡ ìĬ¤
Ġl osing
ĠìĨĮìĨ¡ ìĿĦ
Ġìļ© ìĤ°
ìĪĺ ìĤ°
Ġì°¨ íĬ¸
ĠìĦľë¹ĦìĬ¤ ìĿĺ
Ġk bs
Ġëī´ìļķ ì¦Ŀ
Ġw orship
Ġë§ī ìĿĦ
ë¦¬ ëħ¸
íķ´ ì§ĢëĬĶ
Ġì¶Ķ ëĿ½
íŀĪ ê³ł
in cess
Ġm ental
íĶĮëłĪìĿ´ ìħĺ
Ġmod ified
199 5
Ġê°Ģ ì¤ĳ
ìłĦ ìĦ±
Ġconst ruct
Ġê°ľë°ľ íĸĪëĭ¤
Ġgo als
Ġpropos al
Ġìĭľ ê·¸
ul es
Ġíı¬ ëıĦ
ĠìĤ¬íķŃ ìĿĦ
Ä ĩ
Cl imate
Ġì¤ĳêµŃ ìĿĢ
æŃ £
Ġs ale
ë¦¬ ì½ĺ
Ġê°ĢëĬ¥ íķĺê²Į
ĠìĪĺìĿµ ë¥łìĿ´
Ġì¶ ¤
Ġíİ¸ë¦¬ íķĺê²Į
ç Ħ
Ġíķľ ëıĦ
å ĳ
ìĿ¸ íĶĦëĿ¼
ĠO S
Ġun us
Ġad vent
Ġcons ervative
Ġëĭ´ëĭ¹ íķĺëĬĶ
G A
ĠìĿ´ìľł ëĭ¤
o en
Ġë§Ĳ ëĿ¼
Ġë°Ģ ìłĳ
Ù Ħ
Ġê³łëł¤ íķĺë©´
f it
íĽĦ ìĿĺ
Ġaff airs
ĠìĿ´íĥĪë¦¬ìķĦ ìĿĺ
ê²½ìĺģ ìŀĲ
Ġbe at
st ood
ir ation
Ġê°ķ ë¦ī
ĠTh rough
Ġë°Ķë¥´ ìħĢë¡ľ
ors es
Ġup d
å ³
Ġê°ľë°ľ ìŀĲ
M od
ìĹĲê²Į ìĦľ
ĠëĤ´ ëĭ¬
ag u
ì°¸ ìĹ¬
Ġo d
ĠìĤ¬ìļ© íķĺì§Ģ
ĠìĦ¸ê³Ħ ìĿĺ
sk íħĶëłĪì½¤
Ġre ally
ĠA st
ë¸Į ë¡ľ
ĠìĿ´ë¤Ħ ì§Ħ
Ġstand ing
ĠB all
íķĺ ë§Ī
ëĭ· ì»´
Ġfl ows
Ġw itness
Ġm ac
Ġcharg ed
Ġreg ime
ĠKenn edy
isc ons
Ġëľ¨ ê±°ìļ´
íķĻ ê¸°
ĠìŀĲ ìĿ´
Ġreg ularly
Ġê¸°ê°Ħ ìĿĢ
ĠD ur
ĠLab or
ĠëĤĺíĥĢ ëĤľ
ĠíĶĮëłĪìĿ´ ìĸ´
ĠM i
ĠìĻ¸êµŃ ìĿ¸ìĿĺ
Ġn om
Ġê¸Īìľµ ìľĦìĽĲíļĮ
ĠëĨĴìķĦ ì¡Įëĭ¤
ĠìĪĺíĹĺ ìĥĿ
ron ze
Ġìī½ ê³ł
ìĪĺ ì§Ģ
Ġcharacter istics
Ġêµīìŀ¥ íŀĪ
Ġcommission ed
ë ¼Ī
ĠI P
ìŀĲì¹ĺ ëĭ¨ì²´
Ġmass ive
Ġvis ible
ĠìĤ¬ ë¬¼ìĿ¸íĦ°ëĦ·
ê³µ ëª¨
ath an
ê°Ħ ìĹĲ
Ġex erc
ĠFor ces
ë¦¬ê·¸ ìĿĺ
C ont
ĠO ntario
Ġê¸°ê°Ħ ìĹĲ
ĠíĺĦ ìĹŃ
Ġparticip ated
ĠìĨį íķľ
Ġrelationship s
ëªħ ìĹĲìĦľ
Ġdec or
Ġhistor ically
Ġê´ĢëŀĮ ê°Ŀ
ëĮĢ íĸī
ĠìĺĪìĥģ ë³´ëĭ¤
ĠDou glas
ĠM icro
Ġpred omin
ìłĦ ìĭľ
Ġp it
n on
Ġm o
ĠëĶĶ ìĬ¤íģ¬
Ġinst all
ĠJac ob
Ġunder stand
Ġê°Ģ ê²Į
iscons in
ĠëĲľëĭ¤ ëĬĶ
Ġë§Įëĵ¤ìĸ´ ì¡Įëĭ¤
Ġer ror
íį¼ ëĵľ
ìŀħ ìĿĦ
Ġëª¸ ìĿĦ
Ġdomin ated
er ly
ĠêµĲ ì°¨
ĠíĹ¬ ìĬ¤ì¼Ģìĸ´
Ġë¹¼ ìķĹ
Ġìŀ¥ ëł¤
Ġë³µ ë¬´
ĠíĮĲë§¤ ê°Ģ
ìĪĺ íķĻ
ĠL ight
ìĭľìĬ¤íħľ ìĿĦ
Ġprep ared
ëĮĢ ìĭł
Ġë¶Ģ ìĦľ
ëĵ¤ ìĿ¸
ĠIsrael i
ëķĮ ë¡ľ
Ġpro ceed
ĠìĨĮìĨį ìľ¼ë¡ľ
B I
ì¿ł ëĿ¼
Ġë°ľìłĦ ìĹĲ
ge bra
æ ¨
on ian
Ġëĭ¤ìĿĮ ëĤł
Ġatt ached
Ġfundament al
Ġ ere
Ġs ter
Ġportray ed
he red
ĠT oday
Ġë¸Į ëĿ¼ìļ°
Ġëĭ¤ ê°ģ
Ġìłĳ ìĸ´
ĠOn ly
Ġv ector
Ġt rying
Ġíļ¨ê³¼ ìłģìľ¼ë¡ľ
ĠD or
Ġvisit ors
ĠMar ia
omm od
ĠPro gram
Ġbenef it
w ich
ĠíĮĶ ëłĪ
Ġíı¬íķ¨ ëĲĺìĹĪëĭ¤
Ġì§Ħ ìłķíķľ
ê³Ħíļį ìĿĦ
Ġgen etic
ìľł ìĤ°
Ġsurv iving
Ġì°¨ ìĿ´ë¥¼
Ġì¿ ¼
æľ ¬
Ġres c
ĠìĦľë¹ĦìĬ¤ ëĭ¤
Ġë¶ĦìĦĿ ìĿ´
ç Ĳ
ran ean
Ġbank s
ĠíĽĦ ìĹĲëıĦ
Ġe ye
Ġcle an
Ġj azz
ĠPro ject
Ġrad iation
ograp her
Ġë¯¸ ì³¤ëĭ¤
¤ ĺ
Ġì§ĢìĽĲ ìĿ´
Ġ( ).
ë§¥ ìĬ¤
if ul
ĠíıŃ ëł¥
Ġclass ification
ìľ¼ë¡ľìĦľ ìĿĺ
Ġtransl ated
Ġë´ Ĳ
ìĿĮ ë£Į
ìĿ¸ ëĵ¤ìĿĦ
ĠíĻķë³´ ë¥¼
Ġt act
Ġíķ´ ìļ´
Ġë³´íĺ¸ ë¥¼
ë£¨ ëĬĶ
ĠPro du
ĠMod ern
ë°Ľ ì§Ģ
" -
Ġì§Ħ ë³´
Ġê²° ë¡ł
íĭ° ìĺ¤
Ġê·¸ê³³ ìĹĲìĦľ
Ġg all
Ġcomp onent
Ġì¦Ĳ ê±°
íĨł ìĿĺ
Ġste am
ĠìĭĿ ìĤ¬
Ġprocess ing
Ġë°ĽìķĦ ìķ¼
Ġo cean
Ġìĸĺ ê¸°ëĭ¤
S he
Ġemp ire
ĠëĮĢìĭł ì¦Ŀê¶Į
Ġcateg ories
Ġìŀ¬ íİ¸
ĠìķĪ íĥĢ
ê¸ ĢìĿ´
ĠíĻĺ ìĺģ
ëĮĢíķĻ ìĽĲ
ĠH indu
ì²´ ê³Ħë¥¼
Ġì°¸ê°Ģ íķľ
íĸ Ħ
ëł ģ
Ġê¹ ĥ
Ġê°Ģ íĮĮ
ëĮĢ íĺķ
ĠíĻķëĮĢ ëĲł
Ġë¶Īê³¼ íķĺëĭ¤
ê·¸ ë¦°
Ġìŀħ ìĽĲ
Ġsupp osed
Ġìŀ¡ ìķĺëĭ¤
Ġmount ains
Ġë¶Ģ ìłģ
Ġaut onom
ĠN BA
ĠìĦ± ë¶Ħ
ĠAf ghan
Ġê³Ħíļį ìĿ´
C o
ĠB ible
Ġsp aces
íĤ ´
Ġmin imum
Ġìĭľ ìĿĺ
ìķĦ ëĬĶ
ty m
ĠìķĦëĭĪ ëĥĲëĬĶ
ĠêµŃê°Ģ ëĮĢíĳľ
aval ry
Ġabs ol
ĠìĦłíĺ¸ íķĺëĬĶ
Ġê³µë§¤ ëıĦ
ĠìķĪìłķ ìłģìľ¼ë¡ľ
Ġschedul ed
ìĬ Ĳ
Ġê°Ģ ìłĦ
Ġë°©ìĨ¡ ìĿĦ
Ġmagn etic
Ġcont est
ĠF inn
ë°ľ íĳľ
Ġsty les
T e
199 6
orpor ated
ëĸ ¼
æ Ģ
Ġëŀ ¨
Ġal ph
ĠìķĦìĿ´ ëıĮ
Ġê³¼ìłķ ìĹĲ
ĠìłĦëĿ¼ ëĤ¨ëıĦ
ĠìĿ¼ë¶Ģ ê°Ģ
ĠComm and
ĠëĤĺ ëħ¸
Ġ18 60
un ch
Ġess ential
r Ã©
Ġarg ues
Ġìłľíľ´ ë¥¼
Ġìĸ´ëĶĶ ìĦľ
íķĻ íļĮ
Ġgu est
ìĽĶ ê³¼
ĠíĽĮ ë¥Ń
ĠH al
ĠH istory
Ġopport unity
Ġr itual
ĠìłĢ íķĺ
ĠëĪĪ ìĿĦ
Ġtr uth
Į ë¦°
our nal
out s
Ġcontrovers ial
ê°Ģ ìŀ¥
ĠíĻķìĿ¸ íĸĪëĭ¤
ê³ł ë¦¬
Ġg rown
Ġw a
ĠìĽ¨ ìĬ¤íĬ¸
Ġë¯¸ êµ°
Ġspe ak
ĠìļĶ ìĿ¸ìľ¼ë¡ľ
ì§Ģ ìĥģ
os ph
ĠëĤ´ëĨ ¨ëĭ¤
Ġprogram me
ĠêµŃ ìĦ¸
ĠìĿ¼ìľ¼ íĤ¤
ê°Ģ ëĿ½
Ġass ault
19 60
ĠìĬ¤ë§ĪíĬ¸íı° ìĿĦ
Ġs ort
Ġë§¤ ëĭĪìłĢ
ĠìĦ± íĸ¥
Ġê·¼ ëĮĢ
ìĹĶ íĦ°íħĮìĿ¸ë¨¼íĬ¸
Ġíĭ° ì¼ĵ
ĠL uther
Ġsur render
Ġìłģ ìĸ´ëıĦ
ĠìłĦ ìĤ°
ì°¨ ëŁī
ĠíĻľìļ© íķĺëĬĶ
ĠC as
Ġì²´ ê°Ĳ
ĠProtest ant
C an
Ġíıī ìĸĳ
ĠBar b
ĠìłĲ ìĹĲ
Ġê²¨ ëĥ¥
Ġê´Ģ ìłĪ
Ġrel ation
Ġìŀ¥ ë¹Ħë¥¼
ord an
ĠìĦ¸ ìĿ¸íĬ¸
Ġsomew hat
Ġh ired
Ġk db
Ġshow ing
ĠëıĦ ëįķ
íģ´ ë¦°
ter y
ìķħ ìĿĺ
Ġë¹ĦíĮĲ íĸĪëĭ¤
Ġì£¼ ë¥ĺ
ĠR en
Ġë£¨ ìĿ´
ĠìĨĮ íĻĶ
ib l
Ġì§Ħíĸī ëĲĺê³ł
Ġì½ľ ëĿ¼
ë² ¡
Ġ18 50
Ġì¶© ëĤ¨
ì§Ģ ëħ¸
Ġíı´ ë¦¬
ë²ł íĬ¸ëĤ¨
ëĭĪìķĦ ìĿĺ
ĠëĭĮ íħĲ
ë°© ìľĦ
Ġê°Ģ ë²¼
ê²½ ìĿ´
ĠëĬ¥ ëł¥ìĿ´
ĠìĿĺë¯¸ íķĺëĬĶ
ip h
Ġìĭľì¦Į ìĹĲ
å ĸ
ab led
Ġê°Ĳ ê°ģ
Ġb le
ĠìĿ¸êµ¬ ê°Ģ
Ġcast le
íĻľ ìĦ±
Ġëħ¼ ìĿĺë¥¼
ì¦Ī ëĭĪ
ê¸°ìĹħ ìĿ´
ĠìĿ¼ìłľ íŀĪ
ìķ ¨
ĠìĤ´ìķĦ ëĤ¨
Ġìĺģ ê°ĲìĿĦ
ì¡´ ìĬ¤
ĠëĮĢ ë²ķ
ĠìĨĮìĭĿ ìĿ´
íĻĶ ë¬¸
ew ork
b us
c s
ëĪĦ ìĬ¤
Ġëª» íķľëĭ¤
ĠL ind
Ġev olved
Ġê·¸ ìĻĢ
ìĦĿ ìĿĺ
Ġíļ Ł
éķ ·
Ġìŀ¥ê´Ģ ìĿ´
Ġb ran
Ġì¶Ķ íĽĦ
ëŀĢ ìĥī
Ġc ards
ĠìĤ¬ë§Ŀ íķĺìĺĢëĭ¤
ĠíĶĦë¡ľê·¸ëŀĺ ë°į
ĠìĤ¬ íĩ´
Ġê¸°ìĹħ ê°Ģ
å® Ĺ
Ġsix th
Ġìĭ¤ ìĨĲ
ĠSec urity
ĠC am
Ġb es
Ġì¤ĳ ìĹĲìĦľëıĦ
Ġì¡° ë³Ħ
ĠíĻķ ë¥ł
a ft
ê³¼ ìłķìĿĦ
ĠìĹħì¢ħ ë³Ħë¡ľëĬĶ
Ġrein for
ĠìĦ±ìŀ¥ ìĦ¸ë¥¼
G eneral
ĠëĮĢíļĮ ìĹĲ
ot ton
Ġsh ut
Ġenc ounter
ra ine
Ġì»¤ ì§Ī
ĠìłĦë°ĺ ìłģìľ¼ë¡ľ
íĮĮ ëĬĶ
ĠìķĦìĿ´ ìĬ¤íģ¬
ĠëĶĶìŀĲ ìĿ¸ìĿĦ
Ġì¦Ŀê°Ģ íĸĪëĭ¤ê³ł
Ġë§Į ëĤ¨
íķ´ ì¤Ģëĭ¤
ĠëĤĺ ìķĦ
Ġacc ommod
ç¾ ©
Ġresid ence
Ġëĭ¬ëŁ¬ ë¥¼
Ġpurch ase
G u
ĠB rig
Ġíķł ëĭ¹
Ġeduc ational
ĠDen mark
rid ges
Ġë¬´ë¦ İ
ĠL o
Ġdest ruction
Ġexper iences
íļĮ ë¡ľ
íĨł ëĭĪ
ĠHe b
Ġê·¸ëłĩ ì§Ģ
Ġl oyal
Ġê°Ĳ ì¶ķ
Ġindust ries
ennes see
ìģ ¨
Ġê·¸ ëŀľëĵľ
Ġì¤ĳ ê¸°
Ġê²ĮìŀĦ ìĿ´ëĭ¤
Ġë¹Ħ ë¡Ģ
ĠìĹ¬ ë¡ł
Ġì»¤ ì¡Įëĭ¤
Ġnorm ally
ĠApp le
ê³¼ ëıĦ
Ġcharg es
Ġê¸°ìĪł ë¡ľ
ëŁ ¿
ĠO t
ĠíĻĺ ìŀĲìĿĺ
ĠëĵľëŁ¬ ëĤ¬ëĭ¤
ëĭ¤ ìĸĳ
ĠëĶ ±
ìĿ¸ê³µ ì§ĢëĬ¥
Ġì§Ģ ëĤ¸
ëĤĺ ëĿ¼ëĬĶ
ì²ľ ë§Į
Ġexp licit
ĠëĲĺ ì°¾
ĠìĿ´ìļ© ìŀĲê°Ģ
Ġre un
íĶĮ ë£¨
ol as
Ġë¯¸ ì¤ĳ
Ġe yes
ë¹Ħ ëĶĶìĺ¤
Ì ģ
ĠíĺĦëĮĢ ëª¨ë¹ĦìĬ¤
ìĿ¼ê¹Įì§Ģ ëĭ¤
ĠíĽĪëł¨ ìĿĦ
ĠíĻĶ ê°Ģ
Ġë§Į ëĤł
b ut
Ġë²ķ ì¹Ļ
Ġdeath s
ĠìĪĺíĸī íķł
Ġìļ© ìĿ´
Ġann ually
ol ph
Ġro se
ĠìłľíĴĪ ìĹĲ
d ale
ĠC zech
S D
ëĤĺ ë¥¼
ĠW alk
ĠFrank lin
Ġíģ¬ ë£¨
Ġê°ľë°ľ íķ´
ëłĮ ì¦Ī
Ġbehav i
Ġle ct
Ġsec ure
íĹ¬ ë¡ľ
Ġë¶Ģë¬¸ ìĿĺ
ĠìķĦ ìĺĪ
Ġìĭ¤ íĥľ
ĠSer b
ëĿ¼ìĿ´ íĶĦ
Ġë²Ī ìĿĺ
Ġë¶Ģ ì°©
ëħĦë¶ĢíĦ° ëĬĶ
ê²ł ìĬµëĭĪëĭ¤
ĠTer rit
ĠR os
el ess
Ġto ols
Ġìłľ ë¡ľ
ĠL ow
Ġê°Ģìŀħ íķľ
Ġtem ple
Ġrespons ibility
els h
Ġarg ument
Ġìĭľ ìĹ°
= '
ê°Ĵ ìĿ´
ĠìĪĺ ì§ģ
Ġne ither
ì½ľ ëĿ¼
Ġê²ĥìĿ´ ê³ł
b r
ê²½ ìĹĲ
ind ing
ë°± íĻĶìłĲ
ĠEgypt ian
íı¬ ëŁ¼
Ġy ellow
ĠëĮĢìĥģ ìĿĦ
ĠWh it
Ġëªħëł¹ ìĿĦ
æ ¥
ĠìĽĲ ë£Į
Ġë°ľê²¬ ëĲľëĭ¤
Ġfrequ ent
ìĭ¬ íŀĪ
Ġì½Ķ ëĦĪ
Ġë©Ķ ë¦¬ì¸ł
Ġê°Ĳëıħ ìĿĦ
Ġ190 9
d ess
Ġìŀĳìļ© íķł
ìŀĳ ê°Ģ
Ġinvestig ation
Ġt all
íĮ ½
Ġìĺģíĸ¥ ëł¥ìĿĦ
ĠíĮĢ ìŀ¥ìĿĢ
Ġëĵľ ëĿ¼ìĿ´
ĠìĿĳ ìĭľ
ĠìĦł ë³Ħ
ĠìĻ¸ íĻĶ
ì§Ģ ëĭ¤
Ġêµ¬ ëıħ
ëĤ´ ìħĶëĦĲ
ĠìłĦì²´ ë¥¼
ĠíĻľëıĻ íķĺê³ł
ĠAl aska
ëĦ ĵ
ĠìłĲ ìĪĺë¥¼
ë´ī ìĤ¬
ĠAl ban
ĠíĪ¬ ê¸°
Ġattra cted
Ġëĭ¤ ì¤ĳ
or al
ĠH amilton
ĠR oss
b ody
Ġê¸Īìľµ ìĥģíĴĪ
Ġmembers hip
7 50
êµ° ìĤ¬
ìĿ¼ ê¹Į
ìĪĺ ìĤ¬
Ġëĵľ ë¡ł
ĠìĹ°ë°© ì¤Ģë¹Ħ
Ġto wer
Ġìĭł ìĿ¸
ĠíĮĮ íģ¬
Ġê¸Īìľµ ìľĦëĬĶ
Ġë§ŀ ìĿĢ
Ġl ingu
Ġëª¨ë°ĶìĿ¼ ê²ĮìŀĦ
è ¶
ĠìłĦíĪ¬ ë¥¼
P HO
ĠìľĦ ìĹĲìĦľ
ĠëĤ´ ìŀ¥
Ġsing les
Ġter ror
ì§ľ ë¦¬
Ġc ro
Ġn avig
Ġìłľì¶ľ íķľ
ë§Ī ë¥¼
Ġê´Ģê³Ħ ìĹĨìĿ´
íķĦ ëĵľ
Ġê²°ìłķ íķł
é §
ĠN ich
Ġpass age
Ġ10 3
Ġa wards
Ġ7 000
ĠêµŃëĤ´ ìĹĲ
ĠìļĶ ìĿ¸ìĿ´
ly n
Ġgra v
Ġë¶Ī ê±°
ĠìĥĿê°ģ íķ´
Ġë°Ľìķĺ ìľ¼ë©°
Ġse lection
íļĮìĤ¬ ìĿ¸
ĠìłĦ ìĭł
ì£¼ìĿĺ ìĿĺ
ĠíĢ ´
Ġvot ing
Ġë§Ī ì£¼
row s
Ġë°ľ ìĿĺ
Ġíĺĳëł¥ íķ´
Ġì¶ķ ìłľ
pp en
ĠìķĮ ë°Ķ
ìľ¼ë¡ľ ìĿĺ
íĨµ ìĿĦ
Ġê·¹ ëĭ¨
ĠM es
Ġconcent ration
Ġìĭľ ì¹´ê³ł
ì§Ħ ê³¼
R ec
Ġì±ħ ìłķ
it arian
Ġf it
ĠìłĢ ìĨĮëĵĿ
Ġprote in
ìĿ´ ëĭĿ
Ġê´Ģë¦¬ íķĺëĬĶ
Ġë²ķ ìķĪ
Ġman if
ĠìŀĲíļĮìĤ¬ ìĿ¸
Ġbound aries
Ġliqu id
d c
Ġê³µ ìĿµ
ê²© ìĿ´
Ġdam aged
ĠêµŃ ìĤ°
ëªħ ìĭ¬íĮĲ
æĹ ¥
Ġf an
Ġê³¨ ëĵł
ĠëĮĢë¶Ģë¶Ħ ìĿĦ
ìĸ´ ë²Ħ
Ġëĭ¤ íķĺê²łëĭ¤
h ost
Ġë¯¸ëŀĺìĹĲìħĭ ëĮĢìļ°
Ġìĺ¤ ë²Ħ
ìĺ¤ ë¡±
ĠíĹ¤ ìĿ´
Ġinterpret ation
íģ´ ë¦¬
ìłĦ íĪ¬
usal em
Ġintellect ual
ĠìĦ±ìŀ¥ ë¥ł
Ġë¨¹ ìĿĦ
Ġa head
ì¹´ ìĿĺ
ĠìŀĲë¦¬ ìŀ¡
ì¸ł ëĬĶ
PHO NE
Ġro ots
ĠAd minist
Ġìĺ¬ë¦¼íĶ½ ìĹĲ
h r
Ġdep th
Ġperson nel
Ġìĺµ ìħĺ
Ġí ĵ¨
ĠG DP
Ġoccup ation
íĥľ íıīìĸĳ
199 4
ĠíķĺëĤĺ ê¸ĪìľµíĪ¬ìŀĲ
f are
ĠìľĦ ê¸°ìĹĲ
Ġìĺ¤ íİĺëĿ¼
Ġres igned
ì´Ī ê¸°
Ġgo es
Ġëĭ Ľ
Ġê³µìłķ ê±°ëŀĺ
Ġê¸° ìłĢ
Ġê²½ìļ° ìĹĲëıĦ
Ġìĥģê´Ģ ìĹĨìĿ´
ìŀ ĩ
ĠB ad
Ġê°ľìĦł ìĹĲ
íķĺê¸° ëĬĶ
Ġwrit es
c ons
íĮĲ ìĹĲ
Ġinvol ves
Ġhigh way
ìŀ ĺ
ìĤ¬ ê¸°
ĠíķĻìĥĿ ëĵ¤ìĿĺ
Ġox ygen
Ġencoura ged
ir t
Ġë¹ĦíĮĲ ìĿĦ
ĠìķĦëª¨ ëłĪ
ëıħ ë¦½
Ġëľ» ìľ¼ë¡ľ
Ġê·¹ ìŀ¥
Ġì¹´ íħĮ
Ġë°ĿíĺĢ ì¡Įëĭ¤
ĠCap tain
Ġ8 000
Ġê·¸ê²ĥ ìĿ´
ĠíĶĦë¡ľëª¨ ìħĺìĿĦ
Ġì§Ģ ëª©
Ġì² ¼
Ġë°©ìĭĿ ìĿ´
ëĮĢ ìĤ¬
ĠìĨĲ ìĹĲ
ê³Ħ ì¸µ
Ġf ly
ĠMar c
Ġê²ĢíĨł íķĺê³ł
Ġì¤ĳ ìłĲìĿĦ
ĠëĦĺìĸ´ ìĦ°ëĭ¤
Ġì´Ī ì½ľë¦¿
Ġìĭľìŀĳ íķĺìĹ¬
Ġret ail
aw are
Ġìłģìļ© íķľ
ìĦł íĥĿ
ĠSt ock
ëĿ¼ ìĿ´íĬ¸
Ġpattern s
Ġì¶ľìĭľ íķł
* *
ow a
ìĹĳ ìĬ¤
ĠìĿ¸ê·¼ ìĹĲ
Ġëª¨ íĦ°
Ġì¶ķ íķĺ
ĠìĿ´ ìĺ¨
Ġê³ł ì¡°
Ġì£¼ìĹ° ìľ¼ë¡ľ
Ġsubstant ial
ê¸° ê³Ħ
Ġë¹Ħ ê°Ģ
Ġlay er
Ġêµ¬ì¶ķ ìĿĦ
ĠThe n
Ġìķ½ íĻĶ
Ġê¶ģ ê¸Ī
o oth
é »
u gh
Ġex cess
ĠìłĢ ê°Ģ
ë İ
Ġown ership
ĠìĿĺ íķĻ
ìłĦ ìŀĲê°Ģ
Ġbase ball
ë° ĸ
Ġíĺ ¹
Ġëį ©
Ġìĭł ì£¼
Ġë¯¸ëŀĺ ì°½ì¡°ê³¼íķĻ
Ġtri p
B l
íļ¨ ìľ¨
íĥĢ ì§Ģ
ĠIn stead
Ġì²´ ì½Ķ
ĠìĤ¬ìļ© ëĲĺê³ł
Ġcomm emor
en z
Ġë¶Ģ ë¥´ëĬĶ
Ġê°ľìµľ íķľëĭ¤ê³ł
Ġë§Ī ìĭľ
ìłĲ ìľł
ìĭ¬ íķľ
ond er
Ġì§Ħ ìĺģ
ĠëĤĺëī ľëĭ¤
Ġst orage
ag a
Ġëĭ¨ ì¸µ
Ġíĺ¸ ì¡°
Ġê²½ìŁģ ìĿĦ
ĠW isconsin
ab et
íĶĮ ëłī
Ġì¡´ ì¤ĳ
Ġê¸°ëĬ¥ ìĿĢ
Ġë¶Ħ íķ´
ear s
Ġê°Ŀ ê´Ģ
la g
ĠCon vention
ìĤ¬ ìŀ¥
ì ı
Ġb acter
ĠD omin
Ġê³ł ë¬¸
Ġsla ves
Ġìĭ¬ ìŀ¥
Ġê°Ī ìĪĺë¡Ŀ
ĠìĦľ ìĦľ
Ġìĭ¬ íĻĶ
Ġê²Ģ ìĤ¬ë¥¼
Ġgener ated
Ġë° Ł
Ġv ision
ĠT y
ìĹĲ íĶĦ
Ġv ow
ĠìķĦëĭĪ ì§Ģë§Į
íĬ¹ë³ĦìŀĲì¹ĺ ëıĦ
ĠìĿ¸ ìĥģìĿĦ
ĠìķĦìĭľìķĦ ëĤĺ
ĠF ront
ìĹŃ ìĹĲ
oc key
Ġmathemat ics
ĠíĨł ëĦĪ
Ġìĺ¤ ë¥¼
Ġìĭ¤ ìļ©
ru ption
ĠìĨį íķľëĭ¤
ĠìŀĲë¦¬ ë§¤
Ġterm inal
åħ ĥ
Ġì²łìłĢ íŀĪ
M C
ĠU pper
Ġê¸°ëĮĢ ë¥¼
n ormal
ĠëĶĶìŀĲ ìĿ´ëĦĪ
Ġì¤ĳêµŃ ìĿ´
ĠìķĬìķĺ ëįĺ
á ĥ
ë° ´
Ġë°Ľ ìľ¼ë©°
Ġdescript ion
ë¥´íĤ¤ ìĺĪ
ê¸° ìŀĲ
Ġë¬´ ìĥģ
Ġclass ic
ç ¸
Ġê°ķ ìļĶ
we gian
Ġë¸Ķ ë¡ľê·¸
er ies
ĠíķŃ ìĿĺ
ë¦¬ ë²Ħ
Ġ190 4
) (
ìĭ¤ ìĿĺ
ì¼Ģ ë¯¸
Ġê°ĸ ê²Į
ĠChrist ians
ĠìķĮ ëłĪ
Ġìł ł
ur d
ĠG ib
ĠW W
Ġpract ical
ĠìĽ¨ ìĿ´
ë¦¬ ì¡°
Ġìµľìłģ ìĿĺ
ĠìĹħê³Ħ ìĿĺ
ì¹´ ëĬĶ
ĠL es
Ġì¤Ģë¹Ħ íķĺê³ł
Ġoffer ing
199 1
ìĬ ĺ
ĠBro ther
Ġê°Ģë¦¬ íĤ¤ëĬĶ
us ing
Ġê¼ ¼
ĠìĦ¸ë¥´ ë¹ĦìķĦ
Ġstand s
ê°Ģ ë©°
Ġê³ ģ
ëł¬ íķľ
ĠìĿ´ ë§ĪíĬ¸
Ġëī´ ëĶľ
Ġíĺ¸ íĻĺ
ì¶Ķ ìĸ´
ìĬ¤ íĥ
Ġíķ© ìĤ°
Ġb attles
Ġte ach
ìĹŃ ê³¼
ĠìłĦìļ© ë©´ìłģ
Ġpark s
æĺ İ
Ġh our
Ġinv ited
Ġì§Ģê¸ī íķĺëĬĶ
ĠìĤ½ ìŀħ
ĠA k
Ġì£¼ ìŀ¥ìĿ´
ĠìĿ´ë¥´ ê¸°ê¹Įì§Ģ
ĠìĤ¼ìĦ± ìĥĿëªħ
Ġtru st
Ġìłģ ìĿĦ
Ġm ob
ĠíĶĦë¡ľëĵĢ ìĦľ
G overnment
Ġê¸°ìĹ¬ íĸĪëĭ¤
re hens
Ġd ie
ĠG er
ph p
Ġíģ´ ë¦°
Ġcons ult
ĠìĿĮë°ĺ ìĿĢ
ad ow
ìŀ¬ ëĤľ
r ant
Ġall iance
ĠìĪĺìĪĺ ë£Įë¥¼
Ġë¶Ģ ëĭ¹
ĠP ot
Ġê³¨ ìĿĦ
Ġì§Ģ ì§Ī
Ġë§Īì¹¨ ëĤ´
Ġë¡ľìĬ¤ ìķ¤ìł¤
Ġíļ¨ìľ¨ ìłģìĿ¸
Ġcorrespond ing
ãĥ ³
ê¸Ī ì§Ģ
Ġt iss
ê°ģ íĺķ
ar ation
ìĹ°íķ© íļĮ
Ġcomp lic
R I
Ġpart ly
è Ĺ
ĠìĪĺ ê°ķ
ĠA ff
Ġì£¼ êµĲ
ĠìĥģíĴĪ ìĿĺ
íĶĦë¡ľ ìłĿ
ĠìĹ° ìĦ¸ëĮĢ
Ġì¢ħ ìłĦ
ìº ¡
p he
êµĲìľ¡ ì²ŃìĿĢ
Ġf led
Ġg ram
se ud
Ġëĵľ ë¬¼
íĶĮ ëŀľ
Ġhundred s
è ¥
amp s
Ġaud io
el ly
ëĶ ķ
Ġì§Ħíĸī íķ´
ĠB ishop
Ġrecord ings
j ection
ìĹĲìĦľ ë¶ĢíĦ°
Ġëªħ ìłĪ
Ġê¸Īìľµëĭ¹ êµŃìĿĢ
ì° ®
ìĿ¸ ëĵ¤ìĹĲê²Į
Ġê¸Ī ìķ¡ìĿĢ
iter ranean
m tv
ĠB ir
Ġë§Ī ì¹ĺê³ł
Ġìłľê³µ íĸĪëĭ¤
ĠëĽ° ìĹĪëĭ¤
ìĸ´ ëĵľ
ĠìĨ¡ ê¸Ī
ĠMin istry
ĠW at
Ġì´Ŀ ë¦¬ëĬĶ
Ġact ors
Ġì¡° ìłķìĿĦ
ë°© ìĿ´
p ool
Ġg irl
Ġê¸°ëĮĢ íķł
ëĭ¤ ë¦¬
Ġf ine
íĥĢ ìĿ´ìĸ´
Ġst able
ĠìĹ° ëĿ½
Ġcolle cted
Ġcar rying
ë¹Ħ ì¤ĳ
A D
v o
ĠìķĪìłĦ íķĺê²Į
íĨµ ê³Ħ
Ġìłľíķľ ìłģ
ĠëĬĺìĸ´ëĤĺ ëĬĶ
Ġë³µ êµ¬
Ġê³ ±
åŃ¸ æł¡
ĠM BC
Ġíļ¨ê³¼ ìłģìĿ¸
ĠêµĲ ìĪĺê°Ģ
Ġë©Ķ íĥĢ
ĠíķľêµŃ ê³¼
Ġìļ© ìĿ¸
Ġì¤ĳêµŃ ê³¼
ìĪĺ ìĹħ
Ġpart ially
Ġì¤Ħ ìĿ´ëĬĶ
ìŀĲ ë¬¸
ĠíĦ° ëĦĲ
d on
æ ĥ
Ġres ign
ëĨ Ģë¡ľ
Ġì°¸ê°Ģ íĸĪëĭ¤
Ġelement ary
Ġf lying
ĠL et
ìĹħê³Ħ ëĬĶ
Ġê³ł ì§Ģ
ì²´ìľ¡ ê´Ģê´ĳ
ĠPers ian
ĠìĽĲ ì£¼ë¯¼
ĠCount ry
Ġë§ī ëĮĢíķľ
ĠìĿ¸ íķĺìĹ¬
ĠSund ay
ìĤ¬ ê±´
ĠìľĦ ê¸°ë¥¼
ì¼ĵ ëª¬
ë³ į
ĠC PU
i est
Ġíĺĳ ìĹħìĿĦ
ĠëĮĢ ê³µ
ì£¼ ìĿ¸
ì¶Ķ ê°Ģ
ard ens
ult ane
íĦ ±
Ġê¸¸ ìĿ´ëĬĶ
ĠOr ig
ĠB ol
Ĳ ëŁ¬
ĠìĤ¬ íĿĺ
ìĹĲê²Į ëıĦ
ĠíħĮìĿ´ ë¸Ķ
Ġt ests
ĠíĪ¬ ìŁģ
ĠìĦľ ìĸĳ
ĠìĤ´ ìĿ¸
199 2
Ġp ed
ĠìĺĪìłķ ëĲľ
Ġë©´ ìłģ
Ġk il
Ġev al
Ġad min
ĠëķĮ ìĿĺ
Ġcl in
Ġreb ell
Ġmach ines
Ġë º
it ud
ĠìĨĮë¹Ħ ìŀĲê°Ģ
Ġë¶ĢìĤ¬ ìŀ¥ìĿĢ
ĠCE O
ĠHit ler
ĠCh annel
Ġëĭ¤ìĸĳ íķĺê²Į
Ġpublic ly
Ġdep icted
ĠR ose
ĠëĮĢíķĻ ìĿĺ
Ġê¸Ī ë©Ķëĭ¬
ĠíĨµ ìĤ°
Ġìĺ¨ ëıĦ
Ġê¸Ī íĨµ
Ġì¡°ì§ģ ìĿĦ
ìľĦ ì¹ĺ
Ġì»¨ íį¼ëŁ°ìĬ¤
ìłľ íĳľ
ak ed
pp ort
ĠìĪĺíĸī íķĺëĬĶ
Ġë¬´ ë¦¬
Ġì¤ĳ ìĦ¸
ìĤ¬ìĹħ ìĹĲ
Ġtrans mission
íı¬ ë¥¼
Ġsupp orters
ĠíĺķìĦ± ëĲľ
P er
ê¸Ī ë¦¬ëĬĶ
ĠíĥĲ ì§Ģ
Ġë§ µ
ìłķ ìĥģ
Ġë¬¸ ìĦľëĬĶ
Ġlast ed
Ġstop ped
Ġë°ĺ ëł¤
çĶ Ł
C P
Ġë°ľ ëłĪ
Ġrep rodu
ëĪ Ķ
Ġê¿Ī ìĿĦ
Ġminor ity
Ġimplement ed
ê ¶¤
if ies
ar ant
rol led
ĠìĨĮ ëħĦ
Ġkn ew
Ġì§Ģ ì¹Ń
Ġtour nament
un c
è¡ Į
iv ated
ĠëĽ° ìĸ´ëĤĺ
Ã ¢
Ġpra ised
Ġë¶Ħëªħ íŀĪ
ĠíķĺëĤĺ ë¥¼
vel t
at us
Ġrad ical
Ġë¶Ī ëłĢëĭ¤
ĠìĹ°êµ¬ ìĨĮ
Ġd rew
Ġjust ice
ëĦ £
ë°© ìĹĲ
Ġë¹ĦêµĲ íķĺë©´
Ġrecommend ed
Ġê¸°ê°Ħ ìĿ´
Ġcontribut ions
ĠìĤ¼ìĦ±ë°ĶìĿ´ìĺ¤ ë¡ľì§ģ
p y
Ġp iano
ì§Ħ ìĹĲ
ĠìĹ° ê³ł
ĠëķĮ ëķĮë¡ľ
ĠíĻĶëł¤ íķľ
Ġê¸Īìľµê°Ĳëıħ ìĽĲ
ĠìļĶ ì¦ĺ
Ġappear ances
Ġreform s
ĠCan al
199 3
Ġf ict
ìĿ¼ ë³´
P ublic
Ġimm igrants
Ġë°ĺ ë°ķ
ĠìĤ¬ë¡ľ ìŀ¡
ĠAll en
Ġëª¨ íĹĺ
ĠíĺĦ ìĥģìĿĦ
ĠìĦ¤ì¹ĺ ëĲĺìĸ´
Ġbro ken
ĠH D
Ġcirc uit
ra c
ĠAn ne
ĠíĹ¤ ë¥´
Ġë³ĢëıĻ ìĦ±ìĿ´
ĠSum mer
ê³Ħ ìĹĲìĦľ
Ġëļ «
ìĿ´ ì¹ĺ
Ġíķľ ìĿ¼
Ġvol unte
Ġsecret ary
Ġì»¨ ìĦ¼ìĦľ
ĠíķľêµŃ ìĿĦ
R S
Ġw atch
ĠM ong
ĠìĹħ íĻ©
Ġorigin ated
Ġass emb
Ġìĥģíĥľ ìĹĲ
ĠëĮĢìĥģ ìĿĢ
Ġê¶Į ìŀ¥
Ġìŀħ ìłĲ
Ġëį°ìĿ´íĦ° ë²łìĿ´ìĬ¤
Ġstri p
é Ł
oss ible
cul es
Ġchair man
íĥĢ ìĿĺ
Ġìĸ ĩ
Ġë°° ëŁ´
ëĴ ¤
Ġun iverse
íķ© ìĿĺ
Ġf ert
Ġê³ł ë°ľ
íĶĮ ë¡ľ
ìłĦ ìļ©
ìĹ¬ ìĦľ
h ard
ĠëıĦìĭľ ìĿĺ
ĠE ll
ê·¸ë£¹ ìĿ´
ĠP it
Ġexec uted
Ġher self
Ġì§ĢìĨį ê°ĢëĬ¥
r us
ìĦ¸ ìļĶ
Ġcent ers
ĠìĤ° íĻĶ
ãĢĢ ãĢĢ
íħĮ ìĿ´
Ġê¸°ëĮĢ íĸĪëĭ¤
Ġdisp la
t d
ĠëĳĲ ìĹĪëĭ¤
ck s
ĠìĹħì¢ħ ìĿ´
Ġbott om
Ġst ages
ĠìĨĮ ì§ĳ
mtv iew
ro gen
ĠíĪ¬ìŀĲ ìĹĲ
Ġìĭ¤ìĭľ íķĺê³ł
ct ic
Ġì´Ī ìĹĲ
Ġsettle ments
Ġsla ve
ê¸°ìĹħ ìĹĲ
Ġìĭ «
Ġê°ķíĻĶ íķĺëĬĶ
Ġconcern ed
ĠìĬ¤íĶ¼ ì»¤
Ġconstitution al
ê³ł ëĵ±
íĮĮ ë¥¼
ëıĻ ìľ¼ë¡ľ
amp les
ĠT ennessee
ov a
ĠìĦ¤ë¦½ ëĲĺìĹĪëĭ¤
Ġpict ure
Ġs elling
ëª ¸
Ġìĭľ ê¸°ë¥¼
Ġwrit ings
ĠProv ince
íĸĪëĭ¤ ê°Ģ
ĠìĥĿ ìķł
Ġbu y
ĠìķĦ ëĵ¤ìĿ´
ĠH ou
Ġland ing
ê³¼ ìĦ¸
ëĭ¨ ê¸°
ĠìĨĮ íĻĺ
Ġê±¸ ì¹ľ
Ġgr ade
ĠCamb ridge
Ġê³³ ìĿ´ëĭ¤
ĠBel g
ĠìĹ¬ ìĦ±ìĿ´
íİĺ ë¥´
ĠDon ald
Ġes g
Ġ( ,
Ġìĭłë¢° ë¥¼
ë¬¼ ìĿ´ëĭ¤
ig e
ĠêµŃê°Ģ ê°Ģ
Ġìŀ¬ë¯¸ ë¥¼
Ġëħ¼ìĿĺ ê°Ģ
Ġhy per
ĠìĻĢ ìĿ¸
E urope
Ġë¯¸êµŃ ìĹĲ
Ġstar ring
Ġë°ĺ ìĤ¬
Ġmedic ine
Ġìĥģ ë¬´ëĬĶ
ë³Ģ íĻĶ
Ġrequire ments
ë²ł ìĿ´ìħĺ
Ġimp rison
ìĿ´ ëŁ°
ìķĦ ìĦľ
ĠHow ard
é ļ
Ġê·¸ ì¤ĳ
Ġcoal ition
Ġìŀ¬ ìŀĦ
ab ilities
ĠJer usalem
Ġut il
ç ķ
Ġmeas ured
ìĬ¤íħĮ ìĿ´ìħĺ
Ġëª©ìĨĮ ë¦¬ê°Ģ
ë¦¬ ìĽĢ
ĠìĹ¬ê²¨ ì§Ħëĭ¤
Ġì´īêµ¬ íĸĪëĭ¤
ĠìĿ´ ìłľëĬĶ
Ġc raft
ĠíĻĶ íıĲ
Ġl ig
Ġìŀ ¦
Ġì¶ľ ìłľ
Ġë¬¼ë¦¬ ìłģ
Ġquest ions
ë¦¬ ëĭĪì§Ģ
ìĥĪ ë¡ľìļ´
Ġìŀ¬ íĺĦ
Ġë³¸ ìĿ¸ìĿĺ
ĠO ak
Ġra nd
Ġany thing
ê» ı
Ġì²« ëĤł
ë¦¬ ëĤĺ
Ġëĭ¹ìĭľ ìĹĲëĬĶ
ĠìĥĿê°ģ ìĿ´
Ġìŀĩ ëĶ°ëĿ¼
Ġjob s
Ġalcoh ol
Ġloss es
ìĤ¬ ë¡Ģ
ĠìłľíĴĪ ìĿ´
p at
ë³Ģ ê²½
p resent
ĠìĦ¸ ëł¥
Ġcol our
ra ce
c u
Ġb ed
ĠíĹ¤ ëĵľ
p ers
ê¸°ê´Ģ ìĿĺ
W orld
Ġíħį ìĤ¬ìĬ¤
om es
Ġë¬´ ìļ©
Ġposs ibility
Ġê¸° êµ¬
Ġë´ ¤
Ch rist
ĠíĽĦ ìŀĦ
Ġë¶ĦìĦĿ ëĲľëĭ¤
Ġip tv
ĠCommun ist
Ġunsu ccess
ĠìłķíĻķ íķĺê²Į
st yle
Ġbeg un
ìłķ ë°Ģ
um a
Ġìļ´ íķŃ
Ġê°ľìµľ íķľëĭ¤
le ft
íĸĪ ìĹĪëĭ¤
Ġê³¼ ì§ķ
ĠìĹĲ ëĦĪì§Ģë¥¼
Ġíĸ¥ íķľ
Ġpro of
Ġìŀ¥ ê¸°ê°Ħ
Ġëĵ¯ íķľ
êµ¬ ëĭ¨
ìĭł ëıĦìĭľ
og ether
ë¦¬ ìĸ¸
c ow
Ġìĺ¤ ì¼Ģ
ĠR oll
ĠAir lines
ĠBroad way
Ġë¸ĮëĿ¼ ìļ´
ê¶ Ĳ
Ġì¦Ŀê°Ģ ìĹĲ
Ġmod e
anc ell
ĠWal ter
Ġìŀ¬ ê³ł
ĠëłĪìĿ´ ìłĢ
Ġì¤ĳ ê²¬
ê¹ ¥
íĶ¼ íķ´
Ġìĥģíĥľ ê°Ģ
ĠS qu
Ġì¤Ģ ê³µ
Ġpartic les
L S
Ġë¸Įëŀľëĵľ ë¥¼
ĠëĤľ ìĿ´
W est
ìĪĺ ê¸°
Ġìĭľ ëĭ¬
mer ce
em n
ĠëĶ ¥
Ġë¹Į ëĶ©
ign ated
Ġëĭ´ ìķĺëĭ¤
Ġthem es
ĠìĽĢì§ģ ìŀĦìĿĦ
Ġbal ance
Ġìĸ» ëĬĶ
unn el
Ġprison ers
L C
Ġê°Ģ ì§ĢëĬĶ
ĠG il
ac hers
Ġëħ¸ ëł¥ìĿ´
Ġneigh bour
Ġres olution
Ġê³Ħíļį ìĿĢ
ĠëıĦ ì¶ľ
ĠSchool s
Ġchang ing
mir al
ë¶ģ íķľ
ĠìĦ¬ ìľł
Ġsurround ed
ar ry
Ġê¸Ī ë¦¬ëĬĶ
Ġëª° ëł¤
Ġìĸ´ëłµ ëĭ¤ëĬĶ
Ġarran ged
ĠìĿ¸ ìłģ
Ġscient ists
Ġpaint ings
Ġì§ĢëĤĺ ì¹ĺê²Į
Ġë¯¸ ì¹ĺì§Ģ
Ġsur g
ìĹħì²´ ìĿ¸
Ġsche me
ë§Ĳ ë¡ľ
Ġdem ol
Ġê°ĲìķĪ íķ´
ĠBet ween
Ġor ient
íıŃ ëł¥
Ġëª©íĳľì£¼ ê°Ģë¥¼
Ġì²« ì§¸
ant asy
Ġth ing
ì´Ŀ ìŀ¥
ru ctions
Ġfr ame
ĠëķĮ ìĹĲ
ĠëĮĢ ê°ľ
Ġì§ĢëıĦ ìŀĲ
ĠM S
ess ions
Ġë°ĶëĢĮ ìĹĪëĭ¤
Ġê°ľìĦł ëĲł
ĠReg ional
ëłĪìĿ´ íĦ°
ĠíĿĳìŀĲ ìłĦíĻĺ
ĠTor onto
ĠB apt
iven ess
ìĭľê°Ħ ìĿĦ
) ãĢĭ
Ġn it
Ġch ampion
ĠìĭľìĬ¤íħľ ìĹĲ
éĻ ¢
Ġf ired
íĮĮ ê°Ģ
Ġdut ies
Ġshe l
ĠìĿ´ìľł ë¥¼
T E
Ġ' '
e ing
Ġinter ior
Ġìĺ¤ íĶĦ
Ġë¦¬ëįĶ ìĭŃ
Ġê°Ģ ë³į
Ġì¤ĳ ìĿ´ë©°
ĠíĹĿê°Ģ ë¦¬
ìĽĶ ìĿĺ
Ġíĥľ ìĸ´ëĤ¬
Ġ190 1
Ġê±°ì£¼ íķĺëĬĶ
Ġact ress
ĠìĿ¸ ìĪĺë¥¼
ë¸Įë¦¬ ëĵľ
A b
ëĶ ¸
Ġpres erved
ĠSam uel
Ġthous and
ĠD ick
Ġì§Ħëĭ¨ íĸĪëĭ¤
Ġsle ep
ĠìĹ° ìĤ°
ĠëĮĢìĿĳ íķł
ĠHar ry
íĶĦ ìĻĢ
Ġa thlet
ĠP y
ric ted
ëł¸ ëįĺ
ĠìĿ¼ ìłķìĿĦ
ê¶Į ìľ¼ë¡ľ
ëĵľ ëĿ¼ë§Ī
ĠBr un
um ed
ĠêµŃê°Ģ ìĹĲìĦľ
Ġden ied
Ġpric es
æµ ·
s quare
ĠP ress
lo b
ĠíĪ¬ìŀĲ íķł
ëĤĺ ë¯¸
ì²ľ ìĭľ
ìļ° ê¸°
ĠCl inton
æ ¬
Ġd iet
ĠìĪĺ ë©´
te enth
Ġconf ig
ĠëĤ© íĴĪ
ë©Ķë¦¬ ì¹¸
ìĭľ ëĮĢìĿĺ
ĠíŀĪ íĬ¸
ì§Ģ ìłķ
ìĤ¬ ìĭ¤
ose velt
ĠTechn ology
ĠìĿ´ ìĦ±
ĠìŀĲìĤ° ìĿĦ
ĠëıĦìŀħ íķľ
ĠBow l
Ġê³µ ì§ģ
ĠëĨĴ ëĭ¤ëĬĶ
ĠInd ones
Ġor bit
Ġêµ¬ ëıĻ
Ġê¸°ë¡Ŀ íĸĪê³ł
ĠíĶĮ ëŀľ
Ġìĭľ ìĦ¸
Ġart icles
ĠëĨĴìķĦ ì§Ī
ĠMunicip ality
Ġìĭľ ì´Ī
Ġì§ĢìĽĲ íķ´
íĬ¸ ëĦĺ
ag le
Ġêµ° ëĮĢë¥¼
ëĿ¼ ë¥¼
Ġë²ĦìłĦ ìĿĢ
c ëĬĶ
ĠMed iterranean
íĮĢ ìĿĦ
Ġìĭľìŀĳ íķł
Ġlong est
Ġë§Ľ ìĿ´
Ġsh ift
Ġìĭłì²Ń íķł
Ġëģ Ī
th a
h us
od ge
Ġê²°ê³¼ ìłģìľ¼ë¡ľ
Ġìĥģ ìĺģ
ĠëĬĺìĸ´ëĤĺ ê³ł
ĠëıĦ êµ¬
ast s
ĠìĤ¬ê³ł ê°Ģ
Ġsw itch
L ife
ë³ĳ ëĮĢ
Ġìĺ¤ìĬ¤ ë§Į
Ġì¤ĳ ëıħ
Ġexp osure
n et
om orph
ĠìĿ´ë²Ī ìĿ´
Ġë°± ìķħ
ĠColor ado
ë¯¸ íķľ
Ġìĭ¤ íļ¨
ĠìĥĿ ê¸°
ĠĠĠĠĠĠĠĠ ĠĠĠĠĠĠĠ
ĠìĦľ êµ¬
Ġì§Ħ íķĻ
íĺĳ íļĮëĬĶ
Ġin aug
ĠìĥģíĴĪ ìĹĲ
ĠìĨĮë¹Ħ ìŀĲìĿĺ
ë¦ ĩ
Ġì§Ħ ìķķ
åľ °
Ġd b
Ġcomp la
ĠB uck
ial s
ì½ ķ
Ġìĺ¬ ë°Ķë¥¸
Ġë¹ µ
Ġìķ½ ë³´íķ©
Ġass istance
Ġt ouch
Ġpl us
Ġêµ¬ìĦ± íķ´
ĠD ire
ĠCon nect
Ġunder stood
Ġë°ľê²¬ ëĲĺìĹĪëĭ¤
æ º
Ġëª¨ ìĿĢ
rag on
ĠìŀĦ ìĭł
ĠìĤ¬ìĿ´ íģ´
ìĽĲ ê¹Įì§Ģ
k ed
ĠìĪĺì¤Ģ ìĿ´
ëģ¼ ë¦¬
Ġg ene
Ġd iverse
inc orporated
Ġrare ly
am i
ĠìŀĲìĤ¬ ì£¼
ĠìłĦ ìĪł
ĠCommon wealth
Ġë°Ŀíĺ Ķ
ur ban
Ġëĭ¤ ë¦¬
Ġíİ¸ ìķĪ
Ġm obile
ì² ¼
Ġíĺĳ ìĥģìĿĦ
Ġident ify
ĠíĻķìĿ¸ íķĺê³ł
Ġb ird
Ġin ner
Ġtour ism
ìĬ¤íĥĢ ê·¸ëŀ¨
Ġì¤ĳ ê°ľ
Ġorig ins
ê³¼ ëĮĢíķĻ
Ġì§ĳ ìĹĲ
ĠíĻľëıĻ ìĿ´
ĠëĮĢíķĻêµĲ ìĹĲìĦľ
Ġrand om
ì£¼ ëĭ¹
ìĹħê³Ħ ìĿĺ
Ġíı¬ ìľĦ
Ġemerg ency
ëī´ ìļķ
ĠíĢ Ħ
ĠíĪ ´
ot al
ĠëıĦìŀħ íĸĪëĭ¤
N C
ĠH ell
ê¸´ ëĭ¤
O R
Ġìĭľ ìĹĲ
ĠíķĻ ë¬¸
ru e
ê°ķ ìĹĲ
Ġê¸°ìŀĲ ê°Ħëĭ´
Ġëĸ¨ìĸ´ ì§ĢëĬĶ
Ġì¶ľ ìĦĿ
Ġwithd raw
Ġbran ches
l ation
ìľĦ ê¸°
Ġë³Ħ ë¡ľ
Ġë°ĺëĮĢ íķĺëĬĶ
Ġimmedi ate
íī ģ
ìŀĲ ê¸ĪìĿĦ
ĠReg ister
ĠW elsh
Ġrepla cement
ĠMill er
Ġë§Ī ëĿ¼
Ġresident ial
ĠìŀĪìĹĪ ê¸°
ìĥĿíĻľ ìĿĦ
Ġì¢ħëª© ìĿĦ
Ġcolon ies
ĠF arm
Ġë³´ê±´ ë³µì§Ģ
Ð ´
ĠìĤ¬ ìĸĳ
ëį ©
ĠBu ilding
Ġ12 8
Ġcover ing
Ġv el
ĠëĮĢ íĻĶë¥¼
Ġown ers
ĠíĬ¹ë³Ħ íŀĪ
ĠíĺľíĥĿ ìĿ´
Ġob lig
Ġ189 6
Ġíı¬íķ¨ íķĺê³ł
Ġlow est
ĠìĭłìĦł íķľ
Ġíķ¨ê»ĺ íķĺëĬĶ
ì² «
Ġc inem
ĠìļĶ ìĨĮê°Ģ
Ġì¡° ëªħ
ĠìŀĦ ê¸°
Ġìĭ¶ ìĸ´
ĠìĿ´ìĸ´ ê°Ī
Ġprefer red
Ġì¤Ģë¹Ħ íĸĪëĭ¤
oc ation
Ġíķ´ê²° íķĺê¸°
ĠìĿ´ìĸ´ ìł¸
Ġmechan ism
itzer land
ĠëĤĺ ì¹ĺ
Ġì¶ľìĭľ íĸĪëĭ¤ê³ł
ĠëĦ¤ ìĺ¤
ĠëĤł ìĶ¨
ele ct
ĠP ur
ìļ° ëŁ¬
ĠSim on
Ġsu it
Ġf alse
os y
ìŀĳ íĴĪ
G M
H owever
Ġdif f
ë¥´ ê°Ģ
Ġë¯¸ëĵľ íķĦ
ĠskíķĺìĿ´ ëĭī
p ie
Ġf illed
Ġì£¼ ëĲľ
ĠPhilipp ines
ĠW olf
å® ¶
ĠìłĦ ë¬´
ĠëĽ°ìĸ´ ëĦĺ
ìĭł ë¬¸
Ġì£¼ìŀ¥ íķĺëĬĶ
ĠíĬ¸ëŀĺ íĶ½
et ers
Ġelect rical
Ġê³µ ìłģ
hip s
Ġì°¸ìĦĿ íķ´
he rent
in f
ĠìĺĪìłķ ìĿ´ë©°
Ġíķ´ ìĤ°
Ġk ings
ĠìłĦíĻĺ ìĿĦ
ëŀĢìĭľìĬ¤ ì½Ķ
Ġë°° ìĥģ
Ġbo at
Ġ190 2
Ġd ated
ov en
ten ance
Ġappe al
ìĵ ¸
Ã «
Ġìĭľ ìłĲìĹĲ
am ine
ëĵľ ëłĪ
ì»¤ ëĭĪì¦ĺ
Ġì£¼ë³Ģ ìĿĺ
ra ge
ĠN ever
íķľ ìĿĦ
Ġê°Ģ ë¬¸
ĠëĤĺíĥĢëĤĺ ê³ł
Ġì¢ĭ ê²łëĭ¤
ĠìŀĲ ëĬĶ
ĠìŀĳíĴĪ ìľ¼ë¡ľ
Ġê¸°ìĹħ ìĿ´ëĭ¤
Ġindic ated
Ġê·¸ë¦¼ ìĿĦ
Ġíķĺ ëįĶëĿ¼ëıĦ
ëĶĶ ìĬ¤íĶĮëłĪìĿ´
ish ment
ê·¹ ìŀ¥
ĠìĥĿìĤ° íķĺëĬĶ
ë³´ê³ł ìĦľ
ĠArk ansas
Ġh ub
ĠìĦ± ë³Ħ
ĠìĦ¸ê³Ħ ë¥¼
Ġatm osphere
æ ŀ
ĠíķĺëĤĺ ëĭ¤
Ġover se
m ont
êµŃ ë°©
Ġíı¬ ì°©
Ġíľ ©
íĭ± ìĬ¤
Ġê¸° ëĳ¥
íĥĢ ë¡ľ
ë°Ķ ìĿĺ
Ġvari able
ĠìłĦ ì°¨
Ġì£¼ ìĨĮ
Ġíĥ ±
ìłĦ êµŃ
ĠD own
Ġ10 4
ê·ľ ì¹Ļ
Ġì»¤ë®¤ëĭĪ ì¼ĢìĿ´ìħĺ
ë°° ìłķ
ĠëĤĻ ì°°
Ġìļ° íĺ¸
ĠM aster
ĠR on
ì¹´ ê°Ģ
ĠBuddh ist
ĠCh ris
Ġinflu ences
ĠëĮĢìļ° ì¡°ìĦł
ë§Ī ìĿ´íģ¬
ĠAn th
tain ment
S R
Ġëª¨ ë¦¬
Ġì§ģ ìĽĲìĿ´
ĠìľĦìķĪ íĻĶ
íĢ ĺìĸ´
Ġë¯¸ ì¹ľ
u ct
Ġíıīê°Ģ ê°Ģ
ĠëĬĲëĤĮ ìĿĦ
Ġë³´ ìķĺëĭ¤
Ġacc eler
Ġprint ed
Ġsc ored
l ock
Ġê´Ģê³Ħ ìŀĲ
ĠìĦ±ìŀ¥ íĸĪëĭ¤
Ġbenef its
Ġad mitted
Ġê·¼ê±° ë¡ľ
ĠìłĢ ìĦľ
Ġprop ag
ĠìĦ¸ ë¬´
Ġdes ire
Ġinter ested
ì¼Ģ ìĸ´
ĠAng lo
ĠìĦł ìĿĦ
Ġíģ¬ ë¡ľìĬ¤
Ġëĭ¤ë£¨ ëĬĶ
ĠìŀĲ ìłĦê±°
ëª¨ ì§ĳ
Ġte acher
Ġë³¸ê²© íĻĶ
Ġcred it
Ñ ĥ
Ġìĥģìļ© íĻĶ
ìŀ İ
Ġst ood
ìłģ ìĿ´ë©°
ëĭ¬ ìķĦ
êµ¬ ë§¤
ĠAl b
íķĺ ìĭľ
ĠL in
ĠìĿĺ ìŀ¥
íħĮ ëĦ¤
r ary
Ġë¬´ ëį¤
ë£¨ ë¯¸
Ġê°Ī ëĿ¼
ĠìłĲ ì§Ħ
Ġsur f
ĠíĻķë³´ íķĺê³ł
Ġvess els
Ġì ¥
ë°° ìĥģ
âĢĻ .
ĠíĴ ĭ
doc string
Ġrepresent ative
st ances
ëĮĢ ì¤ĳ
ì£¼ ëıĦ
19 89
spe aking
Ġin g
Ġíķ´ ìŀĦ
ì²Ń ìĿĺ
Ġcult ures
Ġì¡°ìĤ¬ ìĹĲ
ìĭł êµĲ
T wo
og an
Ġìĥģ ìĿĦ
Ġc able
ìĤ¬ ìĿ´ëĵľ
Ġë§Į ë£Į
ë¦° ìĿĢ
ot ype
Ġë¦¬ ë·°
ë§ģ ìĿĦ
Ġmat rix
Ġëĭ¹ êµŃìĿĢ
Ġcont ra
ĠìĦľë¹ĦìĬ¤ ìĻĢ
ĠAlex and
êµ¬ ëĤĺ
ĠH ur
ĠìĺģìĹħ ìĨĲìĭ¤
Ġìĭ¤ìłģ ìĹĲ
ìĹħ ìĿĺ
ĠI d
Ġê¸°ìĪł ìłģ
v r
ro se
åº ľ
ĠS ix
ĠëĤĺ ìĿ´ë¡ľ
ĠInter state
Ġëĸ ¡
Ġë°Ķ ê¹¥
av el
Ġìľłìĥģì¦Ŀ ìŀĲ
Ġëĸł ëĤ¬ëĭ¤
Ġë§¥ ëĿ½
ëĦ¥ ìĬ¤
old s
ĠìĿ´ë²¤íĬ¸ ëıĦ
ëħĦ ì§¸
Ġìĭľìŀĳ íķĺëĬĶ
ĠëĶĶ ëłī
Ġabs ence
ê ¿
ol ar
Ġfarm ers
ad ron
ĠìĹħë¬´íĺĳ ìķ½
Ġcomput ers
Ġst im
Ġë©Ķ ìĭłìłĢ
Ġì°¨ì§Ģ íķľëĭ¤
ĠìĦł íĸī
Ġconstit u
ĠNor wegian
Ġíķ´ ìĪĺ
ĠìĥģíĻ© ìĿĢ
Ġjud ge
Ġíľ ł
ab il
ê°Ģ ë£¨
Ġíģ¬ë¦¬ìĬ¤ ë§ĪìĬ¤
ĠLaw rence
crib ed
ill er
ĠìľĦíķ´ ìĦł
ph ony
Ġì½ĶìĬ¤ëĭ¥ ìĭľìŀ¥
b urn
ĠF M
ìłľ ë¥´
ì§Ģ ë°°
Ġìĭ¤ ë¬¼
Ġtr ig
Ġsh ore
ã Īľ
Ġe at
ìĺµ ìħĺ
ĠëĤ´ ë¹Ħ
ĠU t
u ations
ĠíķľêµŃ ìĹĲ
Ġhot el
P e
ëıĻ ë§¹
Ġíģ¬ ë¦¬ìĹĲ
íĪ¬ ìķĦ
Ġsk ills
ìĭŃ ìŀĲ
ĠìŀĲìĦ¸ íŀĪ
ĠR oc
ĠëĨĴìķĦ ì§Ħ
ĠMed ic
Ġëª©íĳľì£¼ ê°ĢëĬĶ
et he
Ġredu ction
Ġphr ase
Ġsuper ior
íİĢëĵľ ëĬĶ
Ġìŀ¥ êµ°
ĠíĹ ¨ë¦¬
ist a
O ver
Ġì´Ŀ ëıħ
Ġê³µëıĻ ì²´
Ġresearc hers
Ġíģ¬ ë¦¬
ĠìŀĪìĹĪëĭ¤ ê³ł
ê²½ ìĿĢ
Ġìŀĳê³¡ ê°Ģ
Ġì¦Ĳ ê¸°
x ic
Ġê¶ģ ê·¹
f ree
Ï Ĥ
ĠT ony
íĮ Ł
ĠMan chester
Ġë¯¸ëĵľíķĦ ëįĶ
Ġh am
ĠìķĦ íĮĮ
ĠíĬ¹ì§ķ ìľ¼ë¡ľ
Ġst adium
Ġê±° ë¦¬ë¥¼
ĠíĻķë³´ íķł
Ġê²½ìłľ ìĿĺ
Ġë°ľ ìĨ¡
l ater
Ġìľłê°Ģ ì¦Ŀê¶Į
ĠëıĻ íĸ¥
ĠC BS
ĠìĦľë¹ĦìĬ¤ ëıĦ
Ġapp ly
ĠFin land
Ġacknow led
Ġdom ain
Ġsol ar
ec d
ëĮĢ ë¦¬
Ġr u
Ġê²°ìłķ íķĺëĬĶ
íķ¨ ìĿĢ
Ġdis order
ê²© ìľ¼ë¡ľ
ĠìĽĲ ë¦¬
in ite
Ġíı¬ íķŃ
ìŀĳ ìĿĦ
ìĻĦ íĻĶ
Ġa ired
ĠëĤ¨ ê²¼ëĭ¤
ĠìĦłìłķ íķ´
Ġìĭ¤ìĭľ íķľëĭ¤ê³ł
Ġìľł ìĺĪ
ĠëĤ´ ìħĶëĦĲ
ĠìĿ´ìłĦ ìĹĲëĬĶ
Ġpre gn
ì½Ķ ìĺ¬
ê¸° ìĤ¬
ëŁ¬ ë¸Ķ
Ġemploy ment
Ġrec ip
ĠìķĦëĭĪ ë©´
ĠCon st
Ġíĸī ìĤ¬ìĹĲ
Ġë²ķ ëł¹
Ġìĭłíķľ ì¹´ëĵľ
Ġê±° ëĳĶ
ĠëĨį ë¯¼
ĠìĪĺìļĶ ë¥¼
Ġappro val
ĠM ach
ĠìĬ¤íĥĢ ë²
Ġc ul
Ġìŀħ ìŀ¥ìĹĲìĦľ
ĠìĺģíĻĶ ëĬĶ
é Ĥ
ìĦľ ìĸĳ
ëĿ¼ íģ´
Ġunivers al
Ġbas ket
( +
Ġë¬´ ìĬ¬ë¦¼
ĠW ell
ë¹Ħ ìľ¨ìĿĢ
ĠW y
Ġex port
ĠìĹŃ ìĿĦ
ìłĪ ì°¨
Ġì¹ĺìĹ´ íķľ
ìĹ £
Ġíķ´ ìĹĲ
Ġëĭ¨ íİ¸
ĠSh ort
hyth m
Ġê²© ëł¤
Ġd at
ë¦¬ ëŀĳ
ĠíĢ ¸
ĠPe ace
Ġprovin cial
S ec
ro t
Ġref ere
êµŃ ìŀ¥
ĠìĤ¬íĥľ ê°Ģ
Ġpercent age
ëĭĪìĬ¤ íĥĦ
ĠìŀĲë£Į ìĹĲ
Ġê°Ģ ê³ł
ip o
Ġ189 5
Ġs ession
Ġíĺĳ ìĿĺë¥¼
ĠV I
ĠíĪ¬ìŀĲ ìłĦëŀµ
íĪ¬ ìĸ´
ĠS ax
Ġë¬´ ìłľíķľ
ĠìĦ±ìŀ¥ ìĹĲ
Ġì§Ģìłķ ëĲľ
Ġë¥ ¼
Ġì´Ī ê¸°ìĹĲ
Ġíļ¨ìľ¨ ìłģìľ¼ë¡ľ
n amed
ìĿ´ ê±°ëĤĺ
ìľł ëĬĶ
ĠíĶĮ ëĿ¼ìĬ¤íĭ±
Ġ190 3
ĠRo osevelt
au x
Ġass embly
Ġìĭľê°Ħ ìĿĢ
Ġcerem on
ë°Ķ ëĬĶ
Ġê³¼ ìĦ¸
Ġìłķì¹ĺ ìĿ¸ìĿ´ëĭ¤
ĠM un
ì²Ń ìĨĮëħĦ
ĠìĿĢíĸī ìĿ´
Ġbelief s
åİ Ł
ang a
c al
Ġì§ĢëĤľ ì£¼
Ġun p
ĠëĲĺ ìŀĲ
Ġpers u
ĠíķĦìļĶ íķł
Ġsing ing
Ġìª½ ìľ¼ë¡ľ
ĠìŀĪìĿĦ ê¹Į
Ġdeb t
Ġë°ĶëŀĮ ì§ģ
Ġìĥģ ìĭ¤
Ġìĺģíĸ¥ ìĿĢ
Ġíģ´ëŀĺ ìĬ¤
v ens
ĠìĪĺ ëĭ¨
Ġconcept s
Ġdiscuss ed
F ran
Ġchar ter
Ġal gebra
ĠSy d
Ġlog ic
h att
ĠS A
Ġíĸ ĩ
Ġê±°ë¦¬ ëĳĲ
Ġê³µ íĹĮ
Ġë§ĲëłĪìĿ´ ìĭľìķĦ
ëıĻ ìĿĢ
Ġì°½ ëĭ¨
Ġìĸ´ëł¤ ìĽĢ
ê¼ ¼
ìĨĮ ë¦¬
Ġì¼ Ī
Ġre venue
th at
ë§ ·
ult y
ĠëĮĢë³Ģ ìĿ¸ìĿĢ
Ġì°¨ ìĽĲìĿĺ
Ġìĵ° ìĿ´ëĬĶ
Ġdisc ip
ë¯¸ êµŃìĿĺ
Ġsus p
Ġìłķ ë¬´
Ġë°Ŀ ìĿĢ
ĠìĪĺì¤Ģ ìĿ¸
Ġconne ctions
Ġcon j
Ġì¦Ŀ ëĮĢ
ĠMet hod
Ġre nder
Ġredu cing
Ġf ruit
ener ation
Î ½
Ġìĸ´ ëĳĲ
Ġrem ove
Ġbring ing
Ġìļ° ëŁī
ĠìĹŃ ìĤ¬ê°Ģ
Ġìĸĺ ê¸°
ĠExp ress
Ġì¤ĳ ìłĲ
ëĭ¨ ìľĦ
ĠëłĪ ë²Ħ
Ġê¸Īìķ¡ ìĿĦ
ig ious
ac re
Ġ17 0
æ ¼
ĠS el
Ġp age
ĠA BC
Ġì§Ħíĸī ëĲĺë©°
ĠìķłíĶĮ ìĿĢ
ê·¸ ë¦¬ê³ł
ult an
Ġíĸī ëł¬
ìĬ¨ ìĿ´
Ġmeet ings
Ġíķľ ê³Ħê°Ģ
Ġê²°ìłķ ìĹĲ
loy d
Ġë¨¸ ìĭł
Ġexp ensive
em en
ê¸Īìľµ ì§Ģ
Ġë¹ł ì§Ħ
Ġê³ł ìĭľ
Ġë§Į ìĦ±
Ġìĺ¬íķ´ ìĿĺ
u i
Ġì±Ħ ìĽĮ
Ġëĵ±ìŀ¥ íķľ
' re
ĠìĦłìłķ íĸĪëĭ¤
ĠK im
Ġì¤Ħ ìĿ´ê¸°
ĠìķĦìĿ´ìĬ¤íģ¬ ë¦¼
Ġd ual
Ġì¡´ìŀ¬ íķĺì§Ģ
ĠìĿ´ íĺ¼
ĠìĦ¸ ìłľ
Ġinf antry
Ġphys ics
ĠìĿ´ ëª¨
ĠAuthor ity
< /
Ġg ather
Ġê°ľë°ľ ëĲľ
Ġëĵľ ëĿ¼ìĿ´ë¸Į
ĠìĭłìĨį íķĺê²Į
Ġhun ting
ê¸° ìĦ¸íı¬
ĠíĮĮ íĤ¤ìĬ¤íĥĦ
Ġì§ Ŀ
ìĿ¼ ìĿ¸
lah oma
ĠAll ied
Ġìĭł ìŀ¥
ëł¸ ìľ¼ë©°
Ġinteg rated
Ġr pg
ĠìĹ¬ ë¶ĢìĹĲ
ëŁī ê³¼
Ġìĺ¤ ë¥´ëĬĶ
Ġcl im
ĠAt t
Ġ189 8
ĠëĤ´ ìķ¼
ĠëĤł ì§ľ
Ġhead ed
Ġê³µ ê³ł
Ġv eter
ĠêµĲ íĨł
Ġint ention
íķ´ ì§Ħëĭ¤
Ġë§¤ì¶ľìķ¡ ìĿ´
ĠDemocr ats
Ġd ict
ìĥī ìĿĺ
cov id
or ney
r ator
Ġthreat ened
ë©Ķ ëĵľ
ë©Ķ ë¥´
ĠíĽĦ íĩ´
ìľ Ļ
ë°ĺ ìĿĳ
bor ough
y ard
ĠìłĦ ëıĻ
Ġìķ½ ìĦ¸ëĭ¤
Ġcarri er
Des pite
Ġd iver
Ġíĺģìĭł ìłģìĿ¸
p u
Ġë¦¬ ì²ĺ
ì½ ¥
Ġê²½ìłľ ìĦ±ìŀ¥
ç¥ ŀ
Ġê² ī
Ġdis appe
ĠìĿĺíķ´ ìĦľ
Ġë°ĸ ìĹĲëıĦ
æĪ Ĳ
ëĶĶ ìĹĲ
Ġìŀ İ
am ics
Ġëĭ´ ê²¨
Ġsim ultane
Ġprot est
Ġíħį ìĬ¤íĬ¸
ĠB ang
Ġë¶Ħ ìŀĲ
ĠìĿ¼ë³¸ ìĿĢ
Ġbig gest
ì¦Ī ìĻĢ
ĠìĻ¸ ë¬´
ĠìĺĪìĤ° ìĿĦ
ĠëıĮíĮĮ íĸĪëĭ¤
Ġneighbor ing
Ġmat ters
Ġìĺ¬ëŀĲ ê³ł
Ġìĸĳ ìłģ
u v
ë¹Ħ íĸī
ë¹Į ëĶ©
ìĨ Ł
Ġì¶ľìĹ° íķĺìĺĢê³ł
Ġìłľ ëĦ¤
ĠR ights
ëĤ¬ ê³ł
Ġt ick
Ġë¶Ģ íķĺ
Ġrul ing
ĠíĹĪ ë¦¬
tym ology
Ġìĭł ë©Ķëī´
Ġdr iven
Ġë©¸ ë§Ŀ
ì¼Ģë¯¸ ì¹¼
Ġbe ar
Ġsign s
Ġcons cious
t rans
Ġìļ° íİ¸
ĠìĹ¬ëŁ¬ ë¶Ħ
Ġì²ľ ë¬¸
ë²Ħ ê±°
Ġê¸įìłķ ìłģìľ¼ë¡ľ
Ġëªħ ëĭ¨
Ġpat ron
Ġì§ķ ê³Ħ
ĠìĽĲìŀĲ ëł¥
s ub
ëĭ¬ ëĿ¼ê³ł
Bill board
ĠìĿ´ìķ¼ ê¸°ê°Ģ
S m
ĠíĬ¸ìľĦ íĦ°
or ous
Ġìłķì±ħ ìĿ´
ĠíĦ ´
ĠíĹĪ ë¸Į
p aper
ĠëĮĢ ì£¼ì£¼
Ġëª©ìĨĮ ë¦¬
iv a
ĠìķĦ ìĤ¬
ë¡ľ ë´ĩ
Ġì£¼ íķľ
ĠíĺĦ ìłĢ
ĠëĤ® ëĭ¤
Ġinvol vement
W ill
ëĳĲ ìĹĲ
Ġhydro gen
Ġìĭ¬ íķľ
ĠìķĦìĿ´íħľ ìĿĦ
Ġw ine
Ġper ceived
M et
Ġcan al
Ġë°ľíĳľ íķł
ë©´ ìĿ´
ĠìĹ´ ìĭ¬íŀĪ
ĠPol it
Ġë°©ë¬¸ íķľ
ëĶĶ ìŀĲìĿ¸
Ġë©¤ë²Ħ ìĭŃ
Ġdemonst rated
ĠìĤ¬ìĻ¸ ìĿ´ìĤ¬
ĠíķĻ ìĽĲ
Ġref lected
Ġíķľ ìĸĳ
ìĺ¤ íĽĦ
Ġê¹ ľ
Ġë¶ĦìľĦ ê¸°ê°Ģ
ĠG arden
ict ions
Ġhead s
ĠA the
ĠE th
íĭ° ëħ¸
b rid
ëĮĢ ë¶Ģ
ĠHe ad
Ġrepresent atives
Ġë¶Ħ ìĹ´
Ġê¹Ģ íı¬
ĠìĪĺìĿµ ìĿ´
ëģ Ĺ
Ġfind ing
Ġê°ĢëĬ¥ ìĦ±ìĹĲ
ĠìĿ¸íĶĦëĿ¼ ë¥¼
íĩ´ ì§ģ
ì§Ģ ìĬ¤
ol i
Ġë³Ģê²½ ëĲĺìĹĪëĭ¤
ĠJeff erson
Ġê³¼ìłķ ìĿ´
ag ues
Ġê°ĢëĬ¥ íķĺëıĦë¡Ŀ
å¤ ª
la bor
Ġê°ķ ë³´íķ©
Ġë¶Ħìķ¼ ë¥¼
ĠA h
Ġìļ° ìľĦë¥¼
ë¸Ķ ëŀĻ
? )
Ġìºłíİĺ ìĿ¸ìĿĦ
å Ĵ
os lav
ë³Ģ ëıĻ
è¥ ¿
ĠìľĦ ìĥĿ
íĺĦ ìĿĺ
Ġrec onst
ĠJ ordan
ĠìĿ¼ íļĮ
ĠìĨĮë¹Ħ ìŀĲëĵ¤ìĿ´
ì¹´ëĵľ ë¥¼
Ġden omin
Ġë°ľ ë³ĳ
Ġë°° ê¸ī
Ġíķ´ê²° íķł
ĠM ike
Ġì»´ íĵ¨íĮħ
ĠSte ve
ĠMo ore
lic ation
Ġê¸°ìĹħ ìĿ¸
ĠìŀĲëıĻ íĻĶ
Ġneut ral
Ġê°Ģ ëĤĺ
ĠFore ign
ê²½ ëł¥
ëĥ ī
Ġag ency
n i
Ġìķŀ ìĦ¸
Ġìµľê³ł ì¹ĺë¥¼
bour ne
M e
ìłľ ìĿ´
ë¸Ķ ë¡ľ
Ġê±° ëĮĢ
Ġprodu ces
ëĭ «
Ġê·¸ ëĵ¤ìĿĦ
çĦ ¡
ìĬ¤ íĶĦ
ĠìĤ¬ ìŀ¥ìĿ´
un ities
ê²Į ìĿ´íĬ¸
ĠìľĦì¹ĺ ìĹĲ
ĠíĻľë°ľ íķľ
ĠíļĮ íĶ¼
ë¯¸ëŀĺ ìĹĲìħĭ
Ġë§Īëł¨ íķł
ĠìĤ¬ê±´ ìĿĢ
ĠìĦĿ íĥĦ
Ġëªħ ëª©
ĠíıŃ ìĿ´
ëŁ¬ ìĬ¤íĬ¸
ĠìĹĨ ëıĦë¡Ŀ
Ġlegisl ative
Ġìľłìĥģì¦Ŀ ìŀĲë¥¼
ĠìĦ¸ ë¸Ĳ
ĠìłĦë§Ŀ ìĿĦ
Ġdistingu ished
Ã¼ r
Ġìĥģ ìĭľ
ĠëĶĶ ìĬ¤
ĠìĦĿ ìĤ¬
ĠIndian a
ê¸ ĭ
ĠC el
Ġì°¨ ê´Ģ
ë³´ ëĶĶìķĦ
ë°© ìĭĿ
Ġê´Ģê³Ħ ëĬĶ
Ġì°¸ìĹ¬ íķĺê³ł
íĻĢëĶ© ìĬ¤
Ġë¶ĦìľĦ ê¸°
ic ut
ĠìŀĳíĴĪ ìĿ´
Ġnomin ation
ì² ¸
ag en
ì¹´ ë¥¼
es h
ë¸Į ëłĪ
Ġìĺ Ĳ
Ġëĭ¤ìĿĮ ìľ¼ë¡ľ
ê³¼ ë¥¼
ro x
ĠJu an
ë¯¹ ìĬ¤
Ġinv ent
ĠN BC
Ġê¸°ë¡Ŀ ìĿ´
Ġì¹ĺ ë§¤
Ġconvent ional
Ġìĺģ íĻĶë¥¼
Ġê¸°ì¤Ģ ìĿ´
ĠìĪĺìļĶ ìĺĪì¸¡
ĠA R
Ġìłľê³µ íķĺë©°
ĠìĺģìĹħ ìĿĦ
Ġì§Ħì¶ľ ìĹĲ
ĠëĤ¨ ê²¨
Ġë§ĮëĤĺ ë³¼
Ġaim ed
{ {
ot te
Ġmat ches
ĠSw itzerland
ìłķ ëıĦ
íĸī ìĦ±
ĠB rand
ĠG ord
Ġsk ë¸Įë¡ľëĵľ
ìĺģ ìĸ´
ĠS em
ìĬ¤íĥĢ ìĿ¸
Ġë§º ìĹĪëĭ¤
Ġë³´íĹĺ ê¸Ī
Ġê³µìĤ° ì£¼ìĿĺ
ĠíĺĲ ìĿĺë¥¼
Ġtem por
Ġì¤ĳìļĶ ìĦ±ìĿĦ
Ġ18 89
ê¹Įì§Ģ ëıĦ
ud i
ĠìĮĵ ìķĦ
ĠC ur
ìķĦ ëŀĺ
Ġê ¾
ĠAd ams
Ġëıĭ ë³´
oph ical
Ġo ption
íķĻ ìĽĲ
ab s
ì¿ł ìĬ¤
Ġìľł ê³ł
f riend
Ġìľł ëĭĽ
unic ations
Ġì£¼ìĸ´ ì§Ħ
nt il
ĠíĶĦ ëŀŃ
Ġëĭ¹ ëĩ¨
Ġh al
Ġch ance
Ġê³¼ ëª©
ëłĮ ì§Ģ
ud a
19 50
Ġì²ł ê±°
Ġsign als
Ġestim ates
Ġê·¼ë¡ľ ìŀĲ
åĮ Ĺ
ĠìĪľì°¨ ìłģìľ¼ë¡ľ
Ġsu gar
Ġë§ŀ ë¬¼
ĠíķŃ ë³µ
Ġêµ¬ìĦ± íķĺëĬĶ
ĠìĪĺìĿµ ë¥łìĿĢ
Ĺ ëĤł
ëĵ± íķľ
ific ial
ĠAp oll
Ġstru ck
Ġh olid
ĠìŀĲ ê²©ìĿĦ
ĠìĦľìļ¸ ëĮĢíķĻêµĲ
Ġì¶ľ ìĤ°
ĠìĹĲ ì½Ķ
ë³´íĹĺ ìĿĢ
ĠBC E
Ġtax es
ìŀĦ ìĿ´
ĠìłĦ ìķ¡
Ġdec isions
Ġreported ly
Ġdisp ute
Ġê¸° ì¡°
íĶĦ ëŀľì°¨ìĿ´ì¦Ī
ë¦¬ ë©´
ĠìĪĺì¤Ģ ìĹĲìĦľ
Ġë¿Ĳ ìĿ´ëĭ¤
f ish
Ġr ub
Ġf oss
ĠD ream
Ġë¹Į ëł¤
Ġë©Ķ ëª¨
ĠìĿ´ ëħ¸
ĠëķĮ ë¡ľëĬĶ
ë°° ë¡ľ
íĤ¤ íį¼
ìĨį ìĹĲ
ëıĻ ìĥĿ
Ġw ire
ë¹Ħ ì¦Ī
ĠìĿ´ìłģ íĸĪëĭ¤
ë§Į ê°Ħ
ĠëĦĺ ê²¨
ë§Ľ ìĿĦ
Ġìĸ´ ìļ°ëŁ¬
ĠM and
Ġìĭľìŀĳ íĸĪê³ł
Ġestablish ing
ĠëıĻ ë¶ģ
Ġh uge
Ġcab inet
ìĿ´ëĿ¼ ë©´ìĦľ
ĠëĮĵ ê¸Ģ
ê³ł ìĹĲ
Ġp s
ì¹´ ë¥´
ĠìĤ¬ëŀĮ ìĹĲê²Į
Ġweap on
ĠDan ish
ĠB ou
akes pe
gress ive
Ġra cing
Ġmain land
íĮĮ ìĿ´ìĸ´
in ental
ë ±Ģ
The se
ĠìķĦëª¨ëłĪ íį¼ìĭľíĶ½
Ġì¡¸ìĹħ íķĺê³ł
ĠLiber al
ãĢī ,
Ġê° ļ
ìĪĺ ìĿ´ëĭ¤
els on
ĠA z
ĠìľłëĮĢ ìĿ¸
Ġê² Ĳ
ĠíĻĶ ìĤ°
Ġch rom
Ġdist inction
Ġì§Ī ìĿĺ
ĠíĬ¹ íĻĶëĲľ
Ġlab our
Ġdetail ed
B et
Ġë°ľê²¬ íĸĪëĭ¤
Ġìĺ¤ë¥´ ë©°
ann els
Ġê²½ì°° ìĿĢ
Ġìļ´ ë°ĺ
Ġsw im
Ġëĵ¤ìĸ´ ê°ĢëĬĶ
ìļĶ ìĭľ
ĠìĭľìĦ¤ ìĿĦ
Ġher itage
U nder
in ch
ìĦ¸ ìĦľ
ëĲľëĭ¤ ë©´
Ġíĺ¸ ëĤ¨
Ġë¸Į ë¡ľ
Ġë¸Į ëłī
Ġë°Ģ ì§ĳ
ĠíĬĢ ë¥´íĤ¤ìĺĪ
Ġíİĺë¥´ ìĭľìķĦ
ìĪĺ ìĪł
íĪ ¼
Ġì§Ħ ìĪł
ê±° ë¦¬ë¥¼
ìĤ¬ìĹħ ìĿĺ
Ġdrug s
Ġr ational
ĠíĮĮ ë¥´
Ġ10 6
ë°ķ íķľ
Ġë©´ ìĹĲìĦľ
Ġeffic ient
ĠìĤ¬ìļ© íķĺë©´
Ġíĺĳ ì¡°
r ors
Ġì°½ ìĽĲ
as er
Ġìķ¼ ê¸°
Ġìħ Ķ
ĠGr ant
Ġ ),
Ġh ang
ri p
Ġhe ir
l us
Ġm aps
ìŀĦ ìĹĲëıĦ
Ġìŀ¬ ëĭ¨
Ġê°Ĳ ìĥģ
ìĬ¬ ë¡ľ
Ġê¸Īìľµ ìĭľìŀ¥
Ġnewsp apers
Ġl ists
ìķĦ ë§Ī
igh ters
Ġag ents
ĠíĺĦëĮĢ ì¦Ŀê¶Į
íĮĮ ë¦¬
) -
ìĹĶ ì§ĢëĭĪìĸ´ë§ģ
Ġì¶Ķì§Ħ íķ´
ĠMil itary
atur day
Ġíķĺ ê±°ëĤĺ
ë§ĮìĽĲ ëĮĢ
Ġìĺ¤ ì§ģ
Ġtem porary
ĠA ges
ĠìĦłìłķ íķľ
Ã £
ĠF u
ìľĦ ëĭ¤
Ġr ising
íĻ© ìĿĦ
ĠëĮĢíĳľ ë¡ľ
ì»¤ ë¨¸ìĬ¤
Ġìĥģ ìĦ¸
Ġ12 5
Ġexpl an
Ġth in
Ġ10 8
Ġhor iz
Ġentertain ment
Ġì°¸ìĹ¬ íķľëĭ¤
ĠìĿ¼ íķĺëĬĶ
ĠëĵĢ ìĸ¼
Ġê·¸ ëłĪ
ik h
Ġëħ¸ëŀĺ ë¥¼
Ġquant um
ê³µ ìĿĦ
ì²ĺ ê°Ģ
ĠDemocr at
Ġê³łêµ¬ ëł¤
ĠC ru
Ġìłķ ë¡Ģ
ë³¸ ìĿĢ
ìħ ¨
Ġang le
ĠëģĬìŀĦ ìĹĨìĿ´
Ġw aves
ĠByz antine
ĠêµĲìľ¡ ê³¼ìłķ
Ġcharacter istic
ìĻ¸ êµŃ
ĠìĬĪ íĮħ
Ġì£¼ëª© ëĲľëĭ¤
Ġì¹´ ëĿ¼
ĠìĥĿê°ģ íķĺê³ł
Ġìłķ ëıĦê°Ģ
Ġë¹Ħ ìĦľ
Ġ Ø
ĠìĿĺ ë¥ĺ
ëŀĢ íĬ¸
ë£¨ ìĿĺ
Ġìķ¼ ê°Ħ
ìĿ´ì¦Ī ê²ĮìŀĦ
Ġê±°ëĴ Ģëĭ¤
Ġì¦Ŀ ìĸ¸
Ġfilm ed
Ġcontin uing
ĠíĽĦ ì§Ģ
ĠSc iences
ar th
ì¡± ìĿ´
Ġrespond ed
ĠíķľìĿĢ ìĿĢ
I M
ĠíĻĺ ìŀĲê°Ģ
ĠìłĦì²´ ìłģìľ¼ë¡ľ
ĠS lov
ĠìľĦ íĤ¤
íĮĲ ìĿĢ
Ġì¤ĳêµŃ ìĹĲ
Ġë²Įìĸ´ ì§Ħ
ĠìĦ¤ëªħ íķľëĭ¤
Ġìłķë³´ ëĬĶ
ĠíĽĦ ê³Ħ
ĠìĿĢ íķĺ
Ġì§Ħíĸī ëĲĺìĹĪëĭ¤
ĠìĿ´ ìĬ¹
Ġë³ĳ ìĤ¬
Ġëª¨ ë¥´ëĬĶ
Ġrefer ences
ĠOlymp ics
ê²© ìĿĢ
ĠRog er
ìĿ¸ ê°Ħ
Ġlook ing
Ġëĭ¬ì½¤ íķľ
Ġ25 00
ĠìĿ¼ ìĿ´ëĭ¤
Ġíģ´ ë¡ľ
ĳ ¼
ĠL anc
Ġì§ĢìĹŃ ìĹĲìĦľëĬĶ
Ġìĺ¬ë¦¼íĶ½ ìĹĲìĦľ
Ġê´ĳê³ł ë¥¼
ĠëĮĢ ë¶ģ
íĬ Ģ
Ġpo ems
ìĭ¤ ìŀ¥
ìĻĦ ìłĦ
ĠìķĦë¬´ ëŁ°
ol ly
ìĽĶ íķľ
ì§Ģ ë¶Ħ
Ġê²° ì½Ķ
ĠëĲĺ ëĬĶëį°
ĠìĿ¼ë³¸ ìĹĲ
íĺķ ê³¼
Ġcivil ian
Ġf est
fer ences
ĠíĻĶ ìĥģ
op es
ìľĦ ìĿ¸
ĠìĤ¼ìĦ±s ds
Ġl ob
ìĹ¬ ê¸°ìĦľ
Ġstrateg ic
d am
ê°ľ ìĹĲ
ĠìĿ¼ìłķ íķľ
Ġnegoti ations
P art
ìĤ° ìĭľ
ĠHe art
ĠíķĻêµĲ ìĹĲ
as a
Ġìľł ë¦¬íķľ
ĠF alls
Ġsatell ite
ì½ §
ìĥĿëªħ ê³¼íķĻ
ëĵ¤ìĹĲê²Į ëĬĶ
Ġmem orial
ĠìĿ´ ìĿĢ
Ġëĵľ ë¦¼
ĠìĹħë¬´íĺĳ ìķ½ìĿĦ
ĠJ os
Ġì¶ľ ìŀ¥
Ġê²ĮìĿ´ ë¨¸
ĠìĿ¼ ì¢ħìĿ´ëĭ¤
Ġì»¨ ìħī
Ġì¡° ìļ©
akespe are
íķ´ ìĥģ
ĠAr men
ëĥĪ ê³ł
æ Ħ
Ġse nd
ĠíļĮ ëĭ´
Ġcross ing
Ġê°Ģ ìķ¼
Ġê°ľ ì²´
Ġìĸĳ ì¸¡
Ġm art
ant e
w orld
Ġexperim ents
Ġê³Ħ ê³¡
íĺķ ìĹĲ
ĠíĻķë³´ íķľ
ĠìĥĿê°ģ íĸĪëĭ¤
Ġê³¼ìłķ ìĿĢ
Ġstat ue
ĠTele vision
ĠìĤ¬ìļ© ìŀĲìĿĺ
Ġì§ĢìĹŃ ìĿ´
ĠMuslim s
Ġcamer a
ĠMos cow
it ic
ëħĦ ìĿĢ
ãĢ Ĥ
ĠìµľëĮĢ ì£¼
ĠíİĢëĵľ ë¥¼
Ġcas ual
ìłľ êµŃ
Ġun f
our se
Ġë°° íĦ°
ĠìĿ¸ ìĬ¤íĥĢê·¸ëŀ¨
Ġspe akers
ĠëıĻìĿ¼ íķĺê²Į
ĠMer c
ĠìĺĪìĪł ê°Ģ
Ġëıķ ê¸°
Ġë³´ ëĤ´ëĬĶ
ĠíĶĦë¡ľíĨł ì½ľ
ĠíĹĪ ê°Ģë¥¼
emp loy
ĠL am
ĠHar ris
Ġamount s
ĠS ound
ĠìĥģìĬ¹ ìĹĲ
Ġdisc ont
ê±´ìĦ¤ ìĿ´
Ġë¸Įëŀľëĵľ ë¡ľ
ĠìķĪìłķ ìłģ
ĠìĦłìłķ ëĲĺìĹĪëĭ¤
Ġadj ust
Ġë¬¸íĻĶ ìłģ
ric e
ĠìĭĿ ìľ¼ë¡ľ
A N
Ġë¶Ģ ì§Ģ
Un ited
id ency
un es
Ġsupp lies
Ġw et
ìķĦ ìĿ¼ëŀľëĵľ
Ġíĸī ìĤ¬ê°Ģ
Ġgr ass
ĠíĮĲê²° ìĿĦ
Ġh orses
Ġëħ¸ëł¥ íķł
Ġëª©íĳľ ëĬĶ
Ġdut y
Ġì§Ģ ë¶ķ
Ġìĺ¹ íĺ¸
ĠìłĦ ìĿ¸
ĠIn n
ĠìĤ¬ê±´ ìĹĲ
Ġì¶©ì²Ń ëĤ¨ëıĦ
el ine
Ġê·¼ì²ĺ ìĹĲ
ĠëĮĢ ë©´
Ġjurisd iction
bre ak
ĠìķĦ ëĿ¼
Ġë¯¸ ìĸĢ
Ġpro sec
ĠìĦłíĥĿ íķľ
Ġa ìĶ¨ëĬĶ
Ġv ul
Ġnh n
ìŀĲ ìĿ´
ìŀĲ ëĤĺ
Ġë²Ī ìĹĲ
Ġì¶© ë¶ģ
íĬ¹ ì§ķ
Ġì»¬ ëłī
ĠSyd ney
Ġfac ilit
ĠìľłëĤĺìĿ´ íĭ°ëĵľ
å ´
Ġëĸ ¼
ut y
Ġë§Ĳ ë¡ľ
ìĿ¼ ëĵľ
ens ed
ĠìłĢ íıīê°Ģ
ĠìĽĢì§ģ ìĿ´ëĬĶ
ĠHou ston
l en
Ġb ishop
Ġseek ing
L ater
ĠëĤĺ ê°ĢëĬĶ
Ġìŀĳ ìĤ¬
Ġë¸Į ëłĪìĿ´
Ġê³¼ê¸°ìłķíĨµ ë¶Ģ
ĠT ower
ê°ķ ìłĲ
ĠArab ic
ìŀħ ì°°
Ï ģ
ç µ
ig ital
ĠNapole on
1 20
Ġì¶Ķ ìĦ¸ëĭ¤
Ġì²Ļ ì¶Ķ
arri er
ĠìĦłë³´ ìĿ´ê³ł
ĠìŀĪ ìľ¼ëĭĪ
ĠíıŃ ëĦĵ
b es
s ch
S ever
ĠS i
ê¸Ģ ëĿ¼
at on
ìļ© ëŁī
ĠN on
Ġpred ec
Econom y
P ersonal
ĠSw iss
Ġtra il
Ġëħ¸ë¥´ ìĽ¨ìĿ´
ĠìĪľ ìĿ´ìĿµìĿĢ
Ġê¸°ìĤ¬ ìŀħëĭĪëĭ¤
Ġìĭľ ê¸ī
ren cy
ĠëĨį êµ¬
ì»¨ ëĮĢ
Ġìĭ¤ ìĭľíĸĪëĭ¤
ĠëĲĺ ëıĦë¡Ŀ
Ġì¹¨ ìŀħ
ĠëĦ¤ìĿ´ë²Ħ ëĬĶ
Ġar c
ĠìĹĲ ìĦľ
Ġspe aking
Ġê±°ëĳĲ ìĹĪëĭ¤
at in
ĠB os
Ġì£¼ìĸ´ ì§Ħëĭ¤
Ġìľł ìķĪíĥĢ
Ġëª¨ëį¸ ìĿ´
ĠëĪĦ ê°Ģ
Ġë°ĺìĿĳ ìĿ´
Ġchild hood
ĠAust rian
Ġclos er
ĠA T
ĠìĿ¸ ê°Ģ
Ġe ìĬ¤íı¬ì¸ł
Ġíĥľìĸĳ ê´ĳ
Ġì§Ģë°© ìĿĺ
Ġplan et
Ġë¹¨ ëĿ¼
Ġcircum stances
Ġìķ µ
ìĭľê°Ħ ìĿ´
ĠOn ce
ìķĪ ë³´
ĠTh ird
ĠìĿ¼ìĭľ ìłģìľ¼ë¡ľ
o a
iv ate
ĠìķĦë¥´íĹ¨ íĭ°ëĤĺ
Ġë¹Ħ ìłĦ
ĠG i
ud son
ĠìķĦëĭĪ ìĹĪëĭ¤
Ġ18 99
éĥ ¨
Ġf iled
Ġì°¨ ëŁīìĿĦ
ĠìĦłìĪĺ ëĵ¤ìĿ´
Ġìĵ° ëŁ¬
ê¸°ê°Ħ ìĿĦ
Ġp y
ĠìĿ´ ë¥´ë©´
ro it
ìĹĪ ìĬµëĭĪëĭ¤
Ġc ogn
íĺķ íĥľ
ë®¤ ì§ģ
ĠìĨĲìĭ¤ ìĿ´
ĠìĨĮ ë¦¬ë¥¼
ë°Ķ ìĿ´ìĬ¤
ëł¹ ìĿ´
ì¡Į ìĿĦ
Ġindic ates
Ġjour ney
ĠìķĮ ë¦¬ëĬĶ
Ġê¸°ëĮĢê°Ĳ ìĹĲ
ĠIn it
Ġun s
ë²ł ìĬ¤
Ġì¹¨ ì²´
Ġíķĺ íķľ
íģ¬ ìĻĢ
ĠPu erto
Ġconnect ing
ĠìĿ¼ìĸ´ëĤĺ ëĬĶ
Ġë© ĭ
ë§Ĳ ìĿĦ
ĠI ron
ĠN ow
Ġë¸Ķ ëĿ¼
Ġìŀĳ ê°ĢìĿĺ
ĠìķĦë§Ī ëıĦ
ìĿ´ ë¯¸
ì¦Ī ìĹĲ
Ġbi ological
Ġmechan ical
Ġë² ¼
ìłľ ëıĦë¥¼
Ġì²ľ ìķĪ
Ġappropri ate
Ġw rong
ĠìĹ¬íĸī ìĿĦ
ìŀĲìĹĲê²Į ëĬĶ
ì§Ħ ì¶ľ
ë¬´ ê¸°
åħ ī
Ġdra wing
Ġpublish ing
Ġêµ¬ ë©į
ë¬¼ ê°Ģ
Ġìŀħìŀ¥ ìĹĲìĦľëĬĶ
Ġn am
Ġìĭľ ìłĲìĹĲìĦľ
em ed
ort ion
Ġì°¨ ìŀħ
Ġag ree
ĠìķĦ ëĬĶ
ìľł ëĭĪ
S outh
ê³ł ìĻĢ
Ġì¶ľ ëł¥
iam i
Ġsh ares
Ġancest ry
ìł¸ ìķ¼
ë°° ìĹĲ
in tend
Ġint ent
id al
opul ar
Ġì§ĢìĹŃ ìĤ¬íļĮ
Ġexperim ental
ìķŀ ìĦľ
z ing
ìķĦ ì§ģ
ĠëĦĺìĸ´ ìĦľ
Ġì¡°ê±´ ìľ¼ë¡ľ
Ġfict ional
K ing
ĠL ive
Ġf er
ĠìĿ¸ ìĥĿ
ĠìĿ¼ ìĸ´ëĤ¬ëĭ¤
Ġëĵ±ìŀ¥ íĸĪëĭ¤
íķľêµŃ ìĭľê°Ħ
Ġdr iving
Ġë°©ìķĪ ëıĦ
A nt
Ġì¡° ìĭ¬
íĤ¤ ìĿĺ
Ġì½Ķ ë¥´
ĠìĦ¼ íĬ¸
ĠëıĦìĦľ ê´Ģ
ĠM it
íĴĪ ì§Ī
all as
ç¾ İ
è ı
ìŀĲ ìĿ´ìŀĲ
ìĸ´ ëĸ
Ġcirc le
ĠìĻķ êµŃ
éŁ ĵ
Ġì½Ķ ìĸ´
ĠG ab
ĠíĬ¹ìĦ± ìĥģ
ìĿĮ ìĹĲ
ĠìĹ°ê²° ëĲľ
Ġëª¨ë©ĺ íħĢ
ĠA cc
ĠìµľìłĢ ìŀĦê¸Ī
Ġchall enge
O rig
ĠëĵĿ íĳľ
Ġpain ted
ĠL yn
Ġêµ¬ì¶ķ íķĺê³ł
ĠF a
ĠìĿ´ë¯¸ ì§Ģ
Ġs alt
ĠB ah
A L
ĠMarg aret
ĠíķĻ ìĤ¬
Ġë¬´ ëĮĢìĹĲ
Ġê¸°ë°ĺ íķľ
ìĤ° ë§¥
Ġìĸ´ëł¤ ìĽĢìĿ´
ĠMed ical
Ġì¤Ģìļ° ìĬ¹
Ġconsum ption
Ġëª¨ ë²Ķ
ĠS ky
Ġì»¤ ëĦ¥
Ġê°Ģ ìĤ°
ĠH ans
it als
ĠíķľêµŃ ìĿ¸
ĠíĶĦë¡ľê·¸ëŀ¨ ìĹĲ
ĠëıĦ ë©Ķ
ĠB urn
ĠìĨĮ ìľĦ
or ge
ĠíĻ ĭ
ĠSt aff
Ġschol ar
Ġìĭľ ìĪł
Trans portation
Ġille gal
p erson
v ol
ĠLouis iana
er r
ĠìĪĺì¶ľ ìŀħ
íĬ¸ ëŁ¼
Ġrem ember
ĠíĹ¤ ì§Ģ
ìĻĶ ëįĺ
ne g
Ġm amm
ĠCo oper
ìĤ¬íļĮ ìłģ
Ġë® Į
Ġtra ined
ĠMay or
ë§Ī ëĭĪìķĦ
ig a
Ġadult s
Ġcompr ised
ĠìĿ¼ ì£¼ìĿ¼
Ġìĺ¤ ë°Ķ
ĠìĪľë§¤ìĪĺ íĸĪëĭ¤
ĠëĮĢ íļĮë¥¼
if er
Ġê³¡ ìĿĦ
Ġd a
Ġì¶ľ íķĺ
ĠS C
Ġì¶Ķ ìĸµ
Ġê¶Į ëł¥
Ġlandsc ape
ĠìĺĪ ëĬ¥
Ġëħ¸ ìĬ¤
Ġê½ ¤
ĠCar ter
Ġê¸ī ê°Ĳ
ĠëĬĲ ê¼
is ition
ë Ń
ë²Ī ìĹĲ
ìķĶ íĺ¸
æ° ´
Ġë¹¨ ê°Ħ
Ġmathemat ical
ĠìĪĺ ìĭľ
Ġn ut
Ġì°¾ ê³ł
ĠìĦłìĸ¸ íĸĪëĭ¤
ìĥ ·
Ġê°ķëĤ¨ êµ¬
Ġdoct rine
ĠLeg isl
ĠBelg ium
Ġ18 30
Ġfem in
Ġeas y
ĠPen insula
ct ors
ĠO p
ì½Ķ ìĿ¸
ĠAlf red
Ġair line
ĠMary land
ĠTrum p
or us
Ġìļ° ìļ¸
Ġê·ľìłľ ê°Ģ
íĨł ëĬĶ
Ġê°ľìµľ íĸĪëĭ¤
i op
Ġìłĳê·¼ íķł
.' .
Ġíĸī ìĦ±
Ġretire ment
Ġìŀ¥ ìłĲìĿ´
Ġro of
Ġê°ľ ìĦ±
Ġìĸĳ ìª½
ĠìĿ´ë¤Ħ ì§Ħëĭ¤
Ġ16 00
ì¥ ¬
ĠìķĪ íħĮ
ĠìĨĮë¹Ħ ìĹĲ
Ġìŀħ ìĹĪëĭ¤
ĠíħĮìĬ¤íĬ¸ ë¥¼
writ er
Ġìĭ¤ ë§Ŀ
ot he
ĠìĹ¬ ì§Ģê°Ģ
ĠëĶĶìłĢ íĬ¸
Ġt ells
íķĺ ìŀĲëĬĶ
ĠìĿ´ ë£¬ëĭ¤
re le
ĠF ried
or ig
ĠìĹ°êµ¬ ìĽĲ
Ġent rance
Ġparticip ate
t ains
Ġk id
ĠHer itage
ĠB lo
Ġill ness
ĠHeb rew
' :
Ġp u
Ġê·¸ ë§Į
Ġìĺ¬ ë¦¬ê³ł
Ġ2 20
Ġìļ´ ìĪĺ
Ġê³µê¸ī íķĺëĬĶ
ĠëĮĢíĳľ ìĿĺ
Ġforest s
è Ļ
ìĪĺ ìŀħ
Ġë©Ķ ì»¤ëĭĪì¦ĺ
Ġmain tenance
Ġprec ip
ëĲĺ ê²Į
Ġíķ´ ìĦ¤
ê²Ģ ìĿĢ
ĠìĥĿ ê¸¸
ĠHot el
Ġì°° ìĬ¤
é§ ħ
ancell or
Ġw inner
ic ism
Ġsuccess ion
ĠìŀĲë¦¬ë§¤ ê¹Ģ
Ġìĭł íķĻ
Ġì²Ń ì£¼
Ġë¹Ħ ìľ¨ìĿĦ
Ġêµ° ìĿĺ
Ġê¸°ëĬ¥ ëıĦ
ĠìĿ´ë£¨ ëĬĶ
íĸī ë³µ
íı´ ë¦¬ìĬ¤
Ġê³µ ë¬´
Ġë²Ħ ìłĦìĿĦ
h um
ĠíķĦìļĶ ìĦ±ìĿĦ
V P
ĠìĤ¼ ìķĦ
ì¶Ķ ì²ľ
Ġart illery
Ġcolla pse
Ġìĭł íĻĶ
Ġê³łëł¤ íķľ
Ġengine er
ĠP a
ìķĺ ëĬĶëį°
Ġprofess ion
ĠìĹ £
Ġcollabor ation
Ġëĭ¤ ì±Ħ
Ġìŀ¬ ì°¨
ĠEr n
E d
ĠìĿ´ë£¨ ê³ł
" "
Ġë°° ìĹ´
be an
ĠD al
Ġëª¨ìĬµ ìľ¼ë¡ľ
Ġê³³ ìĿĦ
Ġplay off
ĠRepresent atives
ĠëĵľëŁ¬ ëĤĺ
ĠìłĦ ì²ł
Ġìłģìļ© ëĲĺëĬĶ
ĠP ap
Ġì¹´ëĵľ ìĤ¬
Ġìĭľìŀĳ ëĲľëĭ¤
hatt an
Ġê¾ Ģ
ĠV ar
ìĺ¤ ë¥¼
Ġì£¼ìĭĿ íļĮìĤ¬
Ġë¶Ģ ë¶Ģ
ab y
Ġcons p
ê·¸ ëłĪ
ang le
rou s
ĠH op
Ġì¦Ŀ ìĭľìĹĲ
ĠíĻĺ ê¸ī
ic on
19 88
Ġtank s
ë³´ ë¡ľ
ê´Ģ ë¦¬ë¥¼
Ġë¶Ī ê³µìłķ
Ġì¡°ìĤ¬ íķľ
ëıĻ ê³¼
ĠQue bec
ĠìĹ´ íĴį
Ġhard ware
Ġíķ¸ ëĵľ
Ġìĸ´ ëĵľ
ĠìĿ´ìĸ´ ìĦľ
Ġì§ĢìĨį ëĲĺê³ł
Ġs ave
ĠëĤ¨ìķĦ íĶĦë¦¬ì¹´
Ġì¢ħ ìĨį
Ġam pl
Ġíĸī ìŀ¥ìĿĢ
Ġt ribut
ĠW he
Ġëª¨ ìķĺëĭ¤
ĠìĹ¬ ìĦ¯
ĠâĪ Ĵ
Ġêµ ¿
ĠM oh
ĠIndepend ent
ĠìķĦìĭľìķĦëĤĺ íķŃê³µ
ĠìĿ¸ ëł¥ìĿĦ
ìŀĳ ìłĦ
ìĻ¸ ìĦł
ìĭľìĦ¤ ìĿĦ
ĠëıĻëĤ¨ ìķĦìĭľìķĦ
Ġn aver
ather ine
ì»¨ ìĦ¤íĮħ
ĠRom ans
íĺĳíļĮ ìĹĲ
Ġë¸ĮëĿ¼ìļ° ìłĢ
ë§Į ëĮĢ
ìļ° ìĦł
Ġìłķê·ľ ì§ģ
Ġmur d
Ġê²½ íĴĪ
Ġê¸°ë¡Ŀ ìĿĢ
ìĤ´ ìĿĦ
Ġviol ent
Ġgod s
des ignated
Ġë¶Ħ ëĭ¹
Ġê²Ģ ì¶ľ
Ġíģ´ ë¦¬
ĠìľĦ ì£¼ìĿĺ
Ġêµ¬ì¡° ë¡ľ
ê°¤ëŁŃìĭľ s
Ġenjoy ed
ĠìĿĳ ê¸ī
ĠìķĦëŀĺ ë¡ľ
m aking
ĠëĤĺ íı´
19 87
ë§ ĺ
ĠUn like
ĠN aval
Ġevery thing
um ph
ëĵ± ìĿĺ
o z
Ġg arden
Ġr ig
Ġleg acy
ê°ľ ëĬĶ
Ġëª© ê²©
Ġgovern ed
Ġclaim ing
ĠìĿĺë¯¸ ëĭ¤
Ġrepla cing
Ġoper ator
Ġë¨¹ ê³ł
Ġëĭ ®
oc a
Ġdef ence
Ġìķ¤ ëĵľ
h arm
In f
ĠOk lahoma
ìłģ ìĿ´ìĹĪëĭ¤
Ġì£¼ë³Ģ ìĹĲ
Ġcrow d
ĠT u
Ġcons olid
ĠìļĶêµ¬ ë¥¼
com pass
Ġelse where
Ġp ool
ed ed
ĠíĻĺê²½ ìĿ´
omet imes
ĠìĦ¤ë¦½ íĸĪëĭ¤
Ġ4 50
ĠëªħíĻķ íŀĪ
Ġê³ ½
Ġê·¸ëłĩ ëĭ¤ë©´
it is
ĠN ort
ĠíĮĲ ìłķìĿĦ
ĠìĬ¹ ë¶Ģ
ëħĦê°Ħ ìĿĺ
Ġì¹ĺ ìĨŁ
Ġìĺģ ê´ĳ
ĠíĿ¥ ë¯¸
Ġhon our
å §
Ġc ous
Ġìĸ´ ìĽĮëĵľ
Ġê°Ħ ìĹĲ
ĠëıĻê¸° ëĮĢë¹Ħ
ĠëıĮìķĦ ìĻĢ
Ġrul er
ìķ µ
ì§Ģ ëĮĢ
Ġê³µíĻĶ ëĭ¹
Ġì²łìłĢ íķľ
ê³µ íĻĶêµŃ
Ġì½Ķ ìĿ¸
Ġleg it
Ġëĭ¬ëŁ¬ íĻĶ
Ġê³µëª¨ ê°Ģ
ĠìĭłíĿ¥ êµŃ
ĠìĿ¼ ë°©
Ġì§ĳ ê¶Į
Ġë§ĪìĿĮ ìĿ´
es ter
Ġë§İ ì§Ģ
Ġin se
ĠìłĦëĭ¬ íĸĪëĭ¤
Ġì²¨ ê°Ģ
ĠG ene
ĠP ear
P D
Ġë°Ķ ë¥¸
ĠíĸĪëĭ¤ ëĬĶ
ĠìĨĲ ìŀ¡ê³ł
th ouse
Ġë§Ī ìĵ°
Ġ10 9
act s
Ġì§Ģ ëĤ´
w as
Ġunc ertain
Ġê³µ ìķ½
ëª© íĳľ
Ġìĺ¬ ë¦¬ëĬĶ
Ġíı¬íķ¨ ëĲĲëĭ¤
ĠíĦ ±
Ġcover age
S te
Ġd ress
ĠL ower
ĠS ports
ìŀ¬ íķ´
ul ating
b ishop
êµŃ ë¦½
Ġëĵ± íĮĲ
are n
Ġp itch
Ġg irls
Ġê³¼ ê°Ĳ
ìĶ¨ ìĻĢ
Ġì§Ģë°© ìŀĲì¹ĺëĭ¨ì²´
ĠDef ense
ìĿ´ ë©´ìĦľ
Ġê·ľ ìłķìĿĦ
Ġexp osed
E v
ĠìŀĲ ë§¤
Ġë§¤ ê°ľ
ĠK han
Ġíİ¸ ë¦¬íķľ
Ġassist ant
ìĿ¸ë¯¼ê³µíĻĶ êµŃìĿĺ
Ġthe at
Ġg dp
Ġsh arp
Ġkb ì¦Ŀê¶Į
Ġem pt
ĠíĥĢ ê²©ìĿĦ
ĠìĻķ êµŃìĿĺ
ê°Ģê²© ìĿĢ
ê³Ħ ìĻĢ
ë°Ķ íĤ¤ìķĦ
com ing
ĠB enn
Ġê³¡ ìĿĢ
Ġê²½ ëł¥ìĿĦ
ĠìļĶ íķľ
Ġíķ© ë²ķ
ĠìĺģêµŃ ìĹĲìĦľ
ĠSpr ings
ĠìĥĿëªħ ë³´íĹĺ
ìłĦ ì²´
Ġêµ¬ ìłľ
Ġwe b
ĠAnd erson
Ġê°Ĳ ë©´
ĠìķĪ ìłĦìĿĦ
Ġwid er
Ġnar rative
Ġvictim s
ë£¨ ê°Ģ
ĠëĳĲ ê»ĺ
Ġë¹ħ íĨł
ĠëĮĢ ê²°
Ġë§Ī ë²ķ
íģ¬ ëŀĺíĶĦíĬ¸
Ġê²½ìĺģ ê¶Į
ëĶĶìķĦ ëĿ¼ë¹ĦìķĦ
S ch
ìĭł ê³¼
ĠëĬĲëģ¼ ëĬĶ
Ġch annels
ëįĶ ëĬĶ
ë¯¸ ìķĦ
ath y
Ġc avalry
Ġê±´ê°ķ ë³´íĹĺ
Ġì¦Ĳ ê²¨
ĠJan e
Ġë§Īì¼ĢíĮħ ìĿĦ
ĠíĶ¼ íĦ°
Ġlegisl ature
Ġìĥģ ê°Ģ
Ġë¯¼ ìĽĲ
Ġco ins
Ġexpla in
ì ĮĢ
Ĳ ģ
Ġcon ven
ĠìĦ¸ê³Ħ ìĹĲ
ä¸ ĸ
ĠR u
ĠPro te
Ġsamp le
h ol
Ġì§Ħ ì§ľ
ran g
Ġvar iant
ĠC ook
Ġsaf e
Ġc osm
ĠPla ces
ĠNA SA
ìĨĮ ìĪĺ
ĠR oy
Ġìĥģìŀ¥ íıĲ
Ġn et
Ġë¶Ī íķĦ
æŃ ¦
ìŀ¬ ìłķ
ë§ģ íģ¬
ĠAb d
ì¸ł ìĿĺ
Ġart istic
ĠíĥĲ íĹĺ
Ġexec ution
Ġsus pend
Ġìµľì´Īê¸°ì¤Ģ ê°Ģê²©ìĿĺ
Ġìĭł íĺ¸ë¥¼
ĠíĶĮëłĪìĿ´ ìĺ¤íĶĦ
íģ¬ ë¦¼
ë²ł ìĿ´íĦ°
ĠLa ure
B lack
al ia
Ġì¢ħëª© ìĹĲ
ĠìŀĲì²´ ë¥¼
Ġê°Ģë²¼ ìļ´
Ġìļ´ìĺģ íķł
Ġrest ricted
ç ¤
íĥĢ ê°Ģ
ĠìĦ¸ ê¸ĪìĿĦ
ë³´ëĭ¤ ëıĦ
Ġìłķ ìĽĲ
ĠìĽĲ ê°Ģ
V ID
ìľĦìĽĲíļĮ ìĹĲ
Ġìĭľë¦¬ì¦Ī ëĬĶ
ìĭľ ë°Ģ
íĮĮ ìĥĿ
Ġm ixt
ĠìĥĪ ëĪĦë¦¬
ìĽł ëįĺ
N orth
Ġë¦¬ ëĪ
ĠëıĦìŀħ íķ´
Ġ18 40
Ġsy mp
ĠìĤ¬ê±´ ìĿĺ
ĠìĬ¤íĭ° ë¸Ĳ
ĠìĿ¼ ê´Ħ
ix on
ĠíıŃ íĥĦ
Ġvol can
Ġë³´ ëĭ¤ëĬĶ
ĠThere fore
c d
Ġìľł íķĻ
Ġsu itable
Ġíģ¬ ê¸°ìĿĺ
ĠìĺĪìĥģ ì¹ĺ
Ġdo ctor
Ġíķ´ ë¦¬
ĠìµľëĮĢ ìĿĺ
Ġìł ¤
Ġê¸° ìģĺ
ë°ľ íĸī
é Ħ
ëĵ± ìĿ´
Ġrev ival
Ġch amber
Ġg ross
Ġê²°íķ© íķľ
Ġsurv ive
Ġìľłì¹ĺ ìĽĲ
Ġê·¹ëĮĢ íĻĶ
ĠK al
ĠìĿĺë¯¸ ë¡ľ
ĠíĦ° ë¯¸ëĦĲ
Î ¹
Ġìŀ¥ ì¹ĺë¥¼
ĠìĿ¼ìŀĲ ë¦¬ë¥¼
ìĪĺ íĸī
Ġëªħ ìľ¼ë¡ľ
íĶĦëĿ¼ìĿ´ ì¦Ī
Ġs oul
ë° Ń
ìµľ ëĮĢ
Ġelect ro
Ġë¨¸ëĭĪ íĪ¬
Ġìķ ĵ
íķĺ ëĿ½
lo ad
Ġìłľê¸° ëĲĲëĭ¤
Ġë¡ľìĬ¤ìķ¤ìł¤ ëłĪìĬ¤
ë¯¼ ìĿĺ
Ġë©Ķ íĥĪ
Ġë§ī ìķĦ
ìĬ¤ ìľĦ
Ġë§Īëł¨ íķľ
Ġg al
Ġê°Ħ ìĦŃ
H er
O N
ìĺ¤ ë¦¬
ĠìĹŃ ìłĦ
Ġconsec utive
ĠìŀĳìĹħ ìĿ´
Ġstrugg le
ose xual
ëĨĵ ê³ł
ĠìĪĺìĿµ ìĦ±ìĿ´
itud es
Ġê·¸ ë¡ľ
ê·¸ ëıĻìķĪ
ĠK ings
N ational
ìĿ´ ìĦ¼
Ġì½Ķ ìĺ¤ë¡±
Ġì¤Ģë¹Ħ íķĺëĬĶ
Ġìłķ ê¶Į
ĠìľłìłĢ ê°Ģ
ĠMed ia
ĠM ars
ê¸°ê°Ħ ìĿ´
Ġê¸ĪìľµìľĦ ê¸°
ìĤ¬ ìłĦ
Ġê¼¼ ê¼¼
Ġë°ľ ë°ľ
ìĹ°êµ¬ ìĽĲìĿĢ
Ġprob ability
ìĹ° ìĪĺ
ìĺĪ ë°©
ìļ° ë©°
Ġìĺ¤ ë¥ĺ
ĠV is
ol ve
ë³¼ ë£¨ìħĺ
íĮĮ ìĽĮ
ëĭ¬ëŁ¬ ë¥¼
ĠConnect icut
ëĵ¤ ìĹĲìĦľ
Ġì¹¨ ëŀµ
ling ton
ĠìĨĮìŀ¬ ë¡ľ
ĠG oth
ĠìķĦëĭĪ ëĿ¼ê³ł
Ġì¶ľìĭľ ëĲł
Ġë¬¸íĻĶ ì²´ìľ¡ê´Ģê´ĳ
ph y
Ġë¡ľ ìĹ´
Ġë³´íĹĺ ë£Įë¥¼
ĠëĮĢìĿĳ íķĺê¸°
ê°ľ ìłķ
ĠíļĮìĤ¬ ìĹĲ
Ġ189 4
al og
ĠëĶ° ìĦľ
Ġë Ĥ¬
ìŀĳ ìľ¼ë¡ľ
Ġì¤ĳ ìĦ±
Ġme at
ĠíŀĪ ëį°
reg on
E P
ìĿ¸ ìĿ¸
ĠìļĶ ìķ½
Ġìĺ¬íķ´ ëıĦ
Ġë¹Ľ ìĿĦ
w ent
ìĿ´ ìķ¼
Ġd rop
Ġì²ĺ íĺķ
Ġimp ossible
do or
Ġë°ľ ì£¼
Ġê¸°ê´Ģ ê³¼
ê²Į ìĿ´
éĥ ¡
ìĺ¤ ìĿĺ
Ġb anned
êµ¬ ê¸Ģ
Ġìłľê³µ ëĲĺëĬĶ
Ġunus ual
ìĤ¬ ëª¨
ĠìĨĮ ëª¨
Ġsignific ance
Ġtrib e
ĠìĿ´ìĬĪ ê°Ģ
Ġê°Ģ íķ´
ap ore
Ġê³¨ íĤ¤íį¼
imens ional
ch ing
Ġvol t
êµ° ìĹĲìĦľ
Ġê°ľìłķ ìķĪ
onym ous
a ired
d den
Ġë³´ ìĿ´ìĬ¤
Ð ¹
å ±
Ġíľ´ ê°Ģ
ĠëĤĺëĪĦ ìĸ´
Ġíļ¨ê³¼ ëĬĶ
ĠC re
íĮĮ ìĿ¼
ĠìĥģíĴĪ ìĿ´
Ġmiss ions
ĠÃ ī
ìĽĶ ìĥĿ
ì¼ °
Ġì°¸ ìłĦ
Ġri f
ĠMicro soft
ĠëĪĦ êµ°
Ġì¦Ŀ ìĥģ
ĠìķĦëĭĪ ê³ł
ĠìķłíĶĮ ìĿĺ
Ġêµ°ìĤ¬ ìłģ
Ġfram ework
Ġìŀ¥ ëĤ¨
Ġë³¸ íĨł
Ġvar iation
Ġì°© ê³µ
Ġdou b
é ¾
ĠT s
Ġë¶Ī ìĸ´
Ġthe ater
Ġegg s
Ġê³Ħ ì¸µ
ĠRuss ell
ĠíĮĮ ìļ´ëĵľ
Ġdescrib ing
ĠNorm an
ĠMarsh all
Ġm ild
ëĳĲ ëĬĶ
Ġpol ar
Ġì¶Ķìłķ ëĲĺëĬĶ
ĠìĹ°ë§Ĳ ê¹Įì§Ģ
ì§Ģ ìĤ¬
Ġrel ief
Ġìľł ìĿ¸
as ant
ĠìĤ¬ ëĭ¨
ĠìłľìĻ¸ íķĺë©´
Ð ¼
íĮ¨ ìĬ¤
B ack
ëıĦ ìĸ´
ĠíĻķëĮĢ ëĲĲëĭ¤
ĠìĻķ ì¡°
ĠíĶĦë¡ľê·¸ëŀ¨ ìĿ´
ê²°ê³¼ ë¥¼
ë§Ī ìĬ¤íĦ°
Ġë°Ķ ëĳĳ
Ġê²½ìłľ ê°Ģ
ê°Ħ ìłĳ
ĠHung ary
Ġë¯ ¹
Ġìĥĺ íĶĮ
ìķ¼ ìĿĺ
Ġìĺ¬íķ´ ë¶ĢíĦ°
ank s
ç Ł³
Ġre vers
Ġì£¼ ìłĦ
Ġìºł íĶĦ
Ġë£¨ ìĿ´ìĬ¤
ĠThe od
ëĦĪ ëĬĶ
Ġë¬´ ëł¥
ĠR un
ĠëĴ¤ ë¡ľ
Ġìľł ìĤ°
Ġê°ľ ì¡°
ì¦Ŀ ìĿĢ
Ġìķ½ íķľ
ĠDe p
Ġs iege
Ġìĭľ ëĦĪì§Ģë¥¼
ĠU l
Ġlg ìłĦìŀĲëĬĶ
Ã¶ ppen
Ġê²ĥ ìĿ¸ì§Ģ
íĭĢ ëŁ¬
íħĮ ìĿ´ëĦĪ
ĠBus iness
íĦ° ìĻĢ
ĠìĿ¸ ìĤ¬ë¥¼
Ġder iv
Ġì¡° ì¹ĺê°Ģ
ìĥī ìľ¼ë¡ľ
ĠY our
Ġíķ´ ì»¤
ĠìĤ´ ëł¤
Ġì²´ê³Ħ ìłģìĿ¸
Ġìµľìłģ íĻĶëĲľ
P re
ĠìĿ¸ ê±´
Ġìĭł ì¶ķ
ìľł ì§Ģ
Ġì¶© ê²©ìĿĦ
Ġë¶Ģì´Ŀ ë¦¬
ê¸°ìĹħ ìĿĦ
Ġë°ľìĥĿ íķĺì§Ģ
Ġê¸°ê´Ģ íĪ¬ìŀĲ
ĠìłĦíĻĺ ìĤ¬ì±Ħ
st an
Ġëħ¸ ë¶Ģ
ì¶ľ íĮĲ
Ġë³¸ ìĿ¸ìĿ´
Ġìłľì£¼ ëıĦ
ì¤ ¬
Ġì¦Ŀê°Ģ íĸĪê³ł
Ġbre eding
ë¡¬ ë¹ĦìķĦ
Ġë³´ ì§Ģ
ĠëłĪìĿ´ ë¸Ķ
ĠìłĦíĻĺ íĸĪëĭ¤
ê³¼ìłķ ìĹĲìĦľ
Ġcontin ental
ëª¬ ëĵľ
ìłł ìĿĢ
m und
ĠH ere
Ġê¸Īìľµ ê¶ĮìĹĲ
Ġê°ľë°ľ ìĿ´
Ġê¶Į ëł¥ìĿĦ
Ġê³µìľł íķĺëĬĶ
Ġê°ģ ìŀĲ
Ġëį°ë·Ķ íĸĪëĭ¤
Ġê°Ģ ëģĶ
Ġ10 7
ìĭ¤ ê³¼
Ġinj ury
ĠìĦłì§Ħ êµŃ
ĠO ffic
ĠíĺĦ ìŀ¥ìĹĲ
ĠìĤ¬íļĮ ìĹĲ
ĠìĿ¼ìľ¼ íĤ¨
ĠTra il
Ġexhib ition
Ġì¶© ëĭ¹
Ġì¡°ê¸Ī ìĶ©
Ġíĺ¸ìĿĳ ìĿĦ
Ġl ov
ëį° ë¥´
ĠSh akespeare
S im
ĠìľłëŁ½ ìĹĲìĦľ
ĠìĿ´ê²ĥ ìĿĦ
ĠT en
łëĭ¤ ëĵľ
ìłĪ íķľ
ê·ľ ì§ģ
Sever al
ìłĦ ëĵľ
íħĮ ìĬ¤íĬ¸
ìĦ¼ íĭ°ë¸Į
Ġh ill
ĠCh amber
ex p
ĠìĤ¬ê³ł ë¡ľ
Ġìĭ¤ìłľë¡ľ ëĬĶ
Ġcho ose
et urn
ĠíĥĲ ìĤ¬
ëĤĺ ì¹´
Ġdid n
Ġíģ´ ëĿ¼ìļ°
ìłķì±ħ ìĿĦ
Ġd ream
Ġthe rapy
ë¶Ģ ìĿ¸
ĠìļĶêµ¬ ìĹĲ
c ope
íĶ Ķ
ãİ ľ
ĠB urg
ëĿ¼ ë¦¬
Ġg la
ìĿ¼ ìľ¼
ëĳĲ ë¥¼
ì§ĢìĹŃ ìĿĺ
ĠìĪĺ ë°ĺ
im ents
Ġflu id
Ġs oph
ë³´ ìĿĺ
ĠPortug al
u z
Ġê±´ê°ķ ìĿĦ
ill es
Ġìŀ¥ ë²½
Ġinv ented
ĠOper ation
d ie
and al
Ġë°ĺìĺģ ëĲľ
i ology
ĠE uro
Ġport ions
Ġë§Ĳ íķ´
Ġwhe el
ĠëıĻ ìĦľ
ĠìĽĲ ìĨĮ
Ġident ical
ar o
ëª¨ ìĿĺ
Ġcomp ens
Ġoper ational
Ġë³¸ ìĤ¬ìĹĲìĦľ
ĠA S
ĠìĹĲ ë¥´
Ġ( '
Ġì¡° ë§Įê°Ħ
ia h
ĠëĨĴ ìĿĦ
ĠìķĦëĭĪ ëĿ¼ëĬĶ
ê³³ ìĿĺ
Ġë°Ģ ìĸ´
Ġì°¨ì§Ģ íķľ
ëĮĢ ìŀ¥
Ġd ub
Ġì§Ģ ìĿĢ
ĠìĦľ íķ´
ĠëĤ¨ìķĦ ìŀĪ
ĠíĻķìĭ¤ íŀĪ
re ction
Ġbro wn
ëĦ¤íĬ¸ ìĽį
Ġeven ing
ĠAg ency
Ġpal ace
e h
Ġë¨¸ ë¦¬ë¥¼
Ġë§ŀ ì§Ģ
Ġshoot ing
Ġcle arly
Ġì¸¡ ìĿĺ
Ġíİ ´
Ġê³¼ íĥľ
ail s
U N
ĠëĮĢ íĸī
Ġê°ľ ê´Ģ
Ġcomp ounds
ĠAd am
Ġ189 7
Ġcr imes
in ates
ìĥģ ê±°ëŀĺ
Ġì§Ģìłģ ëıĦ
Ġwood en
ìĤ°ìĹħ ìĿĢ
our ce
ĠìĦ±ê³¼ ê°Ģ
Ġdiplom atic
Ġë¶Ī ë§ĮìĿĦ
íĹ¬ ìĬ¤ì¼Ģìĸ´
Ġab und
Ġê¹¨ ëģĹ
ĠìĦ¤ëªħ íķĺëĬĶ
Ġco at
ĠìĹĦê²© íķľ
Ġë¯¸ ìķ¼
Ġun like
ĠíĥĢ ìĽĮ
Ġrecogn ised
æľ ĥ
ĠBe ck
ĠìŀĲëıĻì°¨ ë³´íĹĺ
Ġor b
íĦ°íħĮìĿ¸ ë¨¼
c are
íļĮ ìĤ¬ëĬĶ
ĠíĿĲë¦Ħ ìĿ´
Ġì£¼ ëĭĪìĸ´
ĠVi enna
ìĿ´ íĥĪ
Ġìłģìļ© ëĲľ
éĻ ½
ìĺ ·
Ġì¹´ ìŀĲ
ë¸Į ëĬĶ
Ġê°Ĳëıħ ìľ¼ë¡ľ
Ġì¶ĺ ì²ľ
ĠëĤ´ ëħĦë¶ĢíĦ°
Ġun incorporated
ĠíĽĦë³´ ê°Ģ
ê°Ģ íĥĢ
ê³¨ íĶĦ
Ġfarm ing
Ġë©Ķë¥´ ìĬ¤
ëĤ´ ìĻ¸
ĠëĮĢ ìŀħ
ĠìķĦëŀĺ ìĹĲ
Ġdo or
Ġhappen ed
f r
Ġë³´ ì¶©
Ġadv is
ĠíķłìĿ¸ ëĲľ
è ©
ëĮĢ ë¶Ģë¶Ħ
ĠH amp
og a
ìļ° ìĿĺ
Ġëį° ëł¤
ĠíĻķëĮĢ íķĺëĬĶ
ĠìłĦ ìķķ
ache lor
ĠíĶĦ ëŀĢ
edd ing
ì¿ł íı°
Ġëļľëł· íķľ
Ġ18 71
Ġvari ations
ìłĲ ìĿ¸
ĠíĻĺ ë§¤
íķ´ ì§Ģ
ĠëĬ Ķ
hes s
Ġpri est
Ġì§Ģ ë¬¸
ĠD ak
Ġsu dden
ê·¸ ë¦¬
Ġb right
ìĬ¬ ëĿ¼ë¹ĦìķĦ
ĠCar ib
ĠíķĺìĿ´ ë¸Įë¦¬ëĵľ
ĠC le
Ġrefer ring
ĠíİĢëĵľ ìĿĺ
Ġì¶ľìłĦ íĸĪëĭ¤
Ð¾ Ð²
å ĥ
Ġë» Ĺ
Ġre cept
Ġê´ĳ íĻĶë¬¸
ĠWar ner
íĶĦ ëŀĢìĭľìĬ¤ì½Ķ
ĠëĬĺ ìĹĪê³ł
ê³ł ëł¤
Ġê±° ë¦¬ìĹĲ
Ġadv ice
Ġì²´ê²° íķľ
he nt
íĮĮíĬ¸ ëĦĪ
Ġì¤ĳ ìĭľ
Ġíĸ¥ ìĥģìĿĦ
m us
Ġì£¼ ì´Ŀ
Ġê°ľë°ľ íķĺëĬĶ
Ġmar ine
Ġê¸° ì¦Ŀ
ìŀĲ ë£Įë¥¼
ĠM as
Ġpla in
ìĥĿ íĥľ
íİĺ ìĿ´ì§Ģ
Ġdesc ent
ĠConfeder ate
ä¸ »
Ġcomplet ion
it ime
ĠI D
Ġë³Ģ ìĪĺ
Ġ11 5
Ġìľ ¨
ë°° ëĭ¬
Ġê°Ħ ìĨĮ
Ġall ies
Ġê¸°ë¡Ŀ íķĺëĬĶ
Ġì± Įë¦°
ith uan
Ġëħ¸ëıĻ ìŀĲ
ĠìķĦë²Ħ ì§ĢëĬĶ
1 14
ìłķ ê¸°
ĠP rem
Ġ18 48
Ġsound s
ĠíĨ ¡
Ġìľł ìłģ
Ġë¶ĪëŁ¬ ìĿ¼ìľ¼
ĠAnth ony
Ġê·¸ëħĢ ê°Ģ
n ames
ë© ¤ë²Ħ
ëĵ¤ ìĹĪëĭ¤
Ġë¬¼ íĴĪ
Ġstay ed
i Äĩ
Ġíķľ ìŀĲ
Ġê´Ģëł¨ íķĺìĹ¬
Ġmain stream
ĠêµĲ ìĽĲ
ĠìĤ¬ìļ© íķĺê¸°
Ġëĵ± ìŀ¬
ĠG ri
Ġë°© ìĸ¸
Ġìĸ¸ ëįķ
Ġparliament ary
ìķł ëĭĪ
ĠìĥģìĬ¹ ìĦ¸ëĭ¤
ëħĦ ë¬¼
íĺ Ķ
ê³µ ìĤ°
ë¶Ħ ìľ¼ë¡ľ
ĠMan hattan
f ire
â ĳ
ĠìķĦ ëģ¼
Ġêµ° ì£¼
ĠìľĦìĽĲ ìŀ¥
ê²Ģ ì°°
ĠìĬ¤íĬ¸ ëłĪìĬ¤
ĠìķĦ ëĭĲ
Ġwas te
ĠMor ris
Ġret reat
Ġfall s
ĠìĭłìĨį íķľ
oc ial
Ġëª© ìĪ¨
De ath
Ġc attle
Ġë³´ ìķĦ
ĠíĽĦ ìĿ¸
Ġconc erts
E ng
Ġper mitted
ê·ľëª¨ ëĬĶ
Ã ´
ĠìĦłê±° ë¥¼
ëį± ìĬ¤
ìĸĳ ìĿ´
Ġconsist ent
ĠCat hedral
A pp
l og
est one
Ġêµ° ìĿ¸
Ġë¶Ģë¬¸ ìĹĲ
Ġìĭľë®¬ ëłĪìĿ´ìħĺ
ìĹĲ ìĸ´
ĠG a
or g
ĠSt ew
Ġíķ´ìĻ¸ ìĹĲìĦľ
ë°© ë²ķ
ĠìŀĳíĴĪ ìĿĺ
w w
ĠìķĦ ëłĪëĤĺ
íĤ¤ ê°Ģ
Ġì§ĢìĽĲ ìĹĲ
Ġste ps
m g
lo be
Ġê±¸ ìĸ´
Ġf aster
ì¢ħ ê³¼
íĺĳ ìķ½
ìĬ¤íĨł ë¦¬
ĠT ro
Ġp ap
íķ´ ìĹĲ
Ġê²Į ìĿ´íĬ¸
Ġsp in
ĠìĿ´ ê¸°
íĸ¥ ìĹĲ
Ġìľ¡ ë°ķ
ĠìĨĮëł¨ ìĿĺ
id o
ĠêµŃ íļĮìĹĲìĦľ
Ġgod dess
êµĲ ìĪĺ
Ġseg ment
r in
Ġs ight
Ġê±° ì¹ĺ
Ġsent ence
íĤ ¥
ĠíķĦ ë¦Ħ
Ġtrib ute
ìľĦìĽĲíļĮ ìĹĲìĦľ
Ġbasket ball
Ġw ounded
Ġìĸ» ê¸°
w ed
ard o
Ġsub t
Ġanim ated
ĠìĹ°ê³Ħ íķ´
ë¯¸ ìĬ¤
ĠëŀŃ íĤ¹
ë§Ī ìŀĲ
ì±ħìŀĦ ìŀĲ
ĠíĻľ ìķ½ìĿĦ
Ġìĭľìŀ¥ ìłĲìľł
íĶĦë¡ľìłĿ íĬ¸
ëª© ìĿ´
ĠêµŃ ê³ł
ìĤ¬ìĹħ ë¶Ģ
Ġë¶Ģëĵľ ëŁ½
ĠTurk ish
Ġìĭ¤íĮ¨ íĸĪëĭ¤
Ġì§ĳ íķĦ
Ġê´Ģê³Ħ ìĹĲ
Ġì¶ľìĹ° íķĺìĺĢëĭ¤
íķ´ ëĭ¹
ĠíĶ¼ ë¡ľ
ĠìĿ´ ìĭĿ
Ġrec ru
Ġsla very
ĠR ab
Ġëª» íķĺê²Į
Ġëª© ìłģìĿĦ
æľ ī
ĠíĶĦë¡ľê·¸ëŀ¨ ìĿĺ
Ġst ead
Ġëĭ´ ë°°
ĠUS A
ĠB ry
ĠìºĦ ë³´ëĶĶìķĦ
ëĭĺ ìĿ´
Ġc aught
Ġíı¬ ë§·
éĥ ½
m ou
Ġturn ing
ord ers
Ġê¸°ìĪł ëł¥ìĿĦ
1 10
ê³³ ìĿ´
ĠíĽĦë³´ ëĬĶ
Ġê³µìľł íķĺê³ł
Ġce ased
ä½ ¿
ĠCro at
ĠìĥĿ ê¸°ëĬĶ
Ġíķ´ìĻ¸ ì£¼ìĭĿ
Ġë§¨ ì²´ìĬ¤íĦ°
ĠB an
íķ´ ìĿĺ
Ġcol ors
ĠëģĮ ìĹĪëĭ¤
êµŃ ìłģ
ĠìĹ° ìĪĺ
ĠìĿ´ìļ© ìĿ´
I nt
b order
íļĮ ìĤ¬ë¥¼
Ġë¹ł ë¥´ê³ł
Ġê°ķ ëıĦ
ĠH udson
ê¸Ī ìĹĲ
ĠìĹ°ê²° ëĲĺìĸ´
ĠJoh ann
Ġsu icide
ĠìĺĪìĥģ íķľëĭ¤
Ġë³Ħ ëĭ¤ë¥¸
Ġout er
Ġcorpor ate
ìĬµ ìĿĦ
ĠStand ard
ĠR em
Ġì¶Ķ ë°©
ĠíķĻìĥĿ ëĵ¤ìĿĢ
Ġapparent ly
ic ial
Ġê³µ íķĻ
ê³µ ìľł
Ġê³µ ìĽĲ
Ġë§Ĳ íķľ
Ġexclus ively
íıŃ ìĿĢ
O M
ĠK ë¦¬ê·¸
Ġfew er
Ġget ting
êµĲ ê³¼
íı¬ êµ¬
ĠíĻĶ ìĽ¨
ĠìĺģìĹħ ìłĲ
ĠM aur
che st
ìŀĲ ëĭ¤
ĠìĿ´ìĿµ ìĿ´
ĠìĽĲ ìĿĦ
Ġt one
ĠìĺĪ ìĪĺ
ë§Ŀ ìĿ´
Ġëĭ¬ ìķĦ
Ġìŀ¥ ìĻ¸
Ġëĭ¤ìĿĮ ìĿĢ
ĠëıĮìķĦ ìĺ¨
Ġìĭľ ëĵľ
ĠãĢ Ĳ
ĠkbêµŃë¯¼ ìĿĢíĸī
ĠKent ucky
Ġon going
ĠTur key
ĠF ive
b ridge
ig s
Ġê°ķíĻĶ ìĹĲ
ìĸ´ë¦° ìĿ´
h ar
ĠF ederation
Ġìķŀ ìĦł
Ġê°Ģ ì§ľ
ĠH erm
íĶ¼ ë¥¼
íĥĿ íĬ¸
ĠíĿĳ ìĿ¸
ê°Ģê²© ìĿ´
ĠëĮĢíĳľ ë¥¼
Ġì¹ĺ ëªħ
ĠDub lin
g raph
íķĺ ëĲĺ
Ġíķĺ ìĺĢê³ł
ĠíĽĮë¥Ń íķľ
ĠReg ion
Ġb om
ol ia
Ġcl ock
ĠìĬ¤íİĺ ìĿ¸ìĿĺ
ìĺ¤ íĶĪ
ìĺĪ ìĤ°
Ġë°ľíĳľ ëĲĺìĹĪëĭ¤
Ġë¯¸êµŃ ìĿ¸
ĠìĨį ìĿĺ
Ġë°± ìŀĳ
Ġë¯¿ ê³ł
Ġì¦Ŀ ìĹ¬
Ġì¦Ŀê°Ģ íķ´
Ġì¹´ì¹´ìĺ¤ ë±ħíģ¬
Ġdisplay ed
en cing
ìłģ ìĿ´ì§Ģ
ĠëĤĺëī ĺ
Ġë´ Ĳìķ¼
ond s
D o
Ġinst ruction
ê³³ ìĹĲ
Ġì¹Ń ì°¬
ĠD er
Ġê°ľ ìĭłêµĲ
Ġê³Ħíļį ìĹĲ
b m
ĠëĮĢ ëĭ¨
Ġìĭł ìĦ±
Ġë¦¬ ëĵľ
Ġsub mar
ë¨¸ ë¦¬
Ġoff ensive
ê²Ģ íĨł
Ġìłķê¸° ìłģìľ¼ë¡ľ
Ġp seud
ĠìĿ´ ë¡Ģ
ì¸ Ħ
ìĻ¸ íĻĺ
ĠìĤ¼ìĦ±ë¬¼ ìĤ°
é Į
ag g
ç ©
ĠìĦľ ë¸Į
ê¼ ´
Ġëĭ¨ ìĨį
Ð¸ Ñ
ĠUp on
ìķĺ ìĿĦ
Ġëĸł ëĤľ
ĠS on
Ġì¢ħíķ© ìłģìľ¼ë¡ľ
Ġsevent h
Ġìĥģíķľ ê°Ģ
Ġê¶¤ ëıĦ
ut ing
Ġ18 88
om ot
Ġì´Ī ìĥģ
Ġere cted
ing ly
Ġìŀ¬ íķĻ
ĠìĿ´ìĻ¸ ìĹĲ
ĠRe al
Ġìłķë¶Ģ ë¥¼
Ġëĭ¬ëŁ¬ ìĿĺ
ĠíĥĦ ëıĦ
Ġdistinct ive
ot yp
ĠO range
Ġì¤ĳ ì§Ģ
Ġexact ly
Ġëħ¸íĬ¸ ë¶ģ
ìĤ¬ ëĭ¤
Ġê²½ìĭł íĸĪëĭ¤
s he
ê°Ģ ìłķ
ĠíĪ¬ìŀĲ íķľ
ĠíĪ¬ ìĹ¬
ë§ĮìĽĲ ìĿ´
Ġspe nding
íĮ¨ ëĵľ
Ġsim pl
ĠMar ine
ä¹ ĭ
Mod ern
ìĿĮ ìĿĢ
ëŁī ìĹĲ
ìŀ¥ìķł ìĿ¸
ĠP op
Ġvar ies
ĠìĪĺ íĺ¸
ë©Ķ ëĶĶ
ĠëĿ¼ ìļ´ëĵľ
ìĻķ ìĿ´
ĠStat istical
Ġë³´ìĹ¬ ì£¼ê³ł
Ġ"" "
ë¥´ ëª¬
ĠëĺĲ ëĭ¤ë¥¸
are st
ĠìĪĺì¶ľ ìĿ´
ĠíĥĲ ìĥī
Ġê³ł ìĨĮ
Ġë¬´ ì¡°ê±´
ãģ Ħ
â ĺ
ìĸ Ħ
Ġalgor ithm
Ã£ o
Ġê³ł ìĪĺ
Ġìĭ¤ ë¦¬ì½ĺ
Ġìłģ ëĮĢ
ĠëłĪ ìĺ¤
ĠìĿ¼ë¶Ģ ë¡ľ
ĠëıĦìŀħ ëĲľ
Ġess entially
é ĩĮ
Ġì¶ľ ê³ł
Ġì¶ľ íĺĦ
Ġë³ĢíĻĶ ëĬĶ
ì¤ĳ ê³Ħ
ĠFurther more
ĠìĦ¸ìĽĶ íĺ¸
ĠB ed
Ġê°Ĳ ìĪĺ
Ġen compass
ĠD J
Ġappear ing
ìķĦ ë¥¼
Ġíķĺ ëįĺ
B rit
Ġ18 85
å¾ ·
Ġëĭ¤ íģĲ
Ġíİ¼ ì³¤ëĭ¤
Ġgrad es
ĠìĪĺìĪł ìĿĦ
ëĭ¤ ìĿ´ìĬ¤
19 86
Ġdis ag
Ġíĳ¸ ëĵľ
ĠêµŃê°Ģ ìĹĲ
ìĦ ¹
ĠëĮĢ ìĪĺ
Ġê±¸ ëł¤
íĪ ´
ĠìłĢ ìĪł
Ġgu arant
Ġanal og
ĠìľĦ ëĮĢíķľ
Ġêµ¬ ë¦¬
ĠìĿ¸íħĮ ë¦¬ìĸ´
m ath
ì¡± ìĿĢ
Ġcamp s
ĠëĮĢ ìĹŃ
Ġì¹´ìļ´ íĭ°
Ġìŀħ ì²´
ë¸Ķ ë£¨
ìĤ¬ ëıĦ
ĠY ug
ĠìĬ¤íħĮ ìĿ´ì§Ģ
Ġsupport s
.âĢĿ .
so le
Ġê·¸ëħĢ ë¥¼
A T
Ġìłľ ìķĪìĿĦ
ĠêµŃë°© ë¶ĢëĬĶ
ìļ° ê°Ģ
ì¦ Ļ
Ġìŀ¬ ê±´
Ġì§ĢëĤľíķ´ ë³´ëĭ¤
Ġtrans p
Ġcompet e
Ġfind s
ĠìĿĮìĭĿ ë£Į
Ġìĺ¬ëĿ¼ ê°Ģ
Ġ Ä
Ġìµľ ìķħìĿĺ
ĠìĬ¤ ìºĶ
ëį° ëĭ¤
íķĻê³¼ ë¥¼
Ġìŀħëĭ¨ íĸĪëĭ¤
ê° ±
ì§Ģ ìĽĲìĿĦ
Ġëħ¸ëł¥ íķĺê³ł
Ġdepart ure
Ġ11 2
Ġìĸ¸ê¸ī íķľ
ym n
ĠìĿ¼ê°ģ ìĹĲìĦľëĬĶ
P ost
Ġìļ° ìľł
M on
ĠìĽĲ ìĿ¸ìľ¼ë¡ľ
ĠìķĦ ë²ł
ĠìĤ¬ê³ł ë¥¼
Ġo tt
Ġë²ķ ìĽĲ
Ġë¶Īê°ĢëĬ¥ íķľ
u ity
Ġì§ĢìĹŃ ê³¼
Ġent ering
ĠĠĠĠĠĠĠĠ ĠĠĠĠĠĠĠĠ
ĠSil ver
Ġìļ´ ìłĦìŀĲ
ĠëģĿ ìľ¼ë¡ľ
j amin
ì ĳ
Ġìĺ¬ ë¦´
sequ ently
gr ade
b at
ë¯¸ ìĻĢ
ĠëıĪ ìĿ´
j an
ĠìĻľ ê³¡
Ġwealth y
ĠEnter tainment
ë³´ ìĹĲ
ac on
Ġprote ins
Ġëªħì¹Ń ìĿĢ
ĠAfghan istan
Europe an
ë°ľ ìĿĺ
ens ively
ìŀĲìĤ° ê´Ģë¦¬
Ġphot ograph
Ġë¹Ħ ê¸ĪìĨį
Ġunder t
ĠíĨ ¤
ĠAr n
' ve
ĠT rib
Ġren ov
Ġë®Į íĹ¨
ê°Ģ ìĭľ
ĠB arn
Ġìĭ¸ ìĽĢ
ĠR idge
ĠëĤľ ë¯¼
-- --
Ġcommunic ations
ĠìĤ¬íĥľ ë¡ľ
Ġìłľ ê³łë¥¼
Ġíķľ ê°ķ
Ġì¸ ł
ë©Ķ ê°Ģ
oc ity
ìĬ¹ ìĿ¸
ë§Į ëªħìĿĺ
ĠìŀĲ êµŃ
ĠíĨł ë§Ī
ĠíķĻìĥĿ ìĿ´
Ġabsol ute
ow ell
ĠO regon
Ġë¦¬ ëĵ¬
Ġdisc rim
ĠëªħíĻķ íķľ
Ġdang erous
19 85
Ġëĸ ¨
Ġë¯¸ íĿ¡
ĠíļĮ ìŀ¥ìĿĦ
ëĳĲ ë¡ľ
Ġê°ķíĻĶ íķĺê¸°
ĠìĿ´ìĻ¸ ìĿĺ
ush ing
Ġrec alled
Ġacc ord
ì¹´ëĵľ ìĿĺ
ëįĶ ëĭĪ
D C
ĠB art
ĠìĶ¨ íĭ°
ĠS K
ê¸°ê´Ģ ìĿ´
Ġcour ses
/ /
F irst
ìĸ´ ì¡Įëĭ¤
ë§Ī ìĹĲ
Ġë¶Ī ëł¸ëĭ¤
ì²Ń ìĤ¬ìĹĲìĦľ
a un
Ġjournal ist
éĸ Ģ
Ġelev ation
ìĹĲìĦľ ëĭ¤
ì½Ķ ìĸ´
Ġë°ľíĳľ ë¥¼
Ġê²°ìłķ íķľ
t wo
Ġc la
ĠìłĦ ìŀĦ
ë©´ ìĿĢ
ĠìĹ´ ë¦´
Ġê²ĮìŀĦ ìľ¼ë¡ľ
Ġ ion
ĠS n
ĠìłĦ ìĹ¼
tal ion
ĠìĿ´ë¥´ ëŁ¬
ĠNA TO
ĠìĹŃ ìľ¼ë¡ľ
Ġrank s
ĠStud ios
l ined
ĠW rit
ĠìĿ´íķĺ ë¡ľ
ĠëĤĺëĿ¼ ìĿĺ
Ġê°ĳ ìŀĳ
rehens ive
Ġsuff ering
ĠAdminist ration
ëıĻ ë¶Ģ
Ġë³´ ë³ĳ
Ġë¶Ģ íĸī
ĠìĽĲ ìĿ¸ìĿĦ
Ġêµ¬ìĦ± ëı¼
ì¹ «
ĠíĨłëĦĪ ë¨¼íĬ¸
Ġfl our
Ġë³´ ì¢Į
ang er
ê³³ ìĿĦ
ĠìĹħì²´ ìĿ¸
Ġmount ed
Ġë°Ľìķĺëĭ¤ ê³ł
ĠìĽĢì§ģìŀĦ ìĿ´
ena issance
Ġburn ed
ce o
Ġì´Īê¸° ìĹĲëĬĶ
åĲ Ľ
Ġinterpre ted
Ġmer ger
Ġm it
ëĤ´ ëħĦ
ë¸Ķ ë¦Ń
com p
Ġrecover ed
Ġt ell
as hed
Ġëĭ¤ìļ° ì¡´ìĬ¤
ê°Ĳ ìĹĲ
Ġdef ic
ĠìŀĳìĹħ ìĹĲ
ĠServ ices
ĠS in
Ġcap tain
ĠíĻķìĤ° ìĿĦ
Ġë¬» ëĬĶ
å ²
Ġ18 61
Ġweek ly
Ġê¸ Ģë¡ľ
ro e
ĠìĦľ ìĪł
Ġê°ľìĦł ëĲľ
Ġinit iated
Ġf ib
ĠG ran
F F
ĠìĹĶ íĦ°
Ġìĭł ê¸°ìĪł
Ġ189 3
ĠìĹ°ë°©ì¤Ģë¹Ħ ìłľëıĦ
Ġany one
ĠìĿ¼ ìĹĲ
ĠSy m
d imensional
ìĺ¤ ë²Ħ
íĥĿ ìĭľ
ft en
Ġdevelop ments
ĠìłĦíĺķ ìłģìĿ¸
Ġìľł ê¶Į
ĠìĿ¼ ìĿ¼
ĠL G
Ġpro x
Ġf ur
In ter
Ġê°Īëĵ± ìĿĦ
ĠDire ctor
ĠìĿ´ ìĿĺ
Ġprodu cers
Ġf urn
ë° ĭ
Ġtravel ed
ĠíĻķìĭ¤ íķľ
Ġì¤ĳêµŃ ìĿ¸
Ġì°¾ ìĿĢ
ĠëĮĢ ìĿĺ
ro ke
ĠíĮĲ íĥĢì§Ģ
ĠìĹ°êµ¬ ê°Ģ
ä¸ į
ë§Į ëªħìĿ´
ê°Ĳ ìĹ¼
Ġconv in
Ġë¶Ģ íĮ¨
ous es
ĠíĮĲëĭ¨ ëĲľëĭ¤
Ġì§ģìĽĲ ëĵ¤ìĿ´
lab ama
ĠíĶĦë¦¬ë¯¸ìĸ´ ë¦¬ê·¸
íĿ Ķ
Ġì£¼ëª© ë°Ľê³ł
isc over
ê¸° ìĺ¨ìĿĢ
ĠìŀĲ ìłľ
Ġìĸ´ ì©
Ġìłģ ìŀĲë¥¼
Ġë³´ê³ł ìĦľëĬĶ
r ity
ĠA ud
ĠìĹŃ ìĿĢ
l ad
ĠìĬ¤íĶĦ ë§ģ
nd um
ĠìĹĲ ë¦Ń
ĠêµŃê°Ģ ë¥¼
ĠíĥĦ íĥĦ
Ġíİ¸ìĿĺ ìĦ±ìĿĦ
å Ŀ
Ġê°ĢëĬ¥ íķĺê³ł
ĠíĨł íĬ¸ëĦĺ
Ġmon aster
ìļ© ìĿĦ
ĠëĿ¼ìĿ´ìĦł ìĬ¤
ĠìĤ¬ ìļ°ìĬ¤
Ġìłķ íķľ
12 5
ĠMar x
ĠR a
Ġë¦¬ ìĸ¼
ĠíĿ¬ ê·Ģ
ì¶ľ ì²ĺ
ëĶĶ ìĿĺ
Ġì¢ħëª© ìĿĺ
ìĭľ ê°ģ
Ġë³´ ìĬ¤íĦ´
Ġê´Ģ ë¦¬ê°Ģ
ĠëĲľëĭ¤ ê³ł
ĠëĮĢìĿĳ ìĿĦ
ĠíĻķì§Ħ ìŀĲê°Ģ
z ed
ĠM iami
Ġë¬´ ìĤ¬
Ġêµ¬ ë¡ľ
ĠìĦ¸ ê·ł
ë§¤ ê°ģ
è ĭ
Ġë§ ĳ
ĠíĻķ ëĮĢë¡ľ
Ġdepend s
A A
ëĮĢ íĨµëł¹
Ġperson ality
ĠëıĮìķĦ ìĻĶëĭ¤
ìĪĺ ìĥģ
Ġë¹Ħ ìĭ¼
per t
Ġno ise
Ġdr iver
ë°ĺ ìĿĦ
ì¿ł ë¥´
ìĪĺìĿµ ë¥ł
ĠìĿĢíĸī ê¶Į
ì»´ íį¼ëĭĪ
Ġarg ue
ìĥī ìĿ´
19 84
Ġbeh alf
ĠìĿ¸ ë¥ĺ
Ġë²Ħ ê±°
Ġprev al
ĠìĹ ī
ë©Ķ ìĿ´ëĵľ
Ġë°ĸ ìľ¼ë¡ľ
Ġëĭ ī
Ġìķŀ ëĭ¹
Ġconvers ion
íļĮ ìĽĲ
ĠìĦ¸ íĥģ
Ġìľłë£Į ë°©ìĨ¡
E M
Ġê²° ë¡łìĿĦ
ë©Ķ ìĭľ
Ġíĺ¸ ìĪĺ
Ġíı ¼
ë¡ł ìłģ
ëŁī ìľ¼ë¡ľ
ĠíĶĮëŀ«íı¼ ìľ¼ë¡ľ
Ġíı¬ìĿ¸íĬ¸ ë¥¼
Ġëĭ ¿
íĻĶ ëĲĺìĸ´
Ġë°ĺ íķ´
ĠìĤ¼ìĦ±ìłĦìŀĲ ìĻĢ
è ī
ìĦ¤ ìĿ´
Ġë¶Ħìķ¼ ëĬĶ
Ġcond emn
ĠCh ile
ĠìĦľìļ¸ ì¤ĳìķĻ
ĠëıĻ ìĺģ
íĨµ ìŀ¥
ĠëıĦìĭľ ë¥¼
ĠìŀĲê¸Ī ì¡°ëĭ¬
z ona
Ã ¥
ĠëĤ´ ë¦´
Ġìĥģëĭ´ ìĿĦ
ĠAl i
ĠìĿ´ë²Ī ìĹĲëĬĶ
íĮ© íĬ¸
ĠP as
Ġë©Ķìĭľ ì§Ģ
ĠëĮĢ ëĭµ
ĠìĹ° ë£¨
ate ur
Ġê°ĲìĹ¼ ë³ĳ
ìĹĲ ë¥¸
ìĬ¤ íĮĮ
Ġì¹ł ëłĪ
ìĿĮ ìĿĺ
ĠíĽ ĹëĤł
Ï Ħ
Ġì½Ķ ì½Ķ
Ġcompar ison
Ù Ĭ
ĠT erm
íĪ¬ìŀĲ ë¥¼
ĠíĪ¬ìŀĲ íķ´
Ġìĭľê°Ħ ê³¼
p res
Ġë§º ìĿĢ
Ġdise ases
ĠW inter
íħ Ŀ
Ġte en
ì½Ķë¦¬ìķĦ ëĬĶ
ĠìĬ¤íĨł ìĸ´
Ġsymb ols
Ġdef ine
Ġinsp iration
ìĬ¬ ë§ģ
ĠDet roit
Ġremain der
m c
ĠS BS
Ġ24 0
Ġtour ist
ish ops
ĠíķĦ ëĿ¼
Ġunder ground
Ġë°ĶìĿ´ ìĺ¬
Ġh ope
Ġíķĺ ìļ°ìĬ¤
íı¬ ë¡ľ
ĠìľĦíķ´ìĦľ ëĭ¤
T ime
Ġb n
ë¶Ħê¸° ë¶ĢíĦ°
Ġlog o
Ġê³µìĭĿ ìłģìĿ¸
Ġì¹¼ ë¦¬
ĠìĪĺ ëĭ¨ìľ¼ë¡ľ
ĠìŀĲ ëĿ¼
ìĨį íŀĪ
Ġíĸ Ħ
ë²Ħ ëĵľ
ĠìĹĲ ëĶĶìħĺ
ì§ĳ íĸī
Ġë°©ìĺģ ëĲľ
b ound
ĠN FL
ĠìķĮ ì½Ķìĺ¬
Ġê°Ģìŀħ ìŀĲê°Ģ
ĠëĤ´ ë¦¬
æ ¢
ĠF amily
Su per
é ¡
Ġo s
Ġfun eral
o il
êµĲ ëĬĶ
Ġhe nce
ë§Į ì¡±
ĠíĻĺ ìĬ¹
ĠëįĶ íķľ
arch y
Ġêµ¬ì¶ķ íķ´
Ġv ic
Ġìľł ê´Ģ
Ġë¸Ķ ë£¸
Ġto ol
íıī ê°Ģë¥¼
Ġisol ated
Ġìŀ¥ ëĤľ
ĠFl ore
ĠëłĪ ì§Ģ
Ġë¦¬ì²ĺ ëĵľ
Ġëĭ¨ ê¸°ê°Ħ
Ġê¸°ëĮĢ ê°Ģ
ĠC rit
Ġloc ally
Ġdiscuss ion
00 00
iz er
ĠLe ban
ĠAl bum
ê³¼ ìłľ
Ġì½ĺ ìĬ¤íĥĦ
ëªħ ëł¹
un s
um er
Ġë§Ī ê·¸
íĶĦê°Ģ ëĭĪìĬ¤íĥĦ
d iv
Ġpart ial
ĠìĿ¸ ìĦ¼íĭ°ë¸Į
ìĻĶ ê³ł
o ons
Ġt ube
ĠëĺĲ ëĭ¤ìĭľ
ĠíĻķë³´ íĸĪëĭ¤
ê¸° ìķĦ
ĠëĮĢ ìĹ¬
ìĸ¸ ìĬ¤
ĠHar rison
Ġì¢ģ ìĿĢ
ĠìĦł íĺķ
ĠBuddh ism
Ġìļ° ìĦ¸
Ġthink ing
ĠCO VID
level and
Ġìħĭ ì§¸
> Â·
ĠìĦ¸ ìħĺ
ì²Ń ê³¼
Ġê·¸ ëĿ¼
Ġë§Ĳ ìķĺëĭ¤
ĠìĽĶ ê°Ħ
on ing
il iated
ĠInd ians
ĠíĻĶë©´ ìĿĦ
Ġarm ies
Ġcl othing
Ġtrans mit
íķĺ ëĭĪ
ĠíıŃ ëĿ½
ĠTerrit ory
íĻĶ ëĲĺìĹĪëĭ¤
ìĪĺ ìĨĮ
ĠìĿ¸ íĦ´
Ġpros per
ĠìĬ¤íİĻ íĬ¸ëŁ¼
19 45
o ard
u um
Ġíģ¬ ê¸°ê°Ģ
ĠMal ays
ĠíĬ¸ ëŁŃ
ĠëŁ Ń
ĠìĿ¸ìłķ ë°ĽìķĦ
Ġs ke
Ġrebell ion
ĠìĹ° ìĿ¼
Ġbo ats
Ġìķ¼ ìĥĿ
Ġë¯¸ëŀĺ ìĿĺ
Ġê°ľìĿ¸ íĪ¬ìŀĲ
Ġlaw su
Ġh ier
ĠìĤ¬ìĹħ ìľ¼ë¡ľ
ĠìĿ´ìĥģ ìĿ´
ĠìķĶ ì»·
ĠìĨį íķ´
ĠìķĦìĿ´ ëĵ¤ìĿ´
Ġì£¼ìĭĿ ìĭľìŀ¥
ë¡Ń ê³ł
p ent
ham mad
ĠBapt ist
Ġê°Ģ ëĭ´
Ġ11 1
Ġsust ain
Ġê¸°ìŀĲíļĮ ê²¬
ĠB rian
Ġíķ´ ì£¼
Ġart ificial
á Ģ
Ġremov al
Ġwind ow
ëĶ §
Ã© s
ĠPr im
ĠìķĦíĤ¤ íħį
ĠëĤĺìĦľ ê³ł
Ġdescend ants
Ġêµ¬ì¡° ê°Ģ
Ġparticip ation
à ¥
Ġch lor
Ġê°ľë°ľ ê³¼
ĠìĿ´ë©Ķ ìĿ¼
Ġëªħ ë°±
Ġvol umes
Ġblock s
Ġì¡°ì§ģ ìĿĺ
Ġë²¡ íĦ°
as ks
ĠìķĪ ì°©
Ġë°° ëł¤
ĠìĿ´íķ´ ê´Ģê³Ħ
Ġst em
f ront
Ġê°ģ ë³¸
Ġë§Īëł¨ íķĺê³ł
Ġwar fare
ĠëĵľëĿ¼ìĿ´ ë²Ħ
ĠìĿĺ ìŀ¥ìĿĢ
Ġph on
Ġê°Ģê¹Į ìĽĮ
Ġë¬¼ ëŁīìĿ´
Ġcop per
% ).
ë¹ ¨
ĠìĽĲì¹Ļ ìĿĦ
Ġìŀ¥ ë³ĳ
Ġìŀ¬ë¬´ êµ¬ì¡°
che ll
ar on
ĠëĳĲ ë²Īì§¸
ìĭ¬ ìĿĢ
ĠìŀĦ ì°¨
Ġorgan isation
Ġëª¸ ìĹĲ
Ġab st
f n
ĠCons ervative
R eg
Ġë³¸ ìĤ¬ë¥¼
Ġsy mmet
ìĤ¬ìĹħ ìĿĢ
ĠìĦ¼ ìĦľ
Ġë¶ĢìĤ¬ ìŀ¥
Ġdecre ase
ëĤĺ ê²Į
ĠëĿ¼ ìŀĦ
ìĭ¤ ìŀ¥ìĿĢ
ĠëĤ¨ íķ´
ĠíĬ¹ì§ķ ìĿĢ
Ġë§¤ìĪĺ ìĦ¸ê°Ģ
hel m
Ġchap ter
ĠR ap
ĠíļĮ ìŀ¥ê³¼
ĠíĶĮ ëŁ¬
Ġdepend ent
Ġë°Ķê¿ Ģ
Ġë¸Įë¦¬ íķĳ
Ġê³µ ìłľ
Mus ic
ĠJ ournal
Ġsp ir
ì£¼ìĿĺ ìĻĢ
Ġìŀ¡ ìĿĢ
Ġë§Ĳ íķł
ĠëĮĢíļĮ ëĬĶ
Ġequip ped
Ġ18 84
ĠëĤĺìĺ¤ ì§Ģ
ÃŃ a
ìĤ¬ ê´Ģ
Ġëĵ¤ìĸ´ ê°Ī
ĠS ac
ì³¤ ê³ł
ëĤ´ ê°Ģ
Ġconc rete
Ġì´ī ë§¤
ĠëĤ´ ë¥Ļ
ĠP le
Ġë³Ģ ìĭł
Ġmon itor
ëĭ¨ê³Ħ ë¡ľ
Ġì§Ħ ë¡ľ
ĠTh ose
ĠíĶĦëŀĳ íģ¬
ĠìłĦìŁģ ìĿĺ
Ġê²ª ìĹĪëĭ¤
ì¡° ìĽĲìľ¼ë¡ľ
Ġëĵľ ëĬĶ
> >
ĠìĿ´ ìĪĺ
Ġex ceed
ê·¸ ëĿ¼ìļ´ëĵľ
Ġco ff
ĠëĪĪ ìĿ´
Ġì¦ Ī
ĠìľłëŁ½ ìĹ°íķ©
st ic
Ġr is
Ġì¹ĺ ëłĢëĭ¤
Ġdiv ine
b illion
ì¹ĺ ëĭ¤
ĠI l
Ġì¡° ë¦½
ĠíķľêµŃ ìłĦëł¥
Ġrele ases
Ġappro aches
ë¸Į ë£¨
ĠíĨµìĭł ìĤ¬
å° ı
Ġê¹Ķ ëģĶ
ĠìĹ° ëĭ¤
Ġë°Ķë¥´ìħĢë¡ľ ëĤĺ
ê´Ģ ìłĪ
ĠëĿ ½
ĠìĻķ ë¦½
Ġìĭľë¦¬ì¦Ī ë¥¼
Ġë¸Ķë¡Ŀ ì²´
Ġìļ°ë¦¬ëĤĺëĿ¼ ìĿĺ
Ġê°Ģ ëĤľ
Ġproport ion
Ġë²ķ ìĿĦ
ĠíĮ¨ ìĬ¤íĬ¸
Ġìĭľ ìĿ¸
Ġëħ¼ ë¦¬
Ġê¸° íķĺ
Ġê´ĳ íķĻ
Ġmov es
ik ing
Ġë²Į ìĺĢëĭ¤
Ġê·¼ë³¸ ìłģìĿ¸
ĠíĬ¸ëłĮ ëĵľë¥¼
ĠStan ley
Ġë°ľíĳľ íķĺìĺĢëĭ¤
ê°Ķ ê³ł
Ġrom antic
Ġë°°ëŁ´ ëĭ¹
ĠM ess
Ġê³Ħìķ½ ìĿ´
ĠL P
Ġíķ©ìĿĺ íĸĪëĭ¤
ĠT ar
íĺ¸ ìĻĢ
ĠíĶĦë¡ľìłĿ íĬ¸ëĬĶ
ëĭĪ ìĻĢ
ìłķ ìĽĲ
ĠA FC
íĬ ¬
Ġp apers
Ġann oun
Ġìĥģ ì£¼
are er
? '
Ġor chestra
Ġpre y
Ġë°¸ ëŁ°
Ġev il
ĠëĤĺëī ĺìĸ´
Ġlic ense
ĠìĨĮ ì§Ħ
ì½Ķ íĶĦ
ĠëĮĢíĳľìĿ´ ìĤ¬ëĬĶ
Ġphenomen on
ì·¨ ìĹħ
Ġíļį ê¸°
c b
ĠL ane
ĠL ib
ĠìĿ´ ìĬ¤íĬ¸
Ġg ate
ĠìĤ¬ê±´ ìľ¼ë¡ľ
ĠìķĬìķĺ ìľ¼ë©°
Ġsh ock
ĠìķĦìĿ´ ë¥¼
ë§ĪìĿ´íģ¬ ë¡ľ
ëĬ¥ ëł¥ìĿĦ
ug by
Ġëį° ìĹĲ
Ġìłķì±ħ ìĿĺ
ì¹ľ êµ¬
ĠTok yo
ĠBu ff
ìĥĿ ìĿ´
ê²½ íĹĺ
ĠìĤ¬ìĿ´ ëĵľ
U C
ĠìĤ¬ ê²©
Ġass ign
Ġì¸¡ ìĿ´
Ġin her
Ġg ang
Ġcon gress
Ġun less
Ġê°ķíĻĶ íĸĪëĭ¤
Ġë¹Į ë³´ëĵľ
ĠC ode
ĠëĮĢíķĻ ìĽĲ
Ġdel iber
Ġhypot hesis
ê² ¹
Ġdon ated
Ġm ir
Ġê¸° ìłĲìľ¼ë¡ľ
Ġìĭ¤ìĭľ íķł
ë§¥ ì£¼
ëĵľ ë¦¼
ĠëĤ¨ ìª½ìľ¼ë¡ľ
íĻĢ ìĹĲìĦľ
ĠL ang
ë¶Ģ ì§Ħ
ĠëĴ¤ ì§ĳ
Ġê´Ģë¦¬ ìĹĲ
Ġì¿ł ëį°
Ġmiss ile
Ġearth qu
aw ay
ĠUk raine
ĠS ic
ĠC old
ì´Ī ìĿĺ
Ġver tical
ì£¼ìĿĺ ìŀĲ
Ġm al
Ġal ter
ĠìĦľ ê¸°
Ġm ou
ĠìĭľíĹĺ ìĿĦ
ìľĦ ìĦ±
Ġrestrict ions
Ġê²½ ë¡ľ
Ġinstrum ental
Ġguitar ist
ĠìĺĪ ì»¨ëĮĢ
Ġëĭ¤ ë£¬
ĠìĿĺíĺ¹ ìĿĦ
ĠëĲĺ ê¸¸
ec utive
Ġê´Ģë¦¬ íķł
Ġimplement ation
ìķĦ ëıĻ
ĠíĬ¹ìłķ íķľ
Ġë©Ī ì¶Ķ
and o
ĠìŀĳìĦ± íķľ
ê·¸ ë¦¬ìĬ¤
iet h
å ĵ
Ġìŀĳ ìłĦìĿĦ
e enth
Ġ18 87
Ġê°ķ ëĵ±
Ġag encies
in ating
ĠíıŃ ìĬ¤
Ġdem ocracy
ĠYug oslav
Ġf ont
ĠìĹĲìĿ´ ì¹ĺ
D R
ĠI T
ìĺģ ìĿĢ
íĨł ìĬ¤
íĨ °
Ġc atch
Ġì±ħ ìĿĢ
Be fore
ç Ńī
Ġíıī ë¡ł
Ph il
Ġê²½ìłľ íķĻ
ĠìĥĿìĤ° ìĿĦ
Ġê±° ìĬ¬ëŁ¬
Ġê°Ħ ëĭ¤
Leg acy
Ġê³µ ì§Ģ
Ġê²½ ë¹Ħ
ë¥´ ëĭ¤
ĠìĦ± ê²©ìĿĦ
ì¹´ ìĬ¤
ĠAl an
Ġì§ Ļ
ĠìķĬëĬĶëĭ¤ ê³ł
ĠìĿ´ ëħĲ
Ġafter wards
ĠìĤ¬ëŀĮ ê³¼
u its
Ġë°° íĭĢ
ĠìĿ´ìĤ¬ ìŀ¥ìĿĢ
Ġt urb
Ġmer ely
Ġmarg in
ĠëĤĺ ìĦ°
ĠëıĦìĭľ ëĿ½
ĠFinn ish
Ġa cted
ì¡° ìĽĲìĹĲ
ĠT ib
Ġë³´ìĹ¬ ì¤Ģ
ìĿ´ ì²´
Ġn est
f olk
Ġìłľ ëıĦê°Ģ
Ġappoint ment
íĶĦë¦¬ ë¯¸
h u
et f
Ġë°©ìķĪ ìĿ´
Ġf iles
ĠêµŃë¯¼ ìĿĢíĸī
ĠMc K
Ġë°ľìĸ¸ ìĿĦ
â ħ
ìķ ī
ain ts
ë°Ķ ëŀĮ
ik i
ìĽĲ ìĪŃ
ĠëłĪ ìķĮ
íļ¨ê³¼ ë¥¼
p i
Ġrefere ndum
ĠìĪĺ ìĿĢ
bor ne
Ġìĥģ ìĿĺ
Ġìĭł ìĥĿ
Ġìŀ¥ ê±°ë¦¬
ì§ģ ìĹĲ
ë§Ī ë£¨
ĠìķĬìĿĦ ê¹Į
ĠF und
Ġì¦Ŀê°Ģ ìĻĢ
ĠëıĮ ë´Ħ
Ġë§¤ì¶ľìķ¡ ê³¼
ĠëłĪìĿ´ ëįĶ
ĠìĤ¬ìļ° ëĶĶìķĦëĿ¼ë¹ĦìķĦ
Ġìļ° ì²´
Ġìĺģíĸ¥ ëł¥
Ġìŀħ ìĭľ
Ġoccas ions
ìĿ¸ ìŀ¬
Ġl h
ĠëĮĢíĨµëł¹ ê³¼
ĠC ost
ĠíŀĪ ìĸ´ë¡ľ
Ġb rig
ac ing
Ġro oms
ĠìĽĥ ëıĮ
Ġf lex
ĠìĽĲ ëħĦ
ĠìĦľìļ¸ ìĹĲìĦľ
ê¸¸ ìĿ´
Ġinteg ral
Ġëĵ¤ ëł¤
ch i
ĠìĿ¸ ëıĦìĿĺ
ëĭ¤ìĸĳ íķľ
ĠìĿ¼ ìĽĲ
ĠíĻĶ ìĽ¨ìĿ´
ĠOrgan ization
Ġëĭ¤ ìĬ¤
íĶ¼ ëĬĶ
Ġìłľê¸° íĸĪëĭ¤
Ġë§¤ê°ģ ìĿĦ
ĠíĪ¬ìŀĲìĿĺê²¬ ìĿĢ
Ġemphas is
le ans
ìĦ¤ ë¹Ħ
ë²ł ë¦¬ìķĦ
Ġseem ed
Ġê°Ģ ë¬¸ìĿĺ
Ġê²½ìłľ ìĹĲ
ìĤ¬ ë§Ŀ
E r
Ġëħ¸ ìĦłìĿĦ
ĠNew ton
ìĤ¼ êµŃ
Ġdet er
Ġë°©ë¬¸ ê°Ŀ
se ason
ê°Ģ ë§¹
Ġë¦¬ ì¡°
Ġíķł ë¶Ģ
Ġì¢ĭ ìĿĦ
M ay
Ġtele phone
Ġ189 2
ĠìĿ¸ ë¬¸
ëĶ ª
ì¡´ íķĺëĬĶ
Wh at
ì½Ķ ê°Ģ
Ġprot ests
Ġìļ´ìĺģ ìĹĲ
ĠìĦ±ìŀ¥ ê³¼
íİ¸ ìĿ´
Ġdis app
Ġslow ly
Ġt ies
Ġìłķ ì°¨
ĠìĽĲ íĺķ
Ġelectric ity
ĠëıĻëĤ¨ ìķĦ
Ġê³ł ìķĪ
Ġì¢ħë¡ľ êµ¬
ĠìĿ´ ìĭľ
Ġh its
ĠDe ath
Ġrang es
íĨł ì§Ģ
Ġëĭ¤ìĸĳ íķĺëĭ¤
ĠQue ens
ĠìĽ ¨ìĸ´
Ġus ual
Ġpublic ations
æĶ ¿
Ġê°Ģ ëł¤
ĠìĿ¸ ìĭĿìĿĦ
Ġo led
ip her
ĠíıŃ ê²©
Ġë¬´ìĹŃ ë¶ĦìŁģ
Ġcy cl
se a
ëłĪ ëĬĶ
it ure
ì°¨ ìĤ°ìĹħ
ĠìĽĲ ëĤ´
Ġbo ys
Ġregul ations
Ġarrang ement
Ġw ings
Ġl akes
íĽĦ êµ°
N T
ĠìłĦ êµŃìĿĺ
ĠTe am
S y
ik a
Ġê´ĳ ìĤ°
Ġìłģìļ© íķĺëĬĶ
ëĵ¤ ìĹ¬
ê°Ĵ ìĿĦ
Ġpers pective
Ġê¸īê²© íķľ
ìĽĲ ìŀĲ
Ġco inc
Ġê³¼ ìĹ°
Ġthere by
ĠìĦ¬ ìľłìĿĺ
Ġar bit
Ġfunction al
ëĮ Ħ
Ġexerc ise
Ġhe aring
opul ation
Ġë³µ ìĪĺ
íķŃ ìĿĦ
ĠApoll o
Ġorgan ic
Ġconcern ing
Ġì³ Ĳ
Ġìĺģ íĺ¼
ë¬´ ëĬ¬
ìĨĮ íĨµ
Ġì¤ĳêµŃ ìĿĦ
Ġê³µê°ľ ëĲĺìĹĪëĭ¤
ĠTr ade
Ġrang ing
ro id
ë³´ ì¡°
íĺĦ ìŀ¥
Ġì£¼ê´Ģ íķĺëĬĶ
ĠíĬ¸ëŀľ ìĬ¤
Ġan tic
Ġìŀ¥ ëĤ´
Ġê°ĸ ì·Ħëĭ¤
ĠìķĦë²Ħ ì§ĢìĿĺ
ĠìĺĪ ìłĦ
Ġì²Ń ëĤĺëĿ¼
le ton
Ġë¶Īê³¼ íĸĪëĭ¤
Ġê¸° ê°Ģ
ĠìĬ¤ ì¹´ìĿ´
art ing
Ġê±´ ë¬¼ìĿĦ
ĠìĦ±ìŀ¥ íķľ
Ġrest oration
Ġìĺ¤ ëĿ½
ĠìłĲ ìĪĺ
ëŀ ´
íĨµìĥģ ìŀĲìĽĲ
ì§Ģ ìĿ´ëĭ¤
Ġì£¼ ìĤ¬
Ġu hd
Ġkeep ing
ĠìľĦ ìĥģ
ë£Į ëĬĶ
Ġìĸ´ëłµ ê²Į
ĠíĮ¨ëŁ¬ ëĭ¤
g ate
Ġì§ģìĽĲ ëĵ¤ìĿĺ
Ġë§Ī ë¥´íģ¬
ĠWith in
Ġê°Ħëĭ´ íļĮ
ìĿ¸ ë¬¼
ĠìĿ¸ ìĽĲ
app ing
ë°ĺ ìĿĺ
ĠìķĬìķĺëĭ¤ ê³ł
Ġìļ°ëł¤ ëıĦ
ĠìĺģìĹŃ ìĹĲìĦľ
ĠíĻķìłķ ëĲľ
æī Ģ
Ġìķ½ ìłķ
ì°¸ ëª¨
ĠìĿ¼ìľ¼ ì¼°ëĭ¤
ĠS l
ĠìłĦìŁģ ìĹĲ
h igh
ĠF ather
Ġì§Ħ ì£¼
Ġì½ĶìĬ¤íĶ¼ ì§ĢìĪĺëĬĶ
Ġì§Ħì¶ľ íķľ
ĠìłĦëĭ¬ íķĺëĬĶ
ìĨĮíĶĦíĬ¸ ìĽ¨ìĸ´
S M
medi ate
c ut
ê³µ ìĤ¬ëĬĶ
row ing
Ġë¶Ģë¶Ħ ìłģìľ¼ë¡ľ
Ġíĸīë³µ íķľ
ĠSing apore
Ġb orrow
Ġìĸĳ ìĤ¬ëĬĶ
Ġenfor cement
Ġê¸° ìĸ´
ĠíĬ¹íĹĪ ë¥¼
ĠìĹĶ ì§ĦìĿĦ
Ġsoc ieties
Ġqu ad
Ġt ied
ëħ¸ ì¡°
Ġìłľíķľ ëĲľ
ĠëĤ¨ ìĸĳ
Ġìľł ìĦł
ìļ´ íĬ¸
ĠëıĦ ëŀĺ
ul us
ĠìŀĲ ìĤ¬ìĿĺ
Ġr um
Ġë¶ĢíļĮ ìŀ¥
Ġëª «
Ġë¶Ģ ìŀ¥
ĠíĺĦëĮĢ ì¤ĳê³µìĹħ
ĠPr incess
Ġì½Ķ ì¹ĺ
å³ ¶
Ġì´Ī ìĹ°
ĠWar ren
Ġcolle ges
ĠìĹħê³Ħ ìĹĲìĦľëĬĶ
Ġëªħì¹Ń ìĿĦ
oun s
Ġsim ilarly
Ġexc av
Ġë§ĲìĶ Ģ
Ġë³´ ë³µ
Ġele ctoral
Ġì§Ģ ìĪĺë¥¼
if fer
p ower
Ġt ons
al in
ĠíĶ¼ íķĺê¸°
Ġê¸°ìĹħ ëĵ¤ìĿĢ
Ġë°©ë²ķ ìĿ´ëĭ¤
er ia
Ġfin ite
Ġë§Īëł¨ ëĲľ
Ġê¼½ íŀĪëĬĶ
ĠíķĦ íĦ°
Ġê³µìĿ¸ ìĿ¸ì¦Ŀ
ìĭľ ì²Ń
ri um
lg ìľł
ro ck
ë§Į ê¸°
ĠìĺĪ ë¡ľ
ĠAll iance
ê¼ ½
Ġb ot
Ġed itions
Ġê°Īëĵ± ìĿ´
L et
Ġê³ł ë¬´
ìĺ¤ ê°Ģ
ĠìŀĲìľł ë¡ľìļ´
Ġm ine
ëĤĺ ë¥´
im ore
ĠìĥĿ ìĥĿ
Ġê°Ħ íĸī
Ġprov ision
Ġte achers
íĶĮëŀĺ ëĭĽ
Ġì¹´ ë©Ķ
Ġdiam eter
Ġcons ervation
ĠìĪĺ ì»·
Ġê²°ê³¼ ëĭ¤
ìľ Ĺ
ĠëĤ® ì¶°
Ġë³¸ë¶Ģ ìŀ¥ìĿĢ
ĠìĿ´ ìĤ¬ëĬĶ
ìĹ° ë°©
ell i
Ġê·¸ë£¹ ìĿĢ
Ġë¦¬ë²Ħ íĴĢ
Ġëĥī ìŀ¥
Ġt orn
ìĹ° ëıĦ
Ġdiscont in
ber ry
Ġê³łìļ© ëħ¸ëıĻ
íļ¨ê³¼ ê°Ģ
Ġê°Ĵ ìĿĦ
Ġwear ing
Ġì§Ħ íķľ
ĠìķĮëł¤ ì§Ģì§Ģ
ĠMat the
ĠìĿ´ ëįĶ
Ġsepar ation
ĠìĦ± ìĤ¬
Ġê³µê²© ìłģìĿ¸
grad uate
ig rated
ë¦° ìĿĺ
ì²ľ êµ°
íİĺ ìĸ´
ĠìŀĲìĭł ìĹĲê²Į
ĠíķĻ ìĤ´
ê°ľìĽĶ ë§ĮìĹĲ
Ġconc lusion
ĠìķĬìķĺëĭ¤ ëĬĶ
ĠìĿ¼ìłľ ê°ķìłĲ
ab ul
Ġê°Ħ íĺ¸
ĠYear s
Ġë¹Ħìļ© ìĿĢ
Ġê²½ ìĦ±
æ ¯
ĠA le
Ġreturn s
Ġmarket ing
Ġìĥģíķľ ê°Ģë¥¼
ĠSur vey
ĠDie go
Ġì§Ģ êµ¬ìĿĺ
Ġë°ľ ëłĮ
Ġ11 4
re ement
ch t
Ġíķ¨ ëĿ½
Ġent hus
Ġìĵ° ìĹ¬
ĠëĵľëŁ¬ ëĥĪëĭ¤
ĠCarib bean
Ġì§Ģ ë¦¬
Ġìŀħ êµŃ
Ġë·° íĭ°
Ġê³ł ë¦½
Ġìĭľì²Ń ë¥ł
ê° ¤
ĠëıĻ íĻĶ
ĠìłĦìŁģ ìĹĲìĦľ
ìĿ¼ ëłĪ
ĠìŀĪ ê±°ëĤĺ
Ġë³¸ ê´ĢìĿĢ
es ar
oc ese
Ġìĸĳ ìĭĿ
ĠìĨĮ ìĪĺìĿĺ
ĠT rust
ass ador
á º
Ġë°ľ ëªħ
ê°Ģ ê¸°
ëıĻ ì¡°íķ©
iss ions
ĠìŀĪìĿĦ ì§Ģ
ìłĦ ìŀĲìĿĺ
ĠR an
Ġìłĳ ì¢ħ
Ġpromot ion
st rong
ĠâĢĺ <
ĠëĦ£ ìĿĢ
ĠL as
ĠíĿĶ íķľ
Ġe labor
ĠìĿ´ëĤł ë¶ĢíĦ°
ĠH IV
Ġkt ê°Ģ
Ġì¢ħêµĲ ìłģ
ĠìĿ¸ìĭĿ ìĿ´
Ġdismiss ed
1 30
ĠPh oen
Ġord inary
ç Ł
Ġê·¸ ëĥ¥
Ġê¸°ë¡Ŀ íķĺìĺĢëĭ¤
Ġstat ements
Ġ Âł
ĠB ald
ĠGord on
Ġë§Ī ìĿ¼
Ġë¬¼ ëł¤
ê³ł ìŀĲ
et on
ĠëĤĻ íıŃìĿĦ
Ġ18 81
Ġíķľ ê³Ħë¥¼
Ġê²½ ê³Ħë¥¼
Ġì§ĢìĹŃ ë³Ħ
Ġê¸īëĵ± íĸĪëĭ¤
19 83
19 82
Ġë¹ł ì¡Įëĭ¤
Ġì½ĶìĬ¤ëĭ¥ ìĿĢ
Ġopport unities
Ġìľłìļ© íķľ
ĠìĹĨ ìĹĪê³ł
Ġâ ī
Ġê¹Ģ ìłķ
Ġìľ¡ ìķĦ
ĠL ocal
Ġìľ ¼
Ġë°Ģ ëıĦëĬĶ
Ġc otton
ile y
ĠëķĮë¬¸ ìľ¼ë¡ľ
ĠOr chestra
w en
H S
Ġë§ĪìĿĮ ìĹĲ
ì¢ħíķ© ì§ĢìĪĺëĬĶ
Ġfall ing
Ġconflic ts
Ġì§Ģ ì¤ĳ
ĠíĻķìĿ¸ íķĺëĬĶ
ist ent
Ġt ort
ĠëģĿ ëĤ´
ĠëĮĢ ìĽĲ
Ġì²´íģ¬ ì¹´ëĵľ
ĠI owa
ë°© ìĿĢ
Ġì§ĢëĭĪ ê³ł
ĠëĦĺìĸ´ ìĦł
Ã ł
ing ham
ĠS af
íķł ì§Ģ
ìķĺ ìľ¼ëĤĺ
Ġpat ent
ĠìķĦì§ģ ëıĦ
Ġmor ph
Ġê² ģ
Ġìĥģ íķ´
ëª¨ ê°Ģ
ĠëĳĲ ë£¨
Ġíį¼ ë¸Ķë¦¬
Ġì¡°ì§Ģ ìķĦ
Ġm bc
ê¶Į ëıĦ
ĠìĿ¸ìĪĺ íķľ
Ġëª¨ ë¹Įë¦¬íĭ°
ì¡Į ëĬĶëį°
Ġì§ĳ ìķĪ
Ġìĭľìŀĳ ëĲĲëĭ¤
ĠS lav
ĠC art
Ġìŀ¬ íĥĿ
Ġë¬¸ìłľ ìĿĺ
êµ¬ ì¹ĺ
ĠìŀĪëĭ¤ ë©°
Ġë¬´ ìŀĳ
Ġkn ock
E G
Ġë¶Ī ë¦¬ë©°
Ġmin isters
Ġëĭ¤ìĿ´ ìķĦ
Ġdocument ed
Ġab bre
ĠOr leans
Ġcross ed
re ll
ĠN ick
ĠëĶĶ ì¦ĪëĭĪ
ĠChrist opher
ĠìĿ´ë¤Ħ ì§Ģì§Ģ
ĠìŀĲ ìĤ¬ê³ł
ĠëĤĺ ê³ł
ĠìĿ´ìļ© ìŀĲìĿĺ
Ġìĭľ ê¸°ëĬĶ
ad i
ĠìķĪ ìłķìĿĦ
Ġres ist
Ġì§ĢëĤľíķ´ ë¶ĢíĦ°
Ġ18 86
ke nd
Ġsecond s
ĠíĿ° ìĥī
Ġbe ach
æ ¸
ë¬¸ ìŀĲ
Ġë¸Į ëłĪ
Ġto ler
ĠíķĻêµĲ ë¥¼
ì© į
c j
Ġp ip
ë »
ple x
ĠA round
Ġ" [
ĠìĦł ìĿĺ
Ġìĭ¤ ì¢ħ
ĠR NA
Ġê¸°ëĮĢ ê°ĲìĿĦ
Ġìŀ¥ê¸° ìłģìĿ¸
ĠìķĦëĵ¤ ë¡ľ
Ġìĭ¤ ìłĦ
19 79
Ġë°© ì¹ĺ
ha ust
ĠC ass
Ä į
ë¹Ħ ìĭľ
Ġê´Ģ ì¤ĳ
Ġpat ient
Ġpat ri
Ġì¤Ģ ê²°ìĬ¹
Ġê´Ģìĭ¬ ê³¼
äº Ķ
Ġê°Ĳ ìĤ¬ìĿĺ
ĠE ver
Ġeffic iency
Ġm igration
ĠS ud
ib ilities
ĠìĹĲ ëıĦ
Ġì¶ľìłĦ íķĺìĹ¬
ĠìĿ´ìĤ¬íļĮ ëĬĶ
Ġì¦Ŀê¶Į ìĹħê³Ħ
Ġë¶Ļ ìĸ´
ê°Ģ ìĹĲìĦľ
ĠìŀĲì²´ ëĬĶ
Ġ189 1
ĠìĦ±ìŀ¥ íķĺëĬĶ
Ġconcent rated
e ast
v p
ĠìĽĲ ìŀ¥
kb êµŃë¯¼
Ġë§Ī íĭ´
íĮĮ ìĻĢ
ìĻ¸ ìĭĿ
ĠíĻľëıĻ íķĺìĺĢëĭ¤
Ġgrad uate
Ġ18 82
Ġcur rency
ëıĦìĦľ ê´Ģ
ĠP ra
Ġê°Ģì¡± ìĿ´
Ġë°©ì§Ģ íķĺê¸°
Ġposs ession
ĠPit ts
Ġp and
ĠëģĿ ê¹Įì§Ģ
Ġìŀ¥ê¸° ìłģìľ¼ë¡ľ
Ù ħ
Ġcampaign s
Ġë©° ì¹ł
íķĺ ë£¨
Ġë§Ĳ ë¶ĢíĦ°
ĠMe an
ëģ Ī
Ġëĭ¨ ëĭ¨
Ġì´Īëĵ±íķĻêµĲ ìĿ´ëĭ¤
Ġìķŀìŀ¥ ìĦľ
ĠìļĶ ì½Ķ
Ġcan on
Ġëıħ ìĦľ
c r
ĠìĥĪ íķ´
ĠíĻĶ ê°ķ
Ġì°¨ ê´ĢìĿĢ
Ġrespect ive
Ġmaintain ing
ĠA labama
ë³´ ìĿ´
Ġìļ° íļĮ
íĮĮ ìĿ¸
Ġcustom ers
ĠíķĻêµĲ ìĹĲìĦľ
as m
íģ¬ ë¦¬ìĬ¤
10 1
Ġìŀĩ ëĶ°
ĠìĿ¼ ìĸ´ëĤł
ëĦĪ ì§Ģê°Ģ
Ġìĸ´ëĳĲ ìļ´
en c
ë¹ Ķ
Ã© t
Ġê° Ķ
ê¸° ë¶Ģ
Ġno ble
ĠAnton io
Ġì²« ë²Īì§¸
ìłľìķ½ ìĿĢ
ur as
Ġìĺ¤ ëłĮì§Ģ
ëª¨ ì§ģ
ĠíķĺëĿ½ ìĿĦ
Ġë¶Ģ ëĶª
cop y
ĠìłĦ ë°©
Ġê²ĮìŀĦ ìĹĲìĦľ
ĠêµŃìłľ ê³µíķŃ
ĠBen jamin
ĠN ash
Ġst ored
ĠRe port
Ġcont ribution
ĠW right
ĠëģĿ ëĤ¬ëĭ¤
ĠìĭľëĮĢ ê°Ģ
ĠíĻķ ìĭł
Ġdem ands
sc ope
ĠìĪĺìĥģ íķľ
ëĭĪ ë¥¼
Ġì§Ħ íĿ¥
ìĭ¤ íķľ
ĠíĶ¼ ëĵľ
Ġco in
ĠìĥĿíĥľ ê³Ħë¥¼
Î ¼
ìŀ ĸ
Ġmain tains
l ie
ol ith
ëĤĺ ëĪĶ
ĠìĿ¼ ìĽĲìľ¼ë¡ľ
Ġë°ķ ì°¨ë¥¼
Ġìĥī ê¹Ķ
ĠíĮĮìķħ íķĺê³ł
Ġsurg ery
ĠR and
A ir
Ġstruct ural
Ġìĭł ìĤ¬ìĹħ
ĠC emetery
ĠìºĲëĤĺëĭ¤ ìĿĺ
Ġconqu est
Ġ13 00
ĠR enaissance
ë´ ¤
larg est
Ġìĭľìŀĳ íĸĪìľ¼ë©°
íĬ¸ ëłĪìĿ´
ĠK az
ct ive
ìķĦ ìĬ¤
ĠìĿ¸ë¬¼ ë¡ľ
Ġêµ¬ìŀħ íķł
Ġconsum er
ĠìĪĺ ìĹħìĿĦ
Ġë¬´ ìĬ¨
Ġt ape
ìĤ¬ ìŀĲ
ĠL en
ĠâĢ ĭ
ĠëĮĢ ì¹Ń
ĠìĦ¸ ìļ°ê³ł
ĠëĿ ĦëĬĶ
Ġë§¡ ëĬĶëĭ¤
ëłī íĬ¸
ë§Į ìķ½
ĠìĨ¡ íĮĮ
íĺĳ ìłķ
Ġsound track
ç¸ £
ĠìĨĮ ì§Ģ
Ġimpro vements
ĠHar bor
ìĭľ ìĹĲëĬĶ
Ġê³łê°Ŀ ê³¼
]] ,
ĠìĹ¼ ëĳĲìĹĲ
Ġëħ¼ëŀĢ ìĿĦ
Ġproced ure
Ġun employ
ĠìķĦ ë°Ķ
Ġë§Į ëĤ¬ëĭ¤
Ġrestaur ants
ĠëĤĺ ëŀĢíŀĪ
ìĥĿ ëªħìĿĺ
Ġì§ĢìĽĲ ê¸Ī
Ġë°ľìĥĿ íķĺê³ł
> Â·<
é ĺ
ĠìķĦ ìĦ¸
ĠìĿĮ ëł¥
ĠìĹ° ì¤ĳ
Ġres erve
Ġê°± ìĭł
ëĬ ¦
Ġíı¬ íĨł
Ġëħ¼ìĿĺ íĸĪëĭ¤
åĴ Į
u able
Ġëª¨ íĨł
ìĺ¤ ë¡ľ
Ġne ck
Ġfin ish
ĠMu hammad
s is
Ġkt ìĿĺ
Ġì½ľ ë¡¬ë¹ĦìķĦ
Ġêµ¬ìĦ± íĸĪëĭ¤
Ġ( +
ĠìķĦë¥´ ë©Ķ
o or
Ø ±
Ġë¶ģ ìª½ìľ¼ë¡ľ
åı ¸
v y
íĥĢ ë§Ī
Ġr hythm
min ster
ĠìĹħì²´ ê°Ģ
Ġjo ining
Ġabol ished
ë¥ĺ ìĻĢ
ì½ĺ ìĦľ
C S
ìĿ¸ ë²łìĬ¤íĬ¸
ĠG lobal
est y
Ġìŀ¥ ë¡Ģ
íħĮ ëĿ¼
ìī Ĳ
ĠìĿµ ìĪĻ
Ġì²Ń ìĤ°
ĠPat rick
ĠëıĦ ë§¤
Ġì·¨ ìŀ¬
ĠìºĲë¦ŃíĦ° ê°Ģ
Ġconvin ced
ĠN ation
ë§¤ ëıĦ
g om
Ġìłľ ê°Ģ
Ġê°Ĳ ìłķìĿĦ
Ġìĥ¤ ë¥¼
ĠëĬĺ ë¦¬ëĬĶ
Ġíļ¨ìľ¨ ìĦ±ìĿĦ
Ġë¿Į ë¦¬
ĠêµŃë¯¼ ìĿ´
Ġrequ iring
Ġëıħë¦½ ìĿĦ
ĠëĦ£ ìĹĪëĭ¤
Ġd s
Ġê²ĥ ìĿ¸
íģ ĺ
Ġëª© ìłģìĿĢ
ë°Ķ ì§Ģ
íĭ° ë¥¼
íķ ı
er k
il st
ĠìŀĲìľł ë¥¼
Ġë¦¬ê·¸ ìĿĺ
ĠRob inson
Ġdistingu ish
ĠìĦ¼íĬ¸ ëŁ´
Ġp airs
ĠêµŃ ìłģ
fect ure
ĠìĤ¬ìĻ¸ ìĿ´
Ġê³¼ ìĹ´
ìĦł ìĸ¸
Ġì´Ŀ ìĦł
ĠUnivers al
Ġsimultane ously
ad ic
Ġconnect s
Ġê³µíĻĶ êµŃìĿĺ
ĠCamp bell
ĠìľłìķĪíĥĢ ì¦Ŀê¶Į
Ġst ability
Ġìĥī ìĥģ
ĠíĬ¸ëłĮ ëĵľ
ĠStew art
Ġconf ront
ĠíķŃ íķ´
ĠWh at
Ġde emed
Ġbord ered
ìķĦë²Ħ ì§Ģ
Ġì¶ľìĭľ íķľëĭ¤ê³ł
Ġë°Ķê¾¸ ëĬĶ
Ġì¶ľ ê·¼
Ġíħ ľ
Ġë¬¼ë¦¬ íķĻ
ìłģ ê¸Ī
ĠìĽĲ ìĿ¸ìĿĢ
Ġíĺ¸ íıīìĿĦ
Ġë³´ ëĤ¼
ìļ´ ëıĻìĿĦ
íĮĲ ìľ¼ë¡ľ
Ġhy brid
Ġíģ´ë¦° íĦ´
Ġab use
Ġë¶ĦìľĦ ê¸°ëĭ¤
ìĹħ ìľ¼ë¡ľ
Ġ18 67
ìľ¼ ëł¤
ëĶĶ ìĸ¸
ë§Į ìľ¼ë¡ľëıĦ
Ġì¸¡ ìĹĲ
Ġë§Ĳ íķĺë©°
ĠìĻ¸ íĺķ
Ġì§ĳì¤ĳ íķł
ëĭ¤ ëĭĪ
Ġíŀ Ļ
Ġë©´ìĦ¸ ìłĲ
Ġìłľê³µ íķľ
Ġsc atter
Ġ2 30
19 81
Ġë¦¬ ìĬ¤
ĠíĥĦ ëł¥
Ġtiss ue
ìĺ Į
Ġì°¨ ê°Ģ
ĠSy ria
in ent
Ġ18 65
ĠìĺģíĨł ë¥¼
ìĦ¤ ìĹĲ
ì¡Į ê¸°
ĠH orn
ìĥĿ ëªħìĿ´
ĠIs a
Ġë¶Ħ ë°°
an ia
ìĿĮ ìĭĿ
Ġìµľì¢ħ ìłģìľ¼ë¡ľ
ì¦Ŀ ëªħ
Ġcomp at
Ġíĸī ìłķë¶Ģ
Ġëª» íĸĪëįĺ
Ġdef ensive
w c
ĠìķĦ ë©Ķë¦¬ì¹¸
Ġë§Īëł¨ ìĿĦ
ĠPet ers
Ġb ases
Ġê°ķ ìĪĺ
ìĦĿ ìľ¼ë¡ľ
Ġì°¨ë³Ħ íĻĶ
Ġgrad uated
ĠìĥĮ íĶĦëŀĢìĭľìĬ¤ì½Ķ
ĠB our
ëģ Ŀ
ĠíļįëĵĿ íķľ
In ternational
Ġsol utions
Ġsuc ceed
ĠFle et
ëħĦ ë¬¼ìĿĢ
Ġê³ł ê³ł
ĠK at
ĠëĬĺ ë©´ìĦľ
ĠìĿĺ ë¬´ë¥¼
Ġsw it
Ġë¹łìł¸ ëĤĺ
ĠAbb ey
ĠC ow
Ġê¸°ì¤Ģ ìĹĲ
Ġn inet
Ġ18 68
Ġsk y
ĠìĹħëį°ìĿ´íĬ¸ ë¥¼
ĠìĤ¬ ê°ģ
ëıĮ ìĿ´
ĠëķĮë¬¸ ìĿ´ìĹĪëĭ¤
Ġro w
Ġne uro
ĠìŀĪìĸ´ìĦľ ëĭ¤
ìĿ´ ìłĦ
ĠìĺģíĻĶ ìĿĺ
ìłķ ìĭł
Ġë§Ĳ ëłĪ
¾ °
ol o
ì°¨ ìĻĢ
Ġhigh light
ĠìĿĺê²¬ ëıĦ
Ġparticip ants
Ġf omc
ëĿ¼ ìĿ¸ìĿĦ
ĠìķĦ íĭĢ
Ġìłķ ìŀĳ
ĠíĤ¤ ì¦Ī
ĠìĹĨ ëįĺ
ah n
ë¶Ħ ë¶ĢíĦ°
ĠìĻ ĵ
ĠAr ist
Ġìķī ìķĦ
å® ļ
ĠìłĦ ìĪĺ
Ġì¹¨ íĪ¬
ra ham
íĮĢ ìĿĺ
Ġë¶Ģë¬¸ ìĿĢ
ä» ģ
Ġì§ĢëĬ¥ íĺķ
ĠìĹ¬ ìłĦ
om o
ĠìĤ¬ìĭ¤ ìĿĢ
ĠìĿ´ ëĵĿ
Ġê³¼ ìłľë¥¼
ĠíĶĦë¡ľ ìĿ´ìĦ¼
Ġê¸Īë¦¬ìĿ¸ íķĺ
Ġëĵ¤ ìĿĦ
ë²Ķ íķľ
ì¹´ìĿ´ ëıĦ
ĠA er
ê²½ê¸° ìĹĲìĦľ
ìľł ì¶ľ
Ġë°Ľ ìľ¼ë©´
Ġìĭłì²Ń íķľ
Ġê²Ģì°° ìĿĢ
ĠBru ce
ĠD a
ë¡ł ìĹĲ
Ġë³µ ìĿĮ
Ġd ies
íĭ° ìĿĺ
Ġê¸Īìľµëĭ¹ êµŃ
ĠìĿ¼ ì»
ëĤ´ ìĹĲ
Ġdifficult y
Ġmanufact ured
ê¸° ìĿ¸
Ġl ie
Ġtrans it
Ġnot ion
N G
Ġëį° ìĬ¤íģ¬
out heastern
ĠíĥĢìĿ´ ê±°
Ġaccur ate
ĠìĿ¼ì» «
ac ed
ĠAri zona
ĠëłĪ ìĿ¸
Ġìĺģ ìľĦ
Ġê°Ĳ ìŀĲ
Ġíĩ´ ìłģ
å® ĺ
Ġë³´ê³ł ìĦľìĹĲ
± ĥ
ap olis
Ġthir ty
Ġëĭ¤íģĲ ë©ĺ
ĠN one
Ġì»¤ ì§Ħ
ëĳ ł
Ġacc um
Ġìĺ· ìĿĦ
ĠíĻĶ ìłľê°Ģ
Ġob st
Ġdaugh ters
F M
al an
ê±°ëŀĺ ê°Ģ
Ġread y
æ ®
ìĦľ ëĭ¤
ìļ° ë¥¼
Ġpro ve
Ġì¦Ŀê°Ģ ê°Ģ
ì§Ģ ë§Ī
ìĭľë°Ģ ëŁ¬
Ġë°ĺ ìłĦ
ĠëĶĶ ë°ĶìĿ´ìĬ¤
Ġcous in
Ġì¿ł íĮ¡
[...]
