{"<pad>":0,"<unk>":1,"<bos>":2,"<eos>":3,"<system>":4,"<user>":5,"<assistant>":6,"<NAME>":7,"<EMAIL>":8,"<PHONE>":9,"<ADDRESS>":10,"<URL>":11,"!":12,"\"":13,"#":14,"$":15,"%":16,"&":17,"'":18,"(":19,")":20,"*":21,"+":22,",":23,"-":24,".":25,"/":26,"0":27,"1":28,"2":29,"3":30,"4":31,"5":32,"6":33,"7":34,"8":35,"9":36,":":37,";":38,"<":39,"=":40,">":41,"?":42,"@":43,"A":44,"B":45,"C":46,"D":47,"E":48,"F":49,"G":50,"H":51,"I":52,"J":53,"K":54,"L":55,"M":56,"N":57,"O":58,"P":59,"Q":60,"R":61,"S":62,"T":63,"U":64,"V":65,"W":66,"X":67,"Y":68,"Z":69,"[":70,"\\":71,"]":72,"^":73,"_":74,"`":75,"a":76,"b":77,"c":78,"d":79,"e":80,"f":81,"g":82,"h":83,"i":84,"j":85,"k":86,"l":87,"m":88,"n":89,"o":90,"p":91,"q":92,"r":93,"s":94,"t":95,"u":96,"v":97,"w":98,"x":99,"y":100,"z":101,"{":102,"|":103,"}":104,"~":105,"¡":106,"¢":107,"£":108,"¤":109,"¥":110,"¦":111,"§":112,"¨":113,"©":114,"ª":115,"«":116,"¬":117,"®":118,"¯":119,"°":120,"±":121,"²":122,"³":123,"´":124,"µ":125,"¶":126,"·":127,"¸":128,"¹":129,"º":130,"»":131,"¼":132,"½":133,"¾":134,"¿":135,"À":136,"Á":137,"Â":138,"Ã":139,"Ä":140,"Å":141,"Æ":142,"Ç":143,"È":144,"É":145,"Ê":146,"Ë":147,"Ì":148,"Í":149,"Î":150,"Ï":151,"Ð":152,"Ñ":153,"Ò":154,"Ó":155,"Ô":156,"Õ":157,"Ö":158,"×":159,"Ø":160,"Ù":161,"Ú":162,"Û":163,"Ü":164,"Ý":165,"Þ":166,"ß":167,"à":168,"á":169,"â":170,"ã":171,"ä":172,"å":173,"æ":174,"ç":175,"è":176,"é":177,"ê":178,"ë":179,"ì":180,"í":181,"î":182,"ï":183,"ð":184,"ñ":185,"ò":186,"ó":187,"ô":188,"õ":189,"ö":190,"÷":191,"ø":192,"ù":193,"ú":194,"û":195,"ü":196,"ý":197,"þ":198,"ÿ":199,"Ā":200,"ā":201,"Ă":202,"ă":203,"Ą":204,"ą":205,"Ć":206,"ć":207,"Ĉ":208,"ĉ":209,"Ċ":210,"ċ":211,"Č":212,"č":213,"Ď":214,"ď":215,"Đ":216,"đ":217,"Ē":218,"ē":219,"Ĕ":220,"ĕ":221,"Ė":222,"ė":223,"Ę":224,"ę":225,"Ě":226,"ě":227,"Ĝ":228,"ĝ":229,"Ğ":230,"ğ":231,"Ġ":232,"ġ":233,"Ģ":234,"ģ":235,"Ĥ":236,"ĥ":237,"Ħ":238,"ħ":239,"Ĩ":240,"ĩ":241,"Ī":242,"ī":243,"Ĭ":244,"ĭ":245,"Į":246,"į":247,"İ":248,"ı":249,"Ĳ":250,"ĳ":251,"Ĵ":252,"ĵ":253,"Ķ":254,"ķ":255,"ĸ":256,"Ĺ":257,"ĺ":258,"Ļ":259,"ļ":260,"Ľ":261,"ľ":262,"Ŀ":263,"ŀ":264,"Ł":265,"ł":266,"Ń":267,"Ġì":268,"ìĿ":269,"Ġë":270,"íķ":271,"Ġê":272,"Ġt":273,"ëĭ":274,"ìĹ":275,"he":276,"Ġa":277,"ëĭ¤":278,"in":279,"Ġí":280,"ìĿ´":281,"ëĬ":282,"ê³":283,"er":284,"ëĬĶ":285,"Ġthe":286,"ìĹĲ":287,"on":288,"ìĦ":289,"ë¡":290,"ê°":291,"ìł":292,"ìŀ":293,"re":294,"ìĿĺ":295,"Ġo":296,"ìĿĦ":297,"ë¡ľ":298,"čĊ":299,"ĠìĿ":300,"íķĺ":301,"ë¥":302,"at":303,"nd":304,"§Ģ":305,"ìľ":306,"Ġw":307,"Ġs":308,"ed":309,"íķľ":310,"Ġìŀ":311,"¸°":312,"en":313,"or":314,"ìĭ":315,"it":316,"Ġc":317,"is":318,"Ġof":319,"ìĿĢ":320,"es":321,"ê³ł":322,"Ġ1":323,"Ġìł":324,"al":325,"an":326,"ê°Ģ":327,"Īëĭ¤":328,"ar":329,"ëı":330,"Ġf":331,"ĮĢ":332,"Ġin":333,"ë¦":334,"Ĥ¬":335,"ë¥¼":336,"ìķ":337,"Ġp":338,"ìĬ":339,"ìĽ":340,"ì§Ģ":341,"Ġb":342,"Ġê°":343,"ìĦľ":344,"ìļ":345,"êµ":346,"Ġand":347,"Ġë°":348,"ëĵ":349,"ic":350,"íĸ":351,"as":352,"ing":353,"ìľ¼":354,"ĠìĿ´":355,"ê¸°":356,"ë§":357,"Īĺ":358,"ìĸ":359,"íķ´":360,"ìĬ¤":361,"ion":362,"ou":363,"ëĤ":364,"Ġ2":365,"Ġm":366,"Ġê²":367,"ê²":368,"ë¦¬":369,"ëıĦ":370,"Ġto":371,"Ġìķ":372,"ë©":373,"Ġìĭ":374,"ìĿ¸":375,"ìľ¼ë¡ľ":376,"ë¶":377,"ìŀĲ":378,"ĠìĹ":379,"ëł":380,"Ġh":381,"le":382,"ëħ":383,"ĠìĦ":384,"Ġd":385,"om":386,"Ġë§":387,"ëĲ":388,"ë°":389,"ìĭľ":390,"ĥģ":391,"Ġê³":392,"ëĿ":393,"£¼":394,"ìĤ¬":395,"ë³":396,"ìĹĲìĦľ":397,"Ġìĺ":398,"ëĿ¼":399,"ìĽĲ":400,"ent":401,"ëħĦ":402,"ê³¼":403,"ĠëĮĢ":404,"ìĺ":405,"ìŀ¥":406,"il":407,"ìĸ´":408,"íĻ":409,"ìĿ¼":410,"Ġëĭ":411,"ëĮĢ":412,"ĠìĪĺ":413,"Ġre":414,"Ġê¸°":415,"00":416,"Ġìľ":417,"ĠT":418,"íĸĪëĭ¤":419,"ìĻ":420,"Ġl":421,"ro":422,"ë¶Ģ":423,"ëŀ":424,"¹Ħ":425,"ë¬":426,"Ġêµ":427,"Ġì§Ģ":428,"Ġë³":429,"st":430,"ĠS":431,"Ġe":432,"ì§":433,"íĺ":434,"ìłķ":435,"ol":436,"ì¹":437,"ĠëĤ":438,"ìłģ":439,"ëª":440,"ĠA":441,"Ġë¶":442,"ĠC":443,"ĠìĤ¬":444,"âĢ":445,"íĬ":446,"el":447,"·¸":448,"Ġn":449,"Ġ\"":450,"ĠìłĦ":451,"ct":452,"ëĵ¤":453,"am":454,"êµŃ":455,"ì²":456,"Ġth":457,"ìĨ":458,"Ġëĵ":459,"íĬ¸":460,"ëŁ":461,"¤ĳ":462,"ë²":463,"Ġ'":464,"ad":465,"ë§Į":466,"ìĦ±":467,"ëĤĺ":468,"ìĥģ":469,"ê¸":470,"Ġwas":471,"Ġê°Ģ":472,"iv":473,"Ġìĭľ":474,"ì¡":475,"´Ģ":476,"ation":477,"ìĹħ":478,"ìķĦ":479,"ìĻĢ":480,"us":481,"ì£¼":482,"ĠìŀĪ":483,"Ġëª":484,"ìĿ´ëĭ¤":485,"ļĮ":486,"et":487,"ìłĦ":488,"íĥ":489,"ìĪĺ":490,"Ġëı":491,"id":492,"Ġfor":493,"ly":494,"ìļ©":495,"ë©°":496,"ur":497,"ë©´":498,"ëĵľ":499,"..":500,"ëį":501,"ìłľ":502,"Ġ19":503,"íĻĶ":504,"ê²Į":505,"ĠM":506,"ch":507,"ĠìŀĪëĭ¤":508,"ce":509,"im":510,"Ġíķ":511,"íĦ":512,"¯¸":513,"ig":514,"ĠíĻ":515,"Ġê²ĥ":516,"íķĺëĬĶ":517,"Ġê·¸":518,"Ġëĵ±":519,"ëĲĺ":520,"ul":521,"ë¹Ħ":522,"ìĽĶ":523,"Ġis":524,"Ġ3":525,"Ġíĺ":526,"ot":527,"ĠB":528,"Ġìłľ":529,"íĶ":530,"Ġ(":531,"Ĩµ":532,"Ġg":533,"ra":534,"ver":535,"Ġas":536,"ĠI":537,"Ġon":538,"ut":539,"ir":540,"Ġíķľ":541,"íĦ°":542,"êµ¬":543,"Ġbe":544,"ë³´":545,"Ġìļ":546,"ow":547,"ê³Ħ":548,"Ġì¤ĳ":549,"ith":550,"Ġë¬":551,"Ġë³´":552,"Ġ20":553,"íļĮ":554,"Ĥ°":555,"ì¶":556,"ĠThe":557,"Ġì£¼":558,"ter":559,"íķł":560,"ĠìĨ":561,"Ġì¶":562,"ĠP":563,"Ġì§":564,"em":565,"ëıĻ":566,"Ġst":567,"ĠìķĦ":568,"íı":569,"NA":570,"Ġìĥģ":571,"ĠH":572,"Ġwith":573,"Ġê³µ":574,"ëĲľ":575,"ME":576,"her":577,"íĸī":578,"Ġëĭ¤":579,"NAME":580,"un":581,"ĠìľĦ":582,"ì¹ĺ":583,"ĠìĿ¸":584,"íķĺê³ł":585,"ì°":586,"ĠìŀĲ":587,"±°":588,"ĥĿ":589,"se":590,"ge":591,"Ġê²½":592,"ë£":593,"Ġìłķ":594,"la":595,"Ġwh":596,"Ġì°":597,"ĽĦ":598,"ëªħ":599,"Ġê¸":600,"ìĨĮ":601,"ist":602,"ìĹ¬":603,"Ġal":604,"ê³µ":605,"ĠR":606,"Ġby":607,"ë¥´":608,"ìĤ°":609,"Ġìľł":610,"Ġcon":611,"Ġìĸ":612,"Ġíķĺ":613,"ëŁ¬":614,"ìĹĪëĭ¤":615,"ìļ°":616,"ì¦":617,"ì¡°":618,"ë¬¸":619,"íĮ":620,"ĠF":621,"Ġ<":622,"ê¸Ī":623,"ers":624,"th":625,"ĠìĿ¼":626,"op":627,"Ġíı":628,"ìľĦ":629,"ìĦ¸":630,"Ġ4":631,"Ġthat":632,"Ġë¶Ģ":633,"Ġan":634,"'s":635,"Ġì²":636,"ê°Ħ":637,"ìĭł":638,"rom":639,"ĠìĬ":640,"ĠìĹ°":641,"ê°ľ":642,"íķľëĭ¤":643,"ĠD":644,"ìŀ¬":645,"ĠL":646,"ĠíĶ":647,"íķĻ":648,"ģ¬":649,"ì²´":650,"ere":651,"ì§Ħ":652,"¶Į":653,"Ġê°ľ":654,"ĠG":655,"Ġ5":656,"Ġë²":657,"ĠâĢ":658,"ìĦł":659,"Ġì¡":660,"um":661,"ĠW":662,"Ġê´Ģ":663,"ity":664,"Ġor":665,"est":666,"Ġwere":667,"Ġëª¨":668,"ìĭĿ":669,"Ġëį":670,"ĠíĮ":671,"ay":672,"½Ķ":673,"ê·":674,"ĠêµŃ":675,"ĠN":676,"ê´Ģ":677,"ĳľ":678,"ri":679,"µľ":680,"ëĭ¨":681,"ĠëĶ":682,"ë¶Ħ":683,"Ġë¯¸":684,"od":685,"Ġit":686,"Ġìĺ¤":687,"ĠìĨĮ":688,"ĠE":689,"Ġê³ł":690,"Ġat":691,"Ġë¹Ħ":692,"Ġfrom":693,"ëĭĪ":694,"¢ħ":695,"Ġv":696,"ê¶Į":697,"ê¹":698,"ĠëĤĺ":699,"Ġpro":700,"ĠíĨµ":701,"Ġde":702,"Ġë°ľ":703,"Ī¬":704,"ìĺĢ":705,"ĠìĦł":706,"ë§Ī":707,"if":708,"os":709,"ies":710,"pe":711,"ëł¥":712,"Ġ6":713,"Ġìĭł":714,"ĠëĲ":715,"res":716,"ìķĪ":717,"ĠìĦľ":718,"ìĹŃ":719,"êµĲ":720,"Ġcom":721,"ate":722,"Ġì¡°":723,"Ġë§Ī":724,"Ġ201":725,"ëĦ":726,"Ġêµ¬":727,"oc":728,"Ġì¹":729,"ĠìĽ":730,"av":731,"Ġìĺģ":732,"ëŀĺ":733,"¯¼":734,"ì¶ľ":735,"ĠìĻ":736,"íĥĢ":737,"Ġhe":738,"íħ":739,"Ġare":740,"ë¯¸":741,"ĠJ":742,"ëĤľ":743,"ain":744,"ëł¤":745,"íĴ":746,"and":747,"ìļĶ":748,"ìĺ¤":749,"ìľł":750,"ê¹Į":751,"Ġíķ´":752,"ĠëĤ´":753,"Ġíĸ":754,"±´":755,"ìĪ":756,"Ġr":757,"Ġsu":758,"ëĭ¹":759,"ac":760,"Ġìµľ":761,"ĠìĬ¤":762,"ich":763,"ëłĪ":764,"ian":765,"ĠìĿĺ":766,"íģ¬":767,"íİ":768,"ìĥĿ":769,"ìŀĳ":770,"ĠëıĻ":771,"ë¡Ŀ":772,"ĠìŀĪëĬĶ":773,"ld":774,"íŀ":775,"ud":776,"ìŀĦ":777,"¤Ģ":778,"ìĸµ":779,"ëį°":780,"ë¬´":781,"ort":782,"ìļ´":783,"ë°ĺ":784,"Ġì´":785,"ab":786,"íĳľ":787,"ìķ¼":788,"art":789,"ìĿ´ëĿ¼":790,"The":791,"ĳĲ":792,"Ġse":793,"íĹ":794,"ì°¨":795,"Ġê¸Ī":796,"Ġex":797,"ê±°":798,"íĴĪ":799,"ëª¨":800,"qu":801,"Ġë°©":802,"íĨµ":803,"íĶĦ":804,"ĠíĬ":805,"),":806,"ore":807,"ĠìĺĪ":808,"Â·":809,"íĽĦ":810,"ãĢ":811,"Ġ18":812,"ķĮ":813,"ê²½":814,"Ġì¦":815,"ëĤ´":816,"ìĺģ":817,"nt":818,"íĭ":819,"ê¹Įì§Ģ":820,"íŀĪ":821,"ated":822,"ĠìĦ±":823,"ĠìĹ¬":824,"Ġhis":825,"ê°ģ":826,"ew":827,"ì¤ĳ":828,"íı¬":829,"Ġë°ı":830,"ip":831,"ant":832,"igh":833,"ial":834,"20":835,"ê·¸":836,"ĠO":837,"ĠU":838,"ment":839,"ëĶ":840,"ĠíĺĦ":841,"ìĹ°":842,"Ġíĥ":843,"ĠìĦ¸":844,"Ġìĭ¤":845,"Ġë§¤":846,"ĠìķĬ":847,"Ġë¬´":848,"ìĿĮ":849,"Ġëħ":850,"ì¹´":851,"ë°ľ":852,"ess":853,"ë¯¼":854,"ìŀħ":855,"ë¬¼":856,"ĠëĶ°":857,"Ġë§Į":858,"Ĩł":859,"ìłĲ":860,"ive":861,"ak":862,"ë§¤":863,"ĠëıĦ":864,"ì§Ģë§Į":865,"íĺ¸":866,"ill":867,"Ġ200":868,"íĤ":869,"Ġ7":870,"ìĨį":871,"ë¶ĢíĦ°":872,"ëĬ¥":873,"ìĸĳ":874,"ĠëķĮ":875,"Ġwhich":876,"ìĺĢëĭ¤":877,"Ġê·":878,"Ġk":879,"Ġì§Ħ":880,"Ġìļ°":881,"ìĹĲëĬĶ":882,"íĸĪ":883,"ìłģìĿ¸":884,"ìłģìľ¼ë¡ľ":885,"ard":886,"all":887,"âĢĻ":888,"ĠëĮĢíķľ":889,"ë¥¸":890,"te":891,"ap":892,"ì¤Ģ":893,"ber":894,"Ġë¶Ħ":895,"ear":896,"ĺĲ":897,"Ġê±°":898,"ë°©":899,"Ġ8":900,"Ġê²°":901,"ë£Į":902,"Ġch":903,"Ġë§Ĳ":904,"gh":905,"Ġinc":906,"Ġ10":907,"Ġ9":908,"Ġê°ķ":909,"Ġê³Ħ":910,"ì´":911,"ìľ¼ë©°":912,"ĠâĢĺ":913,"Ķëĭ¤":914,"Ġhad":915,"Ġìŀ¥":916,"19":917,"ia":918,"ëįĺ":919,"ĠIn":920,"ical":921,"ĠíĻķ":922,"ìĹĪ":923,"Ġìŀ¬":924,"ê²©":925,"ìħ":926,"ìĭ¤":927,"ĠK":928,"ĠëĨ":929,"ĠëĺĲ":930,"ĠíĶĦ":931,"ì¢ħ":932,"ure":933,"íĺķ":934,"ì¸":935,"Ġu":936,"Ġì¶Ķ":937,"¸Į":938,"ë³¸":939,"Ġle":940,"Ġì¶ľ":941,"ĠíĽĦ":942,"ì¦Ŀ":943,"rou":944,"ome":945,"ìķ½":946,"Ġì§ĢëĤľ":947,"og":948,"ction":949,"íķ©":950,"Ġë°Ķ":951,"ĠêµĲ":952,"ary":953,"ì½Ķ":954,"ê¸ī":955,"our":956,"Ġì¦Ŀ":957,"ĠìĹĨ":958,"ìĪł":959,"ther":960,"000":961,"Ġë°ĺ":962,"Ġy":963,"pp":964,"ìĭ¬":965,"Ġìĸ´":966,"ĠìĥĿ":967,"ag":968,"ong":969,"ost":970,"ast":971,"íĹĺ":972,"ìĹĲê²Į":973,"ìļ¸":974,"Ī¬ìŀĲ":975,"ë©´ìĦľ":976,"ë°Ķ":977,"ord":978,"ìĸµìĽĲ":979,"Ġë¬¸":980,"Ġíı¬":981,"ìľµ":982,"ĠìĦ¤":983,"ine":984,"ëĭ¬":985,"ĠíĬ¹":986,"ëĲľëĭ¤":987,"ĠìĽĲ":988,"ê°Ĳ":989,"ame":990,"ìķĺ":991,"ë²ķ":992,"ĠëĦ":993,"Ġíİ":994,"ëĶĶ":995,"ĠĠ":996,"Ġë©":997,"ov":998,"Ġë¶Ī":999,"ens":1000,"ëĵ¤ìĿ´":1001,"íĮĮ":1002,"Ġìĺ¬":1003,"cc":1004,"Ġus":1005,"ell":1006,"ĠìĤ":1007,"ìłĢ":1008,"íĨł":1009,"íĭ°":1010,"ĠìľĦíķ´":1011,"Ġë°Ľ":1012,"ous":1013,"ĠSt":1014,"old":1015,"pt":1016,"Ġun":1017,"íķĺê¸°":1018,"ëł¨":1019,"êµ°":1020,"ë²Ī":1021,"Ġâ":1022,"ê±´":1023,"Ġnot":1024,"Ġê°Ĳ":1025,"ĠíļĮ":1026,"Ġìłģ":1027,"iz":1028,"ìĦ¤":1029,"ë£¨":1030,"ì§ģ":1031,"ë¦°":1032,"Ġì°¨":1033,"ĠëįĶ":1034,"per":1035,"ĠìķĪ":1036,"ī´":1037,"ì±":1038,"Ġëĭ¨":1039,"du":1040,"ign":1041,"ish":1042,"ĠíĨµíķ´":1043,"ount":1044,"íĶ¼":1045,"íķĺìĹ¬":1046,"Ġsh":1047,"Ġê²ĥìľ¼ë¡ľ":1048,"so":1049,"ran":1050,"ĠìĤ¬ìļ©":1051,"íĤ¤":1052,"ì¼":1053,"Ġì½Ķ":1054,"Ġê°Ļ":1055,"ìĬ¹":1056,"ire":1057,"Ġform":1058,"ĠëĲĺ":1059,"ave":1060,"Ġëħ¸":1061,"ì¦Ī":1062,"ub":1063,"Ġë°Ŀ":1064,"ë°°":1065,"ight":1066,"ëĲĺìĹĪëĭ¤":1067,"ĠCh":1068,"ìĦĿ":1069,"Ĳëĭ¤":1070,"age":1071,"ition":1072,"Ġcomp":1073,"ĠìĹŃ":1074,"Ġìŀĳ":1075,"ë²Ħ":1076,"ìĻ¸":1077,"íĻĺ":1078,"ìĿµ":1079,"\",":1080,"Ġres":1081,"ê²°":1082,"Ġë°°":1083,"íĸ¥":1084,"Ġìĥ":1085,"ff":1086,"´ĳ":1087,"ĠìķĮ":1088,"ë¦½":1089,"íķĺê²Į":1090,"ì§Ī":1091,"ì²Ń":1092,"íļ":1093,"ru":1094,"ĠíĮĮ":1095,"ë§Ŀ":1096,"ĠV":1097,"Ġëĭ¹":1098,"ë¹ĦìĬ¤":1099,"ëĳĲ":1100,"orm":1101,"ëĵ¤ìĿĢ":1102,"ĠíĻľ":1103,"Ġar":1104,"Ġalso":1105,"íķ¨":1106,"ë¡ł":1107,"Ġhas":1108,"Ġë°Ŀíĺ":1109,").":1110,"Ġê³¼":1111,"íĺĦ":1112,"ëŁī":1113,"ìĿ´ëĿ¼ê³ł":1114,"Ġcont":1115,"Ġë§İ":1116,"Ġ12":1117,"nder":1118,"ry":1119,"rit":1120,"ass":1121,"Ġyear":1122,"ouse":1123,"ult":1124,"ect":1125,"ĠìļĶ":1126,"Ġits":1127,"ĠëĨĴ":1128,"Ġìļ´":1129,"ie":1130,"Ġ11":1131,"Ġì±":1132,"Ġpart":1133,"Ġíķ¨":1134,"Ġwho":1135,"ork":1136,"Ġì°¸":1137,"Ġê²Į":1138,"Ġíķľëĭ¤":1139,"Ġì¢ħ":1140,"wn":1141,"ater":1142,"ë³Ħ":1143,"ê·¼":1144,"Ġad":1145,"are":1146,"mer":1147,"ations":1148,"ĠìĪ":1149,"ëŀĢ":1150,"Ġíıī":1151,"ĠìĻ¸":1152,"âĢĿ":1153,"own":1154,"Ġë¯¸êµŃ":1155,"ĠíķľêµŃ":1156,"lud":1157,"Ġë¦":1158,"Ġìŀħ":1159,"Ġëį°":1160,"In":1161,"ĠëĳĲ":1162,"Ġë°ĿíĺĶëĭ¤":1163,"ĠëĤ¨":1164,"ib":1165,"Ġëĭ¬":1166,"Ġwhe":1167,"íĥľ":1168,"over":1169,"ĠâĢľ":1170,"irst":1171,"Ġë¹":1172,"ë¥ĺ":1173,"ĠëĬ":1174,"ìľ¡":1175,"Ġhave":1176,"ide":1177,"Ġall":1178,"Ġì¹´":1179,"íķĺëĭ¤":1180,"ence":1181,"Ġì´Ī":1182,"ëĤł":1183,"out":1184,"ìĹĲìĦľëĬĶ":1185,"Ġtheir":1186,"ëª©":1187,"ric":1188,"Ġper":1189,"ue":1190,"ë¸Į":1191,"ual":1192,"Ġíģ":1193,"ust":1194,"ëħ¸":1195,"Ġì»":1196,"ê»":1197,"ates":1198,"ìľ¨":1199,"ìħĺ":1200,"ìķĺëĭ¤":1201,"Ġint":1202,"ĠìĿ´íĽĦ":1203,"ph":1204,"ëĵ¤ìĿĺ":1205,"ould":1206,"íķĺìĺĢëĭ¤":1207,"Ġê±´":1208,"ì»":1209,"Ġ199":1210,"wo":1211,"Ġë¦¬":1212,"Ġê²½ìļ°":1213,"Ġë¡":1214,"ok":1215,"íİ¸":1216,"ëł¹":1217,"Ġbut":1218,"ëĵ±":1219,"erv":1220,"Ġê°ĢëĬ¥":1221,"Ġì§ģ":1222,"ì²ĺ":1223,"fter":1224,"Ġab":1225,"Ġinclud":1226,"ces":1227,"Ġother":1228,"íĥĿ":1229,"Ġì´Ŀ":1230,"amp":1231,"\".":1232,"ëŀĮ":1233,"ice":1234,"Ġfirst":1235,"ê»ĺ":1236,"ì´Ī":1237,"ĠíķĻ":1238,"ory":1239,"ëĿ½":1240,"ĠìłĲ":1241,"ĠíĮĲ":1242,"Ġê°ģ":1243,"ced":1244,"ê°ķ":1245,"ëĵł":1246,"ĠTh":1247,"Ġìķ½":1248,"ìķ¡":1249,"Ġâĸ":1250,"ìĬ¤íĬ¸":1251,"ime":1252,"any":1253,"Ġíĸī":1254,"one":1255,"Ġra":1256,"Ġsp":1257,"ĠUn":1258,"Ġê¸Īìľµ":1259,"Ġë³Ģ":1260,"ë¦¬ìķĦ":1261,"ìĥ":1262,"ë³´ëĭ¤":1263,"ĠíĪ¬ìŀĲ":1264,"ĠìĹħ":1265,"íļį":1266,"ang":1267,"Ġ15":1268,"hed":1269,"ree":1270,"ĠëĶ°ëĿ¼":1271,"ck":1272,"Ġage":1273,"opul":1274,"ì¡±":1275,"íķĺë©°":1276,"Ġim":1277,"¤Ħ":1278,"ĠëĮĢíķ´":1279,"Ġone":1280,"ĢìĿ´":1281,"Ġê¹":1282,"ì²ľ":1283,"ĠëķĮë¬¸":1284,"Ġ0":1285,"act":1286,"ond":1287,"Ġëªħ":1288,"ê°Ŀ":1289,"ìŀĲëĬĶ":1290,"ĠíķĦ":1291,"íħĮ":1292,"íĶĮ":1293,"Ġthis":1294,"ile":1295,"fer":1296,"ely":1297,"íĮĲ":1298,"Ġbec":1299,"les":1300,"ë¦Ħ":1301,"¸Ķ":1302,"ëĲĺëĬĶ":1303,"ĠìĹ´":1304,"Ġcl":1305,"ĠìĤ°":1306,"Ġê°ĻìĿĢ":1307,"ĠíĹ":1308,"ì¡Į":1309,"ĠíĿ":1310,"ëĲĲëĭ¤":1311,"Ġover":1312,"ents":1313,"ëĤ¨":1314,"ìĹĲëıĦ":1315,"ë©Ķ":1316,"Ġhouse":1317,"ound":1318,"Ġpopul":1319,"Ġíķ¨ê»ĺ":1320,"Ġpla":1321,"ë¨":1322,"ĠIt":1323,"Ġë§ĲíĸĪëĭ¤":1324,"ĠíĶĦë¡ľ":1325,"Ġíģ¬":1326,"form":1327,"land":1328,"Ġê·ľ":1329,"Ġbeen":1330,"ĠìĹĲ":1331,"ĠëĿ":1332,"·¨":1333,"Ġë³¸":1334,"erm":1335,"Ġunder":1336,"ĠìĦľë¹ĦìĬ¤":1337,"Ġìĭľìŀ¥":1338,"Ġdis":1339,"Ġì§ĢìĹŃ":1340,"íİĺ":1341,"tern":1342,"ëŀľ":1343,"lic":1344,"ited":1345,"Ġì§Ħíĸī":1346,"ark":1347,"ì±ħ":1348,"ade":1349,"ack":1350,"ĠìłĢ":1351,"ë³µ":1352,"ë§ĮìĽĲ":1353,"Ġj":1354,"Ġen":1355,"ĠìĥĪ":1356,"ĠHe":1357,"ìĿĢíĸī":1358,"Ġê¸°ë¡Ŀ":1359,"Âł":1360,"ĠíĶ¼":1361,"ite":1362,"Ġ17":1363,"ĠìŀĦ":1364,"íģ":1365,"ìĨ¡":1366,"ì¶ķ":1367,"Ġë¬¼":1368,"Łģ":1369,"ìĬµ":1370,"ach":1371,"Ġê¸°ìĹħ":1372,"hold":1373,"Ġtwo":1374,"ula":1375,"íĻ©":1376,"Ġrec":1377,"Ġìĸĳ":1378,"port":1379,"Ġì§ĢìĽĲ":1380,"ìĸ¸":1381,"ough":1382,"uring":1383,"Ġte":1384,"Ġcomm":1385,"Ġìłľê³µ":1386,"Ġíķł":1387,"ft":1388,"ions":1389,"ìŁģ":1390,"ĠìĤ¼":1391,"ĠíĻĶ":1392,"ëłĪìĿ´":1393,"ĠìľĦíķľ":1394,"Ġ16":1395,"Ġëĭ¤ë¥¸":1396,"Ġê°Ħ":1397,"Ġag":1398,"ì¸ł":1399,"Ġyears":1400,"ĠìĹ°êµ¬":1401,"Ġì²´":1402,"Ġì§ĳ":1403,"vel":1404,"Ġëª©":1405,"ëıħ":1406,"ke":1407,"ëıĦë¡Ŀ":1408,"Ġhousehold":1409,"we":1410,"ì¡´":1411,"ational":1412,"ì½":1413,"Ġìĭľìŀĳ":1414,"Ġëĵ¤":1415,"ĠìĿ´ìĸ´":1416,"ìĽĮ":1417,"ìĶ":1418,"Ġcan":1419,"ĠíĸĪëĭ¤":1420,"ild":1421,"ose":1422,"Ġê´Ģëł¨":1423,"Ġëī´":1424,"ance":1425,"Ģë¡ľ":1426,"ĠìĤ¬ìĹħ":1427,"ors":1428,"ëĭ´":1429,"ìŀ¥ìĿĢ":1430,"ëĭĪëĭ¤":1431,"łëĭ¤":1432,"Ġro":1433,"ne":1434,"ëŀĳ":1435,"Ġ198":1436,"íķĺì§Ģ":1437,"Ġne":1438,"able":1439,"ng":1440,"Ġpres":1441,"ë¦¼":1442,"ëĦĪ":1443,"Ġthere":1444,"ĠíĻĺ":1445,"íķŃ":1446,"red":1447,"ĠìĿĮ":1448,"Ġmore":1449,"amil":1450,"ĠêµŃëĤ´":1451,"ĠëĿ¼":1452,"Ġê°Ģìŀ¥":1453,"Ġë©Ķ":1454,"Ġout":1455,"Ġê´Ģê³Ħ":1456,"Ġì¦Ŀê°Ģ":1457,"ëĲł":1458,"ë³ĳ":1459,"Ġ202":1460,"ied":1461,"ĠëĮĢíĳľ":1462,"ëįĶ":1463,"Ġíĺ¸":1464,"oll":1465,"ĠíĺĦìŀ¬":1466,"Ġê²ĥìĿ´":1467,"ĠìĪľ":1468,"ê·ľ":1469,"ĠëĶĶ":1470,"į¼":1471,"Ġdes":1472,"ĠëĲľ":1473,"ëĦ¤":1474,"Ġì¤ĳêµŃ":1475,"ans":1476,"âĢĵ":1477,"Ġê°ľë°ľ":1478,"int":1479,"Ġì²ĺ":1480,"Ġë¡ľ":1481,"Ġíĺĳ":1482,"ìĺ¨":1483,"Ġê²ĮìŀĦ":1484,"ĠíĶĮ":1485,"Ġëł":1486,"ëĲĺìĸ´":1487,"íĺĳ":1488,"Ġsc":1489,"Ġì¢":1490,"ë¥ł":1491,"ĠìĦľìļ¸":1492,"íĪ¬":1493,"ë¦¬ëĬĶ":1494,"ĠãĢ":1495,"íĿ":1496,"Ġëĭ¤ìĸĳ":1497,"ì³":1498,"Ġëıħ":1499,"ìĺĪ":1500,"ool":1501,"meric":1502,"ales":1503,"Ġ13":1504,"Ġafter":1505,"Ġcent":1506,"ê¸°ë¥¼":1507,"Ġinto":1508,"ĠRe":1509,"aw":1510,"ìłĪ":1511,"ĠAl":1512,"Ġìłķë¶Ģ":1513,"íķĻêµĲ":1514,"Ġthey":1515,"Ġ14":1516,"Ġìķŀ":1517,"ì§ĳ":1518,"Ġev":1519,"ê²¬":1520,"10":1521,"Ġup":1522,"ons":1523,"%)":1524,"ëĵ¤ìĿĦ":1525,"Ġì±Ħ":1526,"Ġ30":1527,"Ġíļ":1528,"50":1529,"ase":1530,"Ġìº":1531,"ìĿ´ëĤĺ":1532,"Ġíķ©":1533,"Ġíĺķ":1534,"Ġspe":1535,"ased":1536,"ì¡Įëĭ¤":1537,"Ġê·¸ëĬĶ":1538,"Ġëĵ±ìĿĦ":1539,"Ġ100":1540,"Ġ197":1541,"ĠčĊ":1542,"Ġê¸°ì¤Ģ":1543,"ren":1544,"Ġpe":1545,"ĠìĿ¼ë³¸":1546,"lo":1547,"ĠY":1548,"hip":1549,"Ġpre":1550,"ath":1551,"Ġíĳľ":1552,"Ġì§ĢëĤľíķ´":1553,"íĪ¬ìŀĲ":1554,"Ġsy":1555,"ally":1556,"Ġê¸°ìĪł":1557,"ake":1558,"íıī":1559,"rough":1560,"Ġher":1561,"ĠìĿ´ë²Ī":1562,"ail":1563,"Ġë§ŀ":1564,"ĠìĥģìĬ¹":1565,"ĠìĤ¬ëŀĮ":1566,"Ġsuch":1567,"Ġpopulation":1568,"Ġwork":1569,"Ġë¸Į":1570,"Ġcons":1571,"Ġì²Ń":1572,"ĠëĪ":1573,"Ġì¹ĺ":1574,"ëĿ¼ëĬĶ":1575,"ress":1576,"ëĿ¼ê³ł":1577,"ë²ł":1578,"Ġnew":1579,"Ġë²ķ":1580,"rib":1581,"ì¦Ŀê¶Į":1582,"Ġbet":1583,"ĠìĿ´ìļ©":1584,"ĠAmeric":1585,"Ġele":1586,"ìĤ":1587,"Ġcity":1588,"ìł¸":1589,"Ġëĭ¤ìĿĮ":1590,"Ġë²Ī":1591,"Ġì·¨":1592,"ĠëłĪ":1593,"Ġíı¬íķ¨":1594,"iss":1595,"Ġsome":1596,"Ġme":1597,"Ġëģ":1598,"ĠìĿ´ìĥģ":1599,"Ġmost":1600,"Ġìĭ¬":1601,"Ġì°½":1602,"Ġê´ĳ":1603,"ãĢĭ":1604,"ĠìĨį":1605,"18":1606,"ê²łëĭ¤":1607,"ìĦ±ìĿĦ":1608,"Ġì½":1609,"ë¥´ë©´":1610,"ëī´":1611,"íħľ":1612,"reat":1613,"ings":1614,"Ġused":1615,"Ġreg":1616,"ë¹":1617,"ĠìĦ¸ê³Ħ":1618,"ind":1619,"Ġê³Ħíļį":1620,"ìĭľìķĦ":1621,"Ġëª»":1622,"Ġoff":1623,"ale":1624,"ĠíķĦìļĶ":1625,"ë²Į":1626,"ê´ĳ":1627,"Ġê³łê°Ŀ":1628,"Ġëĭ¤ìĸĳíķľ":1629,"Ġwould":1630,"Ġpr":1631,"Ġtime":1632,"íķĺë©´":1633,"Ġ196":1634,"ìľĦìĽĲ":1635,"Ġíħ":1636,"ê¸°ìĹĲ":1637,"ìĤ¬ë¥¼":1638,"ĠíķĺëĬĶ":1639,"ĠíķĺëĤĺ":1640,"Ġliv":1641,"íĻľ":1642,"ìĭľìĬ¤":1643,"ë¦¬ë¥¼":1644,"ìķħ":1645,"Ġ25":1646,"ĠìĺĪìłķ":1647,"xt":1648,"gan":1649,"ĠëĺĲíķľ":1650,"ëħĦìĹĲ":1651,"Ġpl":1652,"cial":1653,"ious":1654,"Ġíİ¸":1655,"Ġloc":1656,"Ġfamil":1657,"¿ł":1658,"Ġíŀ":1659,"Ġthem":1660,"Ġmed":1661,"arly":1662,"ween":1663,"Ġë¨":1664,"ì§ĢëĬĶ":1665,"ª½":1666,"ĠíĴ":1667,"ics":1668,"Ġcount":1669,"ĠìĻĦ":1670,"ìŀ¥ìĿĦ":1671,"ĠAs":1672,"Ġapp":1673,"ê¸Īìľµ":1674,"ëŁ¼":1675,"ener":1676,"ì§¸":1677,"ìŀĲê°Ģ":1678,"ict":1679,"ë¦¬ê³ł":1680,"ative":1681,"ëŁ°":1682,"ĠëĶ°ë¥´ë©´":1683,"Ġkn":1684,"ëĬĶëį°":1685,"ĠìĦ¤ëªħ":1686,"Ġê¹Ģ":1687,"ëĲĺê³ł":1688,"Ġno":1689,"ĠĠĠĠ":1690,"Ġë²ł":1691,"Ġcol":1692,"very":1693,"ĠëķĮë¬¸ìĹĲ":1694,"Ġrel":1695,"ific":1696,"Ġê±°ëŀĺ":1697,"ĠëĴ":1698,"Ġêµ°":1699,"rans":1700,"chool":1701,"Ġì¤Ħ":1702,"Ġë§İìĿĢ":1703,"ëĥ":1704,"aus":1705,"Ġind":1706,"Ġë¶ģ":1707,"ì£¼ìĿĺ":1708,"ĠSe":1709,"urn":1710,"ĠëĤĺíĥĢ":1711,"ìĿ´ë©°":1712,"oth":1713,"ê¸°ìĹħ":1714,"ĠëĬĺ":1715,"ism":1716,"ĠìĿĢ":1717,"Ġthan":1718,"Ġê²½ê¸°":1719,"ĠìĤ¬ìĿ´":1720,"Ġexp":1721,"olog":1722,"Ġ24":1723,"ĠìķĦëĭĪ":1724,"Ġìĺ¬íķ´":1725,"ëŁ½":1726,"ìľ¼ëĤĺ":1727,"ëł¥ìĿĦ":1728,"Ġê²Ģ":1729,"ìĦ±ìĿ´":1730,"ëŀľëĵľ":1731,"ĠìĬ¹":1732,"ë¶ģ":1733,"overn":1734,"Ġtown":1735,"ĠíĬ¸":1736,"round":1737,"Ġ$":1738,"Ġbetween":1739,"Ġformula":1740,"ĠëĮĢë¹Ħ":1741,"ĠëĺĲëĬĶ":1742,"Ġë¯¼":1743,"ëĵĿ":1744,"Ġserv":1745,"Ġëĵľ":1746,"ĠìķĦìĿ´":1747,"ĠAr":1748,"Ġì¶ľìĭľ":1749,"ities":1750,"Ġprodu":1751,"ĠêµŃê°Ģ":1752,"Ġwhen":1753,"ìĽĲìĿĢ":1754,"au":1755,"ìĥī":1756,"ìĪľ":1757,"ĠíĥĢ":1758,"ëĲĺìĹĪ":1759,"Ġë¬¸ìłľ":1760,"ood":1761,"Ġê²ĥìĿ´ëĭ¤":1762,"ìłĳ":1763,"ts":1764,"ìĿ´íĦ°":1765,"Ġsub":1766,"Ġíģ°":1767,"Ġrep":1768,"Ġìļ´ìĺģ":1769,"orld":1770,"Ġacc":1771,"arg":1772,"ĠDe":1773,"ê·¹":1774,"ë¨¸":1775,"30":1776,"ëĮĢë¡ľ":1777,"ĠìŀĲìĭł":1778,"Ġatt":1779,"ward":1780,"Ġinter":1781,"ĠìĤ¼ìĦ±":1782,"Ġê·¼":1783,"ë°Ľ":1784,"ople":1785,"ìĶ¨":1786,"ĠìĨĲ":1787,"Ġê²ĥìĿĦ":1788,"io":1789,"ve":1790,"ublic":1791,"Ġonly":1792,"Ġhim":1793,"ë¸Ķ":1794,"ë´":1795,"ìĭľìŀ¥":1796,"ĠëĦ¤":1797,".\"":1798,"up":1799,"cted":1800,"ìĦ¼":1801,"ys":1802,"íķĺë©´ìĦľ":1803,"ĠëĲľëĭ¤":1804,"Ġìķł":1805,"Ġdec":1806,"orth":1807,"ì¸µ":1808,"íı°":1809,"ìª½":1810,"Ġë³µ":1811,"ĠêµĲìľ¡":1812,"Ġíĥľ":1813,"way":1814,"ont":1815,"Ġëª¨ëĳĲ":1816,"ident":1817,"ì±Ħ":1818,"ĠíĨł":1819,"ë¡Ģ":1820,"ury":1821,"Ġëĵ¤ìĸ´":1822,"íį¼":1823,"Ġë°ľíĳľ":1824,"ìĹ´":1825,"ĠëıĮ":1826,"Ġtra":1827,"ìĬ¤ëĬĶ":1828,"Ġ|":1829,"¨ìĸ´":1830,"rad":1831,"ìĿĳ":1832,"ë°ķ":1833,"Ġê·¸ëŁ¬":1834,"ëĬĶëĭ¤":1835,"ĠíķŃ":1836,"Ġthrough":1837,"Ġmade":1838,"ished":1839,"ìµľ":1840,"outh":1841,"êµŃìĿĺ":1842,"Ġëĸ":1843,"ĠThis":1844,"ince":1845,"Ġê¸Īì§Ģ":1846,"Ġë§Įëĵ¤":1847,"ace":1848,"ars":1849,"15":1850,"ĠUnited":1851,"ë¡ľìļ´":1852,"Ġë°ľìĥĿ":1853,"Ġì¶©":1854,"ì´Ŀ":1855,"its":1856,"Ġso":1857,"Ġpol":1858,"ìĦľëĬĶ":1859,"ì¼Ģ":1860,"íķ´ìķ¼":1861,"ì¶Ķ":1862,"Ġduring":1863,"Ġë§¤ì¶ľ":1864,"ollow":1865,"Ġê²°ê³¼":1866,"Ġwe":1867,"Ġëĭ´":1868,"ram":1869,"ĠëĴ¤":1870,"Ġìłĳ":1871,"Ġìĸ¸":1872,"Ġì»¤":1873,"ilm":1874,"Ġ-":1875,"oun":1876,"íĸĪëĭ¤ê³ł":1877,"ĠíĬ¹íŀĪ":1878,"ember":1879,"ĠëĮĢìĥģ":1880,"ĠNew":1881,"ered":1882,"ë¶Ħê¸°":1883,"ì§Ģë¥¼":1884,"ê±°ëĤĺ":1885,"Ġâĸ²":1886,"12":1887,"ëĦĲ":1888,"inal":1889,"ob":1890,"ten":1891,"ì°°":1892,"ĠìĿ´ëĤł":1893,"ĠíĮĲë§¤":1894,"Ġnum":1895,"ìĿ´ëĿ¼ëĬĶ":1896,"stem":1897,"Ġrem":1898,"Ġíļ¨":1899,"Ġíģ´":1900,"Ġfem":1901,"ted":1902,"ìĿ´ê³ł":1903,"ë³Ģ":1904,"ë§Ĳ":1905,"Ġbu":1906,"ĠìłĦë§Ŀ":1907,"Ġam":1908,"Ġì¶Ķê°Ģ":1909,"Ġsec":1910,"ĠíĻķëĮĢ":1911,"ĠCom":1912,"Ġì¤Ģ":1913,"ĠìĤ´":1914,"Ġìµľê·¼":1915,"17":1916,"ĠíķĺëĿ½":1917,"ĠìŀĪìĸ´":1918,"Ġìĺģíĸ¥":1919,"ĠìĭĿ":1920,"Ġêµ¬ìĦ±":1921,"ëģ":1922,"Ġass":1923,"ê°ģì£¼":1924,"Ġë²Ħ":1925,"ivers":1926,"Ġqu":1927,"16":1928,"ĠíĪ¬":1929,"ĠìĿ¼ë¶Ģ":1930,"ëĤ¬":1931,"orn":1932,"ĠìĿ´ëĬĶ":1933,"Ġplay":1934,"Ġbo":1935,"Ġì¢ĭ":1936,"ating":1937,"ĠìĺģìĹħ":1938,"Ġ194":1939,"Ġincluding":1940,"ìķł":1941,"ĵ°":1942,"ìĹĶ":1943,"Ġëª¨ëĵł":1944,"ìĤ¬ìĹħ":1945,"ensus":1946,"ĠìĤ¬íļĮ":1947,"oh":1948,"ĠAmerican":1949,"ìĭľê°Ħ":1950,"ëĨ":1951,"Ġì°¸ìĹ¬":1952,"Ġëĵ±ìĿ´":1953,"ins":1954,"Ġpeople":1955,"oint":1956,"Ġact":1957,"ug":1958,"ann":1959,"200":1960,"ever":1961,"ution":1962,"ĠìĹĨëĭ¤":1963,"Ġì²«":1964,"Ġê¸°ëĮĢ":1965,"ĠãĢĬ":1966,"ĠìĥģíĻ©":1967,"Ġco":1968,"Ġê²°ìłķ":1969,"íĸĪê³ł":1970,"Ġë°ķ":1971,"led":1972,"velop":1973,"Ġset":1974,"Ġì¸":1975,"ĠìŀĪìľ¼ë©°":1976,"Ġmay":1977,"ë£¹":1978,"ines":1979,"ĠìĦ±ìŀ¥":1980,"Ġê²½ìłľ":1981,"Ġê¸ī":1982,"ë§ĪíĬ¸":1983,"ject":1984,"Ġprov":1985,"Ġëħ¼":1986,"Ġhouseholds":1987,"ì§Ģê³ł":1988,"Ġ=":1989,"ìŀĲìĿĺ":1990,"Ġìļ°ë¦¬":1991,"ľ´":1992,"ìĿ´íĬ¸":1993,"Ġê·ľëª¨":1994,"(:":1995,"ìĤ¬ëĬĶ":1996,"Ġmany":1997,"Ġtrans":1998,"Ġwhere":1999,"li":2000,"Ġsupp":2001,"Ġsk":2002,"ife":2003,"Ġê²ĥìĿĢ":2004,"Ġac":2005,"iet":2006,"ock":2007,"íĥĪ":2008,"14":2009,"Ġ.":2010,"ĠìµľëĮĢ":2011,"Ġcall":2012,"ick":2013,"ìĽĢ":2014,"cy":2015,"ower":2016,"Ġíĸ¥":2017,"ì°½":2018,"Ġdist":2019,"Ġmod":2020,"ëŀ¨":2021,"ral":2022,"Ġìłķë³´":2023,"ê·ł":2024,"ĠìłĦë¬¸":2025,"ê¸Ģ":2026,"ë²Ķ":2027,"Ġíıīê°Ģ":2028,"ëł¸":2029,"ëŀµ":2030,"Ġê°ľìĿ¸":2031,"iver":2032,"ìĿ´ëĬĶ":2033,"che":2034,"Ġì½ĶìĬ¤":2035,"±¸":2036,"arri":2037,"ĠíĮ¨":2038,"ĠStates":2039,"Ġem":2040,"raph":2041,"Ġgovern":2042,"ĠìĿ¼ë°ĺ":2043,"Ġabout":2044,"Ġëĵ±ìĿĺ":2045,"ton":2046,"ĠëĦĺ":2047,"ì³Ĳ":2048,"Ġì¶ķ":2049,"Ġold":2050,"ĠìłľíĴĪ":2051,"Ġstud":2052,"ty":2053,"arch":2054,"ìĤ¬ê°Ģ":2055,"ĠFor":2056,"Ġì£¼ìļĶ":2057,"ĠìĥģíĴĪ":2058,"ern":2059,"Ġret":2060,"Ġlater":2061,"ĠìĺĪìĥģ":2062,"Ġpos":2063,"Ġê¸°ìŀĲ":2064,"Ġinv":2065,"ĠíĻľëıĻ":2066,"íĻĶë¥¼":2067,"fore":2068,"ìĿ´ìĿµ":2069,"ĠìĦłìĪĺ":2070,"Ġê´Ģê³ĦìŀĲëĬĶ":2071,"the":2072,"ĠëıĻìķĪ":2073,"Ġbecame":2074,"ps":2075,"Ġfollow":2076,"ì§ķ":2077,"ìŀĳê¶Į":2078,"Ġfilm":2079,"Ġap":2080,"als":2081,"Ġarea":2082,"íĮħ":2083,"Ġliving":2084,"Ġë¶ĦìĦĿ":2085,"aj":2086,"ĠìĪĺì¤Ģ":2087,"Ġfound":2088,"ìĺ¬":2089,"Ġdef":2090,"ëħĢ":2091,"vers":2092,"ëĪ":2093,"tle":2094,"Ģëĵľ":2095,"Ġfe":2096,"ĠíĻľìļ©":2097,"Ġknown":2098,"ix":2099,"Ġë¬´ëĭ¨":2100,"íĨ":2101,"Ġman":2102,"ëĵ¤ìĹĲê²Į":2103,"Ġ22":2104,"Ġph":2105,"iel":2106,"ë°±":2107,"Ġì¡´":2108,"íħĶ":2109,"ë¶Ī":2110,"ise":2111,"Ġ21":2112,"ĠLe":2113,"Ġ23":2114,"Ġsystem":2115,"íĥĦ":2116,"ĠìŀĪìĹĪëĭ¤":2117,"Ġì§ĢìĨį":2118,"ë°°íı¬":2119,"ined":2120,"ĠíĤ":2121,"íķĺìĺĢ":2122,"ĠëĨĴìĿĢ":2123,"ĠìĿ´ë¥¼":2124,"ë¦Ń":2125,"ĠìĥĪë¡ľìļ´":2126,"Ģë¡ľë²Į":2127,"Ġagain":2128,"ros":2129,"ĠíħĮ":2130,"ëı¼":2131,"yle":2132,"ë¦¬ìĬ¤":2133,"ìĥģìĿĦ":2134,"ĠìłĪ":2135,"ëĸ":2136,"Ġíİĺ":2137,"ê¸°ëıĦ":2138,"Ġest":2139,"Ġwhile":2140,"Ġany":2141,"ê·¸ëŀ¨":2142,"Ġdo":2143,"ĩ´":2144,"ì»¤":2145,"ĠìŀĪëıĦë¡Ŀ":2146,"ìĦľìļ¸":2147,"ĠìľĦì¹ĺ":2148,"ìĪĺëĬĶ":2149,"ìĿ´ìĬ¤":2150,"ê¸¸":2151,"ized":2152,"Ġëĭ¹ìĭľ":2153,"Ġíķ´ëĭ¹":2154,"Ġdevelop":2155,"ìľĦìĽĲíļĮ":2156,"Ġê¸°ì¡´":2157,"ures":2158,"Ġì½ĺ":2159,"Ġend":2160,"Ġcap":2161,"ĠëĲĺìĹĪëĭ¤":2162,"Ġdif":2163,"Ġimp":2164,"íĮĢ":2165,"Ġê°ľìĦł":2166,"Ġthree":2167,"ìĤ¬ìĿĺ":2168,"ìĿ´ìĹĪëĭ¤":2169,"Ġmov":2170,"ement":2171,"ĠìĭľìĬ¤":2172,"Ġìĭľê°Ħ":2173,"Ġì¸¡":2174,"íĻķ":2175,"ature":2176,"ists":2177,"Ġinst":2178,"ìłķìĿĦ":2179,"ĠìĿ´ë¦Ħ":2180,"Ġ26":2181,"Ġshe":2182,"ĠëĤ®":2183,"ĠìĹ¬ëŁ¬":2184,"owever":2185,"Ġbeing":2186,"ìłĢìŀĳê¶Į":2187,"ĠìķĮëł¤":2188,"Ġthen":2189,"emb":2190,"Ġli":2191,"ìŀĲë¥¼":2192,"Ġì²ł":2193,"13":2194,"ìłĦìŀ¬":2195,"elf":2196,"man":2197,"ë²¤":2198,"Ġ28":2199,"cept":2200,"ĠCount":2201,"ìĹĲìĦľëıĦ":2202,"Ġ27":2203,"Ġê°ĸ":2204,"ĠìºĲ":2205,"ìĿ¸íĬ¸":2206,"Ġë¬´ëĭ¨ìłĦìŀ¬":2207,"Ġê¶Į":2208,"ìłĢìŀĳê¶ĮìŀĲ":2209,"Ġê·¸ëŁ¬ëĤĺ":2210,"Ġleft":2211,"Ġwell":2212,"Ġmet":2213,"ê¸°ê°Ģ":2214,"Ġsur":2215,"ìĦ¸ë¥¼":2216,"ì¿ł":2217,"Ġent":2218,"ĠìĭľìĬ¤íħľ":2219,"Ġìļ©":2220,"Ġgener":2221,"Ġ65":2222,"Ġì¤ĳìĭ¬":2223,"Ġbel":2224,"Ġ50":2225,"ather":2226,"ĠëĪĦ":2227,"ĠìĻķ":2228,"ì°©":2229,"ah":2230,"ural":2231,"ëĿ¼ìĿ´":2232,"Ġmus":2233,"25":2234,"ĠíĺĦëĮĢ":2235,"ank":2236,"ë¡ľëĤĺ":2237,"Ġaver":2238,"Ġuse":2239,"Ġadd":2240,"ision":2241,"Ġë¸Ķ":2242,"íħĲ":2243,"ert":2244,"ëĤ¬ëĭ¤":2245,"ë¦¬ê°Ģ":2246,"ì¸¡":2247,"end":2248,"ize":2249,"ĠíĹĪ":2250,"ording":2251,"ë§ģ":2252,"ĠIs":2253,"íıŃ":2254,"Ġìłģìļ©":2255,"Ġíķ´ìĻ¸":2256,"ìĿ¸ëĭ¤":2257,"Ġê°ģê°ģ":2258,"ec":2259,"Ġëĭ¤ìĭľ":2260,"ê³¡":2261,"Ġmain":2262,"ê°ĢëĬĶ":2263,"ĠìĨĮë¹Ħ":2264,"ëıĦë¡ľ":2265,"lished":2266,"ê°Ī":2267,"ĠìĺĪìłķìĿ´ëĭ¤":2268,"ĠìĤ°ìĹħ":2269,"Ġâĸ³":2270,"ë§ī":2271,"Ġinf":2272,"11":2273,"ause":2274,"ually":2275,"Ġhigh":2276,"other":2277,"Ġê°ķíĻĶ":2278,"ĠìĪĺìĿµ":2279,"Ġê¸°ê°Ħ":2280,"Ġìµľê³ł":2281,"ĠíıŃ":2282,"Ġíķĺì§Ģë§Į":2283,"ì¹¨":2284,"ëį¸":2285,"ëıĦë¥¼":2286,"Ġcensus":2287,"Ġëľ":2288,"íļĮìĿĺ":2289,"ëħĲ":2290,"ĠëŁ":2291,"Ġê¸°ë°ĺ":2292,"ograph":2293,"ê²¨":2294,"ĠìĽĶ":2295,"ê°ľìĽĶ":2296,"ìľĦë¥¼":2297,"ĠìĿĺíķ´":2298,"ters":2299,"ìĬ¤ìĿĺ":2300,"Ġ,":2301,"ĠíĻķìĿ¸":2302,"Ġaverage":2303,"Ġob":2304,"ĠìłĦì²´":2305,"Ġthese":2306,"Ġì²ĺìĿĮ":2307,"Ġìľłì§Ģ":2308,"Ġfamily":2309,"ì¦Į":2310,"íĨµìĭł":2311,"ĠìĿ´ìĹĲ":2312,"íĶ½":2313,"Ġvar":2314,"Ġboth":2315,"Ġê±¸":2316,"ìķĻ":2317,"Ġì°¾":2318,"Ġoper":2319,"Ġ195":2320,"Ġì¤ĳìļĶ":2321,"Ġê·¸ìĿĺ":2322,"Ġë³´íĹĺ":2323,"air":2324,"Ġê°ĲìĨĮ":2325,"íĸĪìľ¼ë©°":2326,"Ġsign":2327,"ĩ¼":2328,"ìŀ¥ìĿ´":2329,"ì½Ķë¦¬ìķĦ":2330,"ically":2331,"Ġland":2332,"ìĿ´ëĿ¼ë©°":2333,"ron":2334,"Ġhist":2335,"ĠìĥĿê°ģ":2336,"row":2337,"pen":2338,"ĠëĨį":2339,"lu":2340,"Ġë³ĳ":2341,"ames":2342,"Ġìŀĺ":2343,"ield":2344,"hen":2345,"Ġlead":2346,"ient":2347,"ctions":2348,"Ġìķ¼":2349,"ê±°ëŀĺ":2350,"Ġì¶Ķì§Ħ":2351,"uro":2352,"Ġstyle":2353,"Ġcalled":2354,"Ġchar":2355,"iew":2356,"ì¹ĺë¥¼":2357,"ved":2358,"ë¶Ģë¶Ħ":2359,"ĠìķĦëĭĪëĿ¼":2360,"ĠêµŃìłľ":2361,"Ġpresent":2362,"ì²ł":2363,"Ġê·¸ë¦¬ê³ł":2364,"Ġë°±":2365,"ĠíĤ¤":2366,"ëĭ¤ëĬĶ":2367,"Ġ2020":2368,"ĠSh":2369,"az":2370,"ĠEng":2371,"ĠëĮĢíķľë¯¼":2372,"íģ´":2373,"íĤ¨":2374,"con":2375,"Ġsm":2376,"íĨµëł¹":2377,"Ġmedian":2378,"Ġ29":2379,"íĮ¨":2380,"Ġê¸Ģë¡ľë²Į":2381,"Ġsever":2382,"Ġorig":2383,"ĠÂ":2384,"pr":2385,"ĠìĺģíĻĶ":2386,"ëĭ¬ëŁ¬":2387,"Ġevery":2388,"ĠCounty":2389,"Ġgrou":2390,"Ġìĭ¤ìłģ":2391,"Ġgovernment":2392,"Ġearly":2393,"oy":2394,"ived":2395,"Ġì§Ī":2396,"Ġìĺ¤ëĬĶ":2397,"ëĦ·":2398,"ĠêµŃë¯¼":2399,"Ġown":2400,"Ġthose":2401,"MA":2402,"cess":2403,"Ġìłľìŀĳ":2404,"ĠëĲł":2405,"íĶĦíĬ¸":2406,"ĠìłĦëħĦ":2407,"Ġmon":2408,"Ġwrit":2409,"ë°ĶìĿ¼":2410,"uc":2411,"ìĭľìĹĲ":2412,"¿Ĳ":2413,"Ġë¹ł":2414,"ìĨĲ":2415,"ĠWh":2416,"ĠìĬ¤ë§ĪíĬ¸":2417,"Ġëī´ìĬ¤":2418,"ëĵ¤ê³¼":2419,"Ġê²½ìŁģ":2420,"Ġëį°ìĿ´íĦ°":2421,"ĠInd":2422,"ìĿ¼ê¹Įì§Ģ":2423,"ëĵľëĬĶ":2424,"Ġnumber":2425,"Ġê°Ģê²©":2426,"Ġë°©ìĭĿ":2427,"Ġë©´":2428,"%,":2429,"ĠìĦ¤ëªħíĸĪëĭ¤":2430,"ê¸°ëĬĶ":2431,"Ġì£¼ìĭĿ":2432,"Ġchild":2433,"ility":2434,"êµĲìľ¡":2435,"lish":2436,"ĠìĿĢíĸī":2437,"Ġser":2438,"ĠZ":2439,"íģ¼":2440,"Ġstate":2441,"ë¶ĢëĬĶ":2442,"Ġê°Ģìŀħ":2443,"Ġ~":2444,"íĬ¹":2445,"erson":2446,"Ġappe":2447,"ìĿ´ì§Ģ":2448,"Ġeff":2449,"Ã©":2450,"ĠëĤ´ìļ©":2451,"Ġrele":2452,"ìłķë³´":2453,"ible":2454,"Ġê³µê°ľ":2455,"ìļ´ëį°":2456,"Ġ2000":2457,"ë°Ģ":2458,"ëŀ«":2459,"ajor":2460,"ĠíĶĦë¡ľê·¸ëŀ¨":2461,"ìĽĲìĿĦ":2462,"íĦ¸":2463,"Ġìĸ´ëĸ":2464,"ax":2465,"ley":2466,"¤ëĭ¤":2467,"imes":2468,"ohn":2469,"ìłĲìĿĦ":2470,"und":2471,"aid":2472,"ìĿ¼ìĹĲ":2473,"ivid":2474,"ëħĦë¶ĢíĦ°":2475,"ìĹ¼":2476,"Ġschool":2477,"=\"":2478,"ĠAn":2479,"inn":2480,"Ġname":2481,"Ġìĺ¨":2482,"Ġcre":2483,"Ġê¸°ëĬ¥":2484,"uch":2485,"Ġcentury":2486,"ìĿ¸ìĿ´":2487,"rol":2488,"Ġincome":2489,"Ġìłķì±ħ":2490,"ĠBrit":2491,"Ġì±ħ":2492,"ĠìĥĿìĤ°":2493,"Ġart":2494,"ĠëĮĢíĨµëł¹":2495,"ĠWar":2496,"ments":2497,"ìĦ¼íĦ°":2498,"ìĻķ":2499,"ê¸°ìĪł":2500,"ëŁ¬íķľ":2501,"ìĿ¼ë¶ĢíĦ°":2502,"Ġê°Ģìļ´ëį°":2503,"24":2504,"ĠìĿ¸íĦ°":2505,"Ġconst":2506,"Ġdire":2507,"ê°Ļ":2508,"els":2509,"ex":2510,"Ġed":2511,"ìĤ´":2512,"Ġê¸°ê´Ģ":2513,"Ġë´":2514,"ĠìĹĨëĬĶ":2515,"Ġ[":2516,"til":2517,"Ġì§ģìłĳ":2518,"ì¹ľ":2519,"osed":2520,"ĠìŀĪëĭ¤ëĬĶ":2521,"ĠìĦ±ê³µ":2522,"ĠìŀĪìĹĪ":2523,"Ġì¹ľ":2524,"Ġíķľíİ¸":2525,"Ġaut":2526,"ful":2527,"ê¸ĪìĿĦ":2528,"Ġê´Ģë¦¬":2529,"Ġsecond":2530,"íĦ´":2531,"ìłľë¡ľ":2532,"Ġcontin":2533,"ìĤ°ìĹħ":2534,"ĠGerm":2535,"ired":2536,"Ġair":2537,"Ġëĳ":2538,"Ġ40":2539,"Ġë¶Ħìķ¼":2540,"Ġíŀĺ":2541,"Ġë³´ê³ł":2542,"ep":2543,"ven":2544,"Ġterm":2545,"ĠìĿĺë¯¸":2546,"Ġfour":2547,"Ġmin":2548,"IL":2549,"ĠíĮĢ":2550,"ract":2551,".<":2552,"Ġpublic":2553,"Ġë£":2554,"ĠìĤ¬ìĭ¤":2555,"ĠìĹĶ":2556,"ì²ĺëŁ¼":2557,"ìĬ¬":2558,"ëł¸ëĭ¤":2559,"Ġë³¼":2560,"ì¹Ń":2561,"Ġì¼":2562,"Ġì²ľ":2563,"ĠFran":2564,"ained":2565,"Ġdiffer":2566,"Ġlong":2567,"íķľëĭ¤ê³ł":2568,"Ġ2010":2569,"íı¼":2570,"amed":2571,"ìĬ¤íģ¬":2572,"Ġbefore":2573,"ash":2574,"Ġuntil":2575,"ìĬĪ":2576,"ëĭ¥":2577,"Ġ193":2578,"Ġë§Īëł¨":2579,"Ġocc":2580,"ê¸°ê´Ģ":2581,"Ġìħ":2582,"ìĬ¨":2583,"Ġsim":2584,"urch":2585,"ìº":2586,"Ġ)":2587,"ë§¹":2588,"uss":2589,"ê²Ģ":2590,"ĠìĻ¸êµŃ":2591,"ì£":2592,"ìĬµëĭĪëĭ¤":2593,"ai":2594,"Ġsame":2595,"ëªħìĿĺ":2596,"ĠëĮĢë¶Ģë¶Ħ":2597,"ìĭľíĸĪëĭ¤":2598,"íĸĪëįĺ":2599,"ĠìŀĲëıĻ":2600,"Ġspec":2601,"ĠëıĦìŀħ":2602,"ĠCon":2603,"Ġseveral":2604,"der":2605,"ĠëĮĢíķĻ":2606,"íķĺê²łëĭ¤":2607,"iversity":2608,"Ġëľ»":2609,"pend":2610,"ìķĶ":2611,"ë³´íĹĺ":2612,"Ġê³³":2613,"Ġêµ¬ì¡°":2614,"ier":2615,"íĭĢ":2616,"rist":2617,"Ġ:":2618,"ĠëģĿ":2619,"ìĽĲìĹĲ":2620,"ĠíĻį":2621,"ë¨¼":2622,"Ġìŀ¬ë°°íı¬":2623,"pan":2624,"ĳ¸":2625,"ëłĮ":2626,"arm":2627,"ê°ľìĿĺ":2628,"enn":2629,"Ġìĵ°":2630,"EMA":2631,"21":2632,"ëıĦê°Ģ":2633,"ĠíĶĦëŀĳ":2634,"Ġfl":2635,"Ġëª©íĳľ":2636,"ants":2637,"ium":2638,"eb":2639,"ì§Ħëĭ¤":2640,"Ġë³Ħ":2641,"Ġshow":2642,"ĠJohn":2643,"ê³³":2644,"Ġìµľì´Ī":2645,"ĠíĽ":2646,"ë¦¬ìĹĲ":2647,"ting":2648,"EMAIL":2649,"ëĳ":2650,"por":2651,"ĠëĶ°ë¥¸":2652,"ìĭŃ":2653,"Ġdisc":2654,"ĠëĤł":2655,"son":2656,"ë¡¯":2657,"Ġcomple":2658,"ĠìĿ´ëŁ¬íķľ":2659,"ìŀĲë¡ľ":2660,"Ġrecord":2661,"Ġday":2662,"ular":2663,"Ġíļ¨ê³¼":2664,"23":2665,"íļĮìĤ¬":2666,"Ġresid":2667,"Ġëª¨ë°ĶìĿ¼":2668,"Ġìĸ»":2669,"ross":2670,"ised":2671,"Ġíķĺê³ł":2672,"Ġìī":2673,"Ġdesign":2674,"inc":2675,"Ġresult":2676,"ëŁ¬ìĬ¤":2677,"get":2678,"ê¸°ë¡ľ":2679,"íħĲì¸ł":2680,"Ġconc":2681,"ason":2682,"Ġcommun":2683,"ì¹´ëĵľ":2684,"Ġmajor":2685,"Ġolder":2686,"urope":2687,"ë¦´":2688,"ks":2689,"Ġagainst":2690,"ĠìķĶ":2691,"vent":2692,"ange":2693,"60":2694,"ued":2695,"ology":2696,"ĠìŀĳíĴĪ":2697,"Ġbro":2698,"yp":2699,"ĠìĿ¸íķ´":2700,"Ġsupport":2701,"Ġë¯¸ëŀĺ":2702,"ìĭľíĤ¤":2703,"ëŀ«íı¼":2704,"ĠCol":2705,"ians":2706,"ëĭĮ":2707,"Ġë¶Ģë¶Ħ":2708,"íļĮë¥¼":2709,"ìĬ¤íĥĢ":2710,"ene":2711,"Ġoffic":2712,"ober":2713,"tend":2714,"ìĹ°êµ¬":2715,"text":2716,"illa":2717,"ê²ĥ":2718,"40":2719,"ĠSc":2720,"íĺģ":2721,"Ġë§ī":2722,"ĠìĪĺëıĦ":2723,"Ġcould":2724,"ìĪĺë¥¼":2725,"Ġì£¼ìŀ¥":2726,"Ġìĥģíĥľ":2727,"ê°Ģì§Ģ":2728,"Ġê¸¸":2729,"Ġ2015":2730,"Ġfemales":2731,"Ġë¬¸íĻĶ":2732,"ĠíĻĪ":2733,"į¨":2734,"ccess":2735,"Ġ2018":2736,"ĠìŀĪìĿĦ":2737,"my":2738,"ĠìĬ¤íĥĢ":2739,"Ġê³Ħìķ½":2740,"Ġìľ¡":2741,"ional":2742,"ìĿ¸ìĿĦ":2743,"ina":2744,"Ġpartic":2745,"ìĿ¸ìĿĺ":2746,"ëĲĺì§Ģ":2747,"Ġê³µëıĻ":2748,"ues":2749,"80":2750,"ĠìĿ´ìłĦ":2751,"22":2752,"ìłĦìŀĲ":2753,"ĠíĻĺê²½":2754,"Ġnon":2755,"Ġíķµ":2756,"ĠHis":2757,"Ġmake":2758,"ë´ī":2759,"aking":2760,"íķĳ":2761,"Ġì½Ķë¡ľëĤĺ":2762,"Ġìĭľì¦Į":2763,"ĠìĹ°ê²°":2764,"Ġlarg":2765,"arge":2766,"ĠÂ©":2767,"ĠìĦłìłķ":2768,"Ġê°Ĳëıħ":2769,"ĠìĿ´ë":2770,"ĠëıĦìĭľ":2771,"illion":2772,"ìĦľë¥¼":2773,"Ġê³ĦíļįìĿ´ëĭ¤":2774,"íĥģ":2775,"ĠìĺģêµŃ":2776,"Ġìĸ´ëł¤":2777,"Ġ2017":2778,"Ġë°Ģ":2779,"Ġsince":2780,"ìĽĲìĿ´":2781,"Ġnear":2782,"Ġperform":2783,"Ġworld":2784,"Ġ2014":2785,"ital":2786,"íı¬ìĿ¸íĬ¸":2787,"ëªħìĿ´":2788,"though":2789,"Ġê³µê²©":2790,"ĠThere":2791,"Ġë°©ìĨ¡":2792,"ared":2793,"Ġdep":2794,"Ġê°ķì¡°":2795,"Ġê·¹":2796,"Ġ2016":2797,"Ġê´Ģìĭ¬":2798,"íļ¨":2799,"ble":2800,"ëıĦìĿĺ":2801,"ĠQ":2802,"ĠOn":2803,"ĠPro":2804,"ëıĮ":2805,"Ġoften":2806,"ë°ĶìĿ´":2807,"ê³¨":2808,"ë¡ľëĬĶ":2809,"Ġprog":2810,"Ġê³łëł¤":2811,"Ġê³¨":2812,"ì£¼ëĬĶ":2813,"Ġìķħ":2814,"ëł¥ìĿ´":2815,"Ġsmall":2816,"ìļ±":2817,"Ġwill":2818,"iod":2819,"ìĽĲìĿĺ":2820,"Ġë§¡":2821,"ĠìĦľë¹ĦìĬ¤ë¥¼":2822,"Ġë²Īì§¸":2823,"ĠìłĦêµŃ":2824,"Ġback":2825,"ĠìŀĲìĭłìĿĺ":2826,"ëªħìĿĦ":2827,"ĠComm":2828,"ëĶĶìĺ¤":2829,"ìĪĺê°Ģ":2830,"ĠEurope":2831,"arn":2832,"Ġëĸ¨ìĸ´":2833,"ìĸ´ëĤĺ":2834,"ĠìľłëŁ½":2835,"Ġíĭ":2836,"ãģ":2837,"Ġann":2838,"rid":2839,"Ġline":2840,"ìĬ¤ë¥¼":2841,"ring":2842,"Ġë³´ìľł":2843,"Ġincre":2844,"Ġif":2845,"Ġì£":2846,"ll":2847,"Ġsing":2848,"ives":2849,"\")":2850,"ìĻĶëĭ¤":2851,"ìĿ´ìŀĲ":2852,"ister":2853,"Ġconsid":2854,"Ġê³¼ìłķ":2855,"Ġdid":2856,"ê·¸ë£¹":2857,"arried":2858,"Ġmil":2859,"Ġ31":2860,"ĠAt":2861,"Ġbegan":2862,"hes":2863,"ìĤ¼":2864,"ĠìĦ¤ë¦½":2865,"Ġsize":2866,"ìŀĲìĤ°":2867,"ĠìŀĪê³ł":2868,"Ġopen":2869,"Ġë°ĶìĿ´":2870,"Ġë£¨":2871,"ĠëıħìĿ¼":2872,"¾¸":2873,"ìłĦìĿĦ":2874,"Ġref":2875,"Ġchildren":2876,"ĠíķĻìĥĿ":2877,"Ġë°ĽìķĦ":2878,"ĠíıĲ":2879,"eng":2880,"Ġë²Ķ":2881,"ird":2882,"rict":2883,"ĠìĹŃíķł":2884,"Ġext":2885,"Ġdesc":2886,"Ġì¢ħëª©":2887,"ìĦľë¹ĦìĬ¤":2888,"ĠAf":2889,"Ġì¦ī":2890,"oman":2891,"ê´":2892,"ëĭĪìķĦ":2893,"íĬ¸ë¥¼":2894,"ris":2895,"ĠëŁ¬":2896,"ret":2897,"Ġê¸°ë¡ĿíĸĪëĭ¤":2898,"Ġestab":2899,"ĠëĮĢì¶ľ":2900,"Ġê³ĦìĨį":2901,"ìĬ¤íĦ°":2902,"ĠìķĬìĿĢ":2903,"ìłľë¥¼":2904,"ĠíĸĪ":2905,"ĠíļĮìĤ¬":2906,"Ġeach":2907,"Ġì§Ģìłģ":2908,"Ġìĺģíĸ¥ìĿĦ":2909,"ĠëĪĪ":2910,"As":2911,"angu":2912,"Ġíģ¬ê²Į":2913,"Ġsoc":2914,"ìŀĪ":2915,"Ġinclude":2916,"Ġalong":2917,"Ġcharact":2918,"ĠìķĬìķĺëĭ¤":2919,"ë·":2920,"ĠìĹħë¬´":2921,"Ġìŀ¡":2922,"ĠìĦłë³´":2923,"ĠíĥĦ":2924,"ĠëĬĲ":2925,"âĢĶ":2926,"ĠìĿĳ":2927,"ĠìĭľëĮĢ":2928,"bum":2929,"Ġì¡´ìŀ¬":2930,"Ġvers":2931,"ĠBe":2932,"ĠMar":2933,"ĠìĦłíĥĿ":2934,"ĠII":2935,"Ġpass":2936,"ë¡ľë¶ĢíĦ°":2937,"ĠíĶĮëŀ«íı¼":2938,"Ġë¨¸":2939,"ages":2940,"Ġê°Ī":2941,"Ġê°ľìµľ":2942,"Ġíľ´":2943,"Ġì¤Ģë¹Ħ":2944,"Ġpolit":2945,"ets":2946,"Ġì°¨ì§Ģ":2947,"Ġë³´ìĿ¸ëĭ¤":2948,"Ġ(\"":2949,"ì¢":2950,"ìķĪìĿĦ":2951,"Ġappro":2952,"Ġrece":2953,"°ëĭ¤":2954,"ê°Ģë¥¼":2955,"ik":2956,"Ġìĺ¤ë¥¸":2957,"ë¯":2958,"ĠìĹ´ë¦°":2959,"tal":2960,"une":2961,"Ġlife":2962,"Ġë§İìĿ´":2963,"Ġì¦Ĳ":2964,"ĠìĹŃìĭľ":2965,"ëĮĢë¹Ħ":2966,"Ġëª¨ëį¸":2967,"Ġë§Įëĵ¤ìĸ´":2968,"Ġìłķì¹ĺ":2969,"ëħĦê¹Įì§Ģ":2970,"Ġë°Ľìķĺëĭ¤":2971,"ê´Ģë¦¬":2972,"ìķ¡ìĿĢ":2973,"70":2974,"ì¹´ìĺ¤":2975,"ĠâĢĵ":2976,"Ġaround":2977,"Ġ2012":2978,"Ġmusic":2979,"ëĮĢíĳľ":2980,"ship":2981,"ê°Ģê°Ģ":2982,"ëĪĦ":2983,"to":2984,"ĠìķĬê³ł":2985,"Ġê²½ìĺģ":2986,"Ġë¸Įëŀľëĵľ":2987,"gg":2988,"Ġins":2989,"Ġê³µê¸ī":2990,"Ġwater":2991,"Ġìļ°ëł¤":2992,"ission":2993,"ì½¤":2994,"ull":2995,"Ġ2019":2996,"ĠìĺģìĹħìĿ´ìĿµ":2997,"Ġbecause":2998,"ividual":2999,"ìĽĲìľ¼ë¡ľ":3000,"Ġorgan":3001,"ìĿ¸ìĿĢ":3002,"Ġsuccess":3003,"Ġ2013":3004,"read":3005,"ĠìļĶêµ¬":3006,"Ġtrad":3007,";\"":3008,"Ġseries":3009,"ove":3010,"Ġhome":3011,"ĠìĿ´ë²¤":3012,"atic":3013,"Ġlarge":3014,"ìĹĦ":3015,"align":3016,"lack":3017,"ĠëĮĢìĥģìľ¼ë¡ľ":3018,"ì§ĢíĦ¸":3019,"ĠíĦ":3020,"Ġê¼":3021,"ìĻĢìĿĺ":3022,"km":3023,"yn":3024,"ains":3025,"26":3026,"ëĿ¼ìļ°":3027,"ìĸµìĽĲìľ¼ë¡ľ":3028,"íĩ´":3029,"ices":3030,"ëħĦëĮĢ":3031,"90":3032,"ĠíĻ©":3033,"Ġêµ¬ì¶ķ":3034,"ute":3035,"ìĭĿìĿĦ":3036,"Ġë°©ë²ķ":3037,"%),":3038,"omet":3039,"ìĹħì²´":3040,"Ġíĺķíĥľ":3041,"ilt":3042,"ëĬĲ":3043,"chn":3044,"ĠìłĦíĻĺ":3045,"ĠWorld":3046,"Ġwithin":3047,"Ġclass":3048,"ì¹ĺëĬĶ":3049,"ĠKing":3050,"ê³¼ìĿĺ":3051,"ê²ĮìŀĦ":3052,"ĠìłĦëŀµ":3053,"iam":3054,"conom":3055,"ëĶ©":3056,"ĠìĹ¬ìĦ±":3057,"Ġë²Į":3058,"ìĿ´ìĹĪ":3059,"ë³¼":3060,"ĠSchool":3061,"ĠHowever":3062,"íķľêµŃ":3063,"Ġì»¨":3064,"Ġíıīê·ł":3065,"ì¼ĢìĿ´":3066,"ĠìĹ°êµ¬ìĽĲìĿĢ":3067,"ĠBritish":3068,"ì·¨":3069,"Ġbuild":3070,"ctor":3071,"Ġrequ":3072,"ple":3073,"Ġíĺģ":3074,"Ġindividual":3075,"Ġì¡°ìĤ¬":3076,"Ġë¹Ħë¡¯":3077,"ink":3078,"íıĲ":3079,"ccording":3080,"Ġëª¨ìĬµ":3081,"ner":3082,"Ġìŀł":3083,"Ġì¦Ŀê¶Į":3084,"ìĭľì¼":3085,"ĠìĹĨìĿ´":3086,"ively":3087,"íĸĪì§Ģë§Į":3088,"Ġfin":3089,"Ġreturn":3090,"Ġperiod":3091,"íĺ¼":3092,"ternational":3093,"Ġì½ĺíħĲì¸ł":3094,"ĠìŀĪëĭ¤ê³ł":3095,"28":3096,"Ġìĭłê·ľ":3097,"ĠCl":3098,"ìĬ¤ê°Ģ":3099,"ĠëįĶìļ±":3100,"Ġë°ĺë©´":3101,"Ġgroup":3102,"Ġë°ľê²¬":3103,"ĠíĶ¼íķ´":3104,"ìį¨":3105,"íĿ¥":3106,"ĠMay":3107,"ensity":3108,"ĠThey":3109,"ĠëķĮë¬¸ìĿ´ëĭ¤":3110,"ality":3111,"Ġlg":3112,"ì°¬":3113,"Ġfollowing":3114,"Ġalbum":3115,"Ġpoint":3116,"ê°ľë°ľ":3117,"embers":3118,"Ġcommon":3119,"ĠAb":3120,"27":3121,"ìĽ¨":3122,"Ġpar":3123,"Ġmark":3124,"ruct":3125,"rand":3126,"gy":3127,"Ġconf":3128,"Ġìĺ¤ìłĦ":3129,"Ġìĭľíĸī":3130,"ĠìĿ´ë¯¸":3131,"Ġdet":3132,"Ġpower":3133,"ival":3134,"ĠíĻķë³´":3135,"Ġequ":3136,"ëĤĺëĿ¼":3137,"Ġ2011":3138,"®¤":3139,"Ġlaw":3140,"ê¶ĮìĿĦ":3141,"resent":3142,"ately":3143,"rench":3144,"ĠìĦ¤ì¹ĺ":3145,"Ġëŀ":3146,"Ġexamp":3147,"ified":3148,"Ġì¹¨":3149,"pect":3150,"Ġpub":3151,"ged":3152,"ino":3153,"íķĦ":3154,"29":3155,"Ġhum":3156,"ë°ĺê¸°":3157,"Ġìĺ¤íĽĦ":3158,"itions":3159,"ì¶©":3160,"ĠìķĪìłĦ":3161,"ê¸´":3162,"Ġwar":3163,"Ġë§Įíģ¼":3164,"ìĿĺë¥¼":3165,"ľĺ":3166,"oci":3167,"ĠChrist":3168,"Ġcur":3169,"ĠCan":3170,"Ġì°¸ê°Ģ":3171,"ãĥ":3172,"Ġìĭ¤ìĭľ":3173,"ĠAd":3174,"Ġlocated":3175,"Ġallow":3176,"ìłĦíŀĪ":3177,"Ġmat":3178,"ĠPh":3179,"Ġdifferent":3180,"ë£Įë¥¼":3181,"by":3182,"ìŀĲìĿ¸":3183,"Ġfamilies":3184,"Ġëĵ±ìľ¼ë¡ľ":3185,"Ġê³µìĭĿ":3186,"Ġyou":3187,"Ġê°Ģì§Ģ":3188,"Ġ45":3189,"ĠíĥĪ":3190,"ĠìĤ¬ë§Ŀ":3191,"Ġhous":3192,"yl":3193,"Ġ2008":3194,"ille":3195,"ê³Ħë¥¼":3196,"ëĶĶìĸ´":3197,"rodu":3198,"ä¸":3199,"ĠAfric":3200,"ëĬĺ":3201,"ë¥´ëĬĶ":3202,"rop":3203,"ë¦¬ì¦Ī":3204,"Ġëĵ±ìĹĲ":3205,"ĠìĤ¬ê±´":3206,"rent":3207,"cl":3208,"',":3209,"Ġcounty":3210,"ëĲĲ":3211,"ìłķë¶Ģ":3212,"Ġgu":3213,"ĠNorth":3214,"Ġ|-":3215,"ìĸµìĽĲìĿĦ":3216,"ĠìłĦìŁģ":3217,"bo":3218,"Ġcolle":3219,"Ġprom":3220,"Ġì¡°ìĦł":3221,"ëĮĢë¥¼":3222,"ë¦¬ì¹´":3223,"ĠìĿ´ë£¨":3224,"ìŀ¡":3225,"Ġì½ĶìĬ¤íĶ¼":3226,"Ġdensity":3227,"ìĸ´ëĤľ":3228,"ĠUS":3229,"ìĹĺ":3230,"Ġëĭ¤ìĿĮê³¼":3231,"Ġband":3232,"ìĤ¬íļĮ":3233,"Ġrest":3234,"ĠJan":3235,"Ġdue":3236,"min":3237,"ëĲĺë©°":3238,"ĠìĿĮìķħ":3239,"ëıĦëĬĶ":3240,"Ġì§Ħì¶ľ":3241,"íĹĪ":3242,"Ġì£½":3243,"ìĿ´ìħĺ":3244,"ãİ":3245,"Ġleg":3246,"par":3247,"Ġlangu":3248,"ights":3249,"ìļķ":3250,"ided":3251,"íĪ¬ìŀĲì¦Ŀê¶Į":3252,"ĠìŀĲì²´":3253,"Ġperson":3254,"ony":3255,"aving":3256,"Ġrun":3257,"Ġê±´ìĦ¤":3258,"ently":3259,"ĠìĿ¸êµ¬":3260,"ĠCar":3261,"ĠCent":3262,"ĠNational":3263,"Ġ60":3264,"Ġcult":3265,"me":3266,"ĠìĿ´ìľł":3267,"ĠYork":3268,"ms":3269,"Ġrefer":3270,"Ġlocal":3271,"ìĿ´ëĵľ":3272,"Ġcor":3273,"Ġprogram":3274,"ience":3275,"Ġì¡°ì§ģ":3276,"Ġìłģê·¹":3277,"Ġì¹´ëĵľ":3278,"Ġë³´ìĹ¬":3279,"Ġthough":3280,"Ġmembers":3281,"Ġmales":3282,"íİĢëĵľ":3283,"Ġdeath":3284,"ily":3285,"ëĵ±íķĻêµĲ":3286,"ĠíĨµìĭł":3287,"ë¦¼íĶ½":3288,"íĥķ":3289,"500":3290,"Ġnamed":3291,"There":3292,"omin":3293,"êµ´":3294,"ĠìŀĲìľł":3295,"¶ģ":3296,"ì¢Į":3297,"ëĤ¸":3298,"ĠíķĻêµĲ":3299,"Ġval":3300,"Ġíĺ¼":3301,"ì³¤ëĭ¤":3302,"laim":3303,"ĠíĽĦë³´":3304,"Ġë°ľìłĦ":3305,"Ġê°ĢëĬ¥íķĺëĭ¤":3306,"hor":3307,"Ġstart":3308,"ences":3309,"ëŁŃ":3310,"Ġê°Ļëĭ¤":3311,"ĠFrench":3312,"itary":3313,"ëłī":3314,"Ġdem":3315,"ization":3316,"Ġë³ĢíĻĶ":3317,"Ġì§Ģë°©":3318,"Ġbl":3319,"ëłĩ":3320,"Ġsaid":3321,"ë¬¸íĻĶ":3322,"iven":3323,"ĠëĲĲëĭ¤":3324,"Ġë°©ë¬¸":3325,"ê¸°ìĿĺ":3326,"ì§ĢìĹŃ":3327,"com":3328,"ĠìĪĺì¶ľ":3329,"Ġnorth":3330,"Ġhead":3331,"ĠíŀĪ":3332,"Ġteam":3333,"Ġì§Ģê¸ī":3334,"mp":3335,"ially":3336,"oss":3337,"ë¡Ń":3338,"ê·ľëª¨":3339,"Ġë§¤ìļ°":3340,"Ġdescrib":3341,"ode":3342,"Ġbook":3343,"ĠíĴį":3344,"Ġnow":3345,"med":3346,"Ġlike":3347,"ides":3348,"formula":3349,"ration":3350,"ĠëĮĢìĿĳ":3351,"co":3352,"Ġìłľì¡°":3353,"Ġimport":3354,"ëħĦìĹĲëĬĶ":3355,"ìŀ¥ìĿĺ":3356,"íĶĦëĿ¼":3357,"ĠâĹ":3358,"ĠíĮĲëĭ¨":3359,"ìĽ¨ìĸ´":3360,"ëĥĪëĭ¤":3361,"Ġeffect":3362,"ĠX":3363,"ĠíĶĮëłĪìĿ´":3364,"ĠìĪĺìļĶ":3365,"Ġrev":3366,"Ġì¤ĳìĿ´ëĭ¤":3367,"ĠíĬ¹ë³Ħ":3368,"Ġfun":3369,"Ġ2009":3370,"ling":3371,"bor":3372,"ìľ¼ë¡ľëĬĶ":3373,"ìĹĨ":3374,"ìľ¼ë©´":3375,"Ġled":3376,"ĠJu":3377,"ĠëıĮìķĦ":3378,"Ġìĸ¼":3379,"Ġê³µìĭľíĸĪëĭ¤":3380,"ĠìĦĿ":3381,"ĠìķĬëĬĶëĭ¤":3382,"ìŀĲëĵ¤ìĿ´":3383,"ìĹħê³Ħ":3384,"Ġplace":3385,"Ġë¶Ģëĭ´":3386,"Ġreport":3387,"ator":3388,"ëī´ìĭľìĬ¤":3389,"Ġë¯¸êµŃìĿĺ":3390,"ĠíĶĦëŀĳìĬ¤":3391,"ĠìłĦíĪ¬":3392,"Ġê²½íĹĺ":3393,"oot":3394,"Ġëĭ¬ëŁ¬":3395,"ats":3396,"Ġì¿ł":3397,"Ġopp":3398,"ounc":3399,"Ġ190":3400,"ves":3401,"ĠëĿ¼ìĿ´":3402,"On":3403,"íķľëĭ¤ëĬĶ":3404,"omen":3405,"ĠëĮĢíļĮ":3406,"Ġë³Ģê²½":3407,"Ġpo":3408,"ì§Ģê°Ģ":3409,"ìĦ¸ê°Ģ":3410,"Ġes":3411,"ĠUniversity":3412,"bs":3413,"ëĲĺë©´ìĦľ":3414,"ĠëĶĶì§ĢíĦ¸":3415,"ì¹Ļ":3416,"Ġìĥģìŀ¥":3417,"ìĿĮìĿĦ":3418,"ries":3419,"Ġlit":3420,"ĠìĥĿíĻľ":3421,"Ġstr":3422,"Ġreleased":3423,"ĠOr":3424,"Ġìłľíķľ":3425,"ĠGe":3426,"Ġkt":3427,"Ġìī½":3428,"Ġcrit":3429,"Ġeng":3430,"Ġeven":3431,"ey":3432,"ĠShe":3433,"sh":3434,"Ġcour":3435,"ê°ĻìĿ´":3436,"@<":3437,"af":3438,"Ġareas":3439,"ìĦłìĿĦ":3440,"199":3441,"ele":3442,"Ġamong":3443,"íķĺëł¤":3444,"Ġbased":3445,"ĠìłľìĻ¸":3446,"ĠSouth":3447,"ìľ¨ìĿĢ":3448,"Ġcontrol":3449,"ìĸ¼":3450,"ĠëĮĢìĭł":3451,"day":3452,"Ġë¹ĦêµĲ":3453,"ĠëŁ¬ìĭľìķĦ":3454,"Ġtotal":3455,"Ġ2007":3456,"uary":3457,"Ġì§ĳì¤ĳ":3458,"Ġì§Ģìłķ":3459,"ĠCity":3460,"íĴį":3461,"ĠëĽ":3462,"Ġstand":3463,"ëħĦê°Ħ":3464,"ĠìĪľë§¤":3465,"Ġêµ¬ë§¤":3466,"ĠìĿ´ëıĻ":3467,"ĠìĿ´ëģ":3468,"ë¡ľìĦľ":3469,"Ġê·¸ë£¹":3470,"ases":3471,"ĠíĶĦë¦¬":3472,"estern":3473,"Ġresp":3474,"ĠìĬ¤ë§ĪíĬ¸íı°":3475,"ĠíĨµíķ©":3476,"ĠíİĢëĵľ":3477,"raft":3478,"Ġgo":3479,"Ġindu":3480,"íķ´ìĦľ":3481,"Ġê°ĢëĬ¥ìĦ±ìĿ´":3482,"ior":3483,"Ġì¢ĭìĿĢ":3484,"Ġë°ĺìĺģ":3485,"olution":3486,"ĠíĹ¤":3487,"ĠíĿ¬":3488,"ìĭ±":3489,"ĠRiver":3490,"ĠìķĪìłķ":3491,"ìĽĶìĹĲ":3492,"Ġposs":3493,"que":3494,"ì½ĺ":3495,"Ġmarried":3496,"ìĹħìĿĦ":3497,"ê¸°ê°Ħ":3498,"Ġmuch":3499,"Ġfemale":3500,"Ġunits":3501,"ĠPar":3502,"lay":3503,"Ġê·Ģ":3504,"Ġformer":3505,"iety":3506,"íľ´":3507,"ìĿ´ìĸ´":3508,"Ġê°ĻìĿ´":3509,"Ġvot":3510,"Ġë³´íĺ¸":3511,"Ġvilla":3512,"Ġstill":3513,"Ġì¶ķêµ¬":3514,"Ġëĸł":3515,"ĠìĿ¸ìĪĺ":3516,"ìĿ´íģ¬":3517,"ë¶Ģë¥¼":3518,"sc":3519,"Ġadv":3520,"Ġcar":3521,"Ġsouth":3522,"ĠEnglish":3523,"ì´Į":3524,"ek":3525,"Ġlast":3526,"Ġexample":3527,"rum":3528,"ëıĻìĤ°":3529,"ëĮĢìĿĺ":3530,"Ġinflu":3531,"cing":3532,"ìĻĦ":3533,"Ġì¤ĳìķĻ":3534,"Ġcamp":3535,"Ġeconom":3536,"Ġexper":3537,"íĮĮíĬ¸":3538,"...":3539,"ĠìŀĲìĤ°":3540,"Ġê¸°ë³¸":3541,"Ġprop":3542,"íķĺê¸°ë¡ľ":3543,"ness":3544,"Ġav":3545,"ĠìķĬëĬĶ":3546,"ĠìŀĪì§Ģë§Į":3547,"Ġbus":3548,"ĠìķĦëĭĮ":3549,"apan":3550,"alth":3551,"Ġport":3552,"ìłĿ":3553,"ëĥĲ":3554,"ĠíĬ¹ì§ķ":3555,"Ġprocess":3556,"ìĽĮíģ¬":3557,"Ġëª°":3558,"ane":3559,"ĠìĹħê³Ħ":3560,"íĤ¹":3561,"íķĺì§Ģë§Į":3562,"Ġê±´ê°ķ":3563,"]]":3564,"ugust":3565,"ĠìĬĪ":3566,"ìĤ¬ìĹĲ":3567,"35":3568,"ì¿":3569,"ìĥģíĴĪ":3570,"reen":3571,"ë¦¬ìĿĺ":3572,"Ġë¹Ħìļ©":3573,"ìĹĪê³ł":3574,"Ġincluded":3575,"Ġvis":3576,"45":3577,"idd":3578,"ĠAust":3579,"Ġë°°ìļ°":3580,"gether":3581,"Ġtogether":3582,"Ġë¨¹":3583,"wards":3584,"Ġìķķ":3585,"ox":3586,"ody":3587,"Ġbuilt":3588,"ĠWill":3589,"Ġì»´":3590,"ĠíĮĶ":3591,"Ġë§Ľ":3592,"íķĺê±°ëĤĺ":3593,"ĠëĮĢíķľë¯¼êµŃ":3594,"Ġë¶Ģë¬¸":3595,"cent":3596,"ery":3597,"ency":3598,"Ġìķ±":3599,"ata":3600,"Ġcharacter":3601,"ĠìĿ´ë¤Ħ":3602,"hem":3603,"ĠSp":3604,"ë¶Ļ":3605,"Ġtook":3606,"Ġì§Ģê¸Ī":3607,"ìŀ¥ìĹĲìĦľ":3608,"ĠìĨĶ":3609,"Ġwhat":3610,"ĠPr":3611,"Ġhistor":3612,"ëĮĢì¶ľ":3613,"ĠAir":3614,"ĠìĿ¸íĦ°ëĦ·":3615,"Ġë§ŀì¶":3616,"ì°¸":3617,"ë¦¬ê·¸":3618,"itional":3619,"'(":3620,"ìĦ±ê³¼":3621,"Ġfact":3622,"ĠNov":3623,"ĵ¨":3624,"Ġìĩ¼":3625,"ook":3626,"Ġì£¼ë¡ľ":3627,"íıīê°Ģ":3628,"íĹĮ":3629,"Ġë¿Ĳ":3630,"ĠGerman":3631,"ĠMus":3632,"ĠìĿ¸ëıĦ":3633,"ì£¼ê°Ģ":3634,"ê´ĢìĿĢ":3635,"ìĽĢìĿĦ":3636,"ĠAfter":3637,"Ġìĥģëĭ¹":3638,"ëĿ¼ëıĦ":3639,"ĠëĽ°":3640,"loy":3641,"Ġway":3642,"Ġìĸ´ëĸ¤":3643,"ae":3644,"íĿ¬":3645,"ľíĥĿ":3646,"Ġê°Ģì§Ģê³ł":3647,"Ġtit":3648,"Ġë¦¬ê·¸":3649,"Ġ44":3650,"ography":3651,"Ġëĵ±ìŀ¥":3652,"Ġê³¼íķĻ":3653,"Ġê¸´":3654,"ë¥´ê²Į":3655,"ëĦĪì§Ģ":3656,"Ġpopular":3657,"ì¼ĵ":3658,"ament":3659,"ëĭ¤ê³ł":3660,"Ġì¤ĳìĭ¬ìľ¼ë¡ľ":3661,"ouncil":3662,"ĠìĨ¡":3663,"Ġê°ķì¡°íĸĪëĭ¤":3664,"ìĦ¸ê¸°":3665,"Ġ2006":3666,"Ġfre":3667,"Ġtem":3668,"Ġë§Īê°Ĳ":3669,"Ġìĭłíķľ":3670,"ĠAugust":3671,"ìķ¤":3672,"ĠìĪĺíĸī":3673,"Ġì§Ģë¶Ħ":3674,"Ġnational":3675,"Ġcountry":3676,"rew":3677,"ìĤ¬ìĻĢ":3678,"ê¸Īë¦¬":3679,"ĠìŀĪê²Į":3680,"ĠìĿ¸ìłķ":3681,"ìķķ":3682,"Ġì£¼íĥĿ":3683,"ãĤ":3684,"ìŀĲëĵ¤ìĿĢ":3685,"Ġì¤ĳìĨĮ":3686,"ĠëĤľ":3687,"Ġì²´ê²°":3688,"Ġbelie":3689,"íĻĶëĲľ":3690,"ĠWest":3691,"work":3692,"ë²¨":3693,"ĠìķłíĶĮ":3694,"75":3695,"Ġíĺĳëł¥":3696,"ese":3697,"Ġsong":3698,"Ġusing":3699,"ì§ĢìĹĲ":3700,"ìĪĺìĿĺ":3701,"ĠĠĠ":3702,"ĠAm":3703,"Ġìĭłì²Ń":3704,"íķĺëıĦë¡Ŀ":3705,"ĠìĥģëĮĢ":3706,"ëıĻìķĪ":3707,"ĠLat":3708,"Ġì¹´ì¹´ìĺ¤":3709,"Ġrepresent":3710,"Ġheld":3711,"íĬ¸ëĬĶ":3712,"Ġë°ľíĸī":3713,"ĠìĦ¼":3714,"ĠíķĦìļĶíķľ":3715,"ĠëĬ¥":3716,"ëĮĢíķľ":3717,"ĠJanuary":3718,"Ġë°ĽìĿĢ":3719,"Ġlate":3720,"Ġê²©":3721,"Ġvery":3722,"ê¹Ģ":3723,"Ġjust":3724,"íĬ¸ë¦¬":3725,"33":3726,"ë¬¼ìĿĦ":3727,"ptember":3728,"ĠOct":3729,"Ġëħ¸ëł¥":3730,"ì§ĢìĽĲ":3731,"ĠìĹ°ìĨį":3732,"eder":3733,"Ġë¬¼ë¡ł":3734,"Ġìĭľë¦¬ì¦Ī":3735,"ĠìĹŃíķłìĿĦ":3736,"oph":3737,"Ġ64":3738,"ĠìĹħì²´":3739,"ĠìľĦìĽĲ":3740,"rote":3741,"Ġì¤ĳìļĶíķľ":3742,"urg":3743,"ëįķ":3744,"Ġelect":3745,"ìĸ¸ë¡ł":3746,"ìĤ¬ë¡ľ":3747,"ìĥĪ":3748,"iness":3749,"Ġrad":3750,"Ġresidents":3751,"Ġstat":3752,"íı´":3753,"Ġdown":3754,"ead":3755,"ĠMarch":3756,"Ġ2021":3757,"ott":3758,"ìĩ¼":3759,"ìŀĦìĿĦ":3760,"ĠìĦłê±°":3761,"ĠìĽĮ":3762,"ĠìĿ´ìķ¼":3763,"ĠíķłìĿ¸":3764,"ìĥģìĿ´":3765,"ìĵ°":3766,"Ġíĭ°":3767,"Ġëĭ¤ë§Į":3768,"ĠJune":3769,"ĠìĿĺê²¬":3770,"ìĹĲìĦľìĿĺ":3771,")'":3772,"ĠThese":3773,"mber":3774,"ĠëĮĢíķ´ìĦľëĬĶ":3775,"Ġíĺģìĭł":3776,"ëıĻìĿĦ":3777,"Ġpost":3778,"ribut":3779,"ĠJapan":3780,"ìłķì±ħ":3781,"ĠMan":3782,"Ġsl":3783,"ole":3784,"Ġraces":3785,"Ġpat":3786,"ëĵľë¥¼":3787,"ë¶ĢìĹĲ":3788,"ining":3789,"ĠEd":3790,"ius":3791,"ĠìľĦíĹĺ":3792,"epend":3793,"Ġel":3794,"Ġëªĩ":3795,"Ġê°ĢëĬ¥íķľ":3796,"ĠíĦ°":3797,"Ġevent":3798,"St":3799,"Ġhand":3800,"Ġ70":3801,"Ġtechn":3802,"Ġì§ĢëĤľëĭ¬":3803,"ĸìĹĲ":3804,"ĠìķŀìĦľ":3805,"36":3806,"ëĲĺìĹĪìľ¼ë©°":3807,"ĠSeptember":3808,"íĽ":3809,"Ġìļ°ìĬ¹":3810,"Ġestablished":3811,"Ġìłľê³µíķľëĭ¤":3812,"ĠìĨĮìĨį":3813,"Ġtyp":3814,"ãĢĬ":3815,"ëŁīìĿĦ":3816,"ĠJuly":3817,"ìķ½ìĿĦ":3818,"Ġpublished":3819,"ìķĮ":3820,"line":3821,"Ġíķµìĭ¬":3822,"attle":3823,"Ġë¹Ħíķ´":3824,"ìĬ¤ìĻĢ":3825,"Ġiss":3826,"Ġshort":3827,"ense":3828,"Ġanother":3829,"ript":3830,"ê°ĲìĿĦ":3831,"aster":3832,"ĠìľĦì¹ĺíķľ":3833,"ĠíĨµíķľ":3834,"íħĶëłĪ":3835,"ĠëĨĴìķĦ":3836,"ĠOctober":3837,"Ġpolitical":3838,"íķĺìĺĢê³ł":3839,"ëľ":3840,"Ġì½ĶìĬ¤ëĭ¥":3841,"¢°":3842,"ĠëıĻìĭľìĹĲ":3843,"ĠìłĦìŀĲ":3844,"íĶĪ":3845,"pril":3846,"ê·Ģ":3847,"side":3848,"ìĿ´ê°Ģ":3849,"Ġë°ĽìĿĦ":3850,"ĠëĤĺíĥĢëĤ¬ëĭ¤":3851,"Ġhistory":3852,"Ġì¹ĺë£Į":3853,"Ġë³´ê¸°":3854,"Ġê³µê°Ħ":3855,"ler":3856,"íĤ¬":3857,"Ġëī´ìĭľìĬ¤":3858,"Ġ&":3859,"Ġtr":3860,"ë¯Ģë¡ľ":3861,"unic":3862,"Ġì£¼ëª©":3863,"Ġìµľì¢ħ":3864,"urther":3865,"ë¶ĢìĿĺ":3866,"ìĿ´ë²Ħ":3867,"Ġcare":3868,"31":3869,"Ġhig":3870,"ëŀĢëĵľ":3871,"Ġ35":3872,"Ġgreat":3873,"Ġì¶Ķìłķ":3874,"akes":3875,"å¤":3876,"cember":3877,"ëłµ":3878,"ĠìĦ±ê³¼":3879,"Ġë´ī":3880,"Ġclaim":3881,"Ġaff":3882,"ĠìĿ´ëŁ°":3883,"ìī":3884,"ì§Ģë§ī":3885,"ĠìĿ´íĥĪ":3886,"ê³¼íķĻ":3887,"ì½ľ":3888,"Ġì°½ìĹħ":3889,"Ġë°ľë§¤":3890,"ĠPark":3891,"ĠíĴĪ":3892,"ĠìŀĲê¸Ī":3893,"BC":3894,"íĬľ":3895,"Ġ1990":3896,"ìĦ¸ëĮĢ":3897,"ìĿ´ë²Ī":3898,"Ġcou":3899,"±ħ":3900,"ĠìĹŃìĤ¬":3901,"ë¦¬ì§Ģ":3902,"ĠRep":3903,"ĠëĲĺëĬĶ":3904,"Ġhouseholder":3905,"ges":3906,"ìŀĲëĵ¤ìĿĺ":3907,"ches":3908,"empt":3909,"ĠPol":3910,"Ġconsidered":3911,"Ġì¶ľìĭł":3912,"ë¢°":3913,"ĠìłĦë¬¸ê°Ģ":3914,"Ġìĭ±":3915,"Ġear":3916,"Ġoriginal":3917,"99":3918,"Ġë¹Ħì¤ĳ":3919,"ëŀĲëĭ¤":3920,"ëĨį":3921,"íĶĮëłĪìĿ´":3922,"ĠApril":3923,"Ġ80":3924,"Ġmodern":3925,"Ġíĩ´":3926,"ope":3927,"lor":3928,"Ġhousing":3929,"Ġê°Ģì¡±":3930,"Ġë³´ìķĪ":3931,"íĶĦë¡ľ":3932,"Ġ/":3933,"ìľĦìĹĲ":3934,"irc":3935,"ëĭĿ":3936,"Ġê¸Īë¦¬":3937,"ories":3938,"ards":3939,"Ġsingle":3940,"íĵ¨":3941,"ë§¥":3942,"48":3943,"Ġê²°êµŃ":3944,"ìĬ¤ë¡ľ":3945,"ĠìłķëıĦ":3946,"Ġíķ´ê²°":3947,"Ġfac":3948,"ĠëĮĢíķľë¯¼êµŃìĿĺ":3949,"Ġsw":3950,"ëĲĺìĹĪê³ł":3951,"Ġindividuals":3952,"ĠDecember":3953,"ĠWhite":3954,"ĠíĶĦë¡ľìłĿ":3955,"ê°Ĳìĸ¸ë¡ł":3956,"ung":3957,"ì»µ":3958,"ray":3959,"íĬ¸ìĽĮíģ¬":3960,"38":3961,"Ġëıħë¦½":3962,"íĳ¸":3963,"Ġê·¸ëħĢ":3964,"Ġtri":3965,"Ġê³µê³µ":3966,"ìĿ´ì¦Ī":3967,"Ġfive":3968,"¤ëŁŃ":3969,"ped":3970,"Ġreceived":3971,"de":3972,"Ġemp":3973,"Ġhel":3974,"Ġprev":3975,"Ġseason":3976,"ëĮĢíķĻ":3977,"ster":3978,"Ġê²¬":3979,"ĠAll":3980,"Ġë§ĮìĹĲ":3981,"ëĤĺëĬĶ":3982,"iving":3983,"ĠíķŃê³µ":3984,"ëĭĺ":3985,"Ġorigin":3986,"ëĭµ":3987,"ê²½ìłľ":3988,"ë¦ŃíĦ°":3989,"be":3990,"Ġkb":3991,"augh":3992,"Ġê³¡":3993,"ëĿ¼ìļ°ëĵľ":3994,"ĠìŀĲëıĻì°¨":3995,"ĠBy":3996,"Ġlim":3997,"Th":3998,"Ġëħ¹":3999,"Ġê°Ģì§Ħ":4000,"ĠëĦĺìĸ´":4001,"Ġë³´ëĭ¤":4002,"ĠGu":4003,"Ġmilitary":4004,"Ġbecome":4005,"Ġìĭ¤ìłľ":4006,"ĠíļĮë³µ":4007,"ĠíĺķìĦ±":4008,"ĠìĪĺìĥģ":4009,"ëª°":4010,"ìŀ¥ìĹĲ":4011,"Ġë¨¼":4012,"ìŀħëĭĪëĭ¤":4013,"¤ëŁŃìĭľ":4014,"ilar":4015,"ë²Īì§¸":4016,"ivil":4017,"ti":4018,"ham":4019,"Ġê³µëª¨":4020,"Ġ2005":4021,"Ġíı´":4022,"Ġrole":4023,"ĠëĮĢíĳľëĬĶ":4024,"65":4025,"Ġdisp":4026,"Ġservice":4027,"ë¶Ģê°Ģ":4028,"Ġgame":4029,"Ġfore":4030,"ĠìĿĮë°ĺ":4031,"Ġë¶ĢìĤ°":4032,"Ġíį¼":4033,"Ġê·ľìłľ":4034,"Ġchang":4035,"ĠìłĦê¸°":4036,"Ġdevelopment":4037,"ĠíĳľíĺĦ":4038,"ëŀĻ":4039,"ban":4040,"ĠBro":4041,"Ġlevel":4042,"Ġëį§":4043,"ĠNovember":4044,"ìŀĲìĻĢ":4045,"Ġê±°ìĿĺ":4046,"íŀĮ":4047,"Ġë¶Ģì¡±":4048,"Ġê¾¸":4049,"Ġíĸ¥íĽĦ":4050,"Ġindust":4051,"Ġgeneral":4052,"Ġë¶ģíķľ":4053,"å®":4054,"2000":4055,"ĠìŀĲìĹ°":4056,"ë§Īëĭ¤":4057,"ãĢĳ":4058,"ured":4059,"ìĦ¸ê³Ħ":4060,"ìĪĻ":4061,"ìľĦëĬĶ":4062,"sk":4063,"Ġë°©íĸ¥":4064,"ored":4065,"Ġcompany":4066,"Ġattack":4067,"ruction":4068,"Ġë§¥":4069,"Ġê³µìĹ°":4070,"imate":4071,"ĠíĺľíĥĿ":4072,"self":4073,"Ġwrote":4074,"Ġter":4075,"Ġfew":4076,"Ġword":4077,"Ġëĳĺ":4078,"ĠëĲĺìĸ´":4079,"ë£¨ìħĺ":4080,"ìŀ¥ìľ¼ë¡ľ":4081,"ĠChar":4082,"Ġê´Ģíķľ":4083,"alf":4084,"ìĺ¤ëĬĶ":4085,"37":4086,"ĠëĤĺìĺ¨":4087,"Ġë§Īì§Ģë§ī":4088,"ĠGeor":4089,"ãĢī":4090,"Ġmonth":4091,"ĠHar":4092,"Ġì°¾ìķĦ":4093,"ë¨¸ëĭĪ":4094,"Ġë°Ľê³ł":4095,"Ġorder":4096,"ë¹Į":4097,"ball":4098,"Ġinit":4099,"êµ°ìĿĺ":4100,"Ġíĸīìłķ":4101,"ìĭľëĬĶ":4102,"Ġsignific":4103,"ìĨĮë¥¼":4104,"ĠìķĬìķĺ":4105,"ĠìĮ":4106,"Ġì´Īê¸°":4107,"ald":4108,"Ġë°Ķë¡ľ":4109,"íħĶëłĪì½¤":4110,"Ġsix":4111,"ë¿Ĳ":4112,"Ġident":4113,"ëĭī":4114,"Ġmillion":4115,"Ġ1980":4116,"ĠìºĲë¦ŃíĦ°":4117,"Ġvillage":4118,"åħ":4119,"Ġdirect":4120,"ë¹ĦìķĦ":4121,"ëģ¼":4122,"Ġsol":4123,"ëķĮ":4124,"Ġ2022":4125,"ĠíĻľìĦ±":4126,"íķĺê¸°ëıĦ":4127,"ìĽĶë¶ĢíĦ°":4128,"Ġvarious":4129,"let":4130,"hod":4131,"ĠëĮĢíĺķ":4132,"ĠCanad":4133,"less":4134,"sp":4135,"Ġtele":4136,"Ġer":4137,"ì¹ł":4138,"Ġauthor":4139,"Ġprim":4140,"Ġless":4141,"Ġë¶ĢëıĻìĤ°":4142,"lands":4143,"lin":4144,"ìĩ":4145,"isted":4146,"Ġtour":4147,"ì£Ħ":4148,"ìļ´ìļ©":4149,"Ġìĭłìļ©":4150,"ìľ¼ë¡ľëıĦ":4151,"íļĮëĬĶ":4152,"Ġprote":4153,"Ġìĺ¬ë¦¼íĶ½":4154,"ëĮĢíķĻêµĲ":4155,"Ġdel":4156,"Ġìļ°ìĦł":4157,"Ġcover":4158,"osp":4159,"ìľ¼ë¡ľìį¨":4160,"Ġbas":4161,"ìĿĢíĸīìĿĢ":4162,"Ġprof":4163,"85":4164,"Ġê±°ì³Ĳ":4165,"ìĿ´ë¥¼":4166,"ëĿ¼ë§Ī":4167,"ĠìłĦíĨµ":4168,"íħį":4169,"34":4170,"Ġgiven":4171,"ney":4172,"lect":4173,"Ġpract":4174,"ìĽĲìĹĲìĦľ":4175,"Ġwithout":4176,"Ġep":4177,"ĠëıĻìĿ¼":4178,"Ġë§Įëĵł":4179,"Ġbeg":4180,"ĠëģĮ":4181,"íľĺ":4182,"Ġmag":4183,"band":4184,"ĠWilliam":4185,"Ġregion":4186,"Ġìĭ¶":4187,"ville":4188,"ĠìĦ¤ê³Ħ":4189,"39":4190,"ĠíĿĲ":4191,"ĠíĬ¹ìłķ":4192,"ìľ¨ìĿ´":4193,"ì¼ĢíĮħ":4194,"mit":4195,"Ġintrodu":4196,"Ġëį§ë¶Ļ":4197,"Ch":4198,"Ġdr":4199,"64":4200,"ëĨĵ":4201,"Ġì°¸ìĦĿ":4202,"Ġìķ¡":4203,"ĠìĿĺë£Į":4204,"ìĦ±ìĹĲ":4205,"Ġëª¸":4206,"ì¹ĺê°Ģ":4207,"77":4208,"tended":4209,"Ġì°©":4210,"dom":4211,"ĠìĶ":4212,"ì¤Ħ":4213,"eter":4214,"Ġide":4215,"Ġëħ¼ìĿĺ":4216,"ìļ´ëĵľ":4217,"Ġinvol":4218,"Ġturn":4219,"hern":4220,"Ġë³¸ê²©":4221,"ĠìĤ¬ê³ł":4222,"ì¶ĺ":4223,"íĻĺê²½":4224,"ĠëĭĪ":4225,"ogn":4226,"Ġmen":4227,"urs":4228,"reet":4229,"ances":4230,"ĠíĸīìĤ¬":4231,"ĠëĤ´ëħĦ":4232,"Ġimportant":4233,"vision":4234,"ones":4235,"istory":4236,"Ġë¡¯":4237,"Ġ2004":4238,"ĠíķĦìļĶíķĺëĭ¤":4239,"88":4240,"Ġê¸Ģ":4241,"Ġíĥĳ":4242,"ological":4243,"Ġëħ¸ëıĻ":4244,"ĠCal":4245,"ĠìĻĢ":4246,"ĠAfrican":4247,"Ġìłľê¸°":4248,"Ġìľ¤":4249,"astern":4250,"íĬ¸ë¡ľ":4251,"Ġtop":4252,"Ġê¸°íĥĢ":4253,"ondon":4254,"æĿ":4255,"ëª¬":4256,"ĠìłĦëĭ¬":4257,"Ġìľłëªħ":4258,"ĠìĿ´ë£¨ìĸ´":4259,"ĠíĻķìĤ°":4260,"ìłĦìĹĲ":4261,"ê²¼":4262,"ĠëĮĢì²´":4263,"Ġcaus":4264,"íĨ¤":4265,"Ġview":4266,"ìłł":4267,"Ġë¡¯ëį°":4268,"ither":4269,"Ġsold":4270,"íĺĢ":4271,"ê´´":4272,"Ġëĭ¬ë¦¬":4273,"ëĵ¤ëıĦ":4274,"Ġrace":4275,"Ġcomb":4276,"ì»´":4277,"Ġë¹Į":4278,"íħĮíģ¬":4279,"ĠíĻĪíİĺ":4280,"Ġìĥī":4281,"Ġê³łìļ©":4282,"ĠìŀĲë¦¬":4283,"Ġcame":4284,"ëĮĢìĹĲ":4285,"íķĺìĿ´":4286,"ĠìĹĦ":4287,"ìĥĿëªħ":4288,"ĠìĦ¬":4289,"ìĶ©":4290,"ìºĲ":4291,"Ġrepla":4292,"ĠSw":4293,"ĠRuss":4294,"Ġproduction":4295,"Ġreal":4296,"Ġìĸ¸ê¸ī":4297,"ĠìĿ´íķ´":4298,"ĠìķĦì§ģ":4299,"Ġneed":4300,"ape":4301,"mm":4302,"ĠìĽ¹":4303,"ëī´ìĬ¤":4304,"Ġla":4305,"Ġê·ľëª¨ìĿĺ":4306,"ĠĠĠĠĠĠĠĠ":4307,"Ġíı¬íķ¨íķľ":4308,"íĽĪ":4309,"Ġê²ĥìĿ´ëĿ¼ê³ł":4310,"Ġfield":4311,"ë¦°ëĭ¤":4312,"ested":4313,"ê±´ìĦ¤":4314,"ë²½":4315,"ĠHigh":4316,"Ġwon":4317,"ests":4318,"ĠëĨĵ":4319,"orthern":4320,"ops":4321,"Ġ500":4322,"ìĭľìĬ¤íħľ":4323,"Ġê´ĳê³ł":4324,"Ġìĸ´ë¦°":4325,"Ġmult":4326,"ëŁīìĿ´":4327,"ĠMc":4328,"iron":4329,"Ġplayed":4330,"ê¸°ì¤Ģ":4331,"ê±°ë¦¬":4332,"stit":4333,"Ġsimilar":4334,"inning":4335,"ëĵ¤ìĹĲ":4336,"ĠìŀĪëįĺ":4337,"ì£¼ë¥¼":4338,"orpor":4339,"Ġê²ĢíĨł":4340,"Ġìºł":4341,"Ġalone":4342,"Ġê°ľìłķ":4343,"32":4344,"ìĭľìĦ¤":4345,"ĠìĭľìŀĳíĸĪëĭ¤":4346,"Ġcommunity":4347,"Ġ1970":4348,"Ġëĭ´ëĭ¹":4349,"ìŀĲìĹĲê²Į":4350,"ĠíĥĢìĿ´":4351,"sequ":4352,"eg":4353,"Ġlanguage":4354,"ĩĮ":4355,"ì»¬":4356,"Ġê¸°íļį":4357,"ination":4358,"Ġai":4359,"Ġê¸°ì¤Ģìľ¼ë¡ľ":4360,"ãĢĲ":4361,"ebru":4362,"íı¬ì¸ł":4363,"ĠPart":4364,"ched":4365,"ĠìĬ¤íİĺ":4366,"ots":4367,"Ġìļ´ëıĻ":4368,"ëĭĪìĬ¤":4369,"ably":4370,"ebruary":4371,"Ġserved":4372,"ë°©ìĨ¡":4373,"ëĿ¼ë©°":4374,"ìĿ¸ê³¼":4375,"Ġsocial":4376,"Ġbelow":4377,"Ġì¼ĢìĿ´":4378,"Ġê¸°ì´Ī":4379,"Ġê¸°ëħĲ":4380,"Ġìļ°ìĪĺ":4381,"íķĺìŀĲ":4382,"êµ¬ì¡°":4383,"44":4384,"89":4385,"ĠAss":4386,"Ġëį§ë¶ĻìĺĢëĭ¤":4387,"ention":4388,"Ġìŀ¥ê¸°":4389,"tain":4390,"mb":4391,"ering":4392,"ĠRoman":4393,"ison":4394,"Ġson":4395,"Ġ90":4396,"Ġìłľìĭľ":4397,"Ġship":4398,"ĬìĿĢ":4399,"ĠEx":4400,"ĠLondon":4401,"Ġìĺ¬ëĿ¼":4402,"ounced":4403,"Ġì¶ľìĹ°":4404,"ĠìķĦìĭľìķĦ":4405,"Ġdeveloped":4406,"Ġpresident":4407,"Ġsum":4408,"Ġgrow":4409,"Ġlow":4410,"Ġì¤ĳìĿ¸":4411,"ĠíķĺìĺĢëĭ¤":4412,"ĵĴ":4413,"ë¬¸ìĿĦ":4414,"Ġattempt":4415,"ìĿ¸ìľ¼ë¡ľ":4416,"íķĺëįĺ":4417,"Ġcond":4418,"Ġbre":4419,"ìŀ¥ê³¼":4420,"Ġìĺ¤íĶĪ":4421,"Ġarg":4422,"Ġìłĳê·¼":4423,"Ġrate":4424,"ĠìłĦìĿ¼":4425,"ĠìĤ¬ë¡Ģ":4426,"Ġsit":4427,"ĠState":4428,"Ġëī´ìļķ":4429,"ë¦¬ìĺ¤":4430,"Ġsomet":4431,"Ġë°ĺìĿĳ":4432,"Ġlargest":4433,"Ġë§¤ê°ģ":4434,"ertain":4435,"ìĥģìĿĺ":4436,"Ġcurrent":4437,"here":4438,"thern":4439,"pecial":4440,"Ġassoci":4441,"Ġê°Ģê¹Į":4442,"Ġsignificant":4443,"76":4444,"íĭ´":4445,"Ã¡":4446,"ĠìķĦëŀĺ":4447,"riend":4448,"ĠFebruary":4449,"Ġëĥ":4450,"Ġhowever":4451,"Ġê³µìľł":4452,"reek":4453,"86":4454,"ìĸ´ë¥¼":4455,"Ġspecies":4456,"ĠItal":4457,"Ġeduc":4458,"ĠìĿ´ëģĮ":4459,"ĠìĿ´ë²¤íĬ¸":4460,"Ġê´ĳì£¼":4461,"Ġproject":4462,"Ġcreated":4463,"ĠìĨĮê°ľ":4464,"Ġmy":4465,"ĠSy":4466,"Ġê¸°ìĹ¬":4467,"ague":4468,"ns":4469,"Ġê·¸ëŀĺ":4470,"ë¡Ńê²Į":4471,"ìĬ¤íĨł":4472,"Ġredu":4473,"ĠìŀĲê¸°":4474,"ĠìĿ´íĥĪë¦¬ìķĦ":4475,"Ġgen":4476,"isc":4477,"Ġ2003":4478,"Ġëĭ¨ê³Ħ":4479,"Ġë°Ķíĥķ":4480,"of":4481,"ìĸ´ë¡ľ":4482,"ĠëĤĻ":4483,"ĠíĴĢ":4484,"Ġhuman":4485,"Ġìłľê³µíķĺëĬĶ":4486,"ì§ĢìĿĺ":4487,"ìłľê°Ģ":4488,"Ġê³¼ê±°":4489,"ford":4490,"ĠìłĦíĸĪëĭ¤":4491,"íĭ±":4492,"Ġ189":4493,"Ġ1000":4494,"Ġhaving":4495,"ëıĦìĹĲ":4496,"Ġactiv":4497,"êµŃìĿĢ":4498,"alk":4499,"Ġìłķë¶ĢëĬĶ":4500,"ĠìĹħì¢ħ":4501,"outhern":4502,"ëĮĢê°Ģ":4503,"Ġíİ¼":4504,"ëĺĲ":4505,"Ġappear":4506,"ìĦ¸ëĭ¤":4507,"ì£¼íĥĿ":4508,"Ġì£¼ê°Ģ":4509,"Ġíļį":4510,"Ġì´ī":4511,"Ġdiv":4512,"Ġì¢ħíķ©":4513,"Ġgr":4514,"ìĹĨìĿ´":4515,"ìļ°ìĬ¤":4516,"ĠíĹĮ":4517,"ĠìĽĢ":4518,"ĠEl":4519,"Ġproper":4520,"ront":4521,"ìħĭ":4522,"Ġ32":4523,"most":4524,"ìĦ±ìĿĢ":4525,"Ġrelig":4526,"Ġcontinued":4527,"ĠChurch":4528,"ë©ĺ":4529,"Ġê°ĲìĹ¼":4530,"ĠëĦ¤íĬ¸ìĽĮíģ¬":4531,"äº":4532,"na":4533,"Ġge":4534,"Ġalthough":4535,"Ġstruct":4536,"84":4537,"ĠìľłíĨµ":4538,"Ġarch":4539,"wh":4540,"ze":4541,"unicip":4542,"Ġi":4543,"Ġbeh":4544,"ĠRepublic":4545,"ridge":4546,"ìłľíĴĪ":4547,"ĠìłĦë§ĿìĿ´ëĭ¤":4548,"ĠRo":4549,"Ġdied":4550,"Ġì¹¼":4551,"Ġì½ľ":4552,"Ġë¯¼ê°Ħ":4553,"Ġìļ´ìļ©":4554,"ĠìļĶì²Ń":4555,"ĠEuropean":4556,"ì²´ìĿ¸":4557,"aul":4558,"ĠëıĪ":4559,"Ġdescribed":4560,"ìķĦìĿ´":4561,"Ġë¹ħ":4562,"ì²Ļ":4563,"ĠìĿ¸ê°Ħ":4564,"Ġsent":4565,"ëį°ìĿ´íĦ°":4566,"Ġì¦Ŀê°ĢíĸĪëĭ¤":4567,"att":4568,"55":4569,"ways":4570,"Ġìłķë³´ë¥¼":4571,"ĠìŀĶ":4572,"ë±ħ":4573,"%(":4574,"Ġkill":4575,"ington":4576,"ìĺ¥":4577,"ĠìŀĳìĿĢ":4578,"ĠìłĦëĤł":4579,"Ġíĳ¸":4580,"ĠBar":4581,"Ġmanag":4582,"ì§Ģë¡ľ":4583,"ĠìĭľìłĪ":4584,"ìĸ´ëĬĶ":4585,"ĠìĿ¼ë°ĺìłģìľ¼ë¡ľ":4586,"Ġë¶Īê°Ģ":4587,"ë¥´íģ¬":4588,"ĠCo":4589,"aken":4590,"ĠAnd":4591,"Ġsour":4592,"íļĮê°Ģ":4593,"ype":4594,"pl":4595,"âĢ¦":4596,"Ġë°ĺëĮĢ":4597,"istic":4598,"êµŃë¯¼":4599,"ĠëĶ°ëĿ¼ìĦľ":4600,"ìŀĪëĬĶ":4601,"66":4602,"ê°Ķëĭ¤":4603,"Ġthird":4604,"ìĬ·":4605,"ĠìĨĮíĶĦíĬ¸":4606,"cer":4607,"ential":4608,"ĠãĢĪ":4609,"Ġcr":4610,"Ġ2023":4611,"ĠìĤ¬ëŀĳ":4612,"Ġfurther":4613,"Ġëĵ±ë¡Ŀ":4614,"Ġë¶Ħë¥ĺ":4615,"Ġdest":4616,"Ġtimes":4617,"Ġì¤ĳëĭ¨":4618,"used":4619,"Ġ2002":4620,"Ġì±Ħê¶Į":4621,"ë³¸ë¶Ģ":4622,"100":4623,"ê²½ê¸°":4624,"ĠìĹ¬ìłĦíŀĪ":4625,"íķĺëĬĶëį°":4626,"ì¦ĺ":4627,"ìĭľìĿĺ":4628,"ìĺĢëįĺ":4629,"ĠSu":4630,"ë·Ķ":4631,"Ġz":4632,"ë¹Ī":4633,"ìľ¼ë¡ľë¶ĢíĦ°":4634,"47":4635,"ĠìĿ¸íķľ":4636,"part":4637,"rated":4638,"iddle":4639,"Ġprevious":4640,"ĠìķĦíĮĮíĬ¸":4641,"íĨµìĭłìĤ¬":4642,"Ġê²ª":4643,"nect":4644,">)":4645,"ĠìĹĺ":4646,"Ġ2024":4647,"ĠMin":4648,"ë¥´ê³ł":4649,"Ġrelations":4650,"ffic":4651,"ĠëĤ®ìĿĢ":4652,"Ġê²ĥëıĦ":4653,"formation":4654,"ĠìľłìĤ¬":4655,"ĠìŀĪëĬĶëį°":4656,"íĻĢ":4657,"ĠíĥĲ":4658,"ê°Ĳëıħ":4659,"ì½©":4660,"Ġjo":4661,"ìłĲìĿ´":4662,"Ġsomeone":4663,"íĸĪëĭ¤ëĬĶ":4664,"Ġê²°ìłľ":4665,"ĠíĻķìŀ¥":4666,"Ġrail":4667,"Ġê°Ģë§¹":4668,"Ġshould":4669,"Ġìķ¨":4670,"ĠPres":4671,"ĠEast":4672,"etwork":4673,"atures":4674,"Ġproduced":4675,"íĻĶê°Ģ":4676,"ìķŀ":4677,"87":4678,"Ġì¤Ħìĸ´":4679,"Ġì£¼ë³Ģ":4680,"Ġwomen":4681,"Ġread":4682,"ĠìĽĶëĵľ":4683,"ĠìĹ¬íĸī":4684,"ief":4685,"ĠTown":4686,"Ġê²½ì°°":4687,"ìĦ¬":4688,"ĠìķĬìĿĦ":4689,"Ġsugg":4690,"ĠSte":4691,"ë¥łìĿ´":4692,"eneral":4693,"Ġlab":4694,"ìĭľê°Ģ":4695,"Ġvol":4696,"Ġíĳľì¤Ģ":4697,"ĠëĦĪ":4698,"ĠìĺĪìĥģëĲľëĭ¤":4699,"ê°Ģêµ¬":4700,"Ġëĭµ":4701,"tv":4702,"ìĨĮíĶĦíĬ¸":4703,"Ġ1960":4704,"avy":4705,"49":4706,"ë§ĮìĽĲìľ¼ë¡ľ":4707,"Ġ36":4708,"ìłĦë¬¸":4709,"ĠHer":4710,"DP":4711,"Ġvac":4712,"Ġspecial":4713,"oon":4714,"ëĳĲê³ł":4715,"Ġtake":4716,"ëªħìľ¼ë¡ľ":4717,"ìħĶ":4718,"Ġë§Īì¼ĢíĮħ":4719,"ëłĪìĬ¤":4720,"Ġofficial":4721,"ita":4722,"ĠëĤ¨ìķĦ":4723,"êµ¬íķĺê³ł":4724,"ì°¨ë¥¼":4725,"Ġtw":4726,"Ģëĭ¤":4727,"ĠìĽĢì§ģ":4728,"ìľĦë¡ľ":4729,">,":4730,"Ġë³´ìĺĢëĭ¤":4731,"lear":4732,"Ġë¬ĺ":4733,"ĠëĳĲê³ł":4734,"ĠëĤ´ë¶Ģ":4735,"val":4736,"Ġmater":4737,"Ġê¸°ìĪłìĿĦ":4738,"íĸĪìľ¼ëĤĺ":4739,"itive":4740,"ì£¼ìĭĿ":4741,"ĠëĤ©":4742,"ĠìĿ¼ìłķ":4743,"Ġë¹ĦíĮĲ":4744,"Ġbusiness":4745,"Ġstates":4746,"ĠìķĬìķĦ":4747,"Ġìĸ´ëłµ":4748,"Ġsepar":4749,"Ġrese":4750,"Ġë°Ķê":4751,"ĠíĽĪ":4752,"ë¥Ļ":4753,"ìĿ´ê¸°":4754,"usband":4755,"Ġë¬´ë£Į":4756,"ì»¨":4757,"tic":4758,"Ġfather":4759,"Ġì¡°ìłķ":4760,"Ġì¢Į":4761,"oute":4762,"Ġëĭ¬ìĦ±":4763,"ĠìĿ´ë¦ĦìĿĦ":4764,"amb":4765,"Ġìļ¸":4766,"According":4767,"Ġmer":4768,"ìĩĦ":4769,"ĠìłľìķĪ":4770,"ĠFrance":4771,"ĠBo":4772,"Ġíķĺë£¨":4773,"craft":4774,"Ġcoup":4775,"Ġlived":4776,"Ġindepend":4777,"íĵ¨íĦ°":4778,"ìħĢ":4779,"Ġì§ģìĽĲ":4780,"Ġê³¼ìłķìĹĲìĦľ":4781,"Ġright":4782,"Ġ2001":4783,"ĠìĿ´ìĻĢ":4784,"êµ°ìĿĢ":4785,"íĿĲ":4786,"79":4787,"Ġì¶ľìłĦ":4788,"ĠìĦľë¡ľ":4789,"ë¥łìĿĦ":4790,"ĠíĿĳ":4791,"íļĮìĹĲìĦľ":4792,"ìłľëĬĶ":4793,"ëĭ¨ìĿĢ":4794,"reg":4795,"ĠEngland":4796,"ëĲĺë©´":4797,"Ġë¨¼ìłĢ":4798,"ays":4799,"Ġcase":4800,"ĠìŀĳìĹħ":4801,"Ġdeb":4802,"ë³Ħë¡ľ":4803,"Ġside":4804,"Ġì°¨ëŁī":4805,"ìĹ°ê¸Ī":4806,"ĠWhen":4807,"Ġì²ĺìĿĮìľ¼ë¡ľ":4808,"Ġdev":4809,"ĠìŀĲë³¸":4810,"Ġíģ´ëĿ¼ìļ°ëĵľ":4811,"now":4812,"eth":4813,"ability":4814,"ĠskíħĶëłĪì½¤":4815,"ĠDuring":4816,"Ġfinal":4817,"olic":4818,"ification":4819,"Ġfeature":4820,"Ġhost":4821,"Ġê²°íķ©":4822,"Ġìłľì¶ľ":4823,"ĠAng":4824,"Ġhusband":4825,"ule":4826,"Ġbuilding":4827,"ĠìĨĮìŀ¬":4828,"ìĹŃìĤ¬":4829,"Ġcirc":4830,"ìŀĲë¦¬":4831,"ìĬ¤ì½Ķ":4832,"ì£¼ë¡ľ":4833,"ìĪĺë¡ľ":4834,"Ġdra":4835,"Ġì¡°ê±´":4836,"ĠìĿ¸ìĥģ":4837,"Ġmakeup":4838,"ĠHouse":4839,"Ġë°Ķíĥķìľ¼ë¡ľ":4840,"Ġrul":4841,"Ġë¯":4842,"ĠComp":4843,"History":4844,"Ġì¡¸":4845,"46":4846,"ger":4847,"ĠìĿ´ê²ĥ":4848,"ë¹Ħë¥¼":4849,"ĠPhil":4850,"ĠAustral":4851,"(-":4852,"imately":4853,"iation":4854,"íģĲ":4855,"ached":4856,"Ġë¬´ìĹŃ":4857,"ë®¤":4858,"ocr":4859,"uck":4860,"ĠSec":4861,"ìĿ´ìĿĺ":4862,"Ġìĸ´ëĬĲ":4863,"ĠíĨµê³¼":4864,"ĠìĨĮë¹ĦìŀĲ":4865,"ëĮĢëĬĶ":4866,"aper":4867,"for":4868,"ë¦¿":4869,"5000":4870,"ĠìĿ´ìĿµ":4871,"ush":4872,"ìĽĢìĿ´":4873,"ë°į":4874,"ĠíĿĶ":4875,"Ġë¹ĦìĬ·":4876,"ĠìķĬëĭ¤":4877,"íķŃê³µ":4878,"Ġì¦Ŀê°Ģíķľ":4879,"ental":4880,"Ġë¶Ļ":4881,"íĺľ":4882,".'":4883,"Ġeast":4884,"adem":4885,"Ġpriv":4886,"Ġyoung":4887,"ë¯¼ì£¼":4888,"ĠìłľëıĦ":4889,"Ġë¸Ķë¡Ŀ":4890,"atural":4891,"ĠìłĦìļ©":4892,"Ġë°©ì¹¨":4893,"íķĢ":4894,"ìĨĶ":4895,"ĠìĤ¬ì§Ħ":4896,"Ġwritten":4897,"ìľ¨ìĿĦ":4898,"ĠìłķíĻķ":4899,"ream":4900,"Ġìı":4901,"Ġusually":4902,"Ġwest":4903,"Ġversion":4904,"ĠëĮĢìłĦ":4905,"ë·°":4906,"Ġê³ĦìĹ´":4907,"ìĥĿíĻľ":4908,"An":4909,"Ġmean":4910,"atter":4911,"ãĢĳ<":4912,"ê²©ìĿĦ":4913,"Ġì¶©ë¶Ħ":4914,"Ġnext":4915,"ĠëłĪìĿ´":4916,"âĢĻ,":4917,"Ġìłķë¶Ģê°Ģ":4918,"Ġothers":4919,"Ġì§Ģë°°":4920,"Ġmoved":4921,"íĬ¸ëĤ¨":4922,"Ġ300":4923,"Ġcompet":4924,"Ġdoes":4925,"ë°ĸìĹĲ":4926,"Ġracial":4927,"ĠëĦĵ":4928,"ĠìĺĪìĪł":4929,"Ġnever":4930,"ĠìĤ¬ìļ©íķł":4931,"ĠUnion":4932,"Ġposition":4933,"Ġìĺ¬ëŀĲëĭ¤":4934,"ëĵľë¡ľ":4935,"Ġbody":4936,"Ġì°¸ê³ł":4937,"Ġworks":4938,"ëıĦì²´":4939,"69":4940,"íĨ¡":4941,"Ġet":4942,"ì§ĢëĤľ":4943,"Ġmember":4944,"íĸĪìĿĦ":4945,"ìĿ¼ìĿĦ":4946,"ĠìĭľìĦ¤":4947,"Ġfail":4948,"ĠìłĦë°ĺ":4949,"Ġparty":4950,"ê²ł":4951,"Ġlight":4952,"Ge":4953,"Ġëĭ¨ìĪľ":4954,"êµŃìĿ´":4955,"íĬ¸ìĿĺ":4956,"Ġì²ĺë¦¬":4957,"ĠìķĦëĭĪëĭ¤":4958,"Ġê¸°ëĬ¥ìĿĦ":4959,"ĠìĿ¸ìĭĿ":4960,"Ġdays":4961,"Ġoffer":4962,"Ġë°ľíĳľíĸĪëĭ¤":4963,"Ġbest":4964,"ĠPe":4965,"Al":4966,"Ġë¥":4967,"ĠìĤ¬íļĮìłģ":4968,"ĠColle":4969,"ìĿ´ì§Ģë§Į":4970,"Ġannounced":4971,"Ġì§ĢëıĦ":4972,"Ġëħ¼ëŀĢ":4973,"Ġëį°ë·Ķ":4974,"ëł´":4975,"Ġë¹Ī":4976,"Ġë³´ë©´":4977,"Ġacross":4978,"Ġstrong":4979,"field":4980,".>":4981,"Ġ33":4982,"aff":4983,"ĠìķĦë²Ħ":4984,"Ġexist":4985,"67":4986,"âĵĴ":4987,"ĠOne":4988,"ìŀ¬ë°°íı¬":4989,"Ġê³µê°Ĳìĸ¸ë¡ł":4990,"Ġëī´ìĭľìĬ¤íĨµìĭłìĤ¬":4991,"ĠDav":4992,"ìĿ´ìĹĲ":4993,"Ġë¶Īêµ¬íķĺê³ł":4994,"ìħľ":4995,"ëĭ¤ê°Ģ":4996,"ĠíĺĦì§Ģ":4997,"Ġì§ĢëĤĺ":4998,"Ġmot":4999,"ĠìľłìłĢ":5000,"ĠìĺģìĹŃ":5001,"íķĻìĥĿ":5002,"Ġìĺģìĥģ":5003,"êµ¬ë¥¼":5004,"įìłķ":5005,"ìłĲìĹĲìĦľ":5006,"Ġlet":5007,"Ġì§Ģíķĺ":5008,"ĠìĬ¬":5009,"minist":5010,"Ġstudy":5011,"ĠëĦ£":5012,"Ġke":5013,"íĺĳíļĮ":5014,"ê¸°ìĻĢ":5015,"ĠëĦ¤ìĿ´ë²Ħ":5016,"asing":5017,"Ġphys":5018,"59":5019,"Ġë©Ķëī´":5020,"arent":5021,"Ġearli":5022,"Ġrecogn":5023,"Ġgood":5024,"acy":5025,"ĠíĻķìłķ":5026,"Ġproduct":5027,"ĠâĹĩ":5028,"ators":5029,"68":5030,"ê³¤":5031,"ĠAmerica":5032,"Ġë§Ŀ":5033,"Ġë³´ìŀ¥":5034,"Ġspace":5035,"ument":5036,"ĠìĿ¸ì¦Ŀ":5037,"ĠNe":5038,"ana":5039,"Ġë§Īê°ĲíĸĪëĭ¤":5040,"app":5041,"Ġìłķë¶ĢìĿĺ":5042,"Ġ34":5043,"Ġêµ°ìĤ¬":5044,"Ġur":5045,"ĠìħĢ":5046,"anted":5047,"Ġaddition":5048,"Ġpress":5049,"Ġê³µìłķ":5050,"ìľ¼ë¡ľìĦľ":5051,"2020":5052,"Ġë§¤ìĪĺ":5053,"Ġê°Ģìłķ":5054,"åŃ":5055,"ĠHol":5056,"ĠDist":5057,"Ġìķŀìľ¼ë¡ľ":5058,"Ġì§Ģì§Ģ":5059,"ĠìĪĻ":5060,"Ġstation":5061,"Ġcountries":5062,"Ġê±´ë¬¼":5063,"ëħĦìĥĿ":5064,"umb":5065,"enced":5066,"pite":5067,"Ġmethod":5068,"ìĽĥ":5069,"Ġê¸°ë°ĺìľ¼ë¡ľ":5070,"Ġmaterial":5071,"ĠìĹ°ë°©":5072,"Ġking":5073,"orts":5074,"ularly":5075,"íķĻê³¼":5076,"ì¹¼":5077,"ë¡¤":5078,"Ġinternational":5079,"Ġcommand":5080,"ĠNative":5081,"Ġformed":5082,"¹ìĿĢ":5083,"Ġì±ħìŀĦ":5084,".â":5085,"ìĤ¬ìĹĲìĦľ":5086,"Ġtreat":5087,"iber":5088,"íĸĪëĬĶëį°":5089,"idence":5090,"uel":5091,"Ġê¼½":5092,"ĠìłķìĿĺ":5093,"Ġmale":5094,"Ġë¶Ħìĸĳ":5095,"aining":5096,"Ġelection":5097,"ĠSome":5098,"Ġë§ĮëĤĺ":5099,"Ġbroad":5100,"Ġmust":5101,"FA":5102,"íĺĪ":5103,"ë¥łìĿĢ":5104,"Ġnov":5105,"iol":5106,"Ġê°¤ëŁŃìĭľ":5107,"ê¶ģ":5108,"ĠìĿ´íķĺ":5109,"ĠìĿ¼ë³¸ìĿĺ":5110,"uf":5111,"ĠíĻĪíİĺìĿ´ì§Ģ":5112,"Ġhimself":5113,"ibr":5114,"ĠíļįëĵĿ":5115,"ìĹĩ":5116,"ĠìķĮëł¤ìł¸":5117,"ĠìĨĮíĶĦíĬ¸ìĽ¨ìĸ´":5118,"Ġë¡ľë§Ī":5119,"omb":5120,"íķĺëĤĺ":5121,"ĠëĬĲëĤ":5122,"Ġì§ĢìĨįìłģìľ¼ë¡ľ":5123,"Ġê·¸ëłĩ":5124,"ĠâĶ":5125,"Ġê²¸":5126,"ìĨĮëħĦ":5127,"ĠVal":5128,"íĶĦë¦¬ì¹´":5129,"Ġë¸ĮëĿ¼":5130,"Ġìµľì´Īë¡ľ":5131,"ĠReg":5132,"Ġfunction":5133,"ëį´":5134,"Ġemploy":5135,"ìĭľìĺ¤":5136,"ãİ¡":5137,"Ġtownship":5138,"ta":5139,"Ġ1999":5140,"ĠíļĮìĿĺ":5141,"ëĤ´ëĬĶ":5142,"Ġìŀĳìļ©":5143,"ĠíĮ¬":5144,"Ġìŀ¥ê´Ģ":5145,"yd":5146,"ising":5147,"Ġmaking":5148,"ìĬ¤ìĹĲ":5149,"íĺĦìŀ¬":5150,"order":5151,"Ġê¸įìłķ":5152,"ĠìĿ´ìĤ¬":5153,"rest":5154,"ĠìĦłë°ľ":5155,"êµ¬ìĿĺ":5156,"Ġìī½ê²Į":5157,"oyal":5158,"Ġgroups":5159,"íķĺìĺĢìľ¼ë©°":5160,"83":5161,"ĠìĪĺëĬĶ":5162,"Ġë¬¸ìłľê°Ģ":5163,"Ġstudents":5164,"lex":5165,"ĠìĤ¼ìĦ±ìłĦ":5166,"ĠìłĦìĭľ":5167,"Ġhold":5168,"ĠëĮĢê·ľëª¨":5169,"Ġë¯¼ì£¼":5170,"gen":5171,"Ġforces":5172,"Ġwid":5173,"Ġíķľëĭ¤ëĬĶ":5174,"Ġhalf":5175,"ĠëĵľëĿ¼ë§Ī":5176,"ìłģìĿĦ":5177,"ê°ĻìĿĢ":5178,"ëĭ¨ìĿĦ":5179,"Ġì±ĦëĦĲ":5180,"ĠìĤ¬ìĥģ":5181,"Ġanc":5182,"ĠìĦ¤ìłķ":5183,"ìĪĺë£Į":5184,"74":5185,"ĠAct":5186,"íĻĶìĹĲ":5187,"ëıĦìĭľ":5188,"»ê²Į":5189,"ask":5190,"Ġì»¤íĶ¼":5191,"´ëĵľ":5192,"Ġproble":5193,"Ġë¶Ģì§Ħ":5194,"Ġwin":5195,"lement":5196,"Ġoffice":5197,"II":5198,"ĠìĨĶë£¨ìħĺ":5199,"ĠëĵľëŁ¬":5200,"Ġpain":5201,"ìĦłìĿĺ":5202,"ìĦ±ìŀ¥":5203,"aries":5204,"Ġrock":5205,"Ġê²¨":5206,"Ġren":5207,"ìĸ´ëĤ¬ëĭ¤":5208,"ĠêµŃë°©":5209,"Ġhow":5210,"Ġë³´íĨµ":5211,"æľ":5212,"Ġsite":5213,"Ġê°ģì¢ħ":5214,"ĠAccording":5215,"Ġanim":5216,"ê°Ģê²©":5217,"ìĹĪëįĺ":5218,"ĠíĶĦë¦¬ë¯¸":5219,"78":5220,"quare":5221,"ĠìĤ¬ìĹħìĿĦ":5222,"Ġ2025":5223,"Ġord":5224,"Ġë²ĦìłĦ":5225,"ë¶Īìĸ´":5226,"ë§ĮìĿĺ":5227,"osition":5228,"Ġìĭ¤ìłľë¡ľ":5229,"Ġì°¨ë³Ħ":5230,"Ġeither":5231,"ìĿ¸ëį°":5232,"ìŀĲê¸Ī":5233,"Ġreported":5234,"Ġagre":5235,"ef":5236,"Ġmass":5237,"ë¶Ģë¬¸":5238,"ills":5239,")âĢĻ":5240,"Ġfrequ":5241,"Ġë°©ìĭĿìľ¼ë¡ľ":5242,"ĠìĭľíĹĺ":5243,"BS":5244,"ĠìľłìĿ¼":5245,"ĠìĿ¸ê³µ":5246,"Ġste":5247,"Ġë¶Ģìłķ":5248,"Ġbi":5249,"ĠëĮĢì¤ĳ":5250,"Ġìĥģíĺ¸":5251,"Ġpolic":5252,"ģ.":5253,"Ġëª¨ìĬµìĿĦ":5254,"ĠTe":5255,"ĠJew":5256,"Ġmarket":5257,"ì§ĢëĬ¥":5258,"ĠAbout":5259,"ĠSan":5260,"Ġsystems":5261,"ĠPal":5262,"ĠëıĻê¸°":5263,"Ġë§ĪìĿĮ":5264,"ĠìĤ¬ìļ©íķĺëĬĶ":5265,"uk":5266,"ë§ĮìĹĲ":5267,"ĠPl":5268,"Ġfull":5269,"ĠMed":5270,"Ġì¦Ĳê¸¸":5271,"ë§ĮìĽĲìĿĦ":5272,"ëĭ¨ê³Ħ":5273,"ara":5274,"ëįĶëĿ¼ëıĦ":5275,"ĲìĿĺ":5276,"ĠChristian":5277,"ìĨĮëĵĿ":5278,"Ġê·¸ëŁ°":5279,"íĬ¼":5280,"Ġengine":5281,"ì¹¸":5282,"ĠìµľìĨĮ":5283,"ë¬´ë¥¼":5284,"Ġoccur":5285,"Ġmeas":5286,"ìĦ±ìĿĺ":5287,"ĠêµŃë¦½":5288,"Ġìĵ":5289,"ĠëĤ´ëł¤":5290,"ĠìĶ¨":5291,"ĠëĳĶ":5292,"Ġëĭ¨ì²´":5293,"anc":5294,"ĠMe":5295,"Ġìĭľë¯¼":5296,"Ġtre":5297,"Ġrather":5298,"ĠìĿ¸ë¬¼":5299,"ĠìĤ¬ìĿ´ìĹĲ":5300,"ì¼ĢìĿ´ìħĺ":5301,"ids":5302,"lood":5303,"Ġê°ķëł¥":5304,"ì²¨":5305,"54":5306,"ĠìĿ´ëĭ¬":5307,"Ġìĸ´ëĸ»ê²Į":5308,"ê³łë¥¼":5309,"sy":5310,"Ġê·¸ë¦¬ìĬ¤":5311,"Ġobs":5312,"Ġschools":5313,"ì¤Ģëĭ¤":5314,"ìŀĪëĭ¤":5315,"Ġpri":5316,"ĠìĥģìľĦ":5317,"63":5318,"Ġfund":5319,"ĠPer":5320,"Ġ39":5321,"Ġê¾¸ì¤Ģ":5322,"ìĿ¸íĦ°":5323,"Ġ1998":5324,"ìľĦê°Ģ":5325,"Ġê´Ģê´ĳ":5326,"ĠìķŀëĳĲê³ł":5327,"ê°ĢìĿĺ":5328,"Ġì¶Ķì²ľ":5329,"ë¡ľëĵľ":5330,"Ġê°ĸê³ł":5331,"ĠâĶģ.":5332,"íķĻìłģ":5333,"ì§ľ":5334,"ĠêµĲíĨµ":5335,"ë¶ĢìĻĢ":5336,"Ġblack":5337,"ĠëĤĺê°Ģ":5338,"Ġopened":5339,"ours":5340,"ìĭľì¼ľ":5341,"ìĨĮëĬĶ":5342,"ĠBlack":5343,"inese":5344,"Ġê°ľìĿĺ":5345,"Ġê·¸ê²ĥ":5346,"hib":5347,"incip":5348,"ĠìłĲìĿĦ":5349,"ĠSch":5350,"ows":5351,"Ġíķ©ë³ĳ":5352,"Ġìĭ¸":5353,"ĠëĤ´ë¦°":5354,"72":5355,"ĠìĿ´ë¡ł":5356,"ĠìŀĪê¸°":5357,"Ġtitle":5358,"ĠëĤĺìĺ¤":5359,"íĺĦì§Ģ":5360,"Ġavail":5361,"iction":5362,"Ġëĵ±ìĿĢ":5363,"ĠBer":5364,"Ġë§º":5365,"aign":5366,"Ġfriend":5367,"pecially":5368,"Ġimpro":5369,"ĠGeorge":5370,"cast":5371,"Ġë²¤":5372,"82":5373,"Ġì¡¸ìĹħ":5374,"ìŀĲìĹĲ":5375,"ìĿ´ìĤ¬":5376,"ĠDem":5377,"ĠìĹĲëĦĪì§Ģ":5378,"Ġfollowed":5379,"ĠWe":5380,"Ġmid":5381,"íĭ°ë¸Į":5382,"ë°ĶìĿ´ìĺ¤":5383,"etic":5384,"íĺ¹":5385,"Ġwife":5386,"Ġder":5387,"Ġenc":5388,"ĠëĮĢë¶Ģë¶ĦìĿĺ":5389,"ì¤ĳìĹĲ":5390,"ëĭ¨ì²´":5391,"Ġcareer":5392,"71":5393,"ware":5394,"ìĦ°ëĭ¤":5395,"Ġcivil":5396,"'t":5397,"Ġanal":5398,"ify":5399,"Ġì¸¡ë©´":5400,"fic":5401,"ì§Ģì§Ģ":5402,"ĠìĤ¬ìłĦ":5403,"ë´ĩ":5404,"Ġêµ¬ì²´":5405,"Ġarr":5406,"ĠìĤ¬ë¬´":5407,"ĠëĮĢíķĻêµĲ":5408,"Ġì§ĢìĹŃìĿĺ":5409,"Ġê·ľìłķ":5410,"tt":5411,"ĠIndian":5412,"ê¸ĪìĿĢ":5413,"ements":5414,"ĠìĿ¸ì²ľ":5415,"ĠìĹĨìĹĪëĭ¤":5416,"ĠìĿ´ëĵ¤ìĿĢ":5417,"ëĭ¤ë¥¸":5418,"ĠInternational":5419,"Ġexpress":5420,"ĠìŀĦëªħ":5421,"Ġwent":5422,"ëĭ¨ìĿĺ":5423,"ĠArmy":5424,"ê°Ĵ":5425,"Ġë°°ëĭ¹":5426,"Ġëħ¸ëŀĺ":5427,"ĠAsian":5428,"Ġseen":5429,"ĠHen":5430,"ê³Ħíļį":5431,"ĠLa":5432,"Ġroad":5433,"Ġì§ĳê³Ħ":5434,"ĠTV":5435,"Ġê°ľëħĲ":5436,"Ġë§İëĭ¤":5437,"Ġtext":5438,"Ġì²´íĹĺ":5439,"íĻĶêµŃ":5440,"ëĤĺëĭ¤":5441,"ĠìĹ°íķ©":5442,"ìĹĲìĦł":5443,"ĠìĹ¼":5444,"ë¨¼íĬ¸":5445,"Ġsuper":5446,"ê´Ħ":5447,"Ġobject":5448,"ĠìĿ¼ìľ¼":5449,"ĠCouncil":5450,"Ġcost":5451,"ìĶ¨ëĬĶ":5452,"±±":5453,"ĠíĻľëıĻìĿĦ":5454,"Ġìŀ¥ìķł":5455,"ĠìµľìłĢ":5456,"ìļ¸ëŁ¬":5457,"ĠìĤ¼ìĦ±ìłĦìŀĲ":5458,"ê³Ħìķ½":5459,"ĠGermany":5460,"ê´Ģê³Ħ":5461,"Ġappeared":5462,"Ġinvest":5463,"Ġservices":5464,"Ġtru":5465,"ipp":5466,"56":5467,"½ĥ":5468,"ë¦¬ìĻĢ":5469,"ership":5470,"ĠíĿ¥":5471,"ĠëįĶë¶Īìĸ´":5472,"Ġfire":5473,"ĠLou":5474,"ĠìĨĮìľł":5475,"wood":5476,"Ġrecorded":5477,"omm":5478,"42":5479,"ĠíķĺìĿ´":5480,"Ġìłľì£¼":5481,"ìĨĮê°Ģ":5482,"ê¼":5483,"73":5484,"Ġì£¼ë¯¼":5485,"ĠìĪĺìŀħ":5486,"Ġgenerally":5487,"ensive":5488,"ëŁ¬ìļ´":5489,"rown":5490,"ancy":5491,"eum":5492,"Ġì»´íĵ¨íĦ°":5493,"ëŁ´":5494,"Ġë®¤":5495,"ĠëĤĺëĿ¼":5496,"Ġspread":5497,"Ġtelevision":5498,"ëŁ¼íĶĦ":5499,"ĠParty":5500,"ĠHispan":5501,"Ġ[[":5502,"ĠëĶĶìŀĲìĿ¸":5503,"ìĭ¤ìĿĦ":5504,"Ġmeet":5505,"ĠGreat":5506,"Ġfree":5507,"road":5508,"ĠDistrict":5509,"arily":5510,"Ġë¶ĢìĹ¬":5511,"ĠìĹ°ê°Ħ":5512,"Ġìĥģë°ĺê¸°":5513,"Ġì£¼ëıĦ":5514,"Ġë§ĪìĿĦ":5515,"ude":5516,"Ġthroughout":5517,"ķħ":5518,"ìķĪìłĦ":5519,"ë©ĶëĿ¼":5520,"Ġstory":5521,"\"),":5522,"41":5523,"ëł¬":5524,"Ġë¹Ħë¡¯íķ´":5525,"Ġíķĺì§Ģ":5526,"ĠìķĦëĵ¤":5527,"cle":5528,"Ġappoint":5529,"ì¡°ìłķ":5530,"ĠìĦłë¬¼":5531,"Ġground":5532,"Ġ1997":5533,"Ġleast":5534,"ìĻĶ":5535,"Ġgrad":5536,"ìĸ´ê°Ģ":5537,"Ġremained":5538,"ë³´ê³ł":5539,"81":5540,"Ġcouples":5541,"ìĥģìĹĲ":5542,"ĠíĹĪìļ©":5543,".,":5544,"Ġì§ķ":5545,"Ġtemper":5546,"ĠíĶĦë¡ľìłĿíĬ¸":5547,"ĠJames":5548,"iting":5549,"Ġìĺ¤ëĬĺ":5550,"ì¼ľ":5551,"right":5552,"ĠìĿ¸ê¸°":5553,"ë¯¸êµŃ":5554,"Ġlist":5555,"Ġstar":5556,"rain":5557,"Ġìĭ¤íĮ¨":5558,"ĠìĻ¸êµŃìĿ¸":5559,"61":5560,"Ġdata":5561,"Ġê²°íĺ¼":5562,"ĠChina":5563,"ĠRes":5564,"Ġplan":5565,"face":5566,"ì§Ģë©´ìĦľ":5567,"Ġë¬¸ìłľë¥¼":5568,"Ġê´Ģìĭ¬ìĿĦ":5569,"ìĭľíĤ¤ëĬĶ":5570,"off":5571,"ìĥ¤":5572,"Ġì¼Ģ":5573,"famil":5574,"43":5575,"Ġmunicip":5576,"Ġsubject":5577,"ning":5578,"Ġnetwork":5579,"apt":5580,"ĠíĢ":5581,"west":5582,"aut":5583,"Ġë§Ĳíķľëĭ¤":5584,"mercial":5585,"Ġíķ©ìĿĺ":5586,"Ġë¹łë¥´ê²Į":5587,"alt":5588,"rap":5589,"hest":5590,"ĠíĮĮìķħ":5591,"¤ë²Ħ":5592,"Ġliter":5593,"year":5594,"Ġsometimes":5595,"viron":5596,"ëĲĺê¸°":5597,"62":5598,"Ġpot":5599,"Ġì§ĢìĽĲìĿĦ":5600,"Ġê¶ģ":5601,"Ġë§ĪìĿ´":5602,"ĠìĿµ":5603,"Ġë§¤ëħĦ":5604,"Ġreturned":5605,"Ġsound":5606,"Ã¶":5607,"Ġíķĺë°ĺê¸°":5608,"Ġê²ĥìĿ´ëĿ¼ëĬĶ":5609,"Ġë§¤ì¶ľìķ¡":5610,"ĠMon":5611,"ĠêµĲìĪĺ":5612,"Ġìĭľìŀ¥ìĹĲìĦľ":5613,"ë³´íĺ¸":5614,"rab":5615,"ought":5616,"Ġaccess":5617,"ĠStreet":5618,"Ġresearch":5619,"ëĢ":5620,"rig":5621,"Ġentire":5622,"ederal":5623,"Ġsett":5624,"Ġëı¼":5625,"Ġêµ¬ê¸Ģ":5626,"ma":5627,"Ġabove":5628,"ĠCollege":5629,"Ġterrit":5630,"íĻį":5631,"Ġve":5632,"ĠëĶ¸":5633,"ìĽłëĭ¤":5634,"ateg":5635,"ico":5636,"ìļ°ë¦¬":5637,"Ġcell":5638,"Ġprofess":5639,"Ġ1996":5640,"Ġíļ¨ìľ¨":5641,"ote":5642,"ĠëĮĢêµ¬":5643,"ë³´ëĭ¤ëĬĶ":5644,"58":5645,"íĶĮëŁ¬ìĬ¤":5646,"Ġaccept":5647,"Ġì¤ĳìĨĮê¸°ìĹħ":5648,"Ġë°°ì¹ĺ":5649,"ĠíķĻìĬµ":5650,"Ġë°ĶìĿ´ìĺ¤":5651,"Ġdefe":5652,"ureau":5653,"ê°Ģë¡ľ":5654,"Ġpred":5655,"Ġfind":5656,"57":5657,"ĠPort":5658,"ëĵ±ê¸ī":5659,"ĠìłķëıĦë¡ľ":5660,"ĠEar":5661,"ĠGeneral":5662,"ë²ķìĿĦ":5663,"Ġcomput":5664,"Ġfounded":5665,"ê´ĢìĿĦ":5666,"Ġneg":5667,"Ġdeg":5668,"ĠChinese":5669,"Ġ1950":5670,"ìī¬":5671,"ê°ĲìĿ´":5672,"Ġë¶ĦìľĦ":5673,"ĠìļĶê¸Ī":5674,"Ġë²łíĬ¸ëĤ¨":5675,"ĠíļĮìĽĲ":5676,"Ġë¯¿":5677,"ëĳĶ":5678,"ceed":5679,"Ġwhite":5680,"ëªħìĿĢ":5681,"ìķ½íĴĪ":5682,"¿Ī":5683,"ìĥģìĿĢ":5684,"Ġintroduced":5685,"Ġcross":5686,"ĠìĤ¬íĥľ":5687,"íļĮìĹĲ":5688,"go":5689,"ĠìĬ¤íĨł":5690,"Ġë°ĽëĬĶ":5691,"52":5692,"Ġê·¸ë¦¼":5693,"Ġver":5694,"ĠìĤ¶":5695,"ìŀĶ":5696,"oms":5697,"ĠëĲĺê³ł":5698,"lam":5699,"ì§ĢìĪĺëĬĶ":5700,"ĠĠĠĠĠĠĠ":5701,"ì¡°ìĽĲ":5702,"ì°¨ìĿ´ì¦Ī":5703,"ĠìŀĲë£Į":5704,">(":5705,"view":5706,"ĠìķĮëł¤ì¡Įëĭ¤":5707,"ĠSoc":5708,"After":5709,"ì´ī":5710,"Ġë°Ľìķĺ":5711,"ĠíĺĪ":5712,"Ġpossible":5713,"Ġë³ĢëıĻ":5714,"Ġoccup":5715,"olit":5716,"Ġ38":5717,"53":5718,"Ġcapital":5719,"ë©Ķëĭ¬":5720,"ĠìĻĶëĭ¤":5721,"ìĪĺìĿµ":5722,"overty":5723,"><":5724,"ìĹ°íķ©":5725,"ĠìĹ¬ê¸°":5726,"ë¦¬ìĬ¤íĬ¸":5727,"ĠìķĮê³ł":5728,"ĠìĺĪìĤ°":5729,"ĠPac":5730,"ĠìĹĨìĸ´":5731,"ĠìĻĦë£Į":5732,"Ġconnect":5733,"Ġeconomic":5734,"ĠRich":5735,"Ġrange":5736,"Ġë³´ìĿ´ê³ł":5737,"ĠPresident":5738,"ëŀľì°¨ìĿ´ì¦Ī":5739,"ìĦ¸ë¡ľ":5740,"chie":5741,"Ġcentral":5742,"Ġborn":5743,"Ġtheory":5744,"Ġíķĺë©°":5745,"Ġìµľì´ĪìĿĺ":5746,"Ġchange":5747,"Ġaccount":5748,"Ġë°ĶëĢ":5749,"íĹ¤":5750,"Ġsuccessful":5751,"Ġê°Ģìł¸":5752,"ê²¼ëĭ¤":5753,"Ġê±°ì£¼":5754,"Ġforce":5755,"oney":5756,"ĠìķĦë¥´":5757,"Ġeducation":5758,"ming":5759,"Ġespecially":5760,"ĠWith":5761,"ique":5762,"ì²´ë¥¼":5763,"ĠCath":5764,"ìļ´ëıĻ":5765,"ĠìĽ¨":5766,"ë§¨":5767,"ĠìłĦìĹĲ":5768,"Ġcenter":5769,"ĠìĤ¬íķŃ":5770,"erous":5771,"íĬ¹ë³Ħ":5772,"Ġì±Ħìļ©":5773,"Ġmodel":5774,"ĠCour":5775,"Ġê·¸ê°Ģ":5776,"Ġterms":5777,"Ġprovided":5778,"ĠíĮĮíĬ¸":5779,"Ġhigher":5780,"ìĭľì¼°ëĭ¤":5781,"Ġleading":5782,"ĠíķĢ":5783,"Ġê±¸ì³Ĳ":5784,"ìĤ¬ìĿ¸":5785,"ìĭľíĤ¨":5786,"arian":5787,"Ġíİ¸ìĿĺ":5788,"Ġavailable":5789,"ĠìĹ¬ë¦Ħ":5790,"Ġparts":5791,"Ġmonths":5792,"ĠëĬĺìĹĪëĭ¤":5793,"ĠëĤĺëĪ":5794,"Ġìŀħìŀ¥":5795,"Ġ1995":5796,"íĢ":5797,"Ġ37":5798,"bert":5799,"atives":5800,"Ġìĭłë¢°":5801,"oviet":5802,"51":5803,"Ġpur":5804,"ì¹ĺê³ł":5805,"Ġelected":5806,"Ġê²½ëł¥":5807,"ĠìĻ¸ë¶Ģ":5808,"Ġìĺ®":5809,"ĠìĿĮìĭĿ":5810,"Ġstarted":5811,"çĶ":5812,"ĠëĤĺìĺ¨ëĭ¤":5813,"ĠHispanic":5814,"Ġregard":5815,"íķ¨ìľ¼ë¡ľìį¨":5816,"ĠAnt":5817,"ergy":5818,"Ġlive":5819,"ls":5820,"Ġë¶Īê³¼":5821,"ĠëĨĴëĭ¤":5822,"Ġìĥ¤":5823,"Ġdiscover":5824,"(\"":5825,"ìłĲìľ¼ë¡ľ":5826,"Ġcritic":5827,"ìłĦìĹĲìĦľ":5828,"Ġcampaign":5829,"ëĤ´ê³ł":5830,"Ġself":5831,"ĠìĨĮìĭĿ":5832,"Ġlost":5833,"Ġtaken":5834,"Ġgames":5835,"rag":5836,"ì¢ħìĿĺ":5837,"Ġhon":5838,"ĠìĺĪë¥¼":5839,"ĠíĿĲë¦Ħ":5840,"ĠíĿ¬ë§Ŀ":5841,"ĠíĨµíĻĶ":5842,"Ġìĸ´ëł¤ìļ´":5843,"ëŁīìĿĢ":5844,"Ġpoverty":5845,"panish":5846,"ìł¤":5847,"ë§Įíģ¼":5848,"burg":5849,"Ġë°©ìķĪ":5850,"put":5851,"Ġìĸ¸ë¡ł":5852,"Ġë¯¸ëĶĶìĸ´":5853,"ĠÐ":5854,"Ġfoc":5855,"ìĽĶê¹Įì§Ģ":5856,"Ġì·¨ëĵĿ":5857,"ì§ĢìĻĢ":5858,"ĠRober":5859,"Äģ":5860,"ĠíĻľìĦ±íĻĶ":5861,"ĠìĿ´ìļ©íķł":5862,"Ġfav":5863,"Ġíĥĳìŀ¬":5864,"Ġincludes":5865,"Ġevents":5866,"ìģ":5867,"ground":5868,"ike":5869,"Ġê´Ģëł¨íķ´":5870,"Ġcast":5871,"ëıĪ":5872,"Ġ1994":5873,"ĠìĻĦíĻĶ":5874,"Ġê·¸ëĮĢë¡ľ":5875,"êµ°ìĿ´":5876,".)":5877,"ìĹĪìľ¼ë©°":5878,"roy":5879,"ì§ĢìĪĺ":5880,"ì°¬ê°Ģì§Ģ":5881,"ĠOther":5882,"Ġëįķ":5883,"íĺ¸ë¥¼":5884,"Ġë²¨":5885,"Ġê²½ìļ°ê°Ģ":5886,"ĠíĹ¬":5887,"êµ°ìĹĲ":5888,"ĠCharles":5889,"Ġtest":5890,"ĠLake":5891,"Ġìľłíĺķ":5892,"Ġì§ĢìłģíĸĪëĭ¤":5893,"Ġnh":5894,"ilities":5895,"Dem":5896,"ĠìĨĮëĵĿ":5897,"Ġlik":5898,",\"":5899,"ìĽĲê³¼":5900,"Ġprot":5901,"ites":5902,"ĠMor":5903,"ĠNo":5904,"ĠëĪĦêµ¬":5905,"Ġinstead":5906,"ĠThom":5907,"Ġfall":5908,"stand":5909,"Ġonce":5910,"ìĭľë¥¼":5911,"ĠCensus":5912,"ìĿ¼ìĿĢ":5913,"Ġculture":5914,"Ġdistrict":5915,"Ġì¸¡ìĿĢ":5916,"ama":5917,"Ġdoc":5918,"Ġëª»íĸĪëĭ¤":5919,"ê°ĳ":5920,"ĠìĿ´ëĵ¤":5921,"istor":5922,"íķµ":5923,"ë©ĶìĿ´ìħĺ":5924,"ĠìĹ°ê³Ħ":5925,"ĠEn":5926,"ìłĦëŀµ":5927,"Ġlaun":5928,"Ġëª¨ì§ĳ":5929,"íĻĶíıĲ":5930,"Ġë°ľíĳľíķľ":5931,"ee":5932,"Ġtype":5933,"åı":5934,"Ġê´":5935,"Ġêµ¬íĺĦ":5936,"Ġclos":5937,"¬ìĺģ":5938,"Ġexec":5939,"ha":5940,"ĠíĨ":5941,"elling":5942,"ìĿ¸ê³µ":5943,"ĠìĿ¸íķĺ":5944,"Ġhelp":5945,"Ġ1992":5946,"Ġlo":5947,"ĠQu":5948,"ìĤ¼ìĦ±":5949,"ĠEmp":5950,"Ġë¹Ħë¡¯íķľ":5951,"Ġê²°ê³¼ë¥¼":5952,"ĠGod":5953,"ĠëĤ´ìļ©ìĿĦ":5954,"ĠCanada":5955,"Ġê±´ì¶ķ":5956,"Ġmem":5957,"Ġnatural":5958,"ĠìĺĪë°©":5959,"Ġê²ĥìĹĲ":5960,"ëĿ¼ìĿ¸":5961,"ĠëªħìĿĺ":5962,"ì½Ķë¡ľëĤĺ":5963,"ĠEm":5964,"ĠìĹ°ê¸°":5965,"ë¹ĦìłĦ":5966,"ìĹĲìħĭ":5967,"ê³¼ëĬĶ":5968,"ades":5969,"ìĬ¤íĭ°":5970,"ĠAg":5971,"ĠLatino":5972,"ĠìĭľëıĦ":5973,"itor":5974,"Ġbrother":5975,"æĸ":5976,"Ġrank":5977,"Ġê³§":5978,"ìĦľëıĦ":5979,"ĠAc":5980,"Ġstandard":5981,"ĠMet":5982,"ĠJapanese":5983,"Ġgave":5984,"Ġì£¼ì£¼":5985,"ĠBl":5986,"ĠDes":5987,"rem":5988,"Ġrespect":5989,"Ġê³Ħìķ½ìĿĦ":5990,"not":5991,"ĠìĥĿìĦ±":5992,"Ġcondu":5993,"Ġsch":5994,"ĠSm":5995,"Ġupon":5996,"ì½ĶìĬ¤":5997,"Ġaircraft":5998,"íĮ©":5999,"ë§ĮìĿĦ":6000,"íķ¨ìĿĦ":6001,"Ġfig":6002,"Ġsaw":6003,"Ġë§Īì°¬ê°Ģì§Ģ":6004,"ĠíĽĪëł¨":6005,"Ġ#":6006,"ĠëŁ°":6007,"Ġíĺ¹ìĿĢ":6008,"Ġë©Ģ":6009,"ê°ľë¥¼":6010,"ê²½ìĺģ":6011,"atory":6012,"ĠìĬ¤ìľĦ":6013,"ìłģìĿ´":6014,"ords":6015,"bal":6016,"iers":6017,"ĠëĤ´ëĨĵ":6018,"Ġë°°ê²½":6019,"ëĭ¨ìĿ´":6020,"Ġtrack":6021,"êµŃëĤ´":6022,"Ġknow":6023,"ĠìĹ¬ìŀĲ":6024,"íĶ¼ìĸ¸":6025,"ĠìĬ¤íı¬ì¸ł":6026,"ì¢ħëª©":6027,"ì¿Ħ":6028,"ìª½ìľ¼ë¡ľ":6029,"ĠHall":6030,"ĠíĺĦìŀ¥":6031,"ĠìķĶíĺ¸":6032,"cul":6033,"ĠìĿ¸ê·¼":6034,"Ġten":6035,"Ġmovement":6036,"ê±´ìĿĦ":6037,"Ġìŀ¬ë¬´":6038,"Ġcourt":6039,"Ġmother":6040,"Ġì²ŃëħĦ":6041,"Ġip":6042,"ror":6043,"ĠëĤĺìĦľ":6044,"ì¤ĳìķĻ":6045,"Ġìłķìĥģ":6046,"ë¹Ļ":6047,"liament":6048,"ĠìķĮëł¤ì§Ħ":6049,"Ġëª»íķľ":6050,"Ġìĭľê°Ģ":6051,"ë¡ľë¥¼":6052,"ìĤ¬ê³ł":6053,"Ġsex":6054,"hers":6055,"ĠìĪľë§¤ìĪĺ":6056,"Ġ49":6057,"Ġëª¨ìĸĳ":6058,"Ġì¹ľêµ¬":6059,"Ġconstit":6060,"ĠíĬ¸ëŁ¼íĶĦ":6061,"ĠìķĦìļ¸ëŁ¬":6062,"iforn":6063,"Ġcommercial":6064,"Ġitself":6065,"ĠNor":6066,"ë²ķìĿ¸":6067,"ĠíĸīëıĻ":6068,"Ġì£¼ìŀ¥íĸĪëĭ¤":6069,"ĠJer":6070,"Ġê´Ģëł¨ëĲľ":6071,"ĠíĺľíĥĿìĿĦ":6072,"ìľ¤":6073,"íķ´ì¡Įëĭ¤":6074,"ĠBel":6075,"01":6076,"Ġadminist":6077,"ĠWestern":6078,"Ġpark":6079,"rought":6080,"ving":6081,"Ġì¡°ìĦ±":6082,"rial":6083,"families":6084,"ë¡±":6085,"Ġë§¤ì¶ľìķ¡ìĿĢ":6086,"Ġì§Ħíĸīíķľëĭ¤":6087,"Ġë§ĪìĿ´íģ¬":6088,"Ġëĭ¹ê¸°":6089,"Ġbase":6090,"Ġmultip":6091,"sel":6092,"ìĦ¸ëĬĶ":6093,"atch":6094,"Ġred":6095,"ĠCor":6096,"Ġìŀ¬ìłķ":6097,"icle":6098,"Ġì²´ê³Ħ":6099,"Ġìĭłê³ł":6100,"ìĬ¤íħĮ":6101,"ĠìĥģíĻ©ìĹĲìĦľ":6102,"İìĿĢ":6103,"Ġprincip":6104,"Ġbecom":6105,"Ġë¬¸ìĦľë¥¼":6106,"ìĿ¼ë³¸":6107,"ì¡°ìĤ¬":6108,"Ġdam":6109,"ĠPacific":6110,"ĠìĿ¸ìĤ¬":6111,"Ġìŀĩ":6112,"Ġì¶ľë°ľ":6113,"rian":6114,"ìłĲìĹĲ":6115,"íķĻìŀĲ":6116,"Ġsee":6117,"ĠBureau":6118,"Ġlower":6119,"Ġìķ¨ë²Ķ":6120,"ym":6121,"van":6122,"å·":6123,"ì¤ĳêµŃ":6124,"íĮĶ":6125,"Ġê¸Īê°Ĳ":6126,"SA":6127,"ÃŃ":6128,"ĠSoviet":6129,"Ġrights":6130,"ê°ĦìĿĺ":6131,"Ġíķ´ìĦĿ":6132,"Ġcertain":6133,"Ġwhose":6134,"Ġindic":6135,"Ġë§Īì³¤ëĭ¤":6136,"ì§ĢëıĦ":6137,"Ġeventually":6138,"íĻľëıĻ":6139,"Ġcop":6140,"Ġfood":6141,"Geography":6142,"ĠìķłëĭĪ":6143,"Ġë²Ĺ":6144,"Ġisland":6145,"ìłľìĿĺ":6146,"bit":6147,"'.":6148,"ãĢĭ(":6149,"CA":6150,"ì§Ģë°©":6151,"Ġincreased":6152,"ternal":6153,"Ġclub":6154,"ì£ł":6155,"ëĶ°":6156,"Ġê´Ģìĭ¬ìĿ´":6157,"ë¦¬ë¡ľ":6158,"ĠíķĦìļĶê°Ģ":6159,"Ġê²½ê¸°ëıĦ":6160,"ë¥¸ëĭ¤":6161,"oid":6162,"Ġì°¬":6163,"Ġìĭľì²Ń":6164,"ìĨĮìĹĲ":6165,"ĠWhile":6166,"vironment":6167,"ê¸ĪìĿ´":6168,"Ã¼":6169,"ìĽ¨ìĿ´":6170,"nal":6171,"Ġê¸°ìĹħìĿĺ":6172,"Ġì¢ĭìķĦ":6173,"Ġobserv":6174,"onst":6175,"íĺĦì§Ģìĭľê°Ħ":6176,"Ġfar":6177,"Ġë¶Ħë¦¬":6178,"like":6179,"Ġë°ĺëıĦì²´":6180,"ranch":6181,"ĠBC":6182,"Ġê°Ģìĥģ":6183,"Ġinformation":6184,"Ġfoot":6185,"Ġmar":6186,"Ġconcept":6187,"Ġì§Ħëĭ¨":6188,"ĠíĻķìĿ¸íķł":6189,"Ġë§Įì¡±":6190,"Ġimm":6191,"Ġìĭľìŀ¥ìĹĲ":6192,"ìµľê·¼":6193,"Ġcapt":6194,"ufact":6195,"ĠìĦ¼íĦ°":6196,"Ġconstruction":6197,"êµĲíĨµ":6198,"Ġë¬´ìĹĩ":6199,"Ar":6200,"Ġê°Ģì¹ĺ":6201,"ìĿ¸ë¯¼":6202,"Ġinfluence":6203,"Ġ1991":6204,"Ġden":6205,"Ġadop":6206,"Ġrespons":6207,"åľ":6208,"irth":6209,"Ġhom":6210,"ĠMount":6211,"ifornia":6212,"Ġë³´ëıĦ":6213,"ĠëĦĪë¬´":6214,"Ġchurch":6215,"hel":6216,"sec":6217,"Ġbank":6218,"ĠìŀĲìľ¨":6219,"ĠìĽĲëŀĺ":6220,"ëĶĶìķĦ":6221,"ean":6222,"Ġì£¼ë¬¸":6223,"íķĻëħĦ":6224,"Ġput":6225,"Ġtraditional":6226,"ĠìľĦë°ĺ":6227,"Ġmeans":6228,"ìĸµìĽĲìĿĺ":6229,"ĠMich":6230,"Ġalmost":6231,"2010":6232,"¥Ĳ":6233,"Ġê³łë¯¼":6234,"ĠìĬ¤íĬ¸":6235,"Ġrelationship":6236,"Ġì§Ģêµ¬":6237,"Ġëĭ¤ìĿ´":6238,"ĠìĿĺíķľ":6239,"ĠíĻįì½©":6240,"ĠìŀĲìĭłìĿ´":6241,"Ġnorthern":6242,"Ġprivate":6243,"íĹ¬":6244,"Ġtax":6245,"ìĦ¸ìĿĺ":6246,"ë¦¬íĭ°":6247,"ĠKingdom":6248,"Ġcomplex":6249,"Ġë§ŀì¶°":6250,"Ġhard":6251,"Ġstated":6252,"Ġsurv":6253,"ĠSer":6254,"ption":6255,"isl":6256,"ĠìľĦíĺĳ":6257,"ì¡°ìĦł":6258,"Ġê°ľíİ¸":6259,"Ġ1993":6260,"ìĪĺë¡Ŀ":6261,"ĠSpanish":6262,"ĠIsland":6263,"íĸīìĿĦ":6264,"Ġable":6265,"Ġê·¼ë¬´":6266,"Ġì¢ħë£Į":6267,"Ġìļ°ë¦¬ëĤĺëĿ¼":6268,"ett":6269,"\").":6270,"ica":6271,"¨ë¦¬":6272,"Ġaud":6273,"Ġëĭ¹ê¸°ìĪľ":6274,"ë¬´ë¦¬":6275,"ength":6276,"ographics":6277,"rast":6278,"Ġrelease":6279,"Ġê¸īëĵ±":6280,"ĠëĤĺë¨¸":6281,"duc":6282,"Ġì£¼ê°Ģê°Ģ":6283,"ĠQue":6284,"medi":6285,"ëĿ¼ìĬ¤":6286,"ìŀĲë³¸":6287,"Ġcj":6288,"ìłĲìĿĢ":6289,"ference":6290,"ĠìŀĲíļĮìĤ¬":6291,"Ġaccording":6292,"ëĵľìĿĺ":6293,"ëĤ¨ëıĦ":6294,"ì¤":6295,"Wh":6296,"Ġcities":6297,"Ġê°Ģë¦¬":6298,"ìłľëıĦ":6299,"ĶíĶ¼ìĸ¸":6300,"Ġvict":6301,"Ġê°Ģê³Ħ":6302,"bers":6303,"Ġapprox":6304,"Ġë°ľêµ´":6305,"ìłģìĿ´ê³ł":6306,"ĠíĺĦìĭ¤":6307,"Ġclose":6308,"Ġparticip":6309,"Ġestim":6310,"Ġstri":6311,"Ġdeterm":6312,"ìĦ¸íķľ":6313,"ì£¼ìĹĲ":6314,"ì§ģìĽĲ":6315,"íķĺëĭ¤ëĬĶ":6316,"iles":6317,"Ġabs":6318,"Ġhealth":6319,"Ġìĺ¤ìĬ¤íĬ¸":6320,"Ġë¶Īë²ķ":6321,"Ġë°©ì¹¨ìĿ´ëĭ¤":6322,"Ġindustry":6323,"ìľĦìĿĺ":6324,"Ġnovel":6325,"head":6326,"ĠìĿ¸íĶĦëĿ¼":6327,"íĪ":6328,"Ġì¢ħë¥ĺ":6329,"Ġviol":6330,"ìĥģìľ¼ë¡ľ":6331,"Ġreb":6332,"ĠíħĶ":6333,"Ã³":6334,"ĠMac":6335,"ëħĦìĿĦ":6336,"Ġìŀ¥ë¹Ħ":6337,"Ġíķľëĭ¤ê³ł":6338,"Ġassociated":6339,"[[":6340,"Ġsubsequ":6341,"Ġmount":6342,"ĠYou":6343,"ìĽħ":6344,"Ġìĭľê°ģ":6345,"Ġìĭ¤íĹĺ":6346,"ê³µìĤ¬":6347,"ìłģìĿ´ëĭ¤":6348,"ĠíĬ¹ìĪĺ":6349,"ĠHenry":6350,"pper":6351,"ĠìĤ¬ëŀĮìĿ´":6352,"Ġthus":6353,"Ġë§ŀìķĦ":6354,"ĠëĬĺìĸ´ëĤľ":6355,"Ġì£¼ëĬĶ":6356,"ĠíĶĦë¦¬ë¯¸ìĹĦ":6357,"ìĩ¼íķĳ":6358,"Ġë²łìĿ´":6359,"Ġallowed":6360,"¸Ĳ":6361,"Ġì§Ħìŀħ":6362,"ì°¨ê°Ģ":6363,"Ġëĭ¬ëĿ¼":6364,"Ġìĸ¸ìĸ´":6365,"ĠìŀĳìĦ±":6366,"Ġìĥģëĭ´":6367,"ĠPaul":6368,"Ġepis":6369,"Ġfeatures":6370,"Ġarmy":6371,"ĠìĭľìĬ¤íħľìĿĦ":6372,"Ġê²ĮìŀĦìĿĦ":6373,"Ġacqu":6374,"Ġworking":6375,"ë§ĮìĿ´":6376,"Ġë©¤ë²Ħ":6377,"Ġì¢ħêµĲ":6378,"ë³´ëĬĶ":6379,"ĠìĹ°ìŀ¥":6380,"ë¬¼ìĿ´":6381,"ĠCalifornia":6382,"Ġdesigned":6383,"ìĭĿíĴĪ":6384,"ĠìĦłìĸ¸":6385,"Ġthought":6386,"Ġë¬¼ë¦¬":6387,"Ġperformance":6388,"ributed":6389,"Ġì¸¡ìłķ":6390,"ĠíĽĦë°ĺ":6391,"íĮĲë§¤":6392,"ĠìłĲê²Ģ":6393,"ĠâĹĨ":6394,"Ġë§ģ":6395,"ĠìľĪ":6396,"Ġ150":6397,"Ġtrade":6398,"itect":6399,"ĠìĬ¤ìĬ¤ë¡ľ":6400,"ĠíĮĮíĬ¸ëĦĪ":6401,"Ġparticularly":6402,"ems":6403,"Demographics":6404,"ĠíķĺìĹ¬":6405,"Ġpc":6406,"He":6407,"ê³¼ìłķ":6408,"ĠAlthough":6409,"ĠìĤ´ìķĦ":6410,"ìĿ¼ìĹĲëĬĶ":6411,"íĤ¤ëĬĶ":6412,"ĠìĥģìĬ¹íĸĪëĭ¤":6413,"Ġê²ĥê³¼":6414,"ĠUK":6415,"ĠìĥģíĴĪìĿĦ":6416,"Ġìĸ¼ë§Ī":6417,"ìĺ¬íķ´":6418,"Ġì´¬ìĺģ":6419,"ìĬ¤íĥĦ":6420,"ĠëıĦìĽĢìĿ´":6421,"Ġcy":6422,"Ġsouthern":6423,"ĠCong":6424,"ìĭłìĿĦ":6425,"Ġë¯¸ìĪł":6426,"Ġê°ĲìķĪ":6427,"Ġíĺ¸íħĶ":6428,"Ġprovide":6429,"Ġì°½ì¶ľ":6430,"itch":6431,"Ġìĭ¤ìĭľê°Ħ":6432,"Ġdepart":6433,"ĠìľĦíķ´ìĦľëĬĶ":6434,"Ġê·¸ëıĻìķĪ":6435,"ĠGovern":6436,"ìĦłìĿ´":6437,"Ġê°ĳ":6438,"men":6439,"Ġachie":6440,"Ġsay":6441,"Ġill":6442,"ĠìºĲëĤĺëĭ¤":6443,"ĠëıĮíĮĮ":6444,"ĠìĤ¬ëŀĮëĵ¤ìĿ´":6445,"Ġreplaced":6446,"chan":6447,"Ġì²łëıĦ":6448,"ĠêµŃíļĮ":6449,"ê°ĢìĻĢ":6450,"Ġoriginally":6451,"ì²´ìĿĺ":6452,"ira":6453,"Ġìĸ´ë¦°ìĿ´":6454,"Ġë°¤":6455,"ë¥´íĬ¸":6456,"ibrary":6457,"Ġë¶ĦìĦĿíĸĪëĭ¤":6458,"Ġìŀĥ":6459,"Ġradio":6460,"ĠìŀĪìĬµëĭĪëĭ¤":6461,"TV":6462,"Ġíľ´ëĮĢ":6463,"Ġë§Įê¸°":6464,"Ġë¹Ħì¦Ī":6465,"ìļ°ëĬĶ":6466,"ìĿ¸ì§Ģ":6467,"oice":6468,"Ġì§Ģíľĺ":6469,"Ġcoast":6470,"Ġê°ĲìĤ¬":6471,"Ġê°Ħíİ¸":6472,"Ġëªħëł¹":6473,"asion":6474,"ĠíķĺëĿ½íĸĪëĭ¤":6475,"ì§ĦìĿĦ":6476,"Ġì¹´ë©ĶëĿ¼":6477,"Ġinterest":6478,"ĠGreek":6479,"ĠìķĦë§Ī":6480,"uture":6481,"Ġdaugh":6482,"Ġê·¼ë¡ľ":6483,"ĠìĻ¸ìĹĲëıĦ":6484,"ìĬ¤ì¹´":6485,"ìĿ´ëŀĢ":6486,"hood":6487,"Ġsettle":6488,"--":6489,"Ġì¡°ì¹ĺ":6490,"ĠLouis":6491,"éĩ":6492,"Ġtro":6493,"ë§İìĿĢ":6494,"Ġanti":6495,"ìķĦìĭľìķĦ":6496,"action":6497,"aint":6498,"Ġreligious":6499,"Ġinstit":6500,"ìłģìĿĢ":6501,"ë£¬":6502,"aged":6503,"Ġê´Ģì¸¡":6504,"íıīê·ł":6505,"rim":6506,"ĠìłĦë§ĿíĸĪëĭ¤":6507,"lim":6508,"Ġcolon":6509,"ìĭľìŀ¥ìĹĲìĦľ":6510,"Ġsuff":6511,"oe":6512,"Ġëĭ¤ë¥´":6513,"Ĳë¦¬":6514,"ìĭŃìĭľìĺ¤":6515,"ëĵľê°Ģ":6516,"Ġincorpor":6517,"ëĭĪìĸ´":6518,"Ġìĭľê°ĦìĿ´":6519,"Ð°":6520,"ĠìĪĺìļ©":6521,"aur":6522,"Ġ42":6523,"Ġìĩ¼íķĳ":6524,"ĠìĻĦìłĦíŀĪ":6525,"ashington":6526,"Ġce":6527,"sey":6528,"ribution":6529,"cis":6530,"ĠìĻĦìĦ±":6531,"Ġrequired":6532,"ê´ĢìĿ´":6533,"ened":6534,"ael":6535,"Ġbrought":6536,"udd":6537,"Ġtravel":6538,"ounter":6539,"ĠëĤĺìĦł":6540,"ĠíĻįë³´":6541,"Ġphil":6542,"95":6543,"ideo":6544,"Ġìĺ¥":6545,"ëĤ©":6546,"ĠíĻľìļ©íķ´":6547,"ari":6548,"Ġë³´ìľłíķľ":6549,"Ġenergy":6550,"Ġlog":6551,"itte":6552,"Ġfront":6553,"ê²łëĭ¤ëĬĶ":6554,"ê·¸ëĬĶ":6555,"ĠÃ":6556,"ĠìĬ¤íħĮ":6557,"ê¸ĪìľµíĪ¬ìŀĲ":6558,"ìĿĢíĸīìĿ´":6559,"Ġestablish":6560,"Ġexcept":6561,"ĠCenter":6562,"ĠRail":6563,"Ġì¡°ê¸°":6564,"ĠìŀĦëĮĢ":6565,"Ġê°ĦìĿĺ":6566,"Ġìĭľìŀ¥ìĿĺ":6567,"ĠRoad":6568,"Ġpay":6569,"Ġë°©ìķĪìĿĦ":6570,"ume":6571,"inct":6572,"rick":6573,"ë¶Ħë¥ĺ":6574,"During":6575,"cript":6576,"ê±¸":6577,"orough":6578,"Ġë¶ĪìķĪ":6579,"Ġaward":6580,"ĠDemocr":6581,"ĠìĮĵ":6582,"ampions":6583,"ĠìłĲìĹĲìĦľ":6584,"ĠìŀĲì£¼":6585,"ĠìĿ¸ê¸°ë¥¼":6586,"Ġê¸Īìķ¡":6587,"åį":6588,"Ġë§¤ë§¤":6589,"Ġevidence":6590,"Ġêµ¬ìĦ±ëĲľ":6591,"ìĿ´ê¸°ëıĦ":6592,"Ġpartner":6593,"ĠìĤ¬ìĿ´ìĿĺ":6594,"ĠìłľíĴĪìĿĦ":6595,"å°":6596,"ĠRoyal":6597,"Ġreferred":6598,"ĠìĽĲíķĺëĬĶ":6599,"ĠLeague":6600,"ĠCourt":6601,"rael":6602,"Ġpers":6603,"Ġconcern":6604,"Ġì±ĶíĶ¼ìĸ¸":6605,"ĠCentral":6606,"Ġ52":6607,"rel":6608,"Ġriver":6609,"Ġíķĺëĭ¤":6610,"ê¶ĮìĹĲ":6611,"iding":6612,"Ġì§ĢìĹŃìĹĲ":6613,"Ġëį°ìĿ´íĦ°ë¥¼":6614,"Ġcapita":6615,"ĠCatholic":6616,"teg":6617,"Ġforms":6618,"Ġoutside":6619,"ĠìĺģìĹħìĿ´ìĿµìĿĢ":6620,"2016":6621,"Ġìŀī":6622,"Ġê²½ìĥģ":6623,"ĠíķĺëĿ½íķľ":6624,"íĨ¨":6625,"itz":6626,"Ġ1989":6627,"ĠMal":6628,"Ġìĭ¤íĸī":6629,"Ġíĺķíĥľë¡ľ":6630,"ìĹĲê²ĮëĬĶ":6631,"ì¦Ŀê¶ĮìĿĢ":6632,"ĠTo":6633,"sw":6634,"urity":6635,"ĠEmpire":6636,"å¤§":6637,"ĠìĿĺë¬´":6638,"Ġfla":6639,"Ġê¹¨":6640,"êµŃìłľ":6641,".âĹ":6642,"ëĥ¥":6643,"Ġê±°ëŀĺë¥¼":6644,"Ġtv":6645,"Ġschol":6646,"ìĿ¸íĦ°ëĦ·":6647,"ĠíļĮìŀ¥":6648,"lied":6649,"Ġë°ľìĥĿíķľ":6650,"ulation":6651,"eleb":6652,"ìĭĿìľ¼ë¡ľ":6653,"ĠCompany":6654,"ander":6655,"Ġmajority":6656,"Ġì¤ĳêµŃìĿĺ":6657,"Ġ48":6658,"ĠìĨĮëł¨":6659,"Ġmanufact":6660,"Ġperformed":6661,"ê·¸ëŁ¬":6662,"2018":6663,"ĠìĻľ":6664,"Ġ180":6665,"Ġê·¼ê±°":6666,"Ġneigh":6667,"ìĹł":6668,"ĠìĤ¬ëĿ¼":6669,"ë§Įëĭ¬ëŁ¬":6670,"ì£¼ì£¼":6671,"ì¦ĿìĿĦ":6672,"Ġìļ°ì£¼":6673,"ìĽĲìłĦ":6674,"ĠìĺĪì¸¡":6675,"ĠíļĮìŀ¥ìĿĢ":6676,"ì§ĪìĿĦ":6677,"Ġkey":6678,"íİľ":6679,"ëĵ¬":6680,"Ġsat":6681,"ibility":6682,"ìĬ¤ìĹĲìĦľ":6683,"ĠíĶĦëŀľì°¨ìĿ´ì¦Ī":6684,"98":6685,"Ġfarm":6686,"ĠìłĦìĽĶ":6687,"ìĤ¬ìĿ¼":6688,"åĲ":6689,"íĺĦëĮĢ":6690,"ìĭ¸":6691,"ìĨĮìĿĺ":6692,"Ġvalue":6693,"Ġtransport":6694,"Ġì¶ľíĮĲ":6695,"Ġdepend":6696,"ë®¤ëĭĪ":6697,"ĠDavid":6698,"time":6699,"ĠìĤ¬ìļ©íķĺìĹ¬":6700,"ë±ħíģ¬":6701,"It":6702,"Ġlittle":6703,"Ġã":6704,"usion":6705,"ĠíĿ¡":6706,"Ġfilms":6707,"Ġíļ¨ê³¼ë¥¼":6708,"ìĽĶìĹĲëĬĶ":6709,"Ġê¾¸ì¤ĢíŀĪ":6710,"ĠBay":6711,"ìĶ¬":6712,"ĠìĽĶëĵľì»µ":6713,"ĠìĿ¸ê³µì§ĢëĬ¥":6714,"ĠíĪ¬ìŀħ":6715,"Ġì°¸ê³łíķĺ":6716,"ì¢ħíķ©":6717,"ìħĺìĿĦ":6718,"ĠìĦłíĺ¸":6719,"ĠíĽĦìĹĲ":6720,"ëĮĢíĳľíĮĢ":6721,"Ġë²ķë¥ł":6722,"ago":6723,"Ġê°ľë³Ħ":6724,"Ġìĺģìĸ´":6725,"ĠìĦłìŀĦ":6726,"aker":6727,"Ġurban":6728,"alled":6729,"ĠíĻľìļ©íķľ":6730,"ë¦¬íķľ":6731,"íĻĪ":6732,"ĠìŀĲëħĢ":6733,"ëŀĢëĭ¤":6734,"Ġê¸°ê³Ħ":6735,"Ġì´Īë°ĺ":6736,"Ġadded":6737,"ficult":6738,"Ġê±°ë¶Ģ":6739,"Ġget":6740,"ĠìĦľìļ¸ìĭľ":6741,"Ġaway":6742,"Ġcolla":6743,"êµ°ìĿĦ":6744,"Ġë¹łë¥¸":6745,"ĠíħĮìĬ¤íĬ¸":6746,"ĠíĺĲìĿĺ":6747,"ĠíĻĶë©´":6748,"Ġìłľê±°":6749,"Ġìĸµ":6750,"ìĿ´ìĹĪëįĺ":6751,"ëĳ¥":6752,"ria":6753,"uted":6754,"ĠSen":6755,"berg":6756,"ê³łê°Ŀ":6757,"ste":6758,"Ġstre":6759,"ĠìłĬìĿĢ":6760,"Ġë§ĮëĵľëĬĶ":6761,"ĠìĬ¤íĬľ":6762,"Ġì£¼ìĸ´":6763,"Ġlgìľł":6764,"Ġemer":6765,"Ġê¸°íļĮë¥¼":6766,"Ġë¯¼ì¡±":6767,"Ġëª©ìĨĮ":6768,"heast":6769,"Ġì°¸ê³łíķĺìĭŃìĭľìĺ¤":6770,"ë¬¼ìĿĺ":6771,"su":6772,"ë¡ľìĿĺ":6773,"aps":6774,"Ġì·¨ìŀĦ":6775,"Ġbelieved":6776,"ĠëĬĺìĸ´ëĤĺ":6777,"Ġì§ĢìĪĺëĬĶ":6778,"ĠëĩĮ":6779,"At":6780,"Ġìĺ¤ëŀĺ":6781,"ë¸Ĳ":6782,"Ġversus":6783,"Ġìłķê¸°":6784,"Ġ1988":6785,"íĺķìĿĦ":6786,"Ġë³´ëĤ´":6787,"kn":6788,"Ġstructure":6789,"ìĤ¬íķŃ":6790,"Ġíı¬ìĿ¸íĬ¸":6791,"Ġcaused":6792,"ĠIndia":6793,"Ġë°ľìĤ¬":6794,"Ġ400":6795,"ĠìĿĺìĽĲ":6796,"Ġworked":6797,"ĠìĿ´ëłĩ":6798,"Ġêµ¬ë¶Ħ":6799,"estival":6800,"ĠìĿ´ëĤ´":6801,"Ġcal":6802,"ĠRobert":6803,"ë¬¼ìĿĢ":6804,"ìĿĢíĸīìĿĺ":6805,"ĠìĿ´ìķ¼ê¸°":6806,"ĠMex":6807,"peror":6808,"ì§ĦíĿ¥":6809,"iment":6810,"ĠTownship":6811,"ĠëĤĺíĥĢëĤĺ":6812,"ë¹Ħìļ©":6813,"Ġìĭľê°ĦìĿĦ":6814,"Ġ+":6815,"ĠìĿ´ë¡ľ":6816,"ìĦŃ":6817,"ëł¥ìĿĢ":6818,"ĠIr":6819,"ducation":6820,"Ġprob":6821,"2017":6822,"ëħ¼":6823,"2014":6824,"Ġlack":6825,"Ġmeaning":6826,"Ġdifficult":6827,"ĠìĺĪë¹Ħ":6828,"Ġìľµ":6829,"ìĬ¤íĶĮëłĪìĿ´":6830,"ìĬ¤ëŁ½":6831,"ĠëĮĢì±ħ":6832,"ellow":6833,"íŀĪëł¤":6834,"Ġë§ŀì¶¤":6835,"ĠRec":6836,"Ġkilled":6837,"âĪ":6838,"Ġëĸ¨ìĸ´ì§Ħ":6839,"Ġê°ĲìĨĮíĸĪëĭ¤":6840,"Ġseven":6841,"ĠíĺĳìĿĺ":6842,"Ġtradition":6843,"ĠDan":6844,"íĴĪìĿĦ":6845,"igned":6846,"2015":6847,"ì²´ê°Ģ":6848,"ëł¥ê³¼":6849,"92":6850,"ë¿Ĳë§Į":6851,"Ġparticular":6852,"Ġib":6853,"Ġbar":6854,"Ġcompan":6855,"Ġì¶Ķê°Ģë¡ľ":6856,"ĠWashington":6857,"ë²łìĿ´":6858,"Ġìŀĳê°Ģ":6859,"ìĤ¬ìĿ´íĬ¸":6860,"ĠìĿĺê²¬ìĿĦ":6861,"æ°":6862,"sych":6863,"ĠìĿ´ë¥´":6864,"hab":6865,"Ġì§§":6866,"ĠìĬ¤íİĺìĿ¸":6867,"ĠìĬ¹ìĿ¸":6868,"Ġëĥī":6869,"ĠíķĺëĤĺìĿĺ":6870,"ìŀĲëıĻ":6871,"';":6872,"Ġ()":6873,"Ġê²½ê¸°ìĹĲìĦľ":6874,"ĠìĥĪë¡Ńê²Į":6875,"ìłĦíĻĺ":6876,"ĠìłľëĮĢë¡ľ":6877,"atively":6878,"ĠìĻ¸êµĲ":6879,"ëįľ":6880,"ê¸Īìķ¡":6881,"ston":6882,"ĠìĤ¬ìĭ¤ìĥģ":6883,"Ġconsider":6884,"ìĹŃìĿĦ":6885,"Ġë¹Ħíĸī":6886,"ĠëĤĺìĻĶëĭ¤":6887,"Ġcreat":6888,"Ġincreasing":6889,"ĠBra":6890,"ë¦¬ìĸ´":6891,"Ġíĥľìĸĳ":6892,"ìĺģìĹħ":6893,"Ġnorm":6894,"mark":6895,"Ġgre":6896,"ë¡ľìĬ¤":6897,"íĻĶë¡ľ":6898,"ĠìĿ´ìĥģìĿĺ":6899,"ĠìĿ´ìĻ¸":6900,"Ġëĭ¤ìĨĮ":6901,"ĠíıĲì§Ģ":6902,"anned":6903,"ĠíĻľìķ½":6904,"ëĭ¨ìĹĲ":6905,"íı¬ë¥´":6906,"ĠìłľìĻ¸íķľ":6907,"ĠíķĺëĤĺë¡ľ":6908,"Ġlarger":6909,"Ġincrease":6910,"ds":6911,"ìĭľë§Ī":6912,"Ġëĵ±ê³¼":6913,"ĠìĦ¸íı¬":6914,"Ġtoo":6915,"2019":6916,"Ġremov":6917,"ores":6918,"Ġloss":6919,"ĠìĪľë§¤ëıĦ":6920,"Ġjoined":6921,"Ġsurround":6922,"ression":6923,"utes":6924,"Ġë¹ĦìĬ·íķľ":6925,"ĠTra":6926,"ĠíĻĶíķĻ":6927,"Ġì¢Ģ":6928,"ĠíĪ¬ìŀĲìŀĲ":6929,"ìĦ¸íı¬":6930,"Ġbeginning":6931,"Ġearlier":6932,"Ġë¸Ķë¡Ŀì²´ìĿ¸":6933,"íĬ¸ê°Ģ":6934,"den":6935,"ĠìĪĺìĪĺë£Į":6936,"Ġì¦Ŀìĭľ":6937,"Ġíģ¬ë¦¬ìĬ¤":6938,"ixed":6939,"Ġpercent":6940,"aval":6941,"Ġë²Įìĸ´":6942,"iff":6943,"ĠìĹ´ê³ł":6944,"Ġcouncil":6945,"Ġì°¨ë¡Ģ":6946,"ĠëıĻìĿ¼íķľ":6947,"97":6948,"ë¦¬ì¼ĢìĿ´ìħĺ":6949,"ê²Ĳ":6950,"ĠëķĮê¹Įì§Ģ":6951,"94":6952,"íķĺëł¤ëĬĶ":6953,"ê²°ìłľ":6954,"ëª»":6955,"ires":6956,"no":6957,"Ġpast":6958,"ìĭľíĭ°":6959,"alls":6960,"antic":6961,"Ġìĭłê²½":6962,"Ġdou":6963,"96":6964,"Ġì§ĢìĪĺ":6965,"Ġê°ķëł¥íķľ":6966,"Ġ43":6967,"íħĮìĿ¸":6968,"gin":6969,"Ġì§ĢìĹŃìĹĲìĦľ":6970,"Ġtransl":6971,"ìŀī":6972,"ension":6973,"ĠìľłëıĦ":6974,"ì§Ĳ":6975,"ĠìĥģëĮĢìłģìľ¼ë¡ľ":6976,"ĠìĨĮìĦ¤":6977,"aching":6978,"íĬ¸ìĹħ":6979,"ĠPat":6980,"Ġë¹Ľ":6981,"ëĵ¯":6982,"ĠMary":6983,"Ġvia":6984,"leg":6985,"ĠSim":6986,"ĨĴ":6987,"ì²ŃìĿĢ":6988,"Ġnumbers":6989,"ëħĦìĿĺ":6990,"Ġ41":6991,"ìĿ´ë¡ľ":6992,"Ġëĵ±ìĹĲìĦľ":6993,"Ġê¿Ī":6994,"Ġë¶Ģëª¨":6995,"Ġë¶Ģê³¼":6996,"ĠëĿ¼ìĿ¸":6997,"Ġíģ´ëŁ½":6998,"Ġexc":6999,"Ġlearn":7000,"ancial":7001,"ĠìķłëĭĪë©ĶìĿ´ìħĺ":7002,"ëĵ¤ë¡ľ":7003,"ëĵĢ":7004,"Ġwriting":7005,"ĠìĿ´ë²¤íĬ¸ë¥¼":7006,"Ġhighest":7007,"Ġë¦¬ìĬ¤íģ¬":7008,"ĠìĥĪë¡ľ":7009,"Ġë°ĶëŀĮ":7010,"Ġforeign":7011,"êµ¬ìĹĲ":7012,"Ġinvolved":7013,"Ġbound":7014,"ĠìĬĪíį¼":7015,"Ġê·¸ëĵ¤ìĿĺ":7016,"elled":7017,"ìľłìĿĺ":7018,"ë¦¬ê¸°":7019,"êµŃê°Ģ":7020,"Ġìŀĳê³¡":7021,"Ġapplic":7022,"Ġexpand":7023,"ìŀĳìļ©":7024,"ìĬ¤ì¼Ģ":7025,"ìĭľíĤ¬":7026,"ĠëıĦì¿Ħ":7027,"ĠBut":7028,"Ġ';":7029,"ĠRed":7030,"Ġreached":7031,"Ġcut":7032,"ë³µì§Ģ":7033,"êµ¬ê°Ģ":7034,"Ġrelated":7035,"Ġdestroy":7036,"ĠMil":7037,"Ġíķ´ìķ¼":7038,"3000":7039,"Ġcases":7040,"ĠìĨĮíĨµ":7041,"cm":7042,"hing":7043,"mon":7044,"ìķĦê°Ģ":7045,"ê³µìĹħ":7046,"key":7047,"ĠëĤ´ìĹĲìĦľ":7048,"ìĦ¯":7049,"Ġìĸ´ë¨¸ëĭĪ":7050,"Ġêµ¬ê°Ħ":7051,"Ġlanguages":7052,"ĠìŀĪìĹĪëįĺ":7053,"ê°Ħëĭ¤":7054,"OS":7055,"Ġrule":7056,"Ġì¤ĳìĹĲ":7057,"Ġê¸°ëĮĢëĲľëĭ¤":7058,"ëıħêµĲ":7059,"Ġìķ¤":7060,"uation":7061,"Ġnames":7062,"Ġëªħì¹Ń":7063,"ë¦ī":7064,"ero":7065,"Ġceleb":7066,"Ġprimary":7067,"ĠìĪĺìĿµìĿĦ":7068,"oke":7069,"ĠDu":7070,"Ġcompleted":7071,"Ġìľłì¹ĺ":7072,"ë°Ľìķĺëĭ¤":7073,"Ġphilos":7074,"Ġìłľê³µíķł":7075,"Ġquest":7076,"ĠìķĪìĹĲ":7077,"isk":7078,"Ġeth":7079,"ĠëıĦë¡ľ":7080,"ĠMany":7081,"ĠìĦ±ëĬ¥":7082,"íģ¬ëĿ¼":7083,"íĻĶìĻĢ":7084,"unk":7085,"Â°":7086,"Ġaction":7087,"Ġíĸ¥ìĥģ":7088,"col":7089,"íĮĮìĿ´":7090,"ë§Įëªħ":7091,"ĠëĤĺê°Ī":7092,"Ġì§ĳê³ĦëĲĲëĭ¤":7093,"ready":7094,"Ġtypically":7095,"Ġìĭľê¸°":7096,"Ġê·ł":7097,"ĠìĿĺìĤ¬":7098,"Ġëıķ":7099,"Ġgra":7100,"Ġtrib":7101,"ĠìŀĪìĸ´ìĦľ":7102,"ëĮĢìĥģ":7103,"Ġpromot":7104,"Ġì¤ĳê°Ħ":7105,"íİ´":7106,"ìľ¼ë©´ìĦľ":7107,"onse":7108,"íĶ¼ìĬ¤":7109,"¨ìĶ¬":7110,"ĠíĪ¬íĳľ":7111,"Ġëª©íĳľë¡ľ":7112,"Ġì§Ģìĥģ":7113,"ĠìĭĿíĴĪ":7114,"ìĥĿìķł":7115,"ĠíħĶëłĪ":7116,"Ġê·¸ë¥¼":7117,"íĻķìĭ¤":7118,"ĠThomas":7119,"ĠëĤĺë¨¸ì§Ģ":7120,"Ġê·¸ëĵ¤ìĿĢ":7121,"Ġappointed":7122,"ãĢį":7123,"ëıĦìĻĢ":7124,".âĢĿ":7125,"Ġíķĺë©´":7126,"ĠMales":7127,"ĠìĬµ":7128,"Ġelements":7129,"arriage":7130,"Ġwind":7131,"1000":7132,"Ġê²Ģìĥī":7133,"Ġì§Ģì§Ħ":7134,"ĠìĿĢíĩ´":7135,"Ġê±°ëŀĺìĿ¼":7136,"Ġamount":7137,"ĠíĽ¨ìĶ¬":7138,"ĠìĥģëĮĢë¡ľ":7139,"Ġens":7140,"Ġìĺ¤íŀĪëł¤":7141,"andid":7142,"Ġìµľê³łìĿĺ":7143,"Ġplant":7144,"ĠíİĺìĿ´ìĬ¤":7145,"ij":7146,"mar":7147,"Ġì°¨ì§ĢíĸĪëĭ¤":7148,"Ġë§ĪìĿ´íģ¬ë¡ľ":7149,"Ġëª©ë¡Ŀ":7150,"Ġê°ķëĤ¨":7151,"Ġê°ķíķľ":7152,"ĠJack":7153,"ĠìĿ´ìļ©íķ´":7154,"Ġx":7155,"ĠìĪĺìĪł":7156,"ì¹´ìĿ´":7157,"ëłĢëĭ¤":7158,"ĠMart":7159,"ìĦ¸ìĹĲ":7160,"based":7161,"Ġsla":7162,"Ġscient":7163,"ĠìĿ´ìĬĪ":7164,"Ġ55":7165,"ĠíĥĿ":7166,"Ġlimited":7167,"Ġeight":7168,"ĠIsrael":7169,"íķĺìļ°":7170,"Ġê³¼ìłķìĿĦ":7171,"Ġemb":7172,"lying":7173,"olk":7174,"Ġ1930":7175,"Ġbur":7176,"omp":7177,"ĠìĭłìĦ¤":7178,"Ġêº":7179,"93":7180,"(<":7181,"ìłķìĿ´":7182,"ĠAward":7183,"Ġ1986":7184,"Ġì»¬":7185,"ĠìķĪëĤ´":7186,"ĠíĶĦë¡ľê·¸ëŀ¨ìĿĦ":7187,"Ġìłķëĭ¹":7188,"%.":7189,"ê´ĳìĹŃ":7190,"Ġìĭ±ê¸Ģ":7191,"use":7192,"rate":7193,"ë©¸":7194,"Ġìłķê·ľ":7195,"ĠAustralia":7196,"íķĺëĭ¤ê³ł":7197,"Ġë¿Ĳë§Į":7198,"ĠìĹŃìŀĦ":7199,"Ġuniversity":7200,"Ġcod":7201,"Ġë°ĺë³µ":7202,"ingu":7203,"ìĥģíĻĺ":7204,"Ġstage":7205,"unity":7206,"Ġfuture":7207,"ĠìĥģìĬ¹íķľ":7208,"amous":7209,"íķĺê²łëĭ¤ëĬĶ":7210,"ĠMer":7211,"ë¶ĦìĿĦ":7212,"edy":7213,"ë£¡":7214,"Ġìĭ¤ì§Ī":7215,"roup":7216,"íĺ¸ëĬĶ":7217,"iter":7218,"Ġwhom":7219,"ĠìħĪ":7220,"Ġbattle":7221,"ev":7222,"pected":7223,"Ġpractice":7224,"ĠAlex":7225,"íİĺìĿ´":7226,"Ġëįĺ":7227,"utive":7228,"Ġfeatured":7229,"ëį°ìĿ´":7230,"For":7231,"ĠìĤ´íİ´":7232,"Ġreview":7233,"ĠíĪ¬ìŀĲìĿĺ":7234,"Ġsource":7235,"íĴĢ":7236,"Ġpoints":7237,"Ġproposed":7238,"Ġëĵ±ëıĦ":7239,"ĠëģĮìĸ´":7240,"owers":7241,"ĠêµĲì²´":7242,"Ġsongs":7243,"utions":7244,"ê³µê°ľ":7245,"Ġdom":7246,"ĠRussian":7247,"Ġarchitect":7248,"Ġpolicy":7249,"Ġfight":7250,"ë°ĽìĿĢ":7251,"Ġ1987":7252,"ĠìłĢìŀ¥":7253,"asc":7254,"ìĨĮë¹Ħ":7255,"ìľĪ":7256,"Ġmedia":7257,"Ġë³´ìľłíķĺê³ł":7258,"Ġdomin":7259,"ĠBu":7260,"Ġask":7261,"Ġchanges":7262,"ëŀ©":7263,"Ġëĵ±ê¸ī":7264,"íĿ¡":7265,"Ġ5000":7266,"airs":7267,"Ġapproximately":7268,"ìĦ±ëıĦ":7269,"ols":7270,"Ġê³ĦìĤ°":7271,"Ġì¢ħì¢ħ":7272,"ĠMont":7273,"Ġíľĺ":7274,"Ġìłľíľ´":7275,"ìĿ´ìĿµìĿĢ":7276,"Ġëĭ¨ê¸°":7277,"Ġlegal":7278,"ĠëĮ":7279,"ĠMiss":7280,"Ġmight":7281,"Ġphot":7282,"Ġê·¸ë¦°":7283,"oul":7284,"ricult":7285,"ĠìĹŃëĮĢ":7286,"ëĦ¥":7287,"ìłķìĹĲ":7288,"ĠëĦ·":7289,"Ġì²Ńìķ½":7290,"ĠìĪĺë¦½":7291,"ĠìłĪë°ĺ":7292,"Ġconsist":7293,"ìŀ¬ë¥¼":7294,"Ġlines":7295,"Ġìĺ¤ë¥´":7296,"Ġnar":7297,"ĠìĮį":7298,"Ġremains":7299,"Ġì¶ķìĨĮ":7300,"Ġì£¼ìĿĺ":7301,"ittee":7302,"Ġindependent":7303,"Ġê¹Ĭ":7304,"Ġì¡°ê¸Ī":7305,"ìĺĢê³ł":7306,"Ġchanged":7307,"íķĺëĿ¼":7308,"Ġwestern":7309,"Ġìļ´íĸī":7310,"iated":7311,"ĠìĪ¨":7312,"Ġclimate":7313,"ë©Ķë¦¬ì¹´":7314,"ĠGreen":7315,"ĠëĦĺëĬĶ":7316,"Ġìłķìĭł":7317,"ĠParis":7318,"ĠBr":7319,"Ġë¯¸ëŀĺìĹĲìħĭ":7320,"Ġpersonal":7321,"Ġ75":7322,"Ġëĵ¯":7323,"8000":7324,"ĠVir":7325,"Ġë©Ķìĭľ":7326,"ĠìĹĲìĿ´":7327,"ĠëħĦ":7328,"Ġì£¼ê´Ģ":7329,"ĠìĽĲì¹Ļ":7330,"Ġinteg":7331,"Ġë§¤ëıĦ":7332,"Ġlay":7333,"ì´Ŀìķ¡":7334,"ì¡°íķ©":7335,"izing":7336,"ë°¥":7337,"Ġmiss":7338,"ëŁīìĿĺ":7339,"Ġìĭľìŀĳìľ¼ë¡ľ":7340,"ĠìĹ¬ê¸°ìĹĲ":7341,"bon":7342,"cies":7343,"Ġlonger":7344,"Ġë¶Īë¦¬ëĬĶ":7345,"vey":7346,"ĠAssoci":7347,"Ġsymb":7348,"ao":7349,"ĠRev":7350,"olf":7351,"This":7352,"Ġìŀ¬ë¯¸":7353,"ĠìľĮ":7354,"íĻĶíķĻ":7355,"mi":7356,"ĠíĺĦìŀ¬ìĿĺ":7357,"ĠBritain":7358,"Ġ1984":7359,"Ġì§ģíĽĦ":7360,"Ġë¬ĺìĤ¬":7361,"Ġenvironment":7362,"ìĹĲë§Į":7363,"ĠëıĦìĽĢìĿĦ":7364,"ìĺĪìĪł":7365,"ĠëĤ¨ìĦ±":7366,"Ġëķħ":7367,"íĭ¸":7368,"ĠíŀĺìĿĦ":7369,"vention":7370,"pro":7371,"Ġìłľê³µíķĺê³ł":7372,"Ġì§ĦíĸīëĲľëĭ¤":7373,"Ġìļ°ëł¤ê°Ģ":7374,"Ġë°ĶëĢĮ":7375,"Ġì±ĦíĥĿ":7376,"orial":7377,"ĠìļĶìĨĮ":7378,"éĻ":7379,"ĠAfrica":7380,"Ġgrowth":7381,"å¯":7382,"ĠItalian":7383,"ëŀĲ":7384,"Ġë°ĿíĺĢ":7385,"Ġì§ĢìĽĲíķĺëĬĶ":7386,"ĠSam":7387,"ĠìłľêµŃ":7388,"Ġshows":7389,"ìłĦìĿ´":7390,"ĠìĿ½":7391,"ìĭľì¦Į":7392,"Cl":7393,"ĠFC":7394,"pre":7395,"Ġì·¨ìķ½":7396,"ĠíĬ¹ì§ķìĿ´ëĭ¤":7397,"ault":7398,"ìŀĲì¹ĺ":7399,"éĥ":7400,"Ġëļ":7401,"Ġmach":7402,"Ġsil":7403,"ĠìĪĺì¤ĢìĿĺ":7404,"ìĬ¤íĦ´":7405,"ios":7406,"Ġbene":7407,"Ġbirth":7408,"05":7409,"ĠìŀĦìĭľ":7410,"Ġê°ĸì¶ĺ":7411,"ĠLatin":7412,"ĠOld":7413,"ì§Ģì£¼":7414,"Ġ1985":7415,"Ġì¡°íķ©":7416,"Ġlocation":7417,"Ġìĭ¬ê°ģ":7418,"ĠFirst":7419,"Ġë°´ëĵľ":7420,"Ġíķ´ìĨĮ":7421,"ĠSal":7422,"ìĸ´ìĿĺ":7423,"Ġêµ¬ìŀħ":7424,"ìłľíķľ":7425,"Ġ1940":7426,"ĠWil":7427,"ux":7428,"Ġdaughter":7429,"Ġëª»íķĺê³ł":7430,"isions":7431,"uries":7432,"ĠìĤ¬ìļ©ëĲľëĭ¤":7433,"ĠTur":7434,"oses":7435,"ĠìĦ±ê³¼ë¥¼":7436,"ìĭ¬íĮĲ":7437,"Ġresiding":7438,"ìľłëŁ½":7439,"ìĦłìĹĲ":7440,"ĠìķĦìĿ´íı°":7441,"ĠíķĦìĪĺ":7442,"ê¶ĮìĿĺ":7443,"Ġever":7444,"selves":7445,"ë¶ĦìĹĲ":7446,"íķĻìĿĦ":7447,"known":7448,"Ġthemselves":7449,"Ġsequ":7450,"Ġì¹´íİĺ":7451,"ëĤľëĭ¤":7452,"ĠìĿ´ìłģ":7453,"Ġalready":7454,"Ġìĭ¬ìĤ¬":7455,"Ġì²ŃìĨĮëħĦ":7456,"ĠëĬĺìĸ´":7457,"Ġ46":7458,"Ġoperations":7459,"ĠíĮĮê´´":7460,"ollowing":7461,"Ġë§Īë¬´ë¦¬":7462,"oper":7463,"Ġlook":7464,"Ġsupported":7465,"ë²ĦìĬ¤":7466,"ìĦłìĿĢ":7467,"ĠíĴįë¶Ģ":7468,"ë³´ì¦Ŀ":7469,"Ġë°ĶëŀĢëĭ¤":7470,"porary":7471,"ĠëĵĿ":7472,"ĠëıĻë°ĺ":7473,"ì°¨ëĬĶ":7474,"gn":7475,"Ġì¶ľë²Ķ":7476,"ĠëĶĶìŀĲ":7477,"ì§ĪìĿĺ":7478,"ĠíĺĦê¸Ī":7479,"Ġcit":7480,"ĠIts":7481,"Ġê³ĦíļįìĿĦ":7482,"Ġcause":7483,"Ġìª½":7484,"Ġíıīê°Ģë¥¼":7485,"Ġpurp":7486,"Ġë¶ĪíĻķìĭ¤":7487,"íĸ¥ìĿĦ":7488,"Åį":7489,"¾Į":7490,"Ġ47":7491,"Ġê¸Īìľµëĭ¹":7492,"ìĭľíĹĺ":7493,"istance":7494,"Ġ1920":7495,"Ġjour":7496,"Ġë°ĺëĵ±":7497,"Ġancient":7498,"Ġspecific":7499,"ademy":7500,"ĠëĮĢíĳľìłģìĿ¸":7501,"ì¡°ë¥¼":7502,"ëĿ¼ìļ´ëĵľ":7503,"Ġgl":7504,"Ġsoon":7505,"ìĿ´íķĺ":7506,"ĠìłĦë©´":7507,"Ġê°ľë°ľíķľ":7508,"ĠìŀĦìĥģ":7509,"4000":7510,"unn":7511,"ĠëŁ°ëįĺ":7512,"ĠëķĮëĬĶ":7513,"Ġnight":7514,"ĠíĬ¹íĹĪ":7515,"ĠíĨµê³Ħ":7516,"Ġinstrum":7517,"ĠRichard":7518,"pped":7519,"Ġdocument":7520,"ĠìĿĺë¯¸íķľëĭ¤":7521,"ìŀ¥ë¹Ħ":7522,"Ġë§İìķĦ":7523,"ĠìĹ°ë§Ĳ":7524,"ĠKore":7525,"ê¸°ê¸°":7526,"6000":7527,"ìĹĪì§Ģë§Į":7528,"Ġsurface":7529,"ëªħíķľ":7530,"Ġê³Ħì¢Į":7531,"ìĭłíķľ":7532,"ì§ģìĿĦ":7533,"ĠìĪĺìłķ":7534,"ê°ľìļĶ":7535,"iqu":7536,"ĠIf":7537,"Ġê²Ģì°°":7538,"onic":7539,"Ġjud":7540,"ìĥģê³µ":7541,"ĠíķľíĻĶ":7542,"ë´¤ëĭ¤":7543,"aring":7544,"Ġaltern":7545,"ëłĪìĿ¼":7546,"Ġdivid":7547,"Ġdyn":7548,"Ġnuc":7549,"lace":7550,"ëĤĺê°Ģ":7551,"ĠìĥĿíĥľ":7552,"Ġtowards":7553,"êµ¬ëĬĶ":7554,"ĠìĪĺê°Ģ":7555,"ĠëıĻë¶Ģ":7556,"Ġë§¨":7557,"Ġë°©ìĸ´":7558,"Ġnumerous":7559,"tained":7560,"ocal":7561,"ĠìĤ¬ìļ©ìŀĲ":7562,"ift":7563,"Ġíķĺê¸°":7564,"ĠìĨĮìĨ¡":7565,"Ġë©ĶìĿ´":7566,"ĠìĹĶì§Ħ":7567,"Ġcharacters":7568,"ĠìĪĺì§ĳ":7569,"Ġìłľìķ½":7570,"Ġìŀħìŀ¥ìĿĦ":7571,"ĠFrank":7572,"Ġìºłíİĺ":7573,"ĠFrom":7574,"éģ":7575,"ìĦľìĹĲ":7576,"Ġìĭľìŀ¥ìĿĦ":7577,"ì¶°":7578,"Ġíĳľìĭľ":7579,"ĠEarth":7580,"íĮĮíģ¬":7581,"ĠìľłëĭĪ":7582,"Ġplaced":7583,"Ġìļ´ìĺģíķĺëĬĶ":7584,"Ġê·¸ëħĢëĬĶ":7585,"Ġseat":7586,"Ġsummer":7587,"ands":7588,"ulf":7589,"íķ´ë¥¼":7590,"ĠìķĦìĿ´íħľ":7591,"ë°Ľê³ł":7592,"ëĵľë¦¬":7593,"Ġsquare":7594,"Ġë§Īì°¬ê°Ģì§Ģë¡ľ":7595,"Ġsem":7596,"ĠìķĦíĶĦë¦¬ì¹´":7597,"Ġuses":7598,"Ġdirectly":7599,"Ġë°°ëĭ¬":7600,"ĠìĪĺì¤Ģìľ¼ë¡ľ":7601,"spe":7602,"iences":7603,"ĠGl":7604,"ìķĪìĹĲ":7605,"back":7606,"Ġ1982":7607,"see":7608,"Ġopt":7609,"Ġdecided":7610,"ĠDepart":7611,"Ġë§¤ìŀ¥":7612,"Ġë¹ĦëĶĶìĺ¤":7613,"ĠHill":7614,"stant":7615,"icro":7616,"Ġëĭ¨ìĿ¼":7617,"ĠìĦłì¶ľ":7618,"ëĤĺë¬´":7619,"ìĤ¬ëĵ¤ìĿ´":7620,"Ġë¸Ķë£¨":7621,"íĦ°íħĮìĿ¸":7622,"ĠCDP":7623,"Ġì»¤ë®¤ëĭĪ":7624,"Ġche":7625,"ĠCongress":7626,"pg":7627,"ë¬ĺ":7628,"ìĿ¸ëĵ¤ìĿ´":7629,"Ġìŀ¥ê´ĢìĿĢ":7630,"Ġì·¨ìĹħ":7631,"Ġcolor":7632,"Ġlength":7633,"ìĤ°ìĿĦ":7634,"Ġpurch":7635,"Ġmechan":7636,"Ġì²¨":7637,"Ð¾":7638,"Ġgold":7639,"Ġê°ķìĽĲ":7640,"ä»":7641,"Ġê¸°ë¡Ŀíķľ":7642,"ĠëģĬ":7643,"ë¬¸ìĹĲ":7644,"ëĦ¤ìĭľìķĦ":7645,"ampionship":7646,"ë¶ĦìĿĺ":7647,"ĠìĨĮíıŃ":7648,"ĠìĦľë²Ħ":7649,"ĠìĹ°ì£¼":7650,"ĦëĬĶ":7651,"Ġìī¬":7652,"Ġê³łìłķ":7653,"íĺģìĭł":7654,"Ġconver":7655,"Ġlikely":7656,"íĦ°ë¦¬":7657,"Ġresponse":7658,"rug":7659,"han":7660,"Ġìľłìŀħ":7661,"Ġìķ¼êµ¬":7662,"ìŀĲìĤ°ìļ´ìļ©":7663,"Ġë°ĸ":7664,"Ġlegisl":7665,"Ġë¹ħëį°ìĿ´íĦ°":7666,"Ġbuildings":7667,"ê´Ģê´ĳ":7668,"ĠFI":7669,"ì§ĢìĹĲìĦľ":7670,"Ġë¸ĶëŀĻ":7671,"Ġarm":7672,"ĠìĨĲìĭ¤":7673,"ĠëĤ®ìķĦ":7674,"Ġì§ĢìĽĲíķľëĭ¤":7675,"02":7676,"Ġnature":7677,"light":7678,"ĠíĪ¬ìŀĲë¥¼":7679,"Ġnecess":7680,"Ġclaimed":7681,"ĠìĿ´ëķĮ":7682,"ĠìĤ¬ìĭ¤ìĿĦ":7683,"Ġcome":7684,"wide":7685,"itation":7686,"mitted":7687,"Ġwords":7688,"ĠëĤ¨ìŀĲ":7689,"ë§Ľ":7690,"íĻĶìĿĺ":7691,"ĠìĬ¤íĥĢíĬ¸ìĹħ":7692,"Ġmostly":7693,"eles":7694,"ĠArt":7695,"ĠRoute":7696,"ĠRock":7697,"ëį°ìĿ´íĬ¸":7698,"gb":7699,"Ġtroops":7700,"ĠíĶĦëłĪ":7701,"Ġë°©ìĺģ":7702,"Ġ1983":7703,"ìĺĢìľ¼ë©°":7704,"Ġê³¼íķĻê¸°ìĪł":7705,"Ġsea":7706,"ìĬ¤ëŁ¬ìļ´":7707,"Ġcompanies":7708,"¶¤":7709,"Ġê°Ģë§¹ìłĲ":7710,"Ġstop":7711,"Ġê¸īëĿ½":7712,"ëħ¸ëıĻ":7713,"Ġëĵ£":7714,"ê¸Ģë¡ľë²Į":7715,"ëĮĢìĹĲìĦľ":7716,"ë¶Ħìķ¼":7717,"Ġcred":7718,"ĠëĮĢìļ°":7719,"ëłĪìĿ´ëĵľ":7720,"ĠSwed":7721,"Ġê²½ê³Ħ":7722,"Ġera":7723,"ĠìłĲì°¨":7724,"Ġë°ĳ":7725,"Ġê°ĸì¶Ķ":7726,"Ġì¤ĳíĻĶ":7727,"ìĭĿìĿ´":7728,"Ġcontract":7729,"Ġtransfer":7730,"ĠValley":7731,"Ġalways":7732,"lobal":7733,"Ġëľ»ìĿĢ":7734,"ises":7735,"Ġìµľìłģ":7736,"Ġcat":7737,"Ġìłģê·¹ìłģìľ¼ë¡ľ":7738,"Ġì§Ģì¼ľ":7739,"Ġë¹ĦíĬ¸":7740,"Ġtoday":7741,"Ġdig":7742,"ĠìĹ¬ê²¨":7743,"ë¯¹":7744,"ky":7745,"ĠLaw":7746,"íĻĶëĬĶ":7747,"Ġë³´ìĿ´ëĬĶ":7748,"ras":7749,"Ġì£¼ëł¥":7750,"Ġëĭ¤ìĿĮëĭ¬":7751,"íĶĦëłĪ":7752,"ĠChe":7753,"Ġmultiple":7754,"ĠêµĲìĪĺëĬĶ":7755,"Ġprevent":7756,"ĠíķľêµŃìĿĺ":7757,"ĠÎ":7758,"ĠíĴĢìĿ´":7759,"ĠìĿ¼ìĿ´":7760,"Ġthreat":7761,"ties":7762,"icles":7763,"ĠëĴ·":7764,"ìĿ¼ë¡ľ":7765,"Ġexpl":7766,"91":7767,"ĠìĿ´ìłľ":7768,"Ġcommonly":7769,"âĢĻ(":7770,"Ġê¸°ìĹħìĿ´":7771,"ĠDepartment":7772,"íķĺê³łìŀĲ":7773,"azine":7774,"Ġboard":7775,"ĠMost":7776,"ë¬´ìĽĲ":7777,"ĠDay":7778,"Ġíļ¨ê³¼ê°Ģ":7779,"ìĿ¼ìĿ´":7780,"Ġconditions":7781,"Ġê°Īëĵ±":7782,"ĠìĿ´ëłĩê²Į":7783,"ëį¤":7784,"Ġê²¨ìļ¸":7785,"Ġê´´":7786,"Ġleader":7787,"ìĭľì½Ķ":7788,"ëĤ¼":7789,"Ġball":7790,"ĠìĥģíĻ©ìĿĦ":7791,"Ġblock":7792,"atre":7793,"Ġcandid":7794,"lected":7795,"ĠTrans":7796,"aves":7797,"ĠëĬ¦":7798,"Ġë³µìŀ¡":7799,"Ġseparate":7800,"aled":7801,"7000":7802,"Ġvideo":7803,"ìĤ¬ìĿ´":7804,"Ġ120":7805,"íķ´ëıĦ":7806,"Ġë¹Ħì¦ĪëĭĪìĬ¤":7807,"ĠMag":7808,"elt":7809,"ĠìĬ¤íĬľëĶĶìĺ¤":7810,"BA":7811,"inary":7812,"Ġ1979":7813,"ĠìĹĨëĭ¤ëĬĶ":7814,"Ġrequire":7815,"):":7816,"well":7817,"ìĿ¸ë¯¼ê³µ":7818,"ê¸Ģëŀľëĵľ":7819,"ressed":7820,"ìłľìĹĲ":7821,"ĠëĪĦìłģ":7822,"ĠìĿ´ìĤ¬íļĮ":7823,"Ġì¦Ŀìłķ":7824,"ìĦłê±°":7825,"ĠìĥģìĹħ":7826,"Ġê±°ë¦¬":7827,"ĠìĿ´ìĬ¤":7828,"04":7829,"Ġvacancy":7830,"gypt":7831,"Ġ1945":7832,"Ġess":7833,"íĬ¸ë¦¬ìĺ¨":7834,"ë¹ĦëĬĶ":7835,"ĠêµŃíĨł":7836,"Ġê°Ģê¹Įìļ´":7837,"ì£¼ê³ł":7838,"ya":7839,"ĠìĤ¬ìļ©ëĲĺëĬĶ":7840,"03":7841,"Ġpie":7842,"Ġìĺ¤ë¸Į":7843,"ëĦĺ":7844,"Ġë¶Īê°ĢëĬ¥":7845,"ĠZe":7846,"Un":7847,"ë©´ìĦľëıĦ":7848,"Ġstatus":7849,"ìłĢì¶ķ":7850,"ëĮĢíļĮ":7851,"Ġëª¬":7852,"ëĿ¼ìĿĺ":7853,"ĠIII":7854,"Ġìłķì°©":7855,"ìķ±":7856,"íĥĳ":7857,"ĠìłĲëł¹":7858,"Ġíģ´ëŀĺ":7859,"ëıĻê¸°":7860,"ĠìĻ¸íĻĺ":7861,"za":7862,"asons":7863,"Ġhistorical":7864,"Ġdiscuss":7865,"ëĤĺìĿ´":7866,"ìĸµëĭ¬ëŁ¬":7867,"ysis":7868,"Ġì§ĳëĭ¨":7869,"ĠìĹĳ":7870,"ĠìĿĳëĭµ":7871,"Ġadditional":7872,"ĠìľłëıĻ":7873,"Ġproperty":7874,"Ġë²Ķì£Ħ":7875,"ĠìĿ¼ìĸ´ëĤĺ":7876,"Ġfinancial":7877,"ìĬ¤íĤ¤":7878,"rison":7879,"Ġcreate":7880,"ìĿ¼ìĿĺ":7881,"ĠArab":7882,"ê·¸ëŀĺ":7883,"resp":7884,"Ġwidely":7885,"íĶĦë¦¬":7886,"Ġcust":7887,"ëĿł":7888,"ĠCap":7889,"Ġvir":7890,"amer":7891,"utch":7892,"ëĭĪëĬĶ":7893,"itude":7894,"ĠìķĮìķĦ":7895,"ë¥ĺë¥¼":7896,"ë°ĶìĿ´ëŁ¬ìĬ¤":7897,"Ġ51":7898,"Ġë³´ìĪĺ":7899,"ĠìłĲìľł":7900,"Ġplayer":7901,"Ġgun":7902,"ìĭ¬ìĿĦ":7903,"Ġbooks":7904,"Ġtypes":7905,"ĠëıĻë¬¼":7906,"ĠíĶ¼íķ´ë¥¼":7907,"Re":7908,"Ġround":7909,"Ġbreak":7910,"Ġhot":7911,"Ġê²ĢìĤ¬":7912,"Ð¸":7913,"Ġ1972":7914,"Ġannual":7915,"Ġâĸ¶":7916,"ì¡°ìĿĺ":7917,"Ġë¡ľë´ĩ":7918,"Ġweek":7919,"Ġì½ĺíħĲì¸łë¥¼":7920,"Ġremain":7921,"itar":7922,"ìĿ¸ìĹĲ":7923,"yr":7924,"ĠInter":7925,"Ġë¹Ħì¤ĳìĿ´":7926,"ĠëĦ¥":7927,"Ġnomin":7928,"æĺ":7929,");":7930,"ĠìľĦíķ´ìĦľ":7931,"uth":7932,"Ġ3000":7933,"Ġaffect":7934,"Ġpassed":7935,"Ġscience":7936,"ĠëıĻìĿĺ":7937,"ê±°ëŀĺìĿ¼":7938,"ëĮĢë©´":7939,"ĠíĨłë¡ł":7940,"wing":7941,"Ġíģ¬ëĭ¤":7942,"ien":7943,"Ġë³µíķ©":7944,"ìĽĮëĵľ":7945,"Ġì¹¸":7946,"ĠíĻĶìŀ¥":7947,"ĠGold":7948,"iance":7949,"Ġvote":7950,"Ġê²°ìĬ¹":7951,"Ġinsp":7952,"ìĭĿìĿĢ":7953,"ection":7954,"ê°ľêµŃ":7955,"Ġminor":7956,"íĶ¼ìķĦ":7957,"ë§¤ìĪĺ":7958,"Ġdecl":7959,"Ġspeed":7960,"ĠëĳĺëŁ¬":7961,"Ġë°ĽëĬĶëĭ¤":7962,"ìłķìĿĺ":7963,"Ġê°ľíĺģ":7964,"ìķĺê³ł":7965,"Ġì´Īê³¼":7966,"ë¹Ħê°Ģ":7967,"ì¢ħìĿĦ":7968,"Ġbetter":7969,"ëŀį":7970,"Ġëħ¸ì¶ľ":7971,"Ġwhether":7972,"ì°¨ë¡Ģ":7973,"ëłĪìĿ´ìħĺ":7974,"ê²°ê³¼":7975,"irit":7976,"Ġê°ĢìĪĺ":7977,"ĠìĿ´ìļ©ìŀĲ":7978,"Ġimmedi":7979,"ĠDel":7980,"ëĲ¨":7981,"ĠìłģìĿ´":7982,"íĶĦëĬĶ":7983,"Ġrural":7984,"Ġê°ĢëĬ¥ìĦ±ìĿĦ":7985,"ĠJose":7986,"Ġë¶ĦìŁģ":7987,"9000":7988,"Ġcentre":7989,"ì±Ħê¶Į":7990,"Ġestimated":7991,"ĠGrand":7992,"ĠìĥģíĻĺ":7993,"Ġìĭľìŀĳíķľ":7994,"ëĶľ":7995,"Ġeffects":7996,"ĠìłģìłĪ":7997,"Ġproduce":7998,"ĠDon":7999,"Ġcontains":8000,"ĠêµŃëĤ´ìĻ¸":8001,"Ġëª©ìłģìľ¼ë¡ľ":8002,"Ġpromin":8003,"Ġhor":8004,"Ġpreviously":8005,"Ġsoft":8006,"change":8007,"Ġmoney":8008,"ĠìĺģìĹħìĿ´ìĿµìĿ´":8009,"Ġì¹Ń":8010,"Ġê¸°ëıħêµĲ":8011,"ìłķíķľ":8012,"ëĭĪíĦ°":8013,"Ġìľłë¡ľ":8014,"Ġconflic":8015,"Ġmusical":8016,"åĪ":8017,"Ġê¸Īìľµê°Ĳëıħ":8018,"ĠíĪ¬ìŀĲìĿĺê²¬":8019,"ì¹ĺë¡ľ":8020,"ìĸµìĽĲìĹĲ":8021,"ĠBattle":8022,"och":8023,"ĠìĿ¼ìĿĦ":8024,"Ġhit":8025,"ëĭ¹ìĿĺ":8026,"Ġë§ŀëĬĶ":8027,"Ġdeal":8028,"ĠTex":8029,"ini":8030,"Ġê°Ĵ":8031,"ĠBur":8032,"ĠMiddle":8033,"Ġsigned":8034,"Ġì´ĪëĮĢ":8035,"ë³Ħë¡ľëĬĶ":8036,"Ġdise":8037,"ĠíĬ¸ëłĮ":8038,"ìķĪìĿ´":8039,"Ġë½":8040,"Ġfle":8041,"Ġdi":8042,"ospital":8043,"Ġparent":8044,"ĠInstit":8045,"ĠIre":8046,"Ġì§Ģíĳľ":8047,"Ġëį°ìĿ´":8048,"Ġnoted":8049,"Ġlargely":8050,"Ġì£¼ìłľë¡ľ":8051,"Ġìŀ¬íĮĲ":8052,"ĠìĿ´ë²ĪìĹĲ":8053,"ĠìĹħëį°ìĿ´íĬ¸":8054,"ëįľëŀĢëĵľ":8055,"ĠOf":8056,"ĠíļĮê³Ħ":8057,"ĠíİĺìĿ´ìĬ¤ë¶ģ":8058,"ructed":8059,"ĠíĮ¨íĤ¤":8060,"íĸĪê¸°":8061,"Ġclosed":8062,"Ġê¸°ë¶Ģ":8063,"ĠëłĮ":8064,"osing":8065,"ĠìĨįìĹĲìĦľ":8066,"ĠìĿ´ìľłëĬĶ":8067,"Ġìĸĺ":8068,"Ġended":8069,"Ġ95":8070,"ëĭ¤ë©´":8071,"Ġchem":8072,"Ġìŀ¥ìĿĦ":8073,"ping":8074,"ĠëĦĲë¦¬":8075,"ĠëıĦì°©":8076,"Ġsus":8077,"ëªħìĿ´ëĭ¤":8078,"ĠJewish":8079,"Ġë³´ì¡°":8080,"ì³¤":8081,"reme":8082,"Ġíı¬íķ¨íķ´":8083,"Ġê°ľìĿ¸ìłķë³´":8084,"Ġspouse":8085,"Ġê¸°ìĤ¬":8086,"ĠServ":8087,"Ġíķľë²Ī":8088,"Ġlatter":8089,"Ġ1968":8090,"Ġprior":8091,"ĠScott":8092,"Ġê³µìĭľ":8093,"ëĿ¼ìĹĺ":8094,"ĠItaly":8095,"ĠSince":8096,"ìłľìķ½":8097,"Ġìĵ´":8098,"Ġë³µê·Ģ":8099,"ĠìĭłìĨį":8100,"Ġmor":8101,"ota":8102,"ëĮĢìĻĢ":8103,"íķ©ëĭĪëĭ¤":8104,"Ġê°Ģì¹ĺë¥¼":8105,"bour":8106,"ĠìķłíĶĮë¦¬ì¼ĢìĿ´ìħĺ":8107,"Ġê´Ģê³Ħë¥¼":8108,"ĠëĤĺë":8109,"Ġeastern":8110,"ëĭ¹ìĿĢ":8111,"Ġsection":8112,"Ġì§Īë³ĳ":8113,"Ġëª½":8114,")Â·":8115,"ĠìľĦìĹĲ":8116,"íĤ¤ë¡ľ":8117,"ĠìłĢëł´":8118,"Ġmove":8119,"Ġì°į":8120,"ìĸ´ëıĦ":8121,"Ġë³´ëĬĶ":8122,"Ġì¤ĦìĹĪëĭ¤":8123,"ĠìĿ¼ë°ĺìłģìĿ¸":8124,"Ġtraining":8125,"ĠMo":8126,"Ġwee":8127,"Ġcultural":8128,"ĠìĪł":8129,"08":8130,"Ġidea":8131,"Ġfederal":8132,"ì§ĵ":8133,"Ġë¶ĢìĤ¬":8134,"Ġë°Ķê¾¸":8135,"ëĵľìĭľ":8136,"Ġ1974":8137,"ì¡Įê³ł":8138,"ledge":8139,"ìľĦìĽĲíļĮëĬĶ":8140,"Ġquick":8141,"Ġ1973":8142,"ìłĦìĿĢ":8143,"Ġìĥģì§ķ":8144,"Ġê°Ŀ":8145,"rack":8146,"ĠìĿ´ê³³":8147,"Ġíĥľìĸ´ëĤ¬ëĭ¤":8148,"Ġconv":8149,"uous":8150,"Ġëģ¼":8151,"ë²ķìĹĲ":8152,"ìľ¼ë¯Ģë¡ľ":8153,"æŃ":8154,"Ġeas":8155,"ĠìłĢì¶ķ":8156,"Ġê°Ħì£¼":8157,"ka":8158,"ìŀ¥ê´Ģ":8159,"Ġborder":8160,"Ġë¶Ģì´Ŀ":8161,"ëª¨ëį¸":8162,"ĠëĤ´ëĭ¤":8163,"ë£¸":8164,"ë¡¬":8165,"Ġfocus":8166,"Ġ85":8167,"ìĽĲìĿ´ëĭ¤":8168,"Ġë°ľëĭ¬":8169,"ĠíĻķì§Ħ":8170,"Ġì¢ĭëĭ¤":8171,"07":8172,"Ġir":8173,"Ġ1981":8174,"ëĵľìĹĲ":8175,"ë§Īíģ¬":8176,"Ġë¹Ħìĥģ":8177,"ĠëĤ´ìĹĲ":8178,"Ġreform":8179,"oo":8180,"Ġesc":8181,"Ġë²ĪìĹŃ":8182,"ĠìĪĺë°ĸìĹĲ":8183,"ĠCons":8184,"Ġì£¼ê±°":8185,"ĠPri":8186,"Ġì§ĳíĸī":8187,"da":8188,"Ġwood":8189,"Ġë¹¼":8190,"íĺĳëł¥":8191,"ĠTr":8192,"Ġeconomy":8193,"ë¶ģëıĦ":8194,"Ġdefined":8195,"AC":8196,"unt":8197,"ìĭľíĤ¤ê³ł":8198,"ech":8199,"ĠEgypt":8200,"erve":8201,"iled":8202,"ì¹ĺë£Į":8203,"edic":8204,"ĠAssociation":8205,"Ġìĸ¸ìłľ":8206,"Ġinitially":8207,"ils":8208,"ĠìĿ´ì¤ĳ":8209,"Ġpen":8210,"ìķ¼ë§Ī":8211,"Ġëĭ´ìĿĢ":8212,"ĠPeter":8213,"Ġsociety":8214,"rative":8215,"New":8216,"ĠìŀĲìĤ¬":8217,"Ġmagn":8218,"Ġ1975":8219,"Ġant":8220,"ishing":8221,"ê°ĢëĬ¥":8222,"ĠìķĦë¬´":8223,"Ġíİ¸ìŀħ":8224,"Ġresults":8225,"ì£½":8226,"ĠìĪĺìļĶê°Ģ":8227,"ida":8228,"ĠìŀĲê²©":8229,"ìĥĿìĤ°":8230,"Ġìĸ¼êµ´":8231,"ĠStud":8232,"Ġbroadcast":8233,"íĶĮëŁ¬":8234,"kt":8235,"Ġvariety":8236,"ëĭĲ":8237,"Ġactive":8238,"ĠLab":8239,"ë°ĽìĿĦ":8240,"Ġìĺģíĸ¥ìľ¼ë¡ľ":8241,"Ġìĥģíĸ¥":8242,"Ġgs":8243,"ìĭłìļ©":8244,"íļ¨ê³¼":8245,"íĬľë¸Į":8246,"Ġpolice":8247,"Ġforced":8248,"Ġsmaller":8249,"ëĭ¤ìĿĮ":8250,"íĺĳìĿĺ":8251,"Ġveh":8252,"ì²´ëĬĶ":8253,"Ġterritory":8254,"ĠìĹ°ì¶ľ":8255,"Ġ1976":8256,"ìĦ¤íĮħ":8257,"Ġê¸ĪìľµíĪ¬ìŀĲ":8258,"ì§Ģë©°":8259,"Ġpric":8260,"ìŀ¥ìĿ¸":8261,"Ġnearly":8262,"Ġëĵ±ìĿ´ëĭ¤":8263,"ĠìĿ¸êµ¬ëĬĶ":8264,"ĠìĪĺë§İìĿĢ":8265,"ĠìĦ±ìŀ¥ìĿĦ":8266,"Ġë°ľìĸ¸":8267,"íĬ¹íŀĪ":8268,"ĠAcademy":8269,"06":8270,"Ġìłģë¦½":8271,"Ġcomplete":8272,"cend":8273,"Ġë§¤ìŀħ":8274,"Ġë§¡ìķĺëĭ¤":8275,"rey":8276,"Ġtaking":8277,"ê¶ĮìĿ´":8278,"Ġê²½ìļ°ìĹĲëĬĶ":8279,"Ġê·¼ì²ĺ":8280,"ĠêµŃíļĮìĿĺ":8281,"ëĤ¸ëĭ¤":8282,"Ġrap":8283,"Ġelement":8284,"ĠìľłìĹĶ":8285,"imum":8286,"ĠìľłìĤ¬íķľ":8287,"íĹ¨":8288,"ĠìĹ´ë¦¬ëĬĶ":8289,"ĠìĿ´ëŀĢ":8290,"Ġì¤Ħìĸ´ëĵ¤":8291,"ĠìĽĥ":8292,"ĠíĻĺìľ¨":8293,"ê°Ģê³ł":8294,"09":8295,"Ġpsych":8296,"ĠìķĦìĿ´ëĶĶìĸ´":8297,"ëĭ¤ìļ´":8298,"ëª½":8299,"ìª½ìĹĲ":8300,"Ġìķ½ìĨį":8301,"Ġlin":8302,"Ġë°©ì§Ģ":8303,"ìłģìľ¼ë¡ľëĬĶ":8304,"ĠëĽ°ìĸ´":8305,"inet":8306,"Ġìĭľê°Ģì´Ŀìķ¡":8307,"ĠãĢĮ":8308,"olitan":8309,"Ġì¦Ŀê±°":8310,"ĠìĦŃ":8311,"Ġíı¬ë¥´":8312,"Ġfamous":8313,"Ġult":8314,"Ġê³łê°ĿìĿ´":8315,"ĠëĤ¨ë¶ģ":8316,"êµ¬ìĹŃ":8317,"ë³ĳìĽĲ":8318,"Ġprint":8319,"Ġê¸Īë¦¬ìĿ¸":8320,"ìłĦíķľ":8321,"Ġplaying":8322,"Ġdon":8323,"Ġstudies":8324,"ena":8325,"íĭ°ìķĦ":8326,"ĠìŀĲë¦¬ë¥¼":8327,"ĠìĻĢìĿ´":8328,"ĠìĦ¤ëªħìĿ´ëĭ¤":8329,"ìĿ¼ëŀľëĵľ":8330,"Ġê¸°ì¡´ìĿĺ":8331,"ĠDiv":8332,"Ġprimarily":8333,"ĠìĺĽ":8334,"íķľíİ¸":8335,"lav":8336,"Ġì¶©ë¶ĦíŀĪ":8337,"ports":8338,"Ġíıīê°ĢíĸĪëĭ¤":8339,"ë¦¬íĬ¸":8340,"ì²´ê³Ħ":8341,"ë°ĽìķĦ":8342,"Ġtemperature":8343,"where":8344,"board":8345,"Ġang":8346,"ĠìķĪìłķìłģìĿ¸":8347,"ìĸµìĽĲìĿ´":8348,"Ġì£¼ìĿ¸ê³µ":8349,"ĠCast":8350,"Ġissues":8351,"Ġrecent":8352,"Ġë¯¸ë§Į":8353,"ether":8354,"ĠíĬĢ":8355,"ĠíĶĦë¡ľìĦ¸":8356,"Ġë§Įëĵ¤ìĹĪëĭ¤":8357,"ë²łë¥´":8358,"Ġë¶Ħìķ¼ìĹĲìĦľ":8359,"irm":8360,"ĠìĺģíĨł":8361,"Ġreason":8362,"Ġê²½íĹĺìĿĦ":8363,"ĠìħĢíĬ¸ë¦¬ìĺ¨":8364,"ĠIreland":8365,"ging":8366,"ĠìłķìĭĿ":8367,"ĠìĥĮ":8368,"Ġë°ľìĥĿíķĺëĬĶ":8369,"Ġgive":8370,"isation":8371,"ĠëĤĺì¤ĳìĹĲ":8372,"ìĿ¸ìĿ´ëĭ¤":8373,"Ġ1969":8374,"NE":8375,"Ġê¸°ìĸµ":8376,"ëł¤ëĬĶ":8377,"ĠìłĲìĿ´":8378,"TA":8379,"Ġìłķì¹ĺìłģ":8380,"ĠMad":8381,"ĠëĪĦêµ¬ëĤĺ":8382,"Ġì¤ĳìļĶíķĺëĭ¤":8383,"Ġgod":8384,"Ġrepresented":8385,"Ġplayers":8386,"ĠìŀĪì§Ģ":8387,"ë©´ìĿĦ":8388,"ĠíĻľë°ľ":8389,"Ġíĸīë³µ":8390,"ĠMuseum":8391,"ĠFrancis":8392,"ìħī":8393,"ĠëĮĢê¸°ìĹħ":8394,"Ġprec":8395,"rying":8396,"istics":8397,"Ġprovides":8398,"Ġsources":8399,"bre":8400,"Ġdirector":8401,"Ġsecret":8402,"ĠTer":8403,"Ġsaf":8404,"Ġ1978":8405,"Ġdecla":8406,"ĠíĮĮìĿ´":8407,"Ġbehind":8408,"íĨ±":8409,"ĠëĨĢ":8410,"ĠìķĶíĺ¸íĻĶíıĲ":8411,"Ġfif":8412,"Ġop":8413,"ĠëĿ¼ìĿ´ë¸Į":8414,"Americ":8415,"Ġlink":8416,"ìĹĲìĬ¤":8417,"ìĨĮìĹĲìĦľ":8418,"Ġë³´ìĿ´":8419,"Ġdegree":8420,"Ġì¿":8421,"ë¯¸ëŀĺ":8422,"Ex":8423,"Ġissue":8424,"Ġbehav":8425,"Ġinj":8426,"ĠìĤ¬ìĿ´ìĹĲìĦľ":8427,"ìĨįëıĦë¡ľ":8428,"ĠMy":8429,"gar":8430,"ìĦłìĪĺ":8431,"venue":8432,"ë°ĽëĬĶ":8433,"Ġë§ģíģ¬":8434,"fect":8435,"Ġëª¨ëĭĪíĦ°":8436,"Ġpressure":8437,"quar":8438,"Ġê²ĥìĿ´ëŀĢ":8439,"ĠìĻ¸ìĹĲ":8440,"Ġëįľ":8441,"ĠVirgin":8442,"Ġì¡°ìĸ¸":8443,"ì¹ĺìĿĺ":8444,")\"":8445,"Ġê°ĲìĨĮíķľ":8446,"à¸":8447,"íķĺê²łëĭ¤ê³ł":8448,"Ġlevels":8449,"Ġëĭ¨ì§Ģ":8450,"ç¾":8451,"ìĺģìĥģ":8452,"Ġìŀĺëª»":8453,"Ġíı¬íĬ¸":8454,"Ġcitiz":8455,"Ġtarg":8456,"istry":8457,"Ġë§ŀì¶¤íĺķ":8458,"Ġìĥģìļ©":8459,"ë¦¬ë©°":8460,"ĠThat":8461,"Ġhyd":8462,"Ġ1971":8463,"Ġadopted":8464,"Sh":8465,"Ġê°ľíĨµ":8466,"ëıĻìĹĲ":8467,"ĠëĲĺë©´":8468,"ìļĶìĿ¼":8469,"Ġëĭ¨ë§Ĳ":8470,"ĠëĶĶìĬ¤íĶĮëłĪìĿ´":8471,"ictor":8472,"Ġê¸īì¦Ŀ":8473,"ï¼":8474,"Ġê°ľìĦ¤":8475,"ê¸°íļį":8476,"ìĥģì¦Ŀ":8477,"Ġìľłëŀĺ":8478,"ĠëªħíĻķ":8479,"Ġdecision":8480,"Ġìŀłìŀ¬":8481,"ĠìĿ´ê°ĻìĿĢ":8482,"Ġcle":8483,"ĠëįĶíķ´":8484,"ĠSmith":8485,"TC":8486,"Ġdefin":8487,"Ġêµ¬ìĹŃ":8488,"ëª¨ë¦¬":8489,"ĠíĮĲê²°":8490,"ê·¸ëŁ¬ëĤĺ":8491,"Ġíķ´ëıĦ":8492,"ĠìĬ¹ë¦¬":8493,"Ġdivided":8494,"ĠëģĿìĹĲ":8495,"ëĮĢì±ħ":8496,"ĠìĪĺì¤ĢìĿ´ëĭ¤":8497,"ķìĭľì½Ķ":8498,"ĠCont":8499,"ëĵľìĻĢ":8500,"Ġ1967":8501,"Ġgreater":8502,"Ġpath":8503,"ìĭĿìĿĺ":8504,"ìĽł":8505,"Ġ99":8506,"ĠìĿĮìĦ±":8507,"ĠìĿ¸íĦ°ë·°":8508,"ê¹Įì§ĢëĬĶ":8509,"ëŀĦ":8510,"ĠìĤ¬ëŀĮìĿĢ":8511,"Ġfa":8512,"Ġì°¨ëĭ¨":8513,"ëľ¨":8514,"ë¦¬íı¬":8515,"ë§Īì¼ĵ":8516,"Ġequip":8517,"Ġroute":8518,"Ġë¬´ìĦł":8519,"can":8520,"Ġë°ĺëĵľìĭľ":8521,"Ġmention":8522,"íĶĦëĿ¼ìĿ¸":8523,"lit":8524,"Ġplat":8525,"Ġtend":8526,"cean":8527,"ĠìĥĿê°ģíķľëĭ¤":8528,"De":8529,"ĠëĮĢíıŃ":8530,"ìĿĮìĹĲëıĦ":8531,"Ġexpla":8532,"Ġprison":8533,"Ġìłķì±ħìĿĦ":8534,"ĠMark":8535,"Ġmiddle":8536,"Ġë¯¸êµŃìĹĲìĦľ":8537,"ë¡łìĿĦ":8538,"ë¨¸ìĬ¤":8539,"ê´Ģì¤ĳ":8540,"Ġìĥģíķľ":8541,"Early":8542,"ishop":8543,"ìłķë³´íĨµìĭł":8544,"bury":8545,"lers":8546,"ë¥´ìĿĺ":8547,"ĠAtl":8548,"standing":8549,"Ġìį¼":8550,"ĠWal":8551,"ĠëĤ¸":8552,"ë©´ìĹĲ":8553,"ĠêµŃê°ĢëĮĢíĳľíĮĢ":8554,"Ġíķ©ë¥ĺ":8555,"Ġphysical":8556,"Ġcommunic":8557,"Ġì¡°ëĭ¬":8558,"Ġë³´ê±´":8559,"å¾":8560,"Ġë³Ģíĺ¸":8561,"Ġë°Ľì§Ģ":8562,"ê¸°êµ¬":8563,"Ġfailed":8564,"ĠìĤ¬ìŀ¥ìĿĢ":8565,"ì¡°ëĬĶ":8566,"ĠSociety":8567,"ĠPenn":8568,"Ġenough":8569,"ĠìłĦìĦ¸ê³Ħ":8570,"ĠìľĪëıĦ":8571,"ĠíĻĢ":8572,"Ġnewsp":8573,"ëĥĪ":8574,"Ġ1964":8575,"ĠëĪĪìĹĲ":8576,"Ġour":8577,"Ġproblems":8578,"Ġìĸ´ëĶĶ":8579,"ĠëĤĺíĥĢëĥĪëĭ¤":8580,"ë¬¼ê´Ģ":8581,"Ġgas":8582,"Ġë°ľìĥĿíķł":8583,"ĠCanadian":8584,"Ġproblem":8585,"ä½":8586,"ĠìĹ¬ë¶Ģë¥¼":8587,"ĠìłĳìĪĺ":8588,"ables":8589,"å±±":8590,"Ġë´Ħ":8591,"Ġëª©ìłģ":8592,"Ġíķľìłķ":8593,"ì¦ĪëĬĶ":8594,"rust":8595,"Ġì¤ĳìĭ¬ìĿĺ":8596,"Ġdiss":8597,"Ġpoor":8598,"Ġoil":8599,"íģ¬ëĿ¼ìĿ´ëĤĺ":8600,"RA":8601,"Ġë¬»":8602,"Ġbasis":8603,"ĠìĿ´ë¦ĦìĿĢ":8604,"Ġborough":8605,"íķ¨ìĹĲ":8606,"Ġë¿":8607,"ĠApp":8608,"Ġì§ĢìĨįìłģìĿ¸":8609,"embly":8610,"Ġict":8611,"ìŀ¬ë¡ľ":8612,"Ġwhole":8613,"ID":8614,"ĠFort":8615,"ĠíĺķíĥľìĿĺ":8616,"ëĦĪìĬ¤":8617,"Ġë¬´ê¸°":8618,"Ġìłģíķ©":8619,"âĢĺ":8620,"Ġoperated":8621,"Ġunc":8622,"ulated":8623,"ê¸°ëĬ¥":8624,"ĠìĦ¸ì¢ħ":8625,"yal":8626,"Ġdistinct":8627,"million":8628,"300":8629,"ĠìłĦê°ľ":8630,"ìķĪìĿĢ":8631,"ë¸Įë¦¬":8632,"ĠìľłìĿ¼íķľ":8633,"ams":8634,"ë¯¸ëĶĶìĸ´":8635,"ĠìĿ´ìļ©íķľ":8636,"ìłĦìĿĺ":8637,"ĠTexas":8638,"Ġmarriage":8639,"perial":8640,"Ġbecoming":8641,"Ġì°¨ìĿ´ê°Ģ":8642,"Ġê²½ê¸°ë¥¼":8643,"annel":8644,"ĠíĨµìłľ":8645,"Ġì§ĢìĹ°":8646,"Ġìĭľìŀ¥ìĿ´":8647,"Ġinvestig":8648,"respond":8649,"Ġëĭ¤ìļ´":8650,"raw":8651,"ĠìľĦíķĺìĹ¬":8652,"Ġë²½":8653,"íŀĪëĬĶ":8654,"Ġ'<":8655,"ì¥Ĳ":8656,"ëĵŃ":8657,"íķ´ìĻĶëĭ¤":8658,"arc":8659,"win":8660,"ĠìŀĪìľ¼ëĤĺ":8661,"Ġê³µíĻĶ":8662,"Ġcarried":8663,"Ġìĭ¤íĺĦ":8664,"ansion":8665,"ĠëĤ´ìļ©ìĿĢ":8666,"ĠëıĪìĿĦ":8667,"ĠNA":8668,"ĠíķŃìĥģ":8669,"ĠìķĦë²Ħì§Ģ":8670,"Ġìĸ´ëł¤ìĽĢìĿĦ":8671,"Ġadj":8672,"ĠìĿĺíĺ¹":8673,"By":8674,"ëħĦìĿ´":8675,"ĠìĥĿëªħ":8676,"ĠëĨįíĺĳ":8677,"Ġì£¼ê°ĢëĬĶ":8678,"Ġíķ©ë¦¬":8679,"ìŀ¥ìķł":8680,"Ġoffered":8681,"Ġcollection":8682,"Ġë°Ķëĭ¤":8683,"ìķŀìľ¼ë¡ľëıĦ":8684,"ê²½ìĿĦ":8685,"Ġdram":8686,"ĠìłĦíĺĢ":8687,"ĠHistor":8688,"Ġì§ĢìĹŃìĿĦ":8689,"ĠìħĪìĿ´ëĭ¤":8690,"Ġagricult":8691,"ivity":8692,"ìĭľìŀ¥ìĿĺ":8693,"ë°ķìĬ¤":8694,"Ġê½ĥ":8695,"Ġíŀĺëĵ¤":8696,"ĠIrish":8697,"Ġë°¸":8698,"ĠìĿ´ê²ĥìĿĢ":8699,"ìºł":8700,"ĠëĤĺëī":8701,"ê´Ģëł¨":8702,"ìŀĲëĵ¤ìĿĦ":8703,"ĠìĤ¬ìļ©íķľëĭ¤":8704,"ĠíĶĦë¡ľëª¨":8705,"ìŀ¬ëĬĶ":8706,"Ġgrand":8707,"Ġë¬¸ìĦľ":8708,"ëł¥ìľ¼ë¡ľ":8709,"Ġëĵ¤ìĸ´ê°Ģ":8710,"ê°ľë¡ľ":8711,"ĠìĦłëıĦ":8712,"ë³´ë©´":8713,"ĠìĺĪìķ½":8714,"ĠìĬ¹ê°ķ":8715,"ìĭľëĮĢ":8716,"Ġwide":8717,"ĠìĿ¼ìŀĲë¦¬":8718,"ëĿ¼ë©´":8719,"Ġvisit":8720,"ada":8721,"Ġcomplet":8722,"ĠìĪĺëıĦê¶Į":8723,"Ġpotential":8724,"Ġletter":8725,"Ġdetail":8726,"ĠëĦ¤ëįľëŀĢëĵľ":8727,"Ġstudio":8728,"Ã¤":8729,"ëŀŃ":8730,"ĠSaint":8731,"ĠìĿĺìĽĲìĿĢ":8732,"Ġë§Īë¥´":8733,"Ġ54":8734,"ĠìłĳìĨį":8735,"arsh":8736,"Ġê³łëĵ±íķĻêµĲ":8737,"Ġkeep":8738,"Ġcomputer":8739,"Ġdistribution":8740,"astic":8741,"Ġcommission":8742,"ĠíĬ¹ë³Ħíķľ":8743,"Ġreve":8744,"ĠAre":8745,"ĠìłģìĿĢ":8746,"ĠìĦ±ê²©":8747,"ê¸°ê³ł":8748,"rief":8749,"teen":8750,"Ġì²Ńêµ¬":8751,"Ġê°ľë´ī":8752,"Ġmatch":8753,"Ġíķ´ìĥģ":8754,"ĠíĺĦìŀ¬ëĬĶ":8755,"ĠêµĲíĻĺ":8756,"ë²¤ì²ĺ":8757,"Ġì¦Ŀê¶ĮìĤ¬":8758,"Ġìŀħì£¼":8759,"Ġshown":8760,"ession":8761,"Ġê³łê°ĿìĿĺ":8762,"ìĹ°êµ¬ìĽĲ":8763,"ê³¨ìĿĦ":8764,"ĠRad":8765,"íŀĲ":8766,"ĠëĲĺì§Ģ":8767,"Ġìŀīê¸Ģëŀľëĵľ":8768,"Ġcommunities":8769,"Ġë°ĸìĹĲ":8770,"Ġê°Ģê²©ìĿ´":8771,"Ġë¬¸ìłľëĬĶ":8772,"Ġsimp":8773,"2013":8774,"ĠíħĮë§Ī":8775,"Ġê¸°ì´ĪìŀĲìĤ°":8776,"aches":8777,"íĺ¸ê°Ģ":8778,"Ġproducts":8779,"Ġheavy":8780,"Ġê±°ëŀĺëĲĺê³ł":8781,"Ġëĭ¹ì´Ī":8782,"ë¶Ģëª¨":8783,"ĠìĺģêµŃìĿĺ":8784,"ĠíĴĢìĿ´ëĲľëĭ¤":8785,"ĠAirport":8786,"Ġë¶Ħíı¬":8787,"ìŀ¬ê°Ģ":8788,"istan":8789,"Ġë°ľê¸ī":8790,"iant":8791,"Ġimplement":8792,"Ġcompared":8793,"Ġ1977":8794,"Ġíı´ëŀĢëĵľ":8795,"íĸ¥ìĿ´":8796,"ĠìĿ´ìłĦìĹĲ":8797,"ĠìĿĺì¡´":8798,"rovers":8799,"Ġattend":8800,"Ġê²°ìłķíĸĪëĭ¤":8801,"Ġ1965":8802,"ĠBest":8803,"ìĥģíĻ©":8804,"ì·":8805,"Ġë³ĢíĻĶë¥¼":8806,"icago":8807,"ĠMichael":8808,"ĠìłĦíĻĶ":8809,"íĥĲ":8810,"Ġchief":8811,"ĠìĥģíĻ©ìĿ´ëĭ¤":8812,"ãĢı":8813,"anta":8814,"Ġì·¨ìĨĮ":8815,"Ġrat":8816,"Ġë¶Īíİ¸":8817,"ĠëĬĲëģ¼":8818,"ĠíĴĪì§Ī":8819,"Ġexperience":8820,"Ġê±°ëĳĲ":8821,"Ġíģ¬ë¡ľ":8822,"mission":8823,"Ġë®¤ì§Ģ":8824,"ĠëıĦìłĦ":8825,"ìĨĲìĭ¤":8826,"ĠíĺĳìĹħ":8827,"Ġìľłì¶ľ":8828,"ìĿį":8829,"Ġìľ¡êµ°":8830,"Ġprograms":8831,"ë§ŀ":8832,"Ġæ":8833,"aver":8834,"stitution":8835,"ĠBudd":8836,"ë¶Ģë¡ľ":8837,"Ġë¶ĪëŁ¬":8838,"Ġê¸°ëĮĢíķľëĭ¤":8839,"íıīìĸĳ":8840,"ê´ĳìĹŃìĭľ":8841,"ĠëĮĢíĨµëł¹ìĿĢ":8842,"Ġë¸ĮëĿ¼ì§Ī":8843,"Ġnearby":8844,"Ġexhib":8845,"Ġscholars":8846,"Ġdate":8847,"ĠìĹ°ê¸Ī":8848,"Ġdone":8849,"SC":8850,"undred":8851,"Ġìľłëªħíķľ":8852,"ĠSun":8853,"ĠMinister":8854,"ë¦¬ì¦ĺ":8855,"Ġincorporated":8856,"ĠëĮĢê¸°":8857,"ropolitan":8858,"ĠMat":8859,"Ġserve":8860,"Ġconsum":8861,"Ġê³łëĮĢ":8862,"Ġê¸´ê¸ī":8863,"ye":8864,"ìĤ¬ìļ©":8865,"Ġblood":8866,"Ġíİ¸ì§ĳ":8867,"Ġì¡°ì§Ģ":8868,"Ġkind":8869,"ìľ¼ëĭĪ":8870,"ê³łëĵ±íķĻêµĲ":8871,"Ġë§ĲìĿĦ":8872,"ĠëĤĺëĪĦ":8873,"ìĶ¨ê°Ģ":8874,"ĠNorthern":8875,"íĤ¨ëĭ¤":8876,"Ġhighly":8877,"Ġë¶Ħê¸°":8878,"Ġcateg":8879,"Ġìľ¡ìĦ±":8880,"íĪ¬ìŀĲì¦Ŀê¶ĮìĿĢ":8881,"ĠFin":8882,"Ġpeace":8883,"Ġmiles":8884,"Ġtechnology":8885,"Ġëĭ¬íķĺëĬĶ":8886,"ĠIslam":8887,"Ġë¬¸ìŀĲ":8888,"ĠSuper":8889,"êµŃìĹĲ":8890,"ìķĺëįĺ":8891,"ĠìĪĺë¡Ŀ":8892,"ëł¥ìĿĺ":8893,"ĠìĿ´ìĸ´ì§Ī":8894,"ĠêµŃë¬´":8895,"Ġpoet":8896,"Ġcompos":8897,"ĠíķľìĿĢ":8898,"à¤":8899,"ĠìĦ¸ë¶Ģ":8900,"Ġê°Ģê²©ìĿĢ":8901,"Ġepisode":8902,"íĺ¸ë¡ľ":8903,"ĠFore":8904,"bed":8905,"ìŀĲëĵ¤ìĹĲê²Į":8906,"ĠìŀĲìĦ¸íķľ":8907,"ê³ĦìĿĺ":8908,"ë¶Ģë¥´íģ¬":8909,"åº":8910,"ado":8911,"Ġlaunched":8912,"ĠAp":8913,"Ġcontem":8914,"Ġë³´ê¸ī":8915,"Ġë¶Ħíķł":8916,"Ġ59":8917,"uated":8918,"ĠíĻķìĭ¤":8919,"ìļ´ìĺģ":8920,"oura":8921,"Ġìĺ¤ëĬĺëĤł":8922,"ë³´ë¥¼":8923,"Ġdro":8924,"ĠíĻĺìľ¨ìĿĢ":8925,"ìĿ´ìĻĢ":8926,"ê°Ģíı¬ë¥´":8927,"Ġstru":8928,"ona":8929,"Ġheav":8930,"ì°½ìĹħ":8931,"Ġìĭłì¢ħ":8932,"ĠìĿ´ìĬ¤ëĿ¼ìĹĺ":8933,"ì²´ìľ¡":8934,"Ġì¡°ê°ģ":8935,"Ġê°Ħëĭ¨":8936,"ĠëıĦìĦľ":8937,"ĠìĿ¸ëıĦëĦ¤ìĭľìķĦ":8938,"ĠìłĦëħĦëĮĢë¹Ħ":8939,"ì§Ģê²Į":8940,"Ġintended":8941,"Ġregular":8942,"Ġdiscovered":8943,"Ġ56":8944,"Ġìľłë¦¬":8945,"odes":8946,"Ġinhab":8947,"Ġì¡°ìŀĳ":8948,"Ġconcent":8949,"Ġ98":8950,"EC":8951,"ĠíĬ¹ìĦ±":8952,"ë¬¸ìĿ´":8953,"ìŀĲê¸°":8954,"igr":8955,"Ġì¦īìĭľ":8956,"Ġappears":8957,"ĠìłĦìĿ¼ëĮĢë¹Ħ":8958,"lg":8959,"uing":8960,"Ġrout":8961,"olved":8962,"Ġë¬¼ì§Ī":8963,"Ġì¶ľìĭľíĸĪëĭ¤":8964,"ĠRepublican":8965,"ëª©ìĿĦ":8966,"Ġ53":8967,"set":8968,"ë®":8969,"ëĴ":8970,"iot":8971,"Ġunit":8972,"ĠArch":8973,"Ġë°Ķê¿":8974,"ì¹´ì¹´ìĺ¤":8975,"ëĭĽ":8976,"ë¹ł":8977,"Ġì¶©ì¡±":8978,"ìĿ´íĽĦ":8979,"ĠìĿ¼ìĭľ":8980,"Ġmunicipal":8981,"Ġì¶ĶìłķëĲľëĭ¤":8982,"ĠLiber":8983,"å¹":8984,"ĠëĲĺìĹĪê³ł":8985,"ĠíĺĦëĮĢì°¨":8986,"ĠíĺĦìŀ¬ê¹Įì§Ģ":8987,"Ġcorrespond":8988,"ĠìĪĺì¹ĺ":8989,"Ġearn":8990,"anning":8991,"gl":8992,"FC":8993,"ĠSystem":8994,"ìħĺìĿĢ":8995,"Ġinterview":8996,"Ġì°¾ëĬĶ":8997,"Ġ600":8998,"nic":8999,"ĠíļĮìĤ¬ëĬĶ":9000,"Ġë³´íĹĺë£Į":9001,"ëªħìĹĲ":9002,"ĠíĹĮë²ķ":9003,"Ġìĺ¤ëŀľ":9004,"ception":9005,"Ġcer":9006,"ì´Īëĵ±íķĻêµĲ":9007,"Ġê´Ģì°°":9008,"ĠíĮĮê²¬":9009,"ĠCamp":9010,"Ġë°©ë²ķìĿĦ":9011,"ëł¤ê³ł":9012,"ĠClub":9013,"Ġê°ĢëĬĶ":9014,"ĠëĸłëĤĺ":9015,"bc":9016,"Ġcourse":9017,"Ġcounter":9018,"ì¡°ê°Ģ":9019,"Ġsuggested":9020,"ĠëĤ¨ë¶Ģ":9021,"Ġíħį":9022,"ìľłê°Ģ":9023,"ê³µê°Ħ":9024,"Ġê·¹ë³µ":9025,"Ġê³µìĤ°":9026,"Ġì²Ļ":9027,"umn":9028,"Ġvari":9029,"Ġindustrial":9030,"ë¹Ħìľ¨":9031,"Ġweap":9032,"Ġê³¼ëıĦ":9033,"ĠëªħìĺĪ":9034,"Ġactivities":9035,"íĬ¸ëĿ¼":9036,"ĠíĨµì¹ĺ":9037,"Ġìµľìĭł":9038,"ë©Ķëĭ¬ìĿĦ":9039,"Ġê°ķìĦ¸ë¥¼":9040,"lies":9041,"ìĦłë¬¼":9042,"2021":9043,"ĠìľłíĬľë¸Į":9044,"Ġíķ´ëĭ¹íķľëĭ¤":9045,"ĠìķħíĻĶ":9046,"rich":9047,"ĠIm":9048,"Ġbig":9049,"ëĳĺ":9050,"uit":9051,"Ġimpact":9052,"ìĽ¨ëį´":9053,"Ġë¶ķ":9054,"ĠíĽĦìĨį":9055,"Ġnation":9056,"ophy":9057,"Ġsal":9058,"ĠSecond":9059,"Ġmetal":9060,"ellig":9061,"ë¬´ëĬĶ":9062,"ĠìĥģíĻ©ìĿ´":9063,"Ġê´Ģíķł":9064,"ëħĦê³¼":9065,"ĠëĨĴìĿ´":9066,"Ġë¯¸ë¦¬":9067,"ê²½ìŁģ":9068,"ë¦¬íķĢ":9069,"ë³´ìŀĲ":9070,"íĨµíĻĶ":9071,"Ġìŀ¬ê°ľ":9072,"ĠíıŃë°ľ":9073,"ĠìĿ´ë¦Ħìľ¼ë¡ľ":9074,"Ġë¦¬ëįĶ":9075,"Ġíķ´ëĭ¹íķĺëĬĶ":9076,"ĠEastern":9077,"ato":9078,"ĠìĿ´ë¥¸":9079,"inter":9080,"Ġì§ĪíĻĺ":9081,"onom":9082,"Ġsettlement":9083,"ĠìĬ¤íĥ":9084,"Ġëľ¨":9085,"Ġmur":9086,"ì£¼ìĭľ":9087,"ĠìŀĦì§ģìĽĲ":9088,"enth":9089,"Ġë§¤ìĿ¼":9090,"ĠSpain":9091,"ĠìĹĨìĿĦ":9092,"Ðµ":9093,"ients":9094,"Ġë¹¨":9095,"ë¯¸íĦ°":9096,"Ġclear":9097,"Ġmission":9098,"Ġ1963":9099,"éĩĳ":9100,"2011":9101,"Ġfort":9102,"ĠëĦĺê²Į":9103,"Ġë§¤ì¶ľìĿ´":9104,"Ġë²Ĺìĸ´ëĤĺ":9105,"kb":9106,"ëħ¸íĬ¸":9107,"aters":9108,"Ġorganization":9109,"iring":9110,"ĠLu":9111,"Ġê¸°íĽĦ":9112,"ecause":9113,"ëª¨ë°ĶìĿ¼":9114,"Ġmainly":9115,"ĠìĭłìłľíĴĪ":9116,"ĠìĽĲìŀĲ":9117,"Ġdisplay":9118,"Ġinitial":9119,"íķľëĭ¤ë©´":9120,"war":9121,"Ġ1966":9122,"ĠParliament":9123,"Ġdivision":9124,"lymp":9125,"Ġëĭ¤ë£¨":9126,"ĠëıĦëĭ¬":9127,"Ġë³¸ëĭ¤":9128,"aces":9129,"Ġcollege":9130,"ĠFl":9131,"ĠìĿ´íĭĢ":9132,"ĠìĹĲìĬ¤":9133,"Ġë¶ĢíĴĪ":9134,"Ġwanted":9135,"Ġìĭ¤ìłģìĿĦ":9136,"Ġëħ¸ëł¥ìĿĦ":9137,"Ġê²ĥìĿ´ìĹĪëĭ¤":9138,"alle":9139,"Ġarran":9140,"Ġì¶Ķêµ¬":9141,"Ġremaining":9142,"ë¨¹":9143,"ola":9144,"ìĬ¤ë§ĪíĬ¸":9145,"ë¡ľê·¸":9146,"ëĬĲëĥĲ":9147,"Ġë¹Ħë°Ģ":9148,"Ġê°Ģë¥´":9149,"Ġë§İìķĺëĭ¤":9150,"Ġhours":9151,"Ġìľłì§ĢíĸĪëĭ¤":9152,"Ġox":9153,"ëĭīìĬ¤":9154,"which":9155,"ĠGroup":9156,"Ġë°°ì¶ľ":9157,"Ġì§ĢìĭĿ":9158,"ìĹĲìĿ´":9159,"ĠíĽĦìĽĲ":9160,"ìĿ¸ì¦Ŀ":9161,"Ġrent":9162,"ĠWood":9163,"Ġdemonst":9164,"Ġdespite":9165,"uge":9166,"Ġowned":9167,"ĠInstitute":9168,"ĠCarol":9169,"2012":9170,"Ġë¥´":9171,"ê³łê°Ģ":9172,"Ġconne":9173,"ĠOff":9174,"ëĲĲëĭ¤ê³ł":9175,"ìĿ¸ëıĦ":9176,"Ġ\"\"":9177,"Ġlisted":9178,"Ġê¶Įíķľ":9179,"ĠLord":9180,"ĠìĿ´ëıĻíĨµìĭł":9181,"ĠìŀĪìĹĪê³ł":9182,"ĠìĤ¬ìŀ¥":9183,"Ġchall":9184,"Ġwoman":9185,"ĠRome":9186,"ê³µíķŃ":9187,"Ġíĩ´ì§ģ":9188,"Īľ":9189,"eff":9190,"ê±´ì¶ķ":9191,"ĠìŀĳëıĻ":9192,"Ġê³µíķŃ":9193,"ĠPet":9194,"illed":9195,"Ġcenturies":9196,"ĠìľłëĮĢ":9197,"ĠForce":9198,"ĠìĪĺìĦĿ":9199,"ĠìŀĲì¹ĺ":9200,"ì§ĢëĤľíķ´":9201,"Ġìĭ¤ìłģìĿ´":9202,"Ġunivers":9203,"ëĭ¤ìĿ´":9204,"ê±°ìļ´":9205,"Ġë¹ĦëĮĢë©´":9206,"íķĺìĺĢìľ¼ëĤĺ":9207,"ĠìĦłìĪĺë¡ľ":9208,"IC":9209,"Ġbomb":9210,"ìŀ¥ê¸°":9211,"Ġquant":9212,"Ġran":9213,"ë°°ëĭ¹":9214,"Ġê¸°ìļ¸":9215,"ĠìĿ´ìķ¼ê¸°ë¥¼":9216,"Ġminister":9217,"Ġneighbor":9218,"Ġê³łëł¤íķ´":9219,"Ġfourth":9220,"íħĢ":9221,"Ġë¹ĦêµĲìłģ":9222,"æĪ":9223,"Ġruns":9224,"ĠHaw":9225,"ĠBBC":9226,"Ġpaper":9227,"Ġê²ĥì²ĺëŁ¼":9228,"ì¹ĺì§Ģ":9229,"more":9230,"ìĺģíĻĶ":9231,"ĠëĤ´ëł¸ëĭ¤":9232,"ĠVictor":9233,"ìĿ¸ëĵ¤ìĿĢ":9234,"çİ":9235,"ìĬ¬ëŀĮ":9236,"ying":9237,"Ġìŀ¥ì°©":9238,"Ġì´Īëĵ±íķĻêµĲ":9239,"with":9240,"ìłĦê¸°":9241,"ĠìĿ´íĸī":9242,"irds":9243,"ì£¼ìĻĢ":9244,"ëĩĮ":9245,"ĠìĤŃ":9246,"ìĥģê³¼":9247,"ĠìĹĲìĸ´":9248,"Ġregions":9249,"Ġíŀĺìŀħ":9250,"Ġcode":9251,"ĠëĬĲëĤĮ":9252,"ìĺ¬ë¦¼íĶ½":9253,"Ġë¶ĢíļĮ":9254,"Ġë°Ķë¥´":9255,"ĠìĤ¬ëª¨":9256,"ĠêµŃìłķ":9257,"Ġroyal":9258,"Ġdirected":9259,"ĠìĿ´ìĥģìĿĦ":9260,"ĠìĿ´ëŀĺ":9261,"Ġcannot":9262,"ëł¥ìĹĲ":9263,"Ġìºĺ":9264,"Ġê³łê°ĿìĹĲê²Į":9265,"Ġships":9266,"ë§ĪìĿĦ":9267,"rupt":9268,"ĠìķĦëıĻ":9269,"rd":9270,"ĠíĮĮë¦¬":9271,"Ġìŀħëĭ¨":9272,"Ġê·ľëª¨ê°Ģ":9273,"ìĿ¸ê°Ģ":9274,"ëľ»":9275,"Ð½":9276,"Ġê¸°ê´ĢìĿ´":9277,"Ġmeeting":9278,"ĠìŀĳìĹħìĿĦ":9279,"When":9280,"ĠìĥģíĻ©ìĹĲ":9281,"Ġresulting":9282,"Ġìĭľë²Ķ":9283,"Ġë°±ìĭł":9284,"Ġìľłê°Ģ":9285,"Ġì£¼ê³ł":9286,"ĠSea":9287,"ëĨįíĺĳ":9288,"ĠìĿĺê²°":9289,"ĠìķĦì¹´":9290,"enes":9291,"ĠëĤĺìĺ¤ëĬĶ":9292,"ê°Ķ":9293,"ĠìĿ´ìŀĲ":9294,"ìĽĶëĵľ":9295,"ican":9296,"Ġë³´ì¡´":9297,"ìĦĿìĿĦ":9298,"Ad":9299,"Ġëĭ¨ëıħ":9300,"ĠEdward":9301,"Ġ...":9302,"Ġê·ľëª¨ëĬĶ":9303,"Ġë°ĽìķĦëĵ¤":9304,"Ġrisk":9305,"ìĭ¼":9306,"ĠìĪĺíķĻ":9307,"ronic":9308,"ĠRevolution":9309,"Ġagreed":9310,"Ġìłľìĸ´":9311,"Ġë¯¸ì¹ĺëĬĶ":9312,"íĬ¸ìĹĲ":9313,"Ġmeasure":9314,"ëĮĢìļ°":9315,"ë¶Ģì±Ħ":9316,"Ġopening":9317,"Ġíķ´êµ°":9318,"Ġforest":9319,"Ġì§Ģíķĺì²ł":9320,"uments":9321,"Ġë²ķìĿ¸":9322,"Ġë¬´ë£Įë¡ľ":9323,"Ġoperation":9324,"Ġthink":9325,"ĠëĮĢíĨµëł¹ìĿ´":9326,"Ġmagazine":9327,"ĠJoseph":9328,"va":9329,"ĠëĤĺìĦ°ëĭ¤":9330,"ë¬¸ìĿĺ":9331,"ĠNavy":9332,"Ġstations":9333,"ĠAsia":9334,"Ġê¼¬":9335,"ìĬ¨ìĿĢ":9336,"íĦ°íħĮìĿ¸ë¨¼íĬ¸":9337,"çĽ":9338,"onents":9339,"Ġrapid":9340,"Ġê²ĮìĿ´":9341,"IA":9342,"Ġrare":9343,"ë¯¼ì£¼ëĭ¹":9344,"ĠìŀĲê¸ĪìĿĦ":9345,"Ġì¶©ëıĮ":9346,"ĠìĺģíĻĶìĿ´ëĭ¤":9347,"íĬ¸ìĻĢ":9348,"igen":9349,"ĠëĤ´ëĭ¤ë´¤ëĭ¤":9350,"íĶĦê°Ģ":9351,"hy":9352,"Ġarrived":9353,"ìĦľìĿĺ":9354,"ĠìĬ¤íĶ¼":9355,"ìĿ¼ë°ĺ":9356,"Ġapproach":9357,"Ġì§Ģê¸Īê¹Įì§Ģ":9358,"writ":9359,"Ġcontrast":9360,"ĠìĭĿë¯¼":9361,"ĠDutch":9362,"ĠìĸĳìĦ±":9363,"Ġìĭ¬ë¦¬":9364,"Ġìĸ´ëłµëĭ¤":9365,"Ġtrue":9366,"Ġêµ´":9367,"Ġprovince":9368,"ĠFIFA":9369,"Ġasked":9370,"amm":9371,"ĠCommission":9372,"uan":9373,"ìĬ´":9374,"ĠìľłìłĦ":9375,"Ġê°ľë°©":9376,"Ġartists":9377,"ĠLos":9378,"Ġbring":9379,"Ġdemand":9380,"Ġstudent":9381,"ĠScot":9382,"Ġì¡°ì¹ĺë¥¼":9383,"nam":9384,"íĳľë¥¼":9385,"\"(":9386,"Ġíİĺë¥´":9387,"ì§Ģê¸°":9388,"ê²łëĭ¤ê³ł":9389,"ĠêµŃë¯¼ìĿĺ":9390,"Ġmedical":9391,"ĠíħĶëłĪë¹ĦìłĦ":9392,"hi":9393,"Ġ1962":9394,"Ġquestion":9395,"Ġactivity":9396,"Ġtherefore":9397,"Ġprofessional":9398,"ĠìĹĨëĭ¤ê³ł":9399,"Ġsens":9400,"ĠPla":9401,"Ġì§Ħíĸīíķĺê³ł":9402,"Ġ57":9403,"ëĭĪì§Ģ":9404,"ëĭ´ë³´":9405,"Ġë½ĳ":9406,"Ġbox":9407,"ĠìĬ¤íģ¬":9408,"ST":9409,"ĠìłķíĻķíķľ":9410,"ê³Ħê°Ģ":9411,"Ġìħ°":9412,"Ġteams":9413,"è¡":9414,"ìłĦìŁģ":9415,"ë¶ĦìĿ´":9416,"Ġìļ°ìĬ¹ìĿĦ":9417,"ìĪĺìļĶ":9418,"Ġìŀ¥ì¹ĺ":9419,"ìĤŃ":9420,"Ġtold":9421,"ì¹ĺíĤ¨":9422,"ĠMexico":9423,"ëĲĺê¸°ëıĦ":9424,"ĠPre":9425,"ĠMod":9426,"Ġëħ¼ëŀĢìĿ´":9427,"ĠRussia":9428,"ĠìĪĺìĤ¬":9429,"Ġregional":9430,"Ġë²¤ì²ĺ":9431,"Ġ58":9432,"ĠíĮ¨ë°°":9433,"ider":9434,"Ġíķĺëĵľ":9435,"Ġappearance":9436,"Ġmakes":9437,"Ġbenef":9438,"êµŃìĿĦ":9439,"Ġauthority":9440,"ĠíĻľìļ©íķł":9441,"ĠMore":9442,"ĠBen":9443,"ws":9444,"Ġê¸°ë°ĺìĿĺ":9445,"ìĿ¼ê³¼":9446,"Ġmathem":9447,"Ġê³¤":9448,"icted":9449,"ĠSouthern":9450,"ĠíĸĪì§Ģë§Į":9451,"ylvan":9452,"Ġíķĺê³Ħ":9453,"Ġëį´":9454,"ĠìķĦì¹¨":9455,"ĠìĥģìĬ¹ìĦ¸ë¥¼":9456,"ĠMass":9457,"Ġë¨¸ë¬¼":9458,"Ġsoldiers":9459,"Ġë§¤ì¶ľìĿĢ":9460,"Ġut":9461,"Ġê´ĢëŀĮ":9462,"cel":9463,"ìĥĿìĿĦ":9464,"cement":9465,"ĠìķĬëıĦë¡Ŀ":9466,"ìŀĦìĬ¤":9467,"akers":9468,"ĠìķĦìĭľ":9469,"Ġrepe":9470,"add":9471,"æĿİ":9472,"Ġrunning":9473,"Ġíİ¼ì³Ĳ":9474,"ĠìĹĨê³ł":9475,"ìĻĢëĬĶ":9476,"ĠìĥĿì¡´":9477,"century":9478,"Ġshare":9479,"ĠDo":9480,"ĠGra":9481,"ëł¤ë©´":9482,"Ġê±°ëĵŃ":9483,"Ġíİ¸ë¦¬":9484,"Ġì¹ĺíĤ¨":9485,"ipl":9486,"ë¬¸íķĻ":9487,"state":9488,"ìĦľë¹ĦìĬ¤ë¥¼":9489,"ette":9490,"Ġìļ°íģ¬ëĿ¼ìĿ´ëĤĺ":9491,"ĠMusic":9492,"ĠíıīíĻĶ":9493,"ĠìĿ´ìľłë¡ľ":9494,"Ġê°ĢìŀħìŀĲ":9495,"ĠìĹħë¬´ë¥¼":9496,"Ġëĭ¹ìĦł":9497,"ĠFred":9498,"Ġentered":9499,"Ġneeded":9500,"Ġ97":9501,"Ġê¸°ê´ĢìĿĢ":9502,"pass":9503,"ìŀĲëıĻì°¨":9504,"house":9505,"Ġê¸°ìĽĲìłĦ":9506,"ê±´ê°ķ":9507,"oned":9508,"ì§Ģë©´":9509,"Ġtowns":9510,"ips":9511,"Ġìľµíķ©":9512,"iverse":9513,"Ġconsists":9514,"ĠOlymp":9515,"ëĶĺ":9516,"ë¹Ľ":9517,"ì·Ħ":9518,"ĠíĺĦíĻ©":9519,"ĠQueen":9520,"Ġê²Ģì¦Ŀ":9521,"Ġoccupied":9522,"Ġê²ĮìŀĦìĿĺ":9523,"Ġ1948":9524,"ëĤĺìĿĺ":9525,"ĠLand":9526,"ê½ĥ":9527,"Ġíķ´ìĸĳ":9528,"Ġì¡°ìłĪ":9529,"Ġresponsible":9530,"Ġê·¸ë¦¬":9531,"ĠíĸīìĤ¬ë¥¼":9532,"ĠìŀħíķĻ":9533,"Ġhelped":9534,"ĠCup":9535,"ervation":9536,"ë¡ľê°Ģ":9537,"ë£¨ìĬ¤":9538,"Ġê·¸ëħĢìĿĺ":9539,"American":9540,"Ġíŀĺìŀħìĸ´":9541,"íĸīìłķ":9542,"Ġtreatment":9543,"Ġturned":9544,"ĠTor":9545,"aily":9546,"ìĦłìĹĲìĦľ":9547,"ëĬĶì§Ģ":9548,"2008":9549,"Ġmanagement":9550,"Ġlove":9551,"ĠìĦłë³´ìĿ¸ëĭ¤":9552,"ëĭ¨ê³¼":9553,"ĠCivil":9554,"ìĦľê°Ģ":9555,"íį¼ëŁ°":9556,"ĠëĴ¤ë¥¼":9557,"ĠìĹ°ëł¹":9558,"Ġì¢ħëª©ìĿĢ":9559,"Education":9560,"Ġê¸°ëĭ¤":9561,"Ġspent":9562,"Ġê³łìľĦ":9563,"ĠêµĲìľ¡ìĿĦ":9564,"ì²łëıĦ":9565,"Ġquickly":9566,"Ġmunicipality":9567,"Ġpresented":9568,"Ġbrief":9569,"íŀĮëĭ¤":9570,"Ġrelatively":9571,"Be":9572,"Ġthous":9573,"Ġíİľ":9574,"izations":9575,"Ġdeclared":9576,"Ġë°©ìĭĿìĿĦ":9577,"Ġdefend":9578,"Ġê¹Į":9579,"Ġreduced":9580,"ìļ°ê³ł":9581,"ë¡ľëıĦ":9582,"ìĽĶë§Ĳ":9583,"Ġcontrovers":9584,"Ġaccepted":9585,"Ã¨":9586,"Other":9587,"íİĺìĿ´ìĬ¤":9588,"ells":9589,"Ġê³Ħê¸°ë¡ľ":9590,"unction":9591,"ê°¤ëŁŃìĭľ":9592,"itt":9593,"Ġì§Ħíĸīíķł":9594,"íĬ¸ìĹĲìĦľ":9595,"Ġ96":9596,"Ġpresence":9597,"ä¸Ń":9598,"Ġissued":9599,"Ġì¡´ìŀ¬íķľëĭ¤":9600,"Ġawarded":9601,"íĶ¼íĥĪ":9602,"ĠSpr":9603,"Ġheart":9604,"Ġëª¨ìķĦ":9605,"Ġsen":9606,"Ġconstitution":9607,"Ġ250":9608,"ĠìĿ¼ìłľ":9609,"Ġfrequently":9610,"Ġë¯¸ìĤ¬ìĿ¼":9611,"di":9612,"Ġê²½ìŁģëł¥ìĿĦ":9613,"ĠìĿ¸ì§Ģ":9614,"ĠëĽ°ìĸ´ëĤľ":9615,"istered":9616,"olid":9617,"Ġìĭľì¤ĳ":9618,"Ġpasseng":9619,"ĠìłĪì°¨":9620,"Ġquar":9621,"Ġhy":9622,"Ġìĸ»ìĿĦ":9623,"ì¦ĪìĿĺ":9624,"¼Ī":9625,"Ġë§Įìķ½":9626,"ĠChicago":9627,"Ġrecords":9628,"ĠAngeles":9629,"ĠMuslim":9630,"Ġjob":9631,"onn":9632,"íĺ¸ìĦł":9633,"ĠëĨįìĹħ":9634,"Ġetf":9635,"Ġpattern":9636,"Ġflo":9637,"ĠìĨįìĹĲ":9638,"ë²Īíĺ¸":9639,"Ġë¥ĺ":9640,"ÑĢ":9641,"ë³´ëĵľ":9642,"ously":9643,"PA":9644,"Ġìľłìĥģì¦Ŀ":9645,"Ġê¸°ëĮĢê°Ĳ":9646,"stein":9647,"Ġadministration":9648,"estic":9649,"Ġaddress":9650,"ĠCreek":9651,"Ġìļ´ìĺģíķĺê³ł":9652,"íİĻ":9653,"Ġì·¨ê¸ī":9654,"ëĺĲíķľ":9655,"Ġdefeated":9656,"ĠFer":9657,"ì§ĦìĿ´":9658,"ĠConf":9659,"ĠPC":9660,"ìĹ°êµ¬ìĨĮ":9661,"ĠìĿ¼ìĥģ":9662,"ëį°ë¯¸":9663,"ĠíĻĺìŀĲ":9664,"Ġoccurred":9665,"ĠDr":9666,"Ġcharg":9667,"å¸":9668,"ìĿ¸êµ¬":9669,"ĠëıĻë§¹":9670,"ĠìļĶë¦¬":9671,"ĠíķĺëĬĶëį°":9672,"ĠëıĻë£Į":9673,"ĠìĽĲê²©":9674,"vert":9675,"Ġëŀľ":9676,"Ġargued":9677,"ĠìłĦìĹŃ":9678,"Ġsexual":9679,"Ġì§ģìĹħ":9680,"ìĪĺìĹĲ":9681,"ëĲĲê³ł":9682,"Ġinfluenced":9683,"Ġëª»íķĺëĬĶ":9684,"Ġefforts":9685,"ìį":9686,"ë²ķìĿĢ":9687,"ìĸ´ìĦľ":9688,"Ġflag":9689,"ìĭľë¶ĢíĦ°":9690,"Ġë©ķìĭľì½Ķ":9691,"anced":9692,"ĠìĤ¬ìļ©íķľ":9693,"Ġìŀ¬ë£Į":9694,"Ġìłľìŀ¬":9695,"ĠìĪĺì¤ĢìĿĦ":9696,"Ġdeep":9697,"ĠìłĦíĮĮ":9698,"Ġknowledge":9699,"Ġlif":9700,"ua":9701,"ĠìĿ¼íĻĺ":9702,"Ġcomposed":9703,"Ġordered":9704,"ìĬ¤íı¬ì¸ł":9705,"Ġlaws":9706,"ê¶ĮìĿĢ":9707,"ĠGo":9708,"Ġìĭľìŀ¥ìĿĢ":9709,"ìĤ°ìĿĢ":9710,"Ġìĵ¸":9711,"ë§¤ë§¤":9712,"Ġconstructed":9713,"Ġguitar":9714,"ê³µê°Ĳìĸ¸ë¡ł":9715,"Ġì¤Ħìĸ´ëĵł":9716,"ibly":9717,"ĠíİĺìĿ´":9718,"Ġê¸°íļĮ":9719,"ĠAut":9720,"ĠTheir":9721,"Ġë¶Ģëĭ´ìĿĦ":9722,"Ġìļ°ìĪĺíķľ":9723,"Ġextended":9724,"Ġ84":9725,"Ġìĭ±ê°Ģíı¬ë¥´":9726,"ì¹´ëĵľëĬĶ":9727,"Ġë°°ìļ°ìĿ´ëĭ¤":9728,"ĠìłĦëħĦëıĻê¸°":9729,"Ġê°Ģê¹ĮìĿ´":9730,"Ġë³´ìĥģ":9731,"phas":9732,"Ġê³łê¸ī":9733,"Ġassum":9734,"ĠMill":9735,"oma":9736,"~)":9737,"Ġê¸īê²©":9738,"Ġface":9739,"ŁìķĦ":9740,"ĠëĤ¨ìª½":9741,"ylvania":9742,"Ġsuggest":9743,"ĠìĦ¸ìĽĮ":9744,"Ġnine":9745,"ë¥ĺìĿĺ":9746,"ê¸°ëĭ¤":9747,"ĠKn":9748,"íĺĶëĭ¤":9749,"ê¸ĪìĿĺ":9750,"Ġmethods":9751,"Ġelectric":9752,"Ġê°ĢìĨį":9753,"urb":9754,"omer":9755,"Ġofficially":9756,"Ġì²łìłĢ":9757,"ĠìĪĺì£¼":9758,"Ġë³´ì¦Ŀ":9759,"Ġdial":9760,"ìĭľìŀ¥ìĹĲ":9761,"Ġprotect":9762,"ĠBrown":9763,"ìĭ±íĦ´":9764,"Ġê·¸ëŀĺíĶ½":9765,"ĠêµĲíĻ©":9766,"ĠAmericans":9767,"ìķ¡ìĿ´":9768,"Ġì¶Ķì²¨":9769,"Ġê°ľë°ľìĿĦ":9770,"Ġêµ¬ì²´ìłģìĿ¸":9771,"ìŀł":9772,"ĠTwo":9773,"ìĭľë¡ľ":9774,"Ġì¶©ì²Ń":9775,"Ġë§ŀìĿ´":9776,"Ġfootball":9777,"Ġê¼Ń":9778,"ĠìĿĺìĭ¬":9779,"Ġì±ħìŀĦìĿĦ":9780,"ĠìłĲëıĦ":9781,"eds":9782,"ĠRob":9783,"Ġsuc":9784,"ĠëĬ¥ëł¥ìĿĦ":9785,"Ġhonor":9786,"itted":9787,"aland":9788,"azz":9789,"ares":9790,"ĠëĮĢìĤ¬":9791,"ê±´ìĿĺ":9792,"Ġprominent":9793,"ĠëĮĢë§Į":9794,"ìĦ±ìľ¼ë¡ľ":9795,"Ġë¯¸ìĦ¸":9796,"Ġíķĺíĸ¥":9797,"Ġë³ĦëıĦìĿĺ":9798,"Ġstreng":9799,"Ġcomment":9800,"ĠìĭľëĮĢìĹĲ":9801,"Ġíĥĵ":9802,"Ġpil":9803,"ëª¨íĨł":9804,"ĠìĪľê°Ħ":9805,"ĠíĶ¼ë¶Ģ":9806,"Ġkbê¸Īìľµ":9807,"ë§ĮìĽĲìĿĺ":9808,"Ġresulted":9809,"ĠìłĦëł¥":9810,"ĠGr":9811,"Ġë§ĽìĿĦ":9812,"Ġsense":9813,"Ġweeks":9814,"Ġìłķë¦¬":9815,"Ġflu":9816,"ì§Ģêµ¬":9817,"ĠCD":9818,"Ġìļķ":9819,"Ġì»¤ë®¤ëĭĪíĭ°":9820,"ĠAustralian":9821,"ĠìĤ¬ëŀĮëĵ¤ìĿĢ":9822,"Ġê¸įìłķìłģìĿ¸":9823,"ëĭ¨ìľ¼ë¡ľ":9824,"Ġfunctions":9825,"ĠìĬ¤ìĽ¨ëį´":9826,"ìĤ¬ìĹħìĿĦ":9827,"ĠGal":9828,"Ġê·¸ëŀĺìĦľ":9829,"ĠëĵĢ":9830,"ĠìłĦìĨ¡":9831,"ĠìĪĺëĬ¥":9832,"aded":9833,"Ġë¶ģë¯¸":9834,"ĠìĨĮìĭĿìĹĲ":9835,"Ġmayor":9836,"íĪ°":9837,"Ġdu":9838,"ĠPrince":9839,"stra":9840,"ìī½":9841,"ë²ĶìľĦ":9842,"ì¿¨":9843,"íĨ¨ë¦Ń":9844,"Ġì£¼íĮĮ":9845,"ĠìłĦëĤ¨":9846,"ëĩ":9847,"ken":9848,"ĠTom":9849,"Ġautom":9850,"Ġmaintain":9851,"ĠÂ£":9852,"¨ëĭ¤":9853,"Ġê²½ìŁģëł¥":9854,"orship":9855,"ĠYear":9856,"Ġ1961":9857,"Ġrecording":9858,"ĠìķĦëĤ´":9859,"Ġë¡Ŀ":9860,"Ġê²°ìĿĺ":9861,"Ġhundred":9862,"Ġì§ĢìŀĲ":9863,"Ġability":9864,"ĠìĻĶ":9865,"íıŃìĿ´":9866,"Ġremoved":9867,"ully":9868,"Ġì¹ł":9869,"Ġmodels":9870,"ĠëĮĢíķ´ìĦľëıĦ":9871,"ĠSur":9872,"ìłķíĨµ":9873,"Ġidentified":9874,"ë¯¼êµŃ":9875,"vement":9876,"ĠìłľìŀĳëĲľ":9877,"ĠëĤĺë¬´":9878,"Ġìłľìłķ":9879,"Ġë³´ê´Ģ":9880,"Ġë³´ìĹ¬ì£¼":9881,"ĠìĨĮìĥģê³µ":9882,"ìĬ¤ëŁ½ê²Į":9883,"ì²´ìĹĲ":9884,"Ġbr":9885,"ĠìĤ¬ëŀĮìĿĦ":9886,"íĺģëªħ":9887,"Ġdrug":9888,"Ġliber":9889,"Ġ1944":9890,"ĠíķĢíħĮíģ¬":9891,"ìĸ´ìķ¼":9892,"ĠBank":9893,"Ġelections":9894,"ìħĶëĦĲ":9895,"ë¬¼ë¡ľ":9896,"Ġì°¸ìĹ¬íķľ":9897,"ì¤Ģë¹Ħ":9898,"Ġë°ĶìĿ´ëŁ¬ìĬ¤":9899,"gram":9900,"Ġscreen":9901,"íķ´ì§Ħ":9902,"ê°ĢìĹĲ":9903,"ĠëŃ":9904,"asty":9905,"ĠíļĮìĤ¬ìĿĺ":9906,"ëĭ¹ìĿ´":9907,"ĠìĦ±ìłģ":9908,"Ġthr":9909,"Ġhouses":9910,"Ġë¶Ģëĵľ":9911,"Ġë¹ĦëĤľ":9912,"urt":9913,"Ġoperating":9914,"Ġcampus":9915,"ĠColumb":9916,"ansas":9917,"Ġreject":9918,"umber":9919,"Ġdedic":9920,"ĠíĨµìĿ¼":9921,"Ġcard":9922,"ĠìĪĺíĺľ":9923,"ĠCat":9924,"ĠUnder":9925,"Ġíľ´ëĮĢíı°":9926,"Ġì¶ľìĭľëĲľ":9927,"ĠDivision":9928,"het":9929,"ë¯¸ëĤĺ":9930,"fficient":9931,"Ġresour":9932,"ĠCla":9933,"Ġë¬¸íķĻ":9934,"Ġaim":9935,"ceeded":9936,"Ġstaff":9937,"ìĹĨëĬĶ":9938,"ĠìķĬìľ¼ë©´":9939,"ìĪĺëıĦ":9940,"Ġcontain":9941,"Ġliterature":9942,"Ġmax":9943,"ìĿĮìķħ":9944,"Ġê³µê²©ìĿĦ":9945,"Ġë¯¸ëĭĪ":9946,"Ġnotable":9947,"ë°ĺëıĦ":9948,"].":9949,"ê³łëĬĶ":9950,"ìĹĪëĬĶëį°":9951,"edom":9952,"Ġdisease":9953,"Ġcitizens":9954,"ëĭ¹íķľ":9955,"ĠKh":9956,"ëªĩ":9957,"Ġcontinue":9958,"Ġê¸ĪìĨį":9959,"ìłķìĿĢ":9960,"Ġdestroyed":9961,"ĠìĽĢì§ģìŀĦ":9962,"Ġmill":9963,"Ġnative":9964,"ĠFre":9965,"ĠìķĦë¦Ħ":9966,"Ġdirection":9967,"ĠWind":9968,"Ġhar":9969,"Ġsecurity":9970,"Ġì½Ķë¡ľëĤĺë°ĶìĿ´ëŁ¬ìĬ¤":9971,"íĻĶìłĲ":9972,"ĠkbêµŃë¯¼":9973,"Ġìĥģëĭ¹íķľ":9974,"Ġfavor":9975,"ĠlgìľłíĶĮëŁ¬ìĬ¤":9976,"Ġsubsequently":9977,"thing":9978,"Ġë¬¸ìĿĺ":9979,"Ġê³µíĻĶêµŃ":9980,"zz":9981,"ĠíķĺëĤĺìĿ´ëĭ¤":9982,"ĠëĮĢíĻĶ":9983,"åŁ":9984,"Ġplans":9985,"Ġimage":9986,"do":9987,"Ġìĺģìĸĳ":9988,"ì±ħìŀĦ":9989,"ĠìľĦìĽĲìŀ¥ìĿĢ":9990,"Ġê·ľëª¨ë¡ľ":9991,"ĠDen":9992,"ĠEmperor":9993,"Ġëħ¸íķĺìļ°":9994,"inated":9995,"Ġleaving":9996,"Ġë°ĺë°ľ":9997,"ĠCE":9998,"Ġdecre":9999,"ĠìĦ±ìļ°":10000,"ĠìĦłì§Ħ":10001,"ìĸ´ìĻĢ":10002,"Ġì¤ĳë°ĺ":10003,"ì§Ŀ":10004,"ĠìĪ«":10005,"íĻľëıĻìĿĦ":10006,"vis":10007,"ìĸĢ":10008,"aught":10009,"Ġportion":10010,"ĠìĿ¸ëł¥":10011,"Ġê¹ĬìĿĢ":10012,"Ġcombined":10013,"Ġedition":10014,"Ġraised":10015,"atur":10016,"Ġìļ´ìĨ¡":10017,"ĠëĮĢë¦¬":10018,"Ġprobably":10019,"Ġêµ¬ìĦ±ëĲĺìĸ´":10020,"īìĿĢ":10021,"Ġìĩ":10022,"Ġgrew":10023,"ĠëĮĢíķĺìĹ¬":10024,"Ġëĭ¨ë°±":10025,"Ġì£¼ìĭĿìĿĦ":10026,"Ġagreement":10027,"Ġplanned":10028,"Ġì¡°íļĮ":10029,"Ġparties":10030,"Ġë¶Ħìķ¼ìĿĺ":10031,"Ġëħ¹ìĿĮ":10032,"ĠìĤ¬ëŀĮìĿĺ":10033,"Ġê¸°ë¡ĿìĿĦ":10034,"ê±°ëŀĺìĨĮ":10035,"ĠìķĦìļ°":10036,"ĠPublic":10037,"ĠìķĻ":10038,".âĹİ":10039,"Ġanalysis":10040,"Ġpositive":10041,"ĠJust":10042,"ĠìłĢíķŃ":10043,"ĠìĹ¬íĮĮ":10044,"Ġíı°":10045,"ĠGovernment":10046,"imal":10047,"Ġcritical":10048,"Ġë¶Ģë¥´":10049,"Ġcreation":10050,"ìĬ¹ìĿĦ":10051,"Ġceo":10052,"ĠìĦľìĭĿ":10053,"Ġyet":10054,"Ġë°©íĸ¥ìľ¼ë¡ľ":10055,"ëłĪìĿ¼ë¦¬ìķĦ":10056,"ëĮ":10057,"play":10058,"ĠìŀĳëħĦ":10059,"Ġê¶¤":10060,"Ġinn":10061,"ëĬĦ":10062,"Ġë¶Ģì±Ħ":10063,"aging":10064,"Ġcoal":10065,"ĠìłľìĿ¼":10066,"Ġtakes":10067,"íģ¬ëĬĶ":10068,"Ġë¶ģìª½":10069,"ca":10070,"ìķ¡ìĿĦ":10071,"âĨĴ":10072,"Ġcells":10073,"ìłľìĻĢ":10074,"SS":10075,"ë§ĿìĿĦ":10076,"Ġarrest":10077,"Ġbelief":10078,"uman":10079,"ĠìĹ¬ìĿĺ":10080,"ĠìĨįíķĺëĬĶ":10081,"Ġsurrounding":10082,"ĠBoth":10083,"Ġê¸°ë¡Ŀíķĺë©°":10084,"2009":10085,"ĠìłĦëŀµìĿĦ":10086,"Ġflight":10087,"íĻĶíķľ":10088,"ê¹¨":10089,"Ġ66":10090,"cher":10091,"Ġsaying":10092,"Ġë³¸ê²©ìłģìĿ¸":10093,"ias":10094,"Ġstay":10095,"Ġcapac":10096,"oles":10097,"ì¯":10098,"Ġìłķë¹Ħ":10099,"Ġcollabor":10100,"ì¹´ìĻĢ":10101,"Some":10102,"Ġê¸°ìĪłìĿ´":10103,"Ġì¸µ":10104,"Ġíı¬ê¸°":10105,"adium":10106,"Ġri":10107,"Ġìĺ¬ëŀĲ":10108,"Ġê°ĲëıħìĿĺ":10109,"ê°ľíĺģ":10110,"Ġìĥģíĥľëĭ¤":10111,"Ġìĺµ":10112,"ìĪĺìĻĢ":10113,"ga":10114,"Ġlic":10115,"Ġë¶Ħëªħ":10116,"ë¬¸ìĿĢ":10117,"Ġamb":10118,"ĠíĿĺ":10119,"Ġhyp":10120,"ĠJersey":10121,"Ġì±Ħë¬´":10122,"Ġê°Ģë¡ľ":10123,"ëĲĺìĹĪëįĺ":10124,"luding":10125,"Ġì²´íı¬":10126,"lander":10127,"ë¦¬ìĹĦ":10128,"ĠìĹ°ê·¹":10129,"Ġìłľì¡°ìĹħ":10130,"Ġê¸ĪìľµìľĦ":10131,"ĠìĦłìĪĺê¶Į":10132,"ĠìŀĲìĭłìĿĦ":10133,"ĠìĹŃëŁīìĿĦ":10134,"shire":10135,"Ġstories":10136,"ë¦¬ì¸ł":10137,"ê±´ìĿ´":10138,"ĠMartin":10139,"Ġrespectively":10140,"ĠDemocratic":10141,"ìĻ¸ë¶Ģ":10142,"Ġìĭľê¸°ìĹĲ":10143,"Ġstarting":10144,"Ġìĺ®ê²¨":10145,"Ġìĭ¤ì²ľ":10146,"Ġíĺĳìķ½":10147,"Ġleaders":10148,"Ġels":10149,"ĠDespite":10150,"Ġ1941":10151,"ìĤ¬ëĵ¤ìĿĢ":10152,"ump":10153,"íĤ¤ìķĦ":10154,"ìĭłìĿĺ":10155,"Ġìį¨":10156,"ĠMa":10157,"ala":10158,"íĦ°ëĬĶ":10159,"Ġê°ĲìĹ¼ì¦Ŀ":10160,"ë§ĪìĿ´":10161,"Ġì§§ìĿĢ":10162,"Ġë³´ìĻĦ":10163,"ĠBook":10164,"ĠìĪĺë¹Ħ":10165,"\";":10166,"Ġcontact":10167,"ĠëĲĲ":10168,"ìĭ¬ìĤ¬":10169,"Ġëĭ¹ë¶Ģ":10170,"Ġëĭ¤ê°Ģ":10171,"Ġworkers":10172,"ì¸µìĿĺ":10173,"ë°ľìłĦ":10174,"ĠíĭĢ":10175,"ĠKe":10176,"ê¸Īë¦¬ë¥¼":10177,"ittle":10178,"Ġcontribut":10179,"Ġëĭ¤ìĪĺ":10180,"íģ´ëŁ½":10181,"iform":10182,"ĠíĺĲìĿĺë¡ľ":10183,"Ġvotes":10184,"cont":10185,"ë§ĪìĬ¤":10186,"Ġextra":10187,"Ġtarget":10188,"ĠìĤ¼ìĦ±ìłĦìŀĲëĬĶ":10189,"ĠëıĻëĤ¨":10190,"Ġê°Ģë¦¬íĤ¨ëĭ¤":10191,"ĠVirginia":10192,"BM":10193,"isms":10194,"ĠìĿ´ìĬ¬ëŀĮ":10195,"gian":10196,"Ġflow":10197,"ê±´ìľ¼ë¡ľ":10198,"ì¤ĳê³µìĹħ":10199,"ĠìĪĺìĹ¬":10200,"ì°Į":10201,"Ġê²½ìļ°ëıĦ":10202,"ĠìłĪëĮĢ":10203,"ĠRecords":10204,"Ġavoid":10205,"ëłĢ":10206,"ä¹":10207,"Ġëħ¸ìĺĪ":10208,"Ġì»¸":10209,"Ġëĭ´ë³´":10210,"ĠAnother":10211,"ried":10212,"osen":10213,"Ġëĭ¹ê¸°ìĪľìĿ´ìĿµìĿĢ":10214,"Ġë²ķìłģ":10215,"Ġcerem":10216,"Ġnews":10217,"earch":10218,"Ġlabor":10219,"ĠFestival":10220,"ĠBas":10221,"Ġìī½ì§Ģ":10222,"ìŀĲìĽĲ":10223,"ë¯¸ìĪł":10224,"Ġgoing":10225,"ĠìŀĪìĹĪì§Ģë§Į":10226,"Ġscript":10227,"Ġì¤ĳìĹĲìĦľ":10228,"Ġë¿Į":10229,"Ġì¤Ģëĭ¤":10230,"Ġêµ¬ì¡°ë¥¼":10231,"Ġund":10232,"Ġsimply":10233,"æ³":10234,"ĠSir":10235,"ë¸ĮëĿ¼":10236,"ë§Įìľ¼ë¡ľ":10237,"ĠJes":10238,"ĠìĨįëıĦ":10239,"Ġìĥģëĭ¹íŀĪ":10240,"Ġê³µë¶Ģ":10241,"ĠìŀĳíĴĪìĿĦ":10242,"Ġexpanded":10243,"oted":10244,"ìĨĮë¡ľ":10245,"Ġìłģê·¹ìłģìĿ¸":10246,"ë£©":10247,"ĠDis":10248,"ì»¤íĶ¼":10249,"ìĹĲëĦĪì§Ģ":10250,"ì§ĪíĻĺ":10251,"bur":10252,"Ġapplied":10253,"¾¼":10254,"ĠSum":10255,"Ġscene":10256,"Ġì¶ľìĭľíķľ":10257,"Ġìľłë°ľ":10258,"ëĿ½ìĿĦ":10259,"ĠìĦĿìľł":10260,"ìĤ¬ì¹´":10261,"Ġspirit":10262,"arden":10263,"Ġëª¨ëĭĪíĦ°ë§ģ":10264,"ê´ĢìĹĲìĦľ":10265,"ëĦĲë¦¬ìĬ¤íĬ¸":10266,"Ġfigure":10267,"±Ģ":10268,"ĠìĤ°íķĺ":10269,"gress":10270,"ĠìĤ¬ìĿ´ë²Ħ":10271,"rical":10272,"Ġê´Ģëł¨íķľ":10273,"Ġì´Ŀê´Ħ":10274,"Ġkm":10275,"onent":10276,"Ġcollect":10277,"Ġdead":10278,"Ġrailway":10279,"ë³´ìķĪ":10280,"Ġ1956":10281,"ë¶ĦìĦĿ":10282,"izes":10283,"ìĭłìĿ´":10284,"ì½Ķëĵľ":10285,"Ġquality":10286,"íģ¬ë¡ľ":10287,"Ġë¶ķê´´":10288,"Ġaband":10289,"Ġprime":10290,"Ġplaces":10291,"ìĤ°ìĿĺ":10292,"Ph":10293,"ìĭľìĻĢ":10294,"ìĿ¸ëĵ¤ìĿĺ":10295,"ĠìŀĲëŀĳ":10296,"Ġrise":10297,"Ġì½©":10298,"From":10299,"Ġexpansion":10300,"wan":10301,"íĦ°ë¥¼":10302,"ĠìłľìĭľíĸĪëĭ¤":10303,"water":10304,"ìĿ¼ê°Ħ":10305,"sylvania":10306,"Ġmis":10307,"Ġìĭľìĥģ":10308,"ĠìĿ´ê°ĻìĿ´":10309,"Ġë¯¸êµŃê³¼":10310,"ĠLater":10311,"ĠìĨĮë°©":10312,"Ġanimals":10313,"ĠíĥĦìĥĿ":10314,"Ġnuclear":10315,"ì»·":10316,"ocated":10317,"ç¥":10318,"isters":10319,"ĠëĨĵê³ł":10320,"ĠëĤ³":10321,"Ġëħ¸ìĦł":10322,"Ġpra":10323,"ĠìķĮëłī":10324,"Ġopposed":10325,"Ġ1958":10326,"ĠìĪĺìĿµë¥ł":10327,"Ġvictory":10328,"æł":10329,"Ġë©¸":10330,"Ġmess":10331,"Pro":10332,"ê¸ĪìĨį":10333,"Ġ1946":10334,"ĠFlor":10335,"luded":10336,"ĠìĹĺë¦¬":10337,"Ġsns":10338,"born":10339,"ĠíĥĢìĿ´íĭĢ":10340,"ĠTimes":10341,"gend":10342,"Ġëĸ¨ìĸ´ì¡Įëĭ¤":10343,"Ġcurrently":10344,"ĠìĦłë³´ìĺĢëĭ¤":10345,"ì§ĦìĿĢ":10346,"Ġ63":10347,"ĠSenate":10348,"()":10349,"Ġë®¤ì§Ģì»¬":10350,"ĠãĢİ":10351,"One":10352,"Ġëį¸":10353,"íĿĺ":10354,"ê²½ì°°":10355,"ĠìĨĲíķ´":10356,"Ġshot":10357,"ëģĶ":10358,"Ġemphas":10359,"Ġìĺ¬ëł¸ëĭ¤":10360,"ëĿ¼ë¹ĦìķĦ":10361,"ĠìĦłìĪĺìĿ´ëĭ¤":10362,"ë¯¸ë¥¼":10363,"Ġmemory":10364,"íķ¨ìĿ´":10365,"ĠìĤ¬ëĬĶ":10366,"ìĹĳ":10367,"Ġìŀ¬ëĤľ":10368,"oured":10369,"ĠíĴįë¶Ģíķľ":10370,"ĠCommittee":10371,"ìĿ´ëįĺ":10372,"ê°ľìĿ¸":10373,"êµ°ê³¼":10374,"obile":10375,"Ġpoll":10376,"Ġconflict":10377,"ĠĠĠĠĠĠĠĠĠĠĠ":10378,"Ġsettled":10379,"æ´":10380,"ë¹ĦíĬ¸":10381,"Ġfinally":10382,"Ġmm":10383,"ĠìĿĮë£Į":10384,"Ġhydro":10385,"ety":10386,"Ġslow":10387,"ĠìĭľìłĲ":10388,"Ġê²½ìłľìłģ":10389,"Ġë¹ļ":10390,"osis":10391,"ĠíķĦë¦¬íķĢ":10392,"Ġìŀħëł¥":10393,"Ġë§Įëĵ¤ê³ł":10394,"Ġë¶Ģìĥģ":10395,"Ġê³µíĨµ":10396,"ĠëĤĺìĻĢ":10397,"Ġë¹łìł¸":10398,"Ġancest":10399,"Ġê³łê°ĿìĿĦ":10400,"Ġrules":10401,"Ġwinter":10402,"Ġìĺ¬ë¦¬":10403,"ìĿ´ëĦĪ":10404,"Ġairport":10405,"Ġec":10406,"ricts":10407,"Ġíĺ¼ëŀĢ":10408,"irl":10409,"inger":10410,"Ġë·":10411,"Ġìĺ¤íĶ¼ìĬ¤":10412,"odies":10413,"ĠìĿ´ìĸ´ì¡Įëĭ¤":10414,"Ġì§ĢìłĲ":10415,"ĠìľĦê¸°":10416,"ëĵ±ë¡Ŀ":10417,"ĠJud":10418,"ĠìłĦíķ´":10419,"Ġì§ĳíķ©":10420,"Ġë°ľìĥĿíĸĪëĭ¤":10421,"oir":10422,"Ġ800":10423,"Ġclaims":10424,"Ġë³¸ê²©ìłģìľ¼ë¡ľ":10425,"Le":10426,"bl":10427,"Ġì¦Ŀëªħ":10428,"Ġê¸°ë¡Ŀíķĺê³ł":10429,"ĠìĦľë¶Ģ":10430,"ìŀĲë£Į":10431,"abeth":10432,"Ġë©Ģíĭ°":10433,"Ġë°ĿíŀĮ":10434,"Ġsports":10435,"Ġì£¼ìµľ":10436,"Ġrefused":10437,"ĠskíķĺìĿ´":10438,"Ġë§ĪìĿĮìĿĦ":10439,"ìĹ°ìĿĦ":10440,"ĠìĺĨ":10441,"Ġíķ©ê²©":10442,"Ġgender":10443,"Ġ1939":10444,"Ġë¹ĦíĬ¸ì½Ķ":10445,"kg":10446,"Ġìľłì§Ģíķĺê³ł":10447,"Ġìłľëª©":10448,"Ġimmediately":10449,"Ġì»¨ìĦ¤íĮħ":10450,"Ġì§ĢìĹŃìĿĢ":10451,"Ġmarked":10452,"ê¸°ìłķíĨµ":10453,"ì¦Īë¥¼":10454,"ĠìĹ°ê´Ģ":10455,"Ġë³¸ë¶Ģ":10456,"ura":10457,"Ġíı¬íķ¨ëĲľëĭ¤":10458,"ĠíĻĶìŀ¥íĴĪ":10459,"Ġìľłê¸°":10460,"ĠìĿ´ëģĦëĬĶ":10461,"Ġ1900":10462,"íı´ë¦¬ìĺ¤":10463,"ĠëĬĲëĤĦ":10464,"ano":10465,"Ġê±±":10466,"ì±ĦëĦĲ":10467,"Ġrecover":10468,"ëłĽ":10469,"ĠëĿ¼ëĶĶìĺ¤":10470,"ìĭ¬ìĿĺ":10471,"Ġìĸ¼ë§ĪëĤĺ":10472,"ĠìĤ´íķ´":10473,"Ġê³µëŀµ":10474,"Ġë©ľ":10475,"Ġderived":10476,"ady":10477,"Ġìłľê³ł":10478,"Ġë©ĶìĿ¸":10479,"verse":10480,"ube":10481,">.":10482,"PS":10483,"Ġê·¸ëŁ°ëį°":10484,"ëĿ¼ìĿ´ë¸Į":10485,"ĠÂ·":10486,"Ġgranted":10487,"Ġwriter":10488,"ìĪŃ":10489,"Ġë¹Ħìļ©ìĿĦ":10490,"ìĿ´ëĿ¼ë©´":10491,"ĠëĤ´ìļ©ìĿ´":10492,"ħìĬ¤":10493,"Ġê²ĮìŀĦìĿĢ":10494,"Ġcru":10495,"Ġattended":10496,"Ġbranch":10497,"Ġattention":10498,"íĻĶíķĺëĬĶ":10499,"Ġë¹Ħìľ¨":10500,"ë²ķìĿ´":10501,"ĠìĭŃ":10502,"ì¡°ì§ģ":10503,"Ġì§ĦíĸīëĲľ":10504,"Ġ1959":10505,"Ġglobal":10506,"Ġå":10507,"Ġsymbol":10508,"Ġì²´ê²°íĸĪëĭ¤ê³ł":10509,"Ġjournal":10510,"Ġê°ĢëŁī":10511,"ĠíĥĢê³ł":10512,"Ġbackground":10513,"Ġìļ´ìłĦ":10514,"ĠìĿ¼ìĸ´ëĤľ":10515,"ĠëĮĢíĳľìĿ´":10516,"Ġê³¨íĶĦ":10517,"ĠìĺĪìĥģíĸĪëĭ¤":10518,"Ġexpected":10519,"ê°ľê°Ģ":10520,"ì¶ľìĿĦ":10521,"Ġë¡ľìĬ¤":10522,"ĠëĨĴìĿ´ëĬĶ":10523,"íĻĢëĶ©":10524,"ì©":10525,"Ġbridge":10526,"ĠìĦľë¹ĦìĬ¤ëĬĶ":10527,"ĠìĦ¤ë¦½ëĲľ":10528,"uate":10529,"Ġcontent":10530,"Ġìĺ¤ìĬ¤íĬ¸ë¦¬ìķĦ":10531,"ĠSecret":10532,"Ġast":10533,"Ġ72":10534,"Ġfollows":10535,"ĠìłģìŀĲ":10536,"Ġreligion":10537,"êµĲìľ¡ì²Ń":10538,"Ġíİ¸ìĦ±":10539,"ĠëĤĺëĬĶ":10540,"uls":10541,"Ġreign":10542,"Ġplants":10543,"Ġëĭ¬íķľëĭ¤":10544,"ĠìĭľìŀĳëĲľ":10545,"ë¶Ħê°Ħ":10546,"Ġì§ĢìĽĲíķł":10547,"Ġì¢ħëª©ìĿ´":10548,"Ġìĭłìļ©ì¹´ëĵľ":10549,"Ġê³³ìĹĲ":10550,"Ġì¼ĢìĿ´ë¸Ķ":10551,"ì§Ģíĳľ":10552,"Ġê¸°ìŀ¬":10553,"ĠìŀĪìĿĮìĿĦ":10554,"Ġíĳľê¸°":10555,"ëªħê³¼":10556,"nding":10557,"ìłķì¹ĺ":10558,"ë¥ĺìĹĲ":10559,"Ġgained":10560,"ĠëĤ¨ìĿĢ":10561,"Ġearliest":10562,"ĠFilm":10563,"ĠêµĲíļĮ":10564,"Ġbelong":10565,"ĠìĿ´ì£¼":10566,"ĠíĿ¡ìĪĺ":10567,"Ġcorn":10568,"Ġ*":10569,"ĠLong":10570,"ĠêµŃë¯¼ìĹ°ê¸Ī":10571,"ëĵ¬íķ´":10572,"ĠìĽĲìŀĳ":10573,"Ġrecognized":10574,"ìĭľê¹Įì§Ģ":10575,"ĠDNA":10576,"ĠBill":10577,"Ġorganized":10578,"ĠìĭłìŀĦ":10579,"Ġë°ĶëĿ¼":10580,"Ġarticle":10581,"itable":10582,"Ġacquired":10583,"ĠìĸĳìŀĲ":10584,"Ġ1942":10585,"Ġopposition":10586,"Ġgrowing":10587,"ê´ĢìĿĺ":10588,"ĠìŀĲê·¹":10589,"yond":10590,"Ġ1949":10591,"Ġë³ĳìĽĲ":10592,"âĢľ":10593,"ĠìĦłë°ķ":10594,"Ġìĭ¬ê°ģíķľ":10595,"Ġgovernor":10596,"Ġbord":10597,"ĠìĻ¼":10598,"ĠLibrary":10599,"Ġë§Įíķľ":10600,"Ġvalues":10601,"ĠCO":10602,"Ġlabel":10603,"Ġserves":10604,"Ġwithd":10605,"ownt":10606,"Ġupper":10607,"Ġëĭ¨ìĪľíŀĪ":10608,"Ġê°ĢìĿ´ëĵľ":10609,"Ġpresidential":10610,"mond":10611,"Ġê°Ħëĭ´":10612,"ëħĦëıĦ":10613,"ĠJohnson":10614,"Ġê°ľìŀħ":10615,"Ġperman":10616,"ili":10617,"Ġcarri":10618,"ë¦¬íı¬ëĭĪìķĦ":10619,"Ġìľłíļ¨":10620,"ĠíĻĺê²½ìĿĦ":10621,"ìĹ½":10622,"Ġdouble":10623,"ëĲĺìŀĲ":10624,"Ġtrain":10625,"ĠPortug":10626,"åŃ¸":10627,"Ġsister":10628,"Ġê³µìĤ¬":10629,"Ġëĭ¤ìĿĮìĿĦ":10630,"Ġheadquar":10631,"ĠíĮĮìĥĿ":10632,"Ġindependence":10633,"Ġformal":10634,"2007":10635,"ented":10636,"With":10637,"Ġhere":10638,"Ġìĺ¬íķ´ëĬĶ":10639,"ĠìĬ¤ìľĦìĬ¤":10640,"MS":10641,"ìĶ¨ìĿĺ":10642,"ìĦľë¡ľ":10643,"ĠìĭľëĮĢìĿĺ":10644,"ĠëıĻìª½":10645,"Ġarms":10646,"ba":10647,"Ġ700":10648,"æĽ":10649,"Ġê²½ê³ł":10650,"ĠëıħìĿ¼ìĿĺ":10651,"des":10652,"Ġdia":10653,"bp":10654,"íĨłë¦¬":10655,"Ġalongside":10656,"Ġtable":10657,"Ġë¶Ģëĭ´ìĿ´":10658,"ĠìŀĦê¸Ī":10659,"Ġserving":10660,"Ġdistance":10661,"Ġë§ĪìĿ´íģ¬ë¡ľìĨĮíĶĦíĬ¸":10662,"2022":10663,"outheast":10664,"ìĦ¸ìĿ´":10665,"Ġë³µì§Ģ":10666,"ê°Ģìŀħ":10667,"ĠìĹ´ìĸ´":10668,"Ġblue":10669,"Ġìļ°ë¦¬ê°Ģ":10670,"Ġë°ĿíŀĪ":10671,"Ġconnected":10672,"Ġsolid":10673,"Ġê°¤ëŁŃìĭľs":10674,"Ġconducted":10675,"ìĤ¬ëŀĳ":10676,"Ĳìķ¼":10677,"ĠLee":10678,"ìŀĲëĵ¤":10679,"ĠìłĲìłĲ":10680,"Ġì²´íģ¬":10681,"Ġprovin":10682,"Ġë°°íı¬":10683,"ëĭ¨ì§Ģ":10684,"Ġì°¨ì§ĢíķĺëĬĶ":10685,"rence":10686,"Ġëļľ":10687,"Ġê·¸ê³³":10688,"ì¤ĳìĿ´ëĭ¤":10689,"aped":10690,"Ġfelt":10691,"Ġíķ´ìĦľ":10692,"ĠPennsylvania":10693,"ĠMel":10694,"lines":10695,"ë°©íĸ¥":10696,"Ġreference":10697,"Ġíķĺë©´ìĦľ":10698,"ìĮ":10699,"Ġ62":10700,"Ġchart":10701,"ĠìłĦë¬¸ê°Ģëĵ¤ìĿĢ":10702,"ĠZealand":10703,"Ġìĥģê´Ģ":10704,"ìĹħê³ĦìĹĲ":10705,"Ġ1947":10706,"eding":10707,"Ġê°Ģì¡Įëĭ¤":10708,"Ġì¡°ìķ½":10709,"Ġ88":10710,"ì¡°ê±´":10711,"Ġrot":10712,"Ġdim":10713,"ĠëĮĢíĳľíĮĢ":10714,"ê³Ħì¢Į":10715,"Ġì§ĵ":10716,"ë¥ĺê°Ģ":10717,"Ġê²°ìłķíĸĪëĭ¤ê³ł":10718,"FL":10719,"ĠëĮĢíļĮìĹĲìĦľ":10720,"Ġsoftware":10721,"ĠìĭłíĿ¥":10722,"Ġsimple":10723,"ĠAdd":10724,"ìĥģìĬ¹":10725,"Ġpun":10726,"Ġíķľë¯¸":10727,"ìĿĺë£Į":10728,"ĠíĶĮëŀĺ":10729,"Ġ68":10730,"Ġspeech":10731,"ĠëıħíĬ¹":10732,"ĠíıĲìĩĦ":10733,"ìĤ¬ëł¹":10734,"ëĿ¼íģ¬":10735,"Ġallowing":10736,"ĠìĥĿë¬¼":10737,"aling":10738,"íĶĦëĿ¼ìĿ´":10739,"ĠìĪĺê¸ī":10740,"ĠOtt":10741,"ĠGre":10742,"Ġíĺĳëł¥ìĿĦ":10743,"Ġshowed":10744,"ĠíĶ¼ìķĦ":10745,"Ġtheore":10746,"ĠíĤ¤ìĽĢ":10747,"ĠAD":10748,"ĠNot":10749,"Ġacadem":10750,"Ġgiving":10751,"iques":10752,"vin":10753,"Ġadult":10754,"íĺķìĿĺ":10755,"Ġpal":10756,"ì¢ħìĿ´":10757,"onia":10758,"gal":10759,"Ġserious":10760,"ĠService":10761,"íĮ¡":10762,"ĠMain":10763,"Ġscientific":10764,"ĠìłĪì°¨ë¥¼":10765,"Ġmile":10766,"ĠìłĲíı¬":10767,"Ġnecessary":10768,"ĠëĤ´ìĦ¸":10769,"Ġfigures":10770,"rong":10771,"ì¹ľëĭ¤":10772,"Ġê³µê³µê¸°ê´Ģ":10773,"ĠìĿ´ë¦ĦìĿ´":10774,"Ġpowers":10775,"ë²ĦíĬ¸":10776,"Ġìľłë£Į":10777,"Ġíĳľë©´":10778,"ìĿ¸ë¯¼ê³µíĻĶêµŃ":10779,"ss":10780,"lection":10781,"ĠInc":10782,"Ġë´īìĤ¬":10783,"ë©ĶìĿ´":10784,"Ġmatter":10785,"Ġê·ľì¹Ļ":10786,"ê²łì§Ģë§Į":10787,"Ġ{":10788,"Ġìļ°ë¦¬ëĬĶ":10789,"Ġëĭ¤ë¥´ëĭ¤":10790,"íļĮê³Ħ":10791,"ì²´ë¡ľ":10792,"ìļ©ìľ¼ë¡ľ":10793,"Ġofficers":10794,"Ġìŀ¬ì§ģ":10795,"ëĶĶì§ĢíĦ¸":10796,"ëĶ°ëĿ¼":10797,"ĠíķĺëĤĺëĬĶ":10798,"Ġì°¨ìĽĲìĹĲìĦľ":10799,"ĠRom":10800,"range":10801,"ĠViet":10802,"Ġë¶ģë¶Ģ":10803,"ĠMu":10804,"ĠìĿ¸ë¯¼":10805,"ĠClass":10806,"Ġversions":10807,"Ġfell":10808,"AR":10809,"ĠìľĦìķĪ":10810,"ĠIslander":10811,"Ġadapt":10812,"zil":10813,"Ġë³´ëĭĪ":10814,"Ġê°ľë§ī":10815,"ĠëłĪë²¨":10816,"ĠìĦľìª½":10817,"ĠëĮĢë³Ģ":10818,"Ġnort":10819,"db":10820,"ĠíĮĢìĿĺ":10821,"ĠíĮ¨íĦ´":10822,"Ġrecomm":10823,"ĠìµľìĦłìĿĦ":10824,"ĠìľĦì¹ĺíķ´":10825,"Ġì§ĢíĤ¤":10826,"VD":10827,"¬ëĭ¤":10828,"iana":10829,"ĠPan":10830,"ê¾¸":10831,"Ġìŀ¬ìĤ°":10832,"íĪ¬ìĬ¤":10833,"Ġë¶Ģìĭ¤":10834,"IS":10835,"low":10836,"ounds":10837,"éĸ":10838,"Ġ67":10839,"type":10840,"ìĤ¬ëĵ¤ìĿĺ":10841,"ê°ľìĦł":10842,"Ġaspect":10843,"ĠJul":10844,"Ġpeak":10845,"urches":10846,"ĠêµŃê°ĢìĿĺ":10847,"inate":10848,"ë¬´ìĹŃ":10849,"Ġëĸ¨ìĸ´ìł¸":10850,"ĠëĮĢíĨµëł¹ìĿĺ":10851,"Ġê°Ģêµ¬":10852,"Ġ1957":10853,"pret":10854,"íĽĪëł¨":10855,"ructure":10856,"Ġë¬´ê²Į":10857,"ìĺ¨ìĿĢ":10858,"Ġíľ":10859,"ervative":10860,"raq":10861,"Ġê¶Įê³ł":10862,"ĠìĿ´ì§ĳ":10863,"Ġë§ŀì¶Ķ":10864,"Ġconstant":10865,"ĠìĤ¬íĽĦ":10866,"Ġstra":10867,"éĽ":10868,"ĠìĬ¤íĬ¸ë¦¬":10869,"wise":10870,"gu":10871,"Ġë°´":10872,"Ġsqu":10873,"ë³´ê¸°":10874,"Ġcondition":10875,"ĠìķĮíĮĮ":10876,"íĸĪìĬµëĭĪëĭ¤":10877,"Ġè":10878,"Ġê²Įìĭľ":10879,"Ġì¶ľìĥĿ":10880,"Ġiot":10881,"ê´ĢìĹĲ":10882,"Ġì¤":10883,"ãĢĭ,":10884,"Ġì§ĦíĸīíĸĪëĭ¤":10885,"ii":10886,"Ġcovered":10887,"Ġìłĳì´ī":10888,"ĠBet":10889,"ëĭ·":10890,"íİł":10891,"ì¹ĺìĹĲ":10892,"Ġë¡¤":10893,"ìĤ°íĻĶ":10894,"ĠDou":10895,"ê¸Īìķ¡ìĿĢ":10896,"ĠArea":10897,"Ġì£Ħ":10898,"Ġsites":10899,"Ġ61":10900,"Ġdecades":10901,"Ġinspired":10902,"ĠEr":10903,"Ġparents":10904,"Ġfully":10905,"Ġ1955":10906,"ĠJews":10907,"Ġpolitics":10908,"Ġì§Ģìĸ´":10909,"Ġíĺĳìĥģ":10910,"Ġattra":10911,"ait":10912,"ographic":10913,"Ġëħ¸ë¥´":10914,"formed":10915,"Ġattempted":10916,"Ġíı¬ë¥´íĪ¬":10917,"Ġë°©ìĤ¬":10918,"ĠMcC":10919,"ĠDuke":10920,"íķĺëĭ¤ê°Ģ":10921,"Des":10922,"Ġëħ¸íĽĦ":10923,"ĠëĮĢë¥Ļ":10924,"Ġê¸°íļĮê°Ģ":10925,"Ġ94":10926,"Ġaged":10927,"ì¡Įìľ¼ë©°":10928,"Ġíı¬íķ¨ëĲľ":10929,"Ġê°ĢíĨ¨ë¦Ń":10930,"Ġcharge":10931,"oud":10932,"ĠíļĮìŀ¥ìĿ´":10933,"Ġtwent":10934,"Ġpartn":10935,"miss":10936,"Ġì§ģìłĦ":10937,"ìłķë¶Ģê°Ģ":10938,"ê³łê¸°":10939,"ìķĪíĥĢ":10940,"ĠEv":10941,"Ġenem":10942,"ĠSo":10943,"Ġdamage":10944,"mas":10945,"ëĮĢìłĦ":10946,"Ġê³łëıĦ":10947,"ĠíĮ¨ìħĺ":10948,"Ġextend":10949,"Ġfeel":10950,"íĺķìĿ´":10951,"ĠìĻ¸êµŃìĿ¸ìĿ´":10952,"Ġìĸ»ìĹĪëĭ¤":10953,"ì¡°ìĹĲ":10954,"Ġì°¸ìĹ¬íĸĪëĭ¤":10955,"Ġoldest":10956,"Ġpack":10957,"íİ¸ìĿĺ":10958,"ĠëĤĺíĥĢëĤ´ê³ł":10959,"Ġíı¬ì§Ģ":10960,"Ġmathemat":10961,"Ġì´Īì²Ń":10962,"ê°ĢìĬ¤":10963,"EFA":10964,"Ġì«":10965,"Ġsplit":10966,"Ġmuseum":10967,"Ġíķ´ìķĪ":10968,"Ġequal":10969,"íĥĢìĿ´":10970,"ëĲĺìĹĪì§Ģë§Į":10971,"æĹ":10972,"2006":10973,"íĶĦëŀĳ":10974,"Ġì°¨ìĦ¸ëĮĢ":10975,"ĠëıĻê³Ħ":10976,"Ġmyth":10977,"nh":10978,"ĠìĨĮìħľ":10979,"Ġìļ¸ìĤ°":10980,"ĠìŀĳìłĦ":10981,"ĠíĨµìĥģ":10982,"ë°Ķë¡ľ":10983,"Ġallows":10984,"Ġê°ĢëĬ¥íķĺë©°":10985,"ĠìĿĺë¯¸ë¥¼":10986,"ternet":10987,"Ġartist":10988,"Ġrailroad":10989,"Ġê°ľë°ľìĹĲ":10990,"Ġê·¸ëł¤":10991,"Ŀê°Ģ":10992,"ache":10993,"ìĭ¤ìłģ":10994,"Ġëĭµë³Ģ":10995,"æµ":10996,"ĠìķĦìĿ¼ëŀľëĵľ":10997,"Ġcontext":10998,"Ġê³µíı¬":10999,"ĠìłľìĻ¸íķĺê³ł":11000,"íĶĦë¥¼":11001,"sex":11002,"Ġideas":11003,"Ġ93":11004,"ĠìķĦíĤ¤":11005,"ĠìĦ±ìĿ¸":11006,"Ġrecommend":11007,"Ġíķľì§Ħ":11008,"íķ©ë³ĳ":11009,"Ġì°½ë¦½":11010,"Ġë¶Ģë¶ĦìĿĦ":11011,"Ġë¹ĦêµĲíķ´":11012,"Ġìķ¡ìħĺ":11013,"Ġequipment":11014,"orter":11015,"ĠOper":11016,"Ġê¸°ìĥģ":11017,"ĠHu":11018,"ĠìĪĺìĹħ":11019,"ĠíŀĲ":11020,"Ġë¬¸ìłľë¡ľ":11021,"Ġleave":11022,"Ġprogress":11023,"Ġì§Ģë¶ĦìĿĦ":11024,"Ġë©ĺ":11025,"ë¥¨":11026,"Ġfacilities":11027,"Ġì´īì§Ħ":11028,"ì²ĺë¦¬":11029,"ĠìĦľë¹ĦìĬ¤ê°Ģ":11030,"Ġnegot":11031,"ìĹĲìĦľë§Į":11032,"Ġë³ĦëıĦ":11033,"ĠMem":11034,"Ġì´īêµ¬":11035,"Ġë©´ìĹŃ":11036,"Ġleadership":11037,"ì¤ĳìĿ¸":11038,"ĠOver":11039,"ĠìľĦì¶ķ":11040,"ëħĦëĮĢìĹĲ":11041,"rect":11042,"ĠSpe":11043,"ĠìĹ°êµ¬ë¥¼":11044,"Sc":11045,"Ġlte":11046,"Ġethnic":11047,"âĪ¼":11048,"Ġislands":11049,"Ġê²½ëĤ¨":11050,"ĠìĬ¤íĤ¬":11051,"Ġcontemporary":11052,"ĠìĿ´ëĵ¬íķ´":11053,"Ġ92":11054,"Ġë®¤ì§ģ":11055,"\":":11056,"Ġì¿łíı°":11057,"ĠìŀĪëĭ¤ë©´":11058,"ë²Ħê·¸":11059,"Ġmaterials":11060,"Ġsought":11061,"Ġreach":11062,"ĠìĽĮìĭ±íĦ´":11063,"Ġë²ķìłķ":11064,"Ġê°ĢìĿĦ":11065,"Ġë³¸ìĿ¸":11066,"Ġleague":11067,"Ġíķĺê²Į":11068,"Ġcompetition":11069,"Ġfeat":11070,"ëĿ¼ìĿ´ìĸ¸":11071,"Ġë²łë¥´":11072,"Ġgreen":11073,"Ġqual":11074,"AF":11075,"Ġì¢ģ":11076,"Ġç":11077,"ĠktëĬĶ":11078,"Ġ1954":11079,"Ġq":11080,"êµĲíļĮ":11081,"Ġportray":11082,"Ġì½ĺìĦľ":11083,"Ġstars":11084,"ifically":11085,"íıŃìĿĦ":11086,"ĠìĤ¬ìĹħìĹĲ":11087,"ì§ĢìŀĲ":11088,"Ġproperties":11089,"Ġsubsequent":11090,"ĸ¶":11091,"Ġì½Ķë¦¬ìķĦ":11092,"Ġnormal":11093,"Ġëĭ¨ìľĦ":11094,"Ġdistingu":11095,"ê¸¸ìĿĦ":11096,"ĠíħĮìĿ´":11097,"Ġì§Ģì£¼":11098,"Ġë¶Ģì²ĺ":11099,"ë§Įíķľ":11100,"Ġslight":11101,"ì£¼ë¯¼":11102,"Ġharm":11103,"Ġê³łìĸĳ":11104,"Ġë°ĺìĿĳìĿĦ":11105,"ĠBuddh":11106,"Ġ2026":11107,"level":11108,"ĠìķĦì£¼":11109,"ìĨĮìĻĢ":11110,"ĠìĨįëıĦë¥¼":11111,"íĮĲìĿĦ":11112,"occ":11113,"ê³ĦìĹĲ":11114,"Ġcaptured":11115,"Ġattacks":11116,"ĠDef":11117,"Ġalle":11118,"ëĵ¤ìĸ´":11119,"ĠíĬ¸ëŀľ":11120,"Ġequival":11121,"ĠëĤĺëĪł":11122,"Ġpurs":11123,"Ġacid":11124,"ĠìķĮë¦¬":11125,"ëĦĪì§Ģë¥¼":11126,"æĿĳ":11127,"íķĻìĿĺ":11128,"Ġbillion":11129,"ê´Ģìľ¼ë¡ľ":11130,"ĠìĤ¬ìļ©ëĲĺìĹĪëĭ¤":11131,"ĠNaz":11132,"ĠìĻ¸ìĭĿ":11133,"tered":11134,"êµŃê³¼":11135,"ĠëĦĵìĿĢ":11136,"ì°į":11137,"ees":11138,"Ġpaid":11139,"Ġactually":11140,"All":11141,"ĠSk":11142,"Ġsac":11143,"Ġë°°íĦ°ë¦¬":11144,"igration":11145,"Ġíı¬ìĬ¤ì½Ķ":11146,"ëĭ´ìĿĦ":11147,"Ġë¹Ħì¤ĳìĿĢ":11148,"Ġìıł":11149,"Ġregarded":11150,"Ġíļ¡":11151,"ĠíĶĮëŀ«íı¼ìĿĦ":11152,"equ":11153,"éĢ":11154,"Ġfinished":11155,"Ġìĭ¤ë¬´":11156,"ogue":11157,"Con":11158,"Ġmentioned":11159,"ĠëĤ¼":11160,"Ġwear":11161,"Ġíĺ¸ì£¼":11162,"Ġë¹Ļ":11163,"ĠìĭľìĤ¬":11164,"Ġspect":11165,"ĠInt":11166,"íķĺë©´ìĦľëıĦ":11167,"Ġëª©íĳľì£¼":11168,"Ġsupply":11169,"ìĭĿìĹĲ":11170,"ëĵľë¡ľìĿ´ëĵľ":11171,"ny":11172,"Ġplays":11173,"orph":11174,"ê³µìłķ":11175,"ĠMur":11176,"Ġfriends":11177,"Ġdedicated":11178,"Ġíı¬íķ¨ëĲĺìĸ´":11179,"ĠíĿĳìŀĲ":11180,"ì§ĢëĭĪìĸ´":11181,"anner":11182,"æĸĩ":11183,"Ġexpressed":11184,"ë§Īë¸Ķ":11185,"ê³µìĽĲ":11186,"ëħģ":11187,"ì¤ĳíķľ":11188,"ĠFollowing":11189,"class":11190,"ĠìķłëĦĲë¦¬ìĬ¤íĬ¸":11191,"Ġê´ĳë²ĶìľĦ":11192,"éĿ":11193,"Ġhistoric":11194,"owntown":11195,"Ġeffective":11196,"ìĬ¤íı¬":11197,"Ġ1943":11198,"ĠìĿĦ":11199,"ê³±":11200,"ĠëĶľ":11201,"ĠíĶĦëŀĳìĬ¤ìĿĺ":11202,"ë¯¼ì¡±":11203,"Ġë°Ľê²Į":11204,"Ġmachine":11205,"ĠCommunity":11206,"Ġearth":11207,"Ġofficials":11208,"ìĿ¼ëŁ¬":11209,"izabeth":11210,"Ġì°¨ë³ĦíĻĶëĲľ":11211,"ì±ħìĿĦ":11212,"ĠíĺĦíĸī":11213,"ĠSil":11214,"Ġweight":11215,"ieval":11216,"ë¦ŃìĬ¤":11217,"ĠBow":11218,"Ġë¶ĪêµĲ":11219,"ĠëıĻìĸĳ":11220,"ëĲĺìĹĪìľ¼ëĤĺ":11221,"Ġlibrary":11222,"ë¡Ģë¡ľ":11223,"Ġrenamed":11224,"Ġë°ľë§¤ëĲľ":11225,"Ġchap":11226,"ìŀ¬ëĭ¨":11227,"inity":11228,"ĠìłĦìĦ¸":11229,"ìĬ¤ì¼Ģìĸ´":11230,"CC":11231,"lah":11232,"Ġcalcul":11233,"encies":11234,"ĠìłĦëĤłë³´ëĭ¤":11235,"ëĤĻ":11236,"apers":11237,"Ġê°ķìĿĺ":11238,"ĠíĮĮìĿ¼":11239,"ìĺ¹":11240,"Ġìĭ¶ìĿĢ":11241,"Ġë§ĪìĬ¤íģ¬":11242,"ê¸°ìĹħìĿĺ":11243,"ë¥¼ë¦°":11244,"Ġ69":11245,"ëĵĪ":11246,"Ġë§¡ê³ł":11247,"Ġ1952":11248,"ìĹ°ë§¹":11249,"Ġgoal":11250,"Ġinside":11251,"Ġletters":11252,"íĺ¸íħĶ":11253,"Ġë¶Ģë¶ĦìĿ´":11254,"Ġìĭłíĺ¸":11255,"Ġcompar":11256,"ìģĺ":11257,"lis":11258,"ĠHel":11259,"Ġëĭ¤ìĦ¯":11260,"Ġnewspaper":11261,"ĠìłĦìĤ¬":11262,"Ġì°¸ìĹ¬íķĺëĬĶ":11263,"arp":11264,"ĠìŀĲìĽĲ":11265,"Ġìĺ¤íĶĦëĿ¼ìĿ¸":11266,"Ġexam":11267,"Ġdistricts":11268,"Ġ1953":11269,"TO":11270,"si":11271,"ounded":11272,"Ġmeant":11273,"íĮ¬":11274,"Ġêµ¬ìĨį":11275,"ĠëłĪëĵľ":11276,"ads":11277,"ëĭ´ë³´ëĮĢì¶ľ":11278,"Ġsamp":11279,"Ġmom":11280,"Ġbal":11281,"ĠOffice":11282,"ìºĲíĶ¼íĥĪ":11283,"Ġë¬¸ìĿĦ":11284,"Ġconqu":11285,"íĻĶíķĺê³ł":11286,"íķľìĿĺ":11287,"ìķĦìĽĥ":11288,"Ġburn":11289,"ĠìĹ°ëıĻ":11290,"ëļ":11291,"Ġì²ĺë¶Ħ":11292,"Ġëª¨ëį¸ìĿĦ":11293,"Ġjoint":11294,"Ġì¹ĺìĹ´":11295,"ĠìĺĪê¸Ī":11296,"ëłĪìĿ¸":11297,"bra":11298,"Ġelse":11299,"Ġìį¼ëĭ¤":11300,"Ġê²°ìĦ±":11301,"Ġwild":11302,"stone":11303,"ĠëıĻìĽĲ":11304,"ë²ķìĽĲ":11305,"íķĺëł¤ê³ł":11306,"Ġì¹ľíĻĺê²½":11307,"kins":11308,"Ġsuffered":11309,"ĠëĶ°ëľ»":11310,"ëĲĲëįĺ":11311,"Ġeffort":11312,"ĠíĸĪëįĺ":11313,"ĠìłĦë¶ģ":11314,"Ġidentity":11315,"ĠìĿ´ëģĮìĸ´":11316,"ê¸°ì§Ģ":11317,"ë¸Ķë¡Ŀ":11318,"ì¡¸":11319,"ĠPeople":11320,"Ġë¶Īê°ĢíĶ¼":11321,"erved":11322,"Ġthings":11323,"Ġpurpose":11324,"Ġdomestic":11325,"ë³´íķ©":11326,"Ġroom":11327,"Ġë¶ĦìĤ°":11328,"ĺĳ":11329,"Ġax":11330,"ĠUN":11331,"ĠìłĪê°Ĳ":11332,"ĠëĬ¥ëł¥":11333,"Ġì°©ìļ©":11334,"ĺŀ":11335,"ĠìłķëıĦìĿĺ":11336,"ĠìĬ¤ì½Ķ":11337,"Ġinternal":11338,"Ġunique":11339,"ione":11340,"Ġì¢ħìĿ´":11341,"Ġê³łëĵ±":11342,"Ġìłľê³µëĲľëĭ¤":11343,"ading":11344,"ë¶ĢíĦ°ëĬĶ":11345,"IV":11346,"ĠìĿ´ëĵ¤ìĿ´":11347,"íĭ°ìĬ¤íĬ¸":11348,"Ġprotection":11349,"íĶĦìĿĺ":11350,"Ġê·¹ëĮĢ":11351,"ician":11352,"ĠBridge":11353,"ìĿĢíĸīê³¼":11354,"æĻ":11355,"ëĬ¥ëł¥":11356,"Ġchemical":11357,"Ġìĺ·":11358,"ëĭ¹ìĿĦ":11359,"ĠìľĮë¦¬ìĹĦ":11360,"Ġì§ĢëĥĪëĭ¤":11361,"PU":11362,"ëĩ¨":11363,"Ġëľ»ìĿĦ":11364,"Ġë²ĶìľĦ":11365,"Ġì£¼ê¸°":11366,"Ġ76":11367,"Ind":11368,"ì§Ģìĸ´":11369,"Ġìĺ¤ìĬ¤íĬ¸ëłĪìĿ¼ë¦¬ìķĦ":11370,"Ġowner":11371,"ĠìĿ´ëĵ¤ìĿĺ":11372,"ìĭ¤ìĹĲìĦľ":11373,"Ġë§Įëĵ¤ìĸ´ì§Ħ":11374,"ëĭ¤ë§Į":11375,"ìĹ¬íĸī":11376,"Ġsales":11377,"wer":11378,"Ġopport":11379,"ĠAlexander":11380,"ê°Ģì¹ĺ":11381,"ĠìĿ¼ëĭ¨":11382,"Ġelev":11383,"ë´Ħ":11384,"Ġmoving":11385,"ĠCro":11386,"aly":11387,"ĠKenn":11388,"Ġbrand":11389,"Ġê·¼ë³¸":11390,"Ġmountain":11391,"ĠëģĿëĤĺ":11392,"Ġë§Įëĵ¤ê¸°":11393,"Ġple":11394,"ĠìĤ¬ìļ©íķ´":11395,"Ġmovie":11396,"ĠProt":11397,"ĠTele":11398,"Ġìŀ¥ë¥´":11399,"ĠJackson":11400,"Ġì£¼ë§Ĳ":11401,"Ġtraffic":11402,"iger":11403,"Ġgraph":11404,"ëĶĶìĽĢ":11405,"Ġê·¸ëłĩê²Į":11406,"ĠíĬ¸ë¦¬":11407,"ĠìĿĳìļ©":11408,"Ġfields":11409,"Ġ77":11410,"ER":11411,"ĠNap":11412,"Ġdescend":11413,"ë°¸":11414,"ĠíĿĲë¦ĦìĿĦ":11415,"ĠëıĻìĭľ":11416,"Ġì¦Ŀê°Ģíķĺê³ł":11417,"rm":11418,"edd":11419,"down":11420,"Ġê´Ģê°Ŀ":11421,"Ġê°ķìłľ":11422,"Ġê¸°ê¸°":11423,"Ġiron":11424,"Ġrain":11425,"Ġê³µê°ľíĸĪëĭ¤":11426,"íģ°":11427,"Ġê¸¸ìĿ´":11428,"Ġvirt":11429,"itage":11430,"ĠChampionship":11431,"ĠìĿ¼íĻĺìľ¼ë¡ľ":11432,"rie":11433,"Ġë§Ĳê¹Įì§Ģ":11434,"Ġì°¸ìĹ¬íķł":11435,"Ġreflect":11436,"ĠìłĦíĽĦ":11437,"ìĺĢìľ¼ëĤĺ":11438,"ĠìĦľìļ¸íĬ¹ë³Ħ":11439,"Ġseem":11440,"Ġë°©íĨµ":11441,"Ġê°ķíĻĶë¥¼":11442,"íķ´ì£¼ëĬĶ":11443,"Ġprefer":11444,"ĠTem":11445,"Ġobserved":11446,"Ġë³ĢíĻĶê°Ģ":11447,"íĺķìĿĢ":11448,"Ġdut":11449,"ì½ĺíħĲì¸ł":11450,"cop":11451,"Ġê·¸ìĹĲ":11452,"ìĦłìľ¼ë¡ľ":11453,"acter":11454,"ìħ°":11455,"gia":11456,"íĺķìľ¼ë¡ľ":11457,"Ġtried":11458,"ĠScotland":11459,"ìĥĿìĿĺ":11460,"ì¢ħìĿĢ":11461,"Ġë²łìĬ¤íĬ¸":11462,"Ġwealth":11463,"Ġprep":11464,"ĠíĶĦë¡ľëĵĢ":11465,"ë²łìĬ¤íĬ¸":11466,"Ġìĸĳíĺ¸":11467,"awa":11468,"ĠìłĦë§ĿëĲľëĭ¤":11469,"ĠìĤ¬ëł¹":11470,"ĠìłĦëĿ¼":11471,"ê³Ħìķ½ìĿĦ":11472,"Ġì²ĺë²Į":11473,"ìĭłì²Ń":11474,"Ġì°¨ìĿ´":11475,"ĠìłľëıĦë¥¼":11476,"ì°¨ë¡ľ":11477,"Ġformation":11478,"ĠëıĮëł¤":11479,"Ġìłķì²´":11480,"ìĽ°":11481,"ĠAmong":11482,"ê°Ģì¡±":11483,"Ġplatform":11484,"ĠìĹħë¬´íĺĳ":11485,"thur":11486,"era":11487,"ĠìĦ¸ê³ĦìĹĲìĦľ":11488,"Ġìĭ¬ìĿĺ":11489,"ĠIraq":11490,"Ġpet":11491,"ãĢĭ(:":11492,".(":11493,"íŀĺ":11494,"Ġë°ĺëŀĢ":11495,"Ġmut":11496,"Ġ91":11497,"Ġbeyond":11498,"ìľĦìĽĲíļĮê°Ģ":11499,"Ġobjects":11500,"Ġsynt":11501,"iano":11502,"ë¦¬ê²Į":11503,"ĠIslands":11504,"ĠExp":11505,"Ġwinning":11506,"Ġmind":11507,"ĠìĿĺìķ½íĴĪ":11508,"Ġ87":11509,"Ġ89":11510,"Ġê³ĦìĹ´ìĤ¬":11511,"Ñģ":11512,"é«":11513,"Ġì°½ìŀĳ":11514,"elligence":11515,"ìĹĪìĿĦ":11516,"ë§¤ì¶ľ":11517,"Ġcompletely":11518,"Ġcrew":11519,"Ġprojects":11520,"Ġê°ĢëĬ¥íķ´":11521,"Ġstructures":11522,"Ġcodice":11523,"bu":11524,"ĠìłľêµŃìĿĺ":11525,"ëĲĲìľ¼ë©°":11526,"Ġconduct":11527,"Ġëĭ¤ìĪĺìĿĺ":11528,"acher":11529,"ĠëªħìĿ´":11530,"ĠTechn":11531,"Ġìºĺë¦¬íı¬ëĭĪìķĦ":11532,"ĠìĪĺìĽĲ":11533,"Ġìļ°ëĮĢ":11534,"Ġkept":11535,"Ġseek":11536,"Ġlands":11537,"Ġextensive":11538,"Ġì¸¡ë©´ìĹĲìĦľ":11539,"Ġcapacity":11540,"ëŀĺíĶĦíĬ¸":11541,"Ġpropos":11542,"Ġê°Ģìĭľ":11543,"ĠìĺģìĥģìĿĦ":11544,"ĠìıŁìķĦ":11545,"íĤ¤ìĬ¤íĥĦ":11546,"Ġì²ŃìĻĢ":11547,"ìķŀìľ¼ë¡ľ":11548,"ĠHot":11549,"ĠOh":11550,"bi":11551,"å¼":11552,"Ġì¶ĺ":11553,"Ġìŀ¥ì¤ĳ":11554,"Ġofficer":11555,"ĠìĪĺìĨĮ":11556,"ìľłë¡ľ":11557,"Ġadvant":11558,"Ġ78":11559,"Ġclassical":11560,"Ġë¶Īë¦°ëĭ¤":11561,"ì£¼íĸī":11562,"Ġë¬¶":11563,"ĠGree":11564,"Ġvisited":11565,"ĠJac":11566,"ĠFlorida":11567,"We":11568,"ĠëĮĢìĻ¸":11569,"»į":11570,"ìĺµ":11571,"ĠìĹħê·¸":11572,"amber":11573,"Ġ74":11574,"Ġë°ķìĤ¬":11575,"Ġtank":11576,"Ġëªħìĭľ":11577,"Ġenter":11578,"velopment":11579,"Ġfish":11580,"ë°©ìĿĦ":11581,"Ġsyn":11582,"osa":11583,"ario":11584,"Ġê°ĢëĬ¥ìĦ±ëıĦ":11585,"irmed":11586,"isa":11587,"Ġë²ĦìĬ¤":11588,"ĠAv":11589,"Ġexistence":11590,"ìĿĮìĿ´":11591,"åĮ":11592,"ĠëĤ´ê³ł":11593,"sm":11594,"Ð²":11595,"Ġparliament":11596,"ĠëĤĺìĺ¬":11597,"Ġíı¬íĬ¸íı´ë¦¬ìĺ¤":11598,"Ġë°Ķëĭ¥":11599,"ĠìĹ°êµ¬ê°ľë°ľ":11600,"Ġì§ĦíĸīëĲĺëĬĶ":11601,"ê°ģìĿĦ":11602,"Ġnotes":11603,"ê´ĳì£¼":11604,"Ġê³µëıĻìľ¼ë¡ľ":11605,"íĻĶíķł":11606,"Ġrang":11607,"ìĦ¤ìĿĦ":11608,"ê³ĦìĹ´":11609,"ĠìĦ±ê³µíĸĪëĭ¤":11610,"Ġlimit":11611,"Ġexisting":11612,"íĭ°ëĵľ":11613,"Ġâĸł":11614,"ĠìŀĦìĽĲ":11615,"ĠIran":11616,"ëŀĺê³¤":11617,"ëĿ¼ê°Ģ":11618,"ĠìłĲìĿĢ":11619,"Ġalternative":11620,"ì¢ħìľ¼ë¡ľ":11621,"Ġê³¨ëĵľ":11622,"Ġê°ĢëıĻ":11623,"ìĿ¸ì¹ĺ":11624,"Ġìĺ¬ëł¤":11625,"ë©´ìłģ":11626,"ĠWales":11627,"ëĲĺì§Ģë§Į":11628,"Ġrefers":11629,"ìĤ¬ë¬´":11630,"ìĥģíĥľ":11631,"Ġpowerful":11632,"ĠskíħĶëłĪì½¤ìĿĢ":11633,"Ġoverall":11634,"Ġinhabit":11635,"ĠHan":11636,"Ġdrum":11637,"Ġfuel":11638,"ĠìĦłìłľ":11639,"ĠìĦŃì·¨":11640,"point":11641,"ĠOut":11642,"Ġìĺģìŀħ":11643,"Ġë³´ìĹ¬ì¤Ģëĭ¤":11644,"Ġfast":11645,"Ġdynasty":11646,"lig":11647,"ĠBern":11648,"ìĹĪìľ¼ëĤĺ":11649,"Ġíĺ¼íķ©":11650,"ëıĻìĿĺ":11651,"ector":11652,"ë¬¼ì§Ī":11653,"ìķĺìľ¼ë©°":11654,"Ġspring":11655,"ĠëĤ´ìļ©ìĿĺ":11656,"Ġêº¼":11657,"Ġê±´ì¡°":11658,"Ġmole":11659,"íĢ´":11660,"Ġdesignated":11661,"Ġìľłìļ©":11662,"ĠKar":11663,"Ġvary":11664,"ì¯¤":11665,"ëľ°":11666,"Ġeffic":11667,"ê·ľìłľ":11668,"Ġapart":11669,"Ġgreatest":11670,"Ġproviding":11671,"Ġì¶ľìŀħ":11672,"oly":11673,"ìĺ¤ëĬĺ":11674,"Ġvoice":11675,"tical":11676,"çİĭ":11677,"ĠCorpor":11678,"Ġíķ©ìĦ±":11679,"ĠTreat":11680,"ĠLine":11681,"ĠAnn":11682,"inner":11683,"ĠBroad":11684,"eral":11685,"ĠìĺĪê³ł":11686,"ĠWork":11687,"Ġìŀħì¦Ŀ":11688,"Ġdark":11689,"ê¸Īìľµê·¸ë£¹":11690,"Ġexecutive":11691,"ening":11692,"Ġnegative":11693,"ĠTri":11694,"ĠHow":11695,"ĠìŀĲë£Įë¥¼":11696,"Ġhab":11697,"Ġê°Ģì¹ĺê°Ģ":11698,"Ġë°ľë§¤ëĲĺìĹĪëĭ¤":11699,"Ġoperates":11700,"ê³µíĹĮ":11701,"ima":11702,"Ġê³¼ê¸°ìłķíĨµ":11703,"êµ¬ë¡ľ":11704,"Ġbasic":11705,"ìĿ´ìĥģ":11706,"igan":11707,"Ġìĸ´ëł¤ìĽĮ":11708,"ĠëĤĺìķĦê°Ģ":11709,"Ġwrite":11710,"Ġexchange":11711,"Ġëª¨ìĹ¬":11712,"ĠPolish":11713,"Ġì§Ģë¶Ī":11714,"ê³¼íķĻê¸°ìĪł":11715,"ĠìŀĲì²´ê°Ģ":11716,"Ġsituation":11717,"--)":11718,"ĠWilliams":11719,"owner":11720,"ĠìķĦì¹´ëį°ë¯¸":11721,"ĠìĬ¹ë¦¬ë¥¼":11722,"Ġrespond":11723,"ĠIll":11724,"Ġì¹¨íķ´":11725,"Ġìķ±ìĿĦ":11726,"ì£¼ìļĶ":11727,"ìĺĢì§Ģë§Į":11728,"ĠBoard":11729,"osh":11730,"Ġ1500":11731,"©ëĭĪëĭ¤":11732,"ìłĲê³¼":11733,"ĠAwards":11734,"ì¶ķêµ¬":11735,"ĠìĿ¼ë¶ĢëĬĶ":11736,"Ġì§Ħíĸīíķľ":11737,"Ġë³´ëıĦíĸĪëĭ¤":11738,"ĠíĸīìľĦ":11739,"Ġê²°ê³¼ê°Ģ":11740,"Ġinvasion":11741,"ĠìĪ²":11742,"Ġê³µë§¤":11743,"Ġìµľê·¼ìĹĲëĬĶ":11744,"Ġassist":11745,"ĠìĿ´íĨµ":11746,"Ġheat":11747,"Ġregul":11748,"ì½ĶìĬ¤íĶ¼":11749,"ĠKorea":11750,"ê¸°ê¹Įì§Ģ":11751,"Ġtree":11752,"æ²":11753,"Ġëªĩëªĩ":11754,"ĠAtlantic":11755,"ìĿ´ìļ©":11756,"ĠíĻķëĮĢíķ´":11757,"Ġrental":11758,"ë£°":11759,"Ġê³µê°ľëĲľ":11760,"Ġê³µê¸°":11761,"Ġranked":11762,"Ġcorpor":11763,"ĠëĮĢíķ´ìĦľ":11764,"Ġexamples":11765,"Ġìķķë°ķ":11766,"Ġinstitutions":11767,"íķ´ìĸĳ":11768,"Ġìĭłìŀĳ":11769,"Ġë¶ĦìĦĿìĿ´ëĭ¤":11770,"ĠSol":11771,"ĠPost":11772,"ìŀ¬ìĤ°":11773,"Ġsail":11774,"ĠìĽ¹ìĤ¬ìĿ´íĬ¸":11775,"Although":11776,"Ġì¦Ŀê°Ģíķł":11777,"Ġvr":11778,"Ġê²°ìłķìĿĦ":11779,"ĠìĤ¬ìĭ¤ìĿ´":11780,"ih":11781,"ĠSup":11782,"íĬ¸ë¡¤":11783,"ìĦ¸ìĻĢ":11784,"ì²ĺë¥¼":11785,"Ġ1936":11786,"Ġë¶ģíķľìĿĺ":11787,"Ġtoward":11788,"Ġtitled":11789,"!\"":11790,"ĠëĮĢíķĻìĥĿ":11791,"Ġíıīì°½":11792,"ìķĹ":11793,"ĠëĬĺê³ł":11794,"ĠElizabeth":11795,"Ġsubs":11796,"Ġê¸°ë°ĺìĿĦ":11797,"ëıĦìĹĲìĦľ":11798,"ëĤ´ìļ©":11799,"Ġmaintained":11800,"ĠìłľíĴĪìĿĢ":11801,"ĠìķĦëŀį":11802,"Sp":11803,"ë®¬":11804,"ê¸°ë¡Ŀ":11805,"Ġìŀ¥ë©´":11806,"Ġcomes":11807,"ĠWater":11808,"Ġselected":11809,"ĠíĸĪëĭ¤ê³ł":11810,"ĠíĹĪê°Ģ":11811,"Ġ1938":11812,"ë¹ħ":11813,"grad":11814,"While":11815,"Ġì¶©ìłĦ":11816,"Ġê°ľìĦłìĿĦ":11817,"Ġflood":11818,"ĠHung":11819,"AS":11820,"ë¡ľë¡ľ":11821,"ëªħíĸĪëĭ¤":11822,"lt":11823,"ë¬¼ìĹĲ":11824,"ë§ĮìĽĲìĹĲ":11825,"ĠìĨĮìŀ¥":11826,"ì¦Īê°Ģ":11827,"Ġìĺģíĸ¥ìĿ´":11828,"Ġcreating":11829,"Ġvs":11830,"ora":11831,"Ġoccasion":11832,"Ġê¸°ìĹħìĹĲ":11833,"igenous":11834,"ĠFe":11835,"Ġë¡ł":11836,"ĠìĿ¸ê¸°ê°Ģ":11837,"íĺĦìĭ¤":11838,"ìĪľìľĦ":11839,"ois":11840,"Ġì§ĢìłķëĲĺìĹĪëĭ¤":11841,"ĠíĿ¥íĸī":11842,"ë¯¼ì£¼ì£¼ìĿĺ":11843,"Ġê¸°ì¤Ģê¸Īë¦¬":11844,"Ġmanager":11845,"ìłĲìĿĺ":11846,"anda":11847,"Ġstock":11848,"Ġê°¤":11849,"ĠAssembly":11850,"ĠìĪĺìĿµìĦ±":11851,"åľĭ":11852,"ĠìĨĮìļĶ":11853,"ĠìĹ¬ê¸°ìĦľ":11854,"Ġbehavior":11855,"Ġatm":11856,"Ġrough":11857,"ê¸°ë°ĺ":11858,"ĠìĪĺìĭŃ":11859,"Ġë²łëĦ¤":11860,"ĠíĺĳíļĮ":11861,"ĠìĿĺë¯¸ê°Ģ":11862,"ĠTheatre":11863,"ìĹ¬ê°ľ":11864,"Ġì´ĪìłĲìĿĦ":11865,"Ġëį®":11866,"Ġëĭ´ìķĦ":11867,"Ġìĩ¼íķĳëª°":11868,"ĠUEFA":11869,"Ġice":11870,"ĠSever":11871,"ëĲĺê±°ëĤĺ":11872,"Ġíı¬ë¥´íĪ¬ê°Ī":11873,"ĠìĿ¸ìļ©":11874,"Ġages":11875,"Ġë§Īì¹ĺ":11876,"400":11877,"haps":11878,"Ġpoly":11879,"ì²©":11880,"ĠSub":11881,"Ġê¸°ëĬ¥ìĿ´":11882,"lov":11883,"Ġways":11884,"ĠJones":11885,"ighter":11886,"Ġê²½ë§¤":11887,"Ġdebut":11888,"ĠVol":11889,"ìĭľìŀ¥ìĿ´":11890,"ĠíĪ¬ëªħ":11891,"Ġì¢ħìĤ¬":11892,"Ġpict":11893,"íĮĢìĿĢ":11894,"íĻĶëĲł":11895,"Ġbelieve":11896,"ĠíĴĪëª©":11897,"Ġchair":11898,"Ġë³ĢíĻĺ":11899,"Ġcustom":11900,"ĠPo":11901,"Ġê°ĸì¶Ķê³ł":11902,"Ġreduce":11903,"Ġeigh":11904,"ĠëĳĲìĤ°":11905,"Ġgives":11906,"oring":11907,"ĠìķĮê³łë¦¬ì¦ĺ":11908,"2005":11909,"Ġcry":11910,"ìĹŃìĿ´ëĭ¤":11911,"è¨":11912,"Ġë¬¸ìłľìĹĲ":11913,"ëĲĺìĹĪëĬĶëį°":11914,"Ġê°ľìĭľ":11915,"ĠêµĲìľ¡ë¶Ģ":11916,"ëħ¹":11917,"ĠìĿ´ìĸ´ì§ĢëĬĶ":11918,"ĠìĿ¸ê°ĦìĿĺ":11919,"ĠìĽĮíģ¬":11920,"Ġfactors":11921,"ĠBig":11922,"ci":11923,"Ġë¬¼ëŁ¬":11924,"ë¡ľë§Ī":11925,"Ġìĺ¤ìĬ¤":11926,"HO":11927,"Ġmanaged":11928,"Ġë¶ĢìĿ¸":11929,"ĠìłĦê³µ":11930,"gt":11931,"ĠìĹ¬ê°Ŀ":11932,"Ġë§¹":11933,"ë¡¯ëį°":11934,"ëĵ¤ë¡ľë¶ĢíĦ°":11935,"ĠìĽĲê¸Ī":11936,"Ġê°ľìĿ¸ìĿ´":11937,"ê¹Ŀ":11938,"Ġdigital":11939,"ĠìĻ¸êµŃìĿ¸ê³¼":11940,"ĠëıħìŀĲ":11941,"ëĪĪ":11942,"íĨµíķ©":11943,"2023":11944,"Ġ86":11945,"ĠUp":11946,"agon":11947,"ì¤ĳíķĻêµĲ":11948,"Ġpan":11949,"ĠJim":11950,"ĠStar":11951,"antry":11952,"Ġreceive":11953,"rs":11954,"Ġultimately":11955,"Ġìŀħì°°":11956,"Ġê³łëł¹":11957,"Ġcab":11958,"Ġì§ĢëĭĮ":11959,"ĠìĨĮê·ľëª¨":11960,"ĠBrazil":11961,"Ġ73":11962,"ĠìĿ´íĽĦìĹĲ":11963,"itionally":11964,"ĠìľĪëıĦìļ°":11965,"Ġresources":11966,"ouri":11967,"rine":11968,"kin":11969,"ĠëĴ¤ìĹĲ":11970,"ĠíķĻë¶Ģëª¨":11971,"Ġì¶ľìĭľë¥¼":11972,"íĶĮëŀ«íı¼":11973,"ê²ĢìĤ¬":11974,"odox":11975,"Ġminutes":11976,"Ġêµ¬ëĭ¨":11977,"ĠPen":11978,"ĠêµŃê²½":11979,"Ġstrugg":11980,"Ġìķ½ìĦ¸ë¥¼":11981,"ĠVer":11982,"Ġhop":11983,"ì¸¡ìĿĢ":11984,"ĠíķľëķĮ":11985,"ĠíĮĮíĭ°":11986,"Ġroles":11987,"ĠíĸĪê³ł":11988,"ìĹħë¬´":11989,"Ġstudied":11990,"íĶĦë¡ľê·¸ëŀ¨":11991,"ì£¼ëħĦìĿĦ":11992,"ĠBal":11993,"ĠìĦłê³ł":11994,"ĠìĹŃëŁī":11995,"Ġvacant":11996,"Ġshared":11997,"ĠìłģìłĪíķľ":11998,"ĠMot":11999,"Ġíĥģ":12000,"phen":12001,"Ġsnow":12002,"ĠìľĦìĦ±":12003,"Ġë§Īëł¨íĸĪëĭ¤":12004,"Ġ82":12005,"Ġãħ":12006,"Ġmedic":12007,"ĠìŀĲëıĻìľ¼ë¡ľ":12008,"Ġëĭ¹ë¶ĢíĸĪëĭ¤":12009,"ĠëĤĺìĿ´":12010,"ĠìĭłìĦł":12011,"ĠíĮĮëĿ¼":12012,"erman":12013,"gs":12014,"mir":12015,"Since":12016,"ëĨĢ":12017,"ë¥´íĥĢ":12018,"ìĦ¤ê³Ħ":12019,"ĠJo":12020,"Trans":12021,"íĶĮëŁ¬ìĬ¤ëĬĶ":12022,"ë¶ķ":12023,"ĠíĻķëĮĢë¥¼":12024,"ilding":12025,"ìĥĿëªħìĿĢ":12026,"1990":12027,"Ġêµ¬ìĦ±ëĲľëĭ¤":12028,"Ġpositions":12029,"Ġê¸Īë¦¬ë¥¼":12030,"ĠìĦłë³´ìĿ¸":12031,"Ġê³µìŀ¥":12032,"ifying":12033,"Ġphilosophy":12034,"Ġfair":12035,"ĠìłĦì£¼":12036,"Ð»":12037,"Ġrevolution":12038,"å·ŀ":12039,"lab":12040,"ĠMax":12041,"Ġì¶©ë¶Ħíķľ":12042,"Ġinstance":12043,"Ġmaster":12044,"Ġì§ĦíĸīíķĺëĬĶ":12045,"clus":12046,"ĠCoast":12047,"Ġrecently":12048,"Ġkingdom":12049,"ĠíĿĶíŀĪ":12050,"ĠìĹ¬ìĭł":12051,"Ġexperim":12052,"Ġphen":12053,"Ġì£¼ìĹ°":12054,"Ġmixed":12055,"Ġë©ĶëĶĶ":12056,"Ø§":12057,"ìĨĮíķľ":12058,"ĠìĤ¬ìĹħìŀĲ":12059,"Ġvon":12060,"ì·Ħëĭ¤":12061,"Ġ79":12062,"Ġdepartment":12063,"Ġìŀ¡ìķĦ":12064,"Ġê¸°ì¤ĢìĿĦ":12065,"ìķĪìĿĺ":12066,"Ġnewly":12067,"rations":12068,"ê¸°ê¸Ī":12069,"Ġsets":12070,"ĠMos":12071,"Ġconcert":12072,"Ġìĸµìłľ":12073,"Ġfeaturing":12074,"Ġactions":12075,"ĠìĦ±ê³µìłģìľ¼ë¡ľ":12076,"Ġsym":12077,"ĠìĤ¬ìļ°":12078,"Ġseg":12079,"ĠìĥģíķĺìĿ´":12080,"fort":12081,"ĠPers":12082,"ĠìłĢì§Ģ":12083,"uff":12084,"Ġëĭ¨ë°±ì§Ī":12085,"ĠíħĮëŁ¬":12086,"ìĹĪëĭ¤ê³ł":12087,"ĠìŀĪëĬĶì§Ģ":12088,"ĠGar":12089,"Ġinterpret":12090,"itness":12091,"ë¶ĢëıĻìĤ°":12092,"Ġpurchased":12093,"Ġmotor":12094,"ĠëĮĢíĳľê°Ģ":12095,"ĠìŀĲê¸ĪìĿ´":12096,"íļĮìĿĺë¥¼":12097,"agn":12098,"ĠVilla":12099,"gi":12100,"Ġwalk":12101,"ĠìłĢëħģ":12102,"Ġìŀłìĭľ":12103,"ĠArts":12104,"ĠRailway":12105,"ë©ľ":12106,"Ġê³µìĿ¸":12107,"ë°Ķë¥´":12108,"Ġê·¸ëŁ¬ë©´ìĦľ":12109,"Ġhumans":12110,"ĠNations":12111,"ĠìĿ¸ëĶĶ":12112,"ĠìĤ¬ìļ©íķĺê³ł":12113,"ê»´":12114,"ĠìĥĿíĻľìĿĦ":12115,"ĠíĿ°":12116,"Ġsomething":12117,"ĠAlso":12118,"Ġìŀłìłķ":12119,"ĠëĤĺíĥĢëĤ´ëĬĶ":12120,"Ġì´Īëŀĺ":12121,"Ġê½":12122,"ki":12123,"Ġscale":12124,"ĠìļĶìĭľ":12125,"íķĺëł¤ë©´":12126,"ë³´ìŀ¥":12127,"Ġê¸°ëĮĢê°ĲìĿ´":12128,"Ġìĭłì²´":12129,"Ġë¯¸ì¹ł":12130,"Ġ1951":12131,"Ġì²ľìĹ°":12132,"udget":12133,"kes":12134,"Ġìķŀìľ¼ë¡ľëıĦ":12135,"Ġìĺ¤íĨł":12136,"Ġ130":12137,"âĢĭ":12138,"ĠëıħíĬ¹íķľ":12139,"Ġë¬¸íĹĮ":12140,"ìĭľíĤ¤ê¸°":12141,"Ġmicro":12142,"Ġê¸°ìĹħëĵ¤ìĿ´":12143,"Ġë§īê¸°":12144,"ëıĻë¬¼":12145,"Ġlies":12146,"ĠBecause":12147,"íĸīìľĦ":12148,"åŃĲ":12149,"Ġì¹¨ê³µ":12150,"ĠëĤŃ":12151,"Ġweapons":12152,"adel":12153,"ë¹Ħëĵľ":12154,"ograp":12155,"ĠìĬ¬ë¡ľ":12156,"ĠëĤ®ì¶Ķ":12157,"ĠBeach":12158,"ĠìĪľìľĦ":12159,"ĠíĽĮ":12160,"Ġê³µìĭĿìłģìľ¼ë¡ľ":12161,"ĠìĥĿê¸´":12162,"ĠíŀĪë¡ľ":12163,"Ġbecomes":12164,"Ġêµ³":12165,"ĠOs":12166,"Ġsignificantly":12167,"ĠìĿĺëıĦ":12168,"Ġoccurs":12169,"ëł·":12170,"ìĪĺìĪĺë£Į":12171,"Ġê³łíĨµ":12172,"ìĦ¸íĬ¸":12173,"Ġêº¾":12174,"ĠêµŃì±Ħ":12175,"ĠëĮĢì¶ľìĿĦ":12176,"ìľĦíĹĺ":12177,"Ġê²ĢìĿĢ":12178,"ë¶Ģì²ĺ":12179,"Ġìļ°ë¦¬ìĿĢíĸī":12180,"Ġê°Ĳìłķ":12181,"ĠYoung":12182,"ĠCommon":12183,"ëıĦìĦľ":12184,"rics":12185,"Ġlaunch":12186,"actions":12187,"risis":12188,"Ġgot":12189,"ĠëĳĲëĵľ":12190,"Ġê¸°íļįìŀ¬":12191,"Ġhap":12192,"ĠJean":12193,"ìķĦìĿĺ":12194,"Ġê³łìłĦ":12195,"ĠAvenue":12196,"Ġshoot":12197,"iced":12198,"Ġorganizations":12199,"ĠëĨĴìĹ¬":12200,"Ġfailure":12201,"ĠConstitution":12202,"ĠìĨĮíĺķ":12203,"indu":12204,"Ġauth":12205,"Ġë²ĦíĬ¼":12206,"ìĸµìĽĲìĿ´ëĭ¤":12207,"Ġê¸Īê°ĲìĽĲ":12208,"ĠIV":12209,"Ġproved":12210,"ë°´ëĵľ":12211,"ĠWay":12212,"ĠHighway":12213,"ì¼Ī":12214,"Ġ1937":12215,"Ġì¤ĳíķĻêµĲ":12216,"Ġsays":12217,"ĠìĿ´ë¥´ëĬĶ":12218,"ĠìĪľìľ¼ë¡ľ":12219,"Se":12220,"Ġì¶©ê²©":12221,"ĠìĿ´ë¥¸ë°Ķ":12222,"Ġaudience":12223,"Ġ1918":12224,"ĠíķŃëª©":12225,"Ġmonarch":12226,"ĠìĭľìŀĳëĲĺìĹĪëĭ¤":12227,"ìļ°ì£¼":12228,"ìľłíķľ":12229,"ì°¨ìłĦ":12230,"ĠìķĮê²Į":12231,"Ġprice":12232,"Ġspok":12233,"ĠFrancisco":12234,"ëĤĺìĻĢ":12235,"ĺìĸ´":12236,"Ġë²ķë¬´":12237,"Ġstore":12238,"Ġì°¸ì¡°":12239,"Ġhospital":12240,"ĠPlay":12241,"Ġproducer":12242,"Ġë©ĶìĿ´ìłĢ":12243,"ĠSocial":12244,"ëĲ¨ìĹĲ":12245,"Ġcold":12246,"Ġjoin":12247,"Ġì¤ĦìĹ¬":12248,"ĠìĹł":12249,"Ġì°½ìĿĺ":12250,"ĠìłĢëł´íķľ":12251,"Ġê²½ê¸°ìĹĲ":12252,"ĠìłĦíĨµìłģìĿ¸":12253,"Ġê´Ģê´ĳê°Ŀ":12254,"Ġresistance":12255,"ä¸ī":12256,"ĠìĽĲìŀ¥ìĿĢ":12257,"Ġalbums":12258,"Ġvoted":12259,"ĠìĦ¸ë¥´":12260,"ĠëıħìłĲ":12261,"ĠíĬ¸ëŀĻ":12262,"ĠCamb":12263,"ĠìĦľë¯¼":12264,"Ġê¸įìłķìłģ":12265,"ìĤ¬ì±Ħ":12266,"Ġì°°":12267,"Ġ1919":12268,"aven":12269,"Ġíķ©ëıĻ":12270,"ĠìĹŃìĤ¬ìĥģ":12271,"Ġfat":12272,"ĠíĺķìĭĿ":12273,"Ġë³´ìĹ¬ì£¼ëĬĶ":12274,"ĠêµŃëĤ´ìĹĲìĦľ":12275,"Ġimportance":12276,"ĠíĮĲëĭ¨íĸĪëĭ¤":12277,"Ġtechniques":12278,"Ġë¹¨ë¦¬":12279,"ĠêµŃë°©ë¶Ģ":12280,"äºº":12281,"ĠìĿ´ì²ĺëŁ¼":12282,"Ġê³µê°Ĳ":12283,"Ġë°°ìłķ":12284,"ĠìĻĦë²½":12285,"Ġencoura":12286,"¤¼":12287,"Ġjur":12288,"Ġachieved":12289,"ë²ķìĿĺ":12290,"Ġë§Īì§Ģë§īìľ¼ë¡ľ":12291,"ĠêµŃìĻķ":12292,"Ġcart":12293,"Ġë¬¼ë¥ĺ":12294,"Ġê²½ìĭł":12295,"Ġchalleng":12296,"Ġê³µë¦½":12297,"Ġcritics":12298,"íķ´ìĻ¸":12299,"Ġê¸ĢìĿĦ":12300,"ĠìĤ¬ë¡Ģê°Ģ":12301,"ĠíħĲ":12302,"Ġdetermined":12303,"Ġstone":12304,"Ġ71":12305,"entially":12306,"ĠSa":12307,"ĠVen":12308,"Ġì¶ľìĭłìĿĺ":12309,"olt":12310,"isf":12311,"DA":12312,"Ġìĥĺ":12313,"Ġì¡°ìĤ¬ë¥¼":12314,"ĠëĥĪëĭ¤":12315,"ì¶¤":12316,"Ġìĵ°ëĬĶ":12317,"uration":12318,"Ġexact":12319,"ìĭľì¼°":12320,"Ġê°ĢëĵĿ":12321,"under":12322,"ì¢ħìĿ´ëĭ¤":12323,"ĠThus":12324,"ĠMid":12325,"Ã³n":12326,"ìĹ°íŀĪ":12327,"ĠìĿ¼ë¶Ģë¥¼":12328,"ĠLew":12329,"oday":12330,"ĠBerlin":12331,"ĠJeff":12332,"Ġê·ľëª¨ëĭ¤":12333,"íļĮìĤ¬ìĿĺ":12334,"Ġphase":12335,"hesis":12336,"PC":12337,"ĠíķĺìľĦ":12338,"ë¶ĢìĤ°":12339,"íķ¨ê³¼":12340,"Ġìĭľíĭ°":12341,"ĠCarolina":12342,"gent":12343,"Ġstreet":12344,"íĥĢìļ´":12345,"ĠìĿ´ê²ĥìĿ´":12346,"Ġëľ»ìĹĲ":12347,"ĠìĹ¬ë¶Ģ":12348,"Ġì°¸ìĦĿíķľ":12349,"Ġrevealed":12350,"joy":12351,"ê³¼ìĹĲ":12352,"ĠOx":12353,"Ġsettlers":12354,"Ġê²ĥìĿ´ë©°":12355,"ĠëĮĢìĦł":12356,"Ġë¶Ģì¡±íķľ":12357,"ìĭľìĹĲìĦľ":12358,"Ġwave":12359,"ĠëķĮë§Īëĭ¤":12360,"ìĭľíĤ¨ëĭ¤":12361,"Ġë°©ë¬¸íķ´":12362,"Ġê²°ê³¼ìĹĲ":12363,"ĠHam":12364,"LA":12365,"pc":12366,"Ġì´Į":12367,"Ġë¡ľëĵľ":12368,"ìĸ´ëĤ¬":12369,"Ġê·Ģì¡±":12370,"ìĸ´ìĬ¤":12371,"Ġì°¨ìĿµ":12372,"ĠâĢĶ":12373,"Ġconsequ":12374,"ëĦĲëĵľ":12375,"urrent":12376,"ìĪĺíķľ":12377,"ĠíĦ¸":12378,"ĠìºĦ":12379,"ĠCorporation":12380,"ĠìĹ°íľ´":12381,"íĪ¬ìŀĲìŀĲ":12382,"Ne":12383,"ĠìłĦë¶Ħê¸°":12384,"Ġcarbon":12385,"ä¿":12386,"800":12387,"ë¡ľìĦľìĿĺ":12388,"Ġë©´ìłģìĿĢ":12389,"Ġauthorities":12390,"lem":12391,"ĠëĤĺìĦłëĭ¤":12392,"ensions":12393,"ĠHoly":12394,"ĠìŀĲë¬¸":12395,"ë¦¬ìĸ¼":12396,"ĠìĭľëĤĺ":12397,"Ġapparent":12398,"æķ":12399,"gr":12400,"Ġpick":12401,"ĠColumbia":12402,"ê³µìĭľ":12403,"ĠRadio":12404,"Ġìĭ¤ëĤ´":12405,"ëŁ¬ë¦¬":12406,"ë²ĪìĿĺ":12407,"ë¡łìĿĢ":12408,"ìĥīìĿĦ":12409,"ĠìĥģíĴĪìĿĢ":12410,"Ġìĺ¹":12411,"Ġë¹Ħì¤ĳìĿĦ":12412,"ĠìĹ´ë¦°ëĭ¤":12413,"Ġë¯¸ìĦ¸ë¨¼":12414,"ĠNorm":12415,"ìĸ´ë¦°":12416,"ĠëĤ´ê°Ģ":12417,"ĠìĤ¬ê³¼":12418,"ĠìĪĺìĭł":12419,"herit":12420,"irect":12421,"ĠíĻľìĦ±íĻĶë¥¼":12422,"ĠFederal":12423,"ĠìĪĺìĥģíĸĪëĭ¤":12424,"ĠBre":12425,"ë¯¸ëĦĲ":12426,"ĠStat":12427,"Ġarchitecture":12428,"ìĦľì¹ĺ":12429,"ìģľ":12430,"Ġheadquarters":12431,"ĠCr":12432,"êµ¬ìĻĢ":12433,"ëª¨ëĵł":12434,"Ġìĸ¸ê¸īíĸĪëĭ¤":12435,"Ġvolume":12436,"ë°°ìļ°":12437,"Ġë¶Ħìķ¼ìĹĲ":12438,"Ġeditor":12439,"pton":12440,"ĠìķĦë©Ķë¦¬ì¹´":12441,"ëĥĲëĬĶ":12442,"ĠBab":12443,"ĠSing":12444,"íĸīìĤ¬":12445,"ĠëĤ´ìĻ¸":12446,"ì¹ĺê²Į":12447,"ĠìĿĺíķĺë©´":12448,"ĠìłĦê¹Įì§Ģ":12449,"ĠOl":12450,"ĠìĿĺíļĮ":12451,"ĠíķĺëĤĺìĿ¸":12452,"ĠFour":12453,"Ġheavily":12454,"ĠìĿ¸ìŀ¬":12455,"±·":12456,"Ġë¶Ģë¶ĦìĿĢ":12457,"ĠëĤ¨ëıĻ":12458,"Ġëĵ±ìŀ¥íķĺëĬĶ":12459,"ĠLove":12460,"ê±´ìĿĢ":12461,"Ġê±´ëĦĪ":12462,"ê³µëıĻ":12463,"oston":12464,"onym":12465,"ë¬¸íĻĶìŀ¬":12466,"Ġtim":12467,"ĠíĬ¸ìľĦ":12468,"ĠìĻĦìłĦ":12469,"Ġacts":12470,"chester":12471,"Ġëĭ´ê¸´":12472,"Ġneut":12473,"Ã§":12474,"Ġdefeat":12475,"Ġsn":12476,"Ġë°©ë²ķìľ¼ë¡ľ":12477,"Ġë¶Ģê°ģ":12478,"Ġhands":12479,"Ġsle":12480,"Ġsides":12481,"life":12482,"Ġrejected":12483,"2024":12484,"ĠëĤĺìĦ¤":12485,"èĩ":12486,"ëł¹ìĿĦ":12487,"Ġëįķë¶ĦìĹĲ":12488,"ĠìĤ¬ìĻ¸":12489,"ìĸ´ìļĶ":12490,"itled":12491,"bt":12492,"Ġcho":12493,"stream":12494,"ĠVan":12495,"ĠPoland":12496,"ë¬µ":12497,"ĠìĭĿë¬¼":12498,"ëŁ¼ìĹĲëıĦ":12499,"íį¼ëŁ°ìĬ¤":12500,"Ġattempts":12501,"Ġìĸ»ê³ł":12502,"Ġclosely":12503,"ĠìĹĦì²Ń":12504,"ĠíĨµíĻĶìłķì±ħ":12505,"oration":12506,"Ġë°©ìĹŃ":12507,"Ġë²Īì§¸ë¡ľ":12508,"ĠìķĪëĵľë¡ľìĿ´ëĵľ":12509,"ĠíĥľêµŃ":12510,"emp":12511,"Ġapproved":12512,"Ġìĭľì¦ĮìĿĦ":12513,"ĠíıīìĨĮ":12514,"ëĭĪìłĢ":12515,"Ġìłķë³´íĨµìĭł":12516,"Ġìĭ¤ìĹħ":12517,"ìĿ¸ìĹĲê²Į":12518,"ìĪĺì¤Ģ":12519,"íķĺìĹĲ":12520,"ixt":12521,"ĠíķĺëĬĺ":12522,"Ġmotion":12523,"ĠíĮ¨íĤ¤ì§Ģ":12524,"Ġì§Ģì¶ľ":12525,"Ġë¶ĢëĮĢ":12526,"Ġì§ĢìĽĲíķĺê³ł":12527,"ĠíĮĿ":12528,"ĠStan":12529,"resh":12530,"Ġìĭłíķľê¸ĪìľµíĪ¬ìŀĲ":12531,"ĠTour":12532,"erc":12533,"ĠëĤ´ê°ģ":12534,"Ġì±Ļ":12535,"ìĿ¼ìĿ´ëĭ¤":12536,"íĳ¸ëĵľ":12537,"ì¡°ì°¨":12538,"hedral":12539,".âĹĩ":12540,"å¥":12541,"Is":12542,"Ġbad":12543,"ĠìĿ¼ì¹ĺ":12544,"Ġë°ĺëĮĢë¡ľ":12545,"Ġliterary":12546,"ĠCarl":12547,"Ġíĺģëªħ":12548,"otic":12549,"ĠëĮĢíĳľíķĺëĬĶ":12550,"ìĿ´ë©´":12551,"Ġê³ĦìĬ¹":12552,"ê³µê¸ī":12553,"gor":12554,"ĠSand":12555,"ìĨĮìĭľ":12556,"ĠìĤ¬ìĿ´íĬ¸":12557,"ager":12558,"osite":12559,"Ġinhabitants":12560,"Ġë§ĮíĻĶ":12561,"ĠëıĻìŀĳ":12562,"Ġviews":12563,"ĠBob":12564,"Ġì»¤ë²Ħ":12565,"Ġìĥģíĥľë¡ľ":12566,"ê³½":12567,"Ġëĭ¹ì²¨":12568,"ìĥµ":12569,"Ġê±°ìłĪ":12570,"Ġì½Ķëĵľ":12571,"ĠíķĺìŀĲ":12572,"Ġê°ĢëĬ¥íķł":12573,"Ġcauses":12574,"Ġ(),":12575,"ĠCorn":12576,"Ġë°©íķ´":12577,"Ġë§ŀê²Į":12578,"ĠìĦ¸íĬ¸":12579,"Ġhun":12580,"ìĿ´ëĤł":12581,"ê²ģ":12582,"ìĭłìĿĢ":12583,"aska":12584,"Ġë³ĦëıĦë¡ľ":12585,"ìĺ¤ì¹´":12586,"Ġdaily":12587,"ĠìĹ°ëĤ´":12588,"Ġê²ĮìŀĦìĿ´":12589,"ëĵľëĿ¼":12590,"Ġapplications":12591,"Ġbill":12592,"Ġforward":12593,"ãĢĢ":12594,"600":12595,"Ġìĭľìŀĳíķľëĭ¤":12596,"Ġë¯¼ê°Ĳ":12597,"ĠPhilip":12598,"ìĭłíĥģ":12599,"ìŀ¡ê³ł":12600,"ĠëĮĢì²´ë¡ľ":12601,"ĠFair":12602,"ëį°ìĬ¤":12603,"ìĤ°ë¬¼":12604,"ìķĪìłķ":12605,"ìŀĦê¸Ī":12606,"Ġtrial":12607,"Ġdecline":12608,"Ġtitles":12609,"Ġincreasingly":12610,"ìĥģìĹĲìĦľ":12611,"nce":12612,"ëĭĪìĿĺ":12613,"ìľłë¥¼":12614,"ĠíķĻìĪł":12615,"ë¥´ê¸°":12616,"ani":12617,"Ġ1910":12618,"Ġnor":12619,"ë¡łìĿ´":12620,"Ġë©Ķë¥´":12621,"Ġëħ¼ìŁģ":12622,"ìłĦìľ¼ë¡ľ":12623,"ĠëĨĴìķĺëĭ¤":12624,"Ġbands":12625,"uther":12626,"ì¦ĿìĿ´":12627,"ìķ¼êµ¬":12628,"Ġì½Ķë¯¸":12629,"Ġsearch":12630,"SP":12631,"Ġì§Ģëªħ":12632,"ĠìłĦíĺķ":12633,"SO":12634,"ĠLy":12635,"ĠResearch":12636,"Ġfifth":12637,"Ġparalle":12638,"Ġcontaining":12639,"ë¥ľ":12640,"Ġdefinition":12641,"rix":12642,"Ġentirely":12643,"Ġê¸°ìĹħìĿĢ":12644,"êº":12645,"ì¸µìĿĦ":12646,"Ġalt":12647,"Ġê¸°ìĹħëĵ¤ìĿĺ":12648,"ĠìłĲìĿ´ëĭ¤":12649,"Ġworldwide":12650,"Ġëħ¸íĬ¸":12651,"ĠëĨĴìĿ´ê³ł":12652,"ìŀĲìĿ´ëĭ¤":12653,"Ġseats":12654,"ĠGovernor":12655,"Ġë§Īë¦¬":12656,"Am":12657,"ĠìĿĺíķĺìĹ¬":12658,"Ġë³´ëĥĪëĭ¤":12659,"Ġcandidate":12660,"wid":12661,"Ġ1933":12662,"imb":12663,"ĠìĦ¸ìĽłëĭ¤":12664,"Ġpolicies":12665,"ìĦľìĻĢ":12666,"ĠëĦ¥ìĬ¨":12667,"Ġëª©íĳľë¥¼":12668,"Ġsubstant":12669,"yes":12670,"ĠìĭłëĿ¼":12671,"Hz":12672,"utation":12673,"Ġsecondary":12674,"Ġanimal":12675,"rees":12676,"Ġshape":12677,"Ġì§ģë¬´":12678,"Ġdoct":12679,"ìĿ¸ëĭ¹":12680,"ĠìĸĳëıĦ":12681,"To":12682,"ĠìŀĲìĤ°ìļ´ìļ©":12683,"Ġë³µìŀ¡íķľ":12684,"Ġmel":12685,"Ġopin":12686,"ĠStation":12687,"ĠSupreme":12688,"ê¸Ģë¡ľ":12689,"Ġrates":12690,"æĿ±":12691,"ĠìĽĲíĻľ":12692,"ĠìľĦíĥģ":12693,"Ġë¶Ģë¥¸ëĭ¤":12694,"Ġìĺ¤ë¦Ħ":12695,"thodox":12696,"ëĳĳ":12697,"ĠìŀŃ":12698,"Ġchurches":12699,"ë¹ĦìĿĺ":12700,"Ġì§Ĳ":12701,"ĠëĤĺìĬ¤":12702,"ì°½ì¡°":12703,"ceived":12704,"amin":12705,"bro":12706,"ëł¸ê³ł":12707,"ĠìĦłìłķëĲľ":12708,"Ġextrem":12709,"Ðº":12710,"ĠEp":12711,"ĠProv":12712,"ĠìĹ¬ìĿĺëıĦ":12713,"oln":12714,"ĠìĻ¸êµŃìĿ¸ìĿĢ":12715,"ìłľê³µ":12716,"Ġconnection":12717,"ë§ĪìĿĺ":12718,"ĠìķĬì§Ģë§Į":12719,"Ġresident":12720,"Ġë¸Įë¦¬":12721,"Ġemployed":12722,"ĠíļįëĵĿíĸĪëĭ¤":12723,"ĠëĲĺë©´ìĦľ":12724,"Ġìŀħë²ķ":12725,"ĠëĿĦ":12726,"Ġoffers":12727,"Ġfleet":12728,"ëĲľëĭ¤ëĬĶ":12729,"ĠìłĦë§ĿìĿ´":12730,"Ġë©´ìłľ":12731,"Ġëŀĺ":12732,"Ġcore":12733,"ĠìĬ¤íĭ°":12734,"inem":12735,"ĠNews":12736,"Ġê³³ìĹĲìĦľ":12737,"Ġdipl":12738,"Ġcontributed":12739,"Ġ83":12740,"Ġì§ĢëĬ¥":12741,"ĠnhíĪ¬ìŀĲì¦Ŀê¶Į":12742,"ati":12743,"ĠíĨłëĮĢë¡ľ":12744,"Ġë°ľìłĦìĿĦ":12745,"ĠëŀŃ":12746,"istical":12747,"Ġhero":12748,"Ġëļľëł·":12749,"Ġì°¨ê¸°":12750,"ĠíĨµíķ´ìĦľ":12751,"Ġê¸Īìľµê¶Į":12752,"ĠìĨĲìĿĦ":12753,"Ġê°ľìĿ¸ìĿĺ":12754,"hd":12755,"ĠìĤ¬ë§ĿíĸĪëĭ¤":12756,"Ġê°ķíĻĶíķĺê³ł":12757,"Pr":12758,"ĠëĮĢëŁī":12759,"BO":12760,"Ġunion":12761,"ìĦĿìĿ´":12762,"Ġë¬¼ê°Ģ":12763,"uses":12764,"Ġstream":12765,"organ":12766,"eller":12767,"2004":12768,"Ġë¹Ħìłķ":12769,"ĠìŀĪìĸ´ìķ¼":12770,"Ġ1914":12771,"Ġíķ©ëĭĪëĭ¤":12772,"Ġê°ĲìķĪíķĺë©´":12773,"Ġê²½ìļ°ëĬĶ":12774,"ĠìĿ´ìĽĥ":12775,"Ġchosen":12776,"ĠìĦłë³´ìĿ¼":12777,"Ġê³µìŀĳ":12778,"top":12779,"Ġê°ĢìĬ¤":12780,"Ġê²ªê³ł":12781,"ĠìĿ¸ìłĳ":12782,"Ġê¸°ìķĦ":12783,"erick":12784,"Ġíķľì¸µ":12785,"Ġfighting":12786,"fall":12787,"Ġcontained":12788,"iling":12789,"Ġì§Ħì¶ľìĿĦ":12790,"ëı¼ìķ¼":12791,"Ġdescribes":12792,"Ġbul":12793,"ë²łìĿ´ìĬ¤":12794,"ìļĶê¸Ī":12795,"ìĿĺìĽĲ":12796,"ĠìĭľìĬ¤íħľìĿĢ":12797,"racy":12798,"ĠëĮĢíĳľìĿ´ìĤ¬":12799,"Ġì¢ħë¥ĺìĿĺ":12800,"Ġì¶Ķì§Ħíķł":12801,"ì¦Ĳ":12802,"Ġ1935":12803,"rons":12804,"Ġcolonial":12805,"ruit":12806,"stead":12807,"rance":12808,"nel":12809,"ĠíĶĦëĿ¼":12810,"ĠêµĲê³¼":12811,"ë©Ķëī´":12812,"fe":12813,"illy":12814,"Ġsignal":12815,"ĠKent":12816,"ĠPhilipp":12817,"åĽ":12818,"Ġì§ĢìĨįëĲł":12819,"íĮľ":12820,"Ġhistorian":12821,"vest":12822,"æī":12823,"itors":12824,"ĠLittle":12825,"lan":12826,"Ł³":12827,"Ġê´Ģëł¨ìĿ´":12828,"ĠScottish":12829,"Ġfaith":12830,"cious":12831,"ĠíĶ½":12832,"Ġyour":12833,"thlet":12834,"ĠíĬ¹ìĦ±ìĿĦ":12835,"åĭ":12836,"Ġìľłë§Ŀ":12837,"ĠíĺĦìŀ¥ìĹĲìĦľ":12838,"ëªħìĹĲê²Į":12839,"Ġtransferred":12840,"ìĦ¤ëªħ":12841,"ĠSecretary":12842,"Ġì£¼ê°Ħ":12843,"Ġê²ĥìŀħëĭĪëĭ¤":12844,"Ġëª¨ìĥī":12845,"ëĦ¬":12846,"Ġëĭ¨ì¶ķ":12847,"Ġid":12848,"IP":12849,"ìĿ´ëĿ¼ëıĦ":12850,"ìĪ¨":12851,"ĠCharl":12852,"ĠLuc":12853,"Ġdescript":12854,"asy":12855,"Ġcounties":12856,"ìĿ´ì§Ģë¥¼":12857,"ìºĶ":12858,"ë³´ê°Ģ":12859,"Ġìĸ»ìĿĢ":12860,"ê³łëıĦ":12861,"ê¶":12862,"Ġìłķë§Ĳ":12863,"Ġpopularity":12864,"ĠìĹ°êµ¬ìĹĲ":12865,"ìĬ¤íĭ°ë²Į":12866,"ë¦¬ëĭ¤":12867,"åĬ":12868,"ìĤ¬ìĬ¤":12869,"ĠìķĦìĭľìķĪ":12870,"cou":12871,"ĠëģĿëĤľ":12872,"Ġsucceeded":12873,"king":12874,"ĠFound":12875,"Ġëª¨ë©ĺ":12876,"Ġcool":12877,"ĠìĺģìĽħ":12878,"ĠConfeder":12879,"ìķĦë¥´":12880,"Ġmedieval":12881,"ìłĦíĻĶ":12882,"ogen":12883,"ĠìĿ´íĽĦìĹĲëĬĶ":12884,"Ġscope":12885,"Ġsequence":12886,"Ġtrees":12887,"ìłĦê³¼":12888,"Ġìĩł":12889,"ĠìķĦíĬ¸":12890,"ĠìŀĲê¸°ìŀĲë³¸":12891,"met":12892,"Ġruled":12893,"Ġë¬´ëłµ":12894,"Ġperformances":12895,"ê°ĲìĤ¬":12896,"ĠìĦłíĥĿíķł":12897,"ĠëĤ¨íİ¸":12898,"weight":12899,"ounder":12900,"Ġrein":12901,"Ġëħ¸ëł¥íķĺê²łëĭ¤":12902,"agan":12903,"Ġë¬´ìŀ¥":12904,"ĠNether":12905,"Ġbass":12906,"Ġíķ´ì²´":12907,"Ġì£¼ìŀ¥íķľëĭ¤":12908,"ĠìĹĲíĶ¼":12909,"ĠPope":12910,"Ã±":12911,"ìĿ´ìĹĪê³ł":12912,"Ġ4000":12913,"ĠìķĬê²Į":12914,"Ġì¦Ŀìĭľê°Ģ":12915,"Ġapplication":12916,"Ġì§ľ":12917,"Ġly":12918,"ìľĦìĽĲìŀ¥":12919,"ê±´ìĹĲ":12920,"Ġê¸¸ìĿĦ":12921,"Ġë²łìĿ´ì§ķ":12922,"ëª¨ë¥¼":12923,"ë§µ":12924,"ĠìķĦíĭ°ìĬ¤íĬ¸":12925,"íĥĢë¥¼":12926,"Ġê¸Īíĺ¸":12927,"ĠSweden":12928,"Ġìķ¼ë§Ī":12929,"ê¹ĥ":12930,"ĠìĽĲìĿ¸":12931,"western":12932,"Ġcontinues":12933,"ador":12934,"ĠìŀĳíĴĪìĿĢ":12935,"ĠìķŀìĹĲ":12936,"Ġì¶Ķê°ĢìłģìĿ¸":12937,"ĠìĤ¬ìļ©ìŀĲê°Ģ":12938,"portation":12939,"Ġì¢ĭì§Ģ":12940,"ìĤ¬ëŀĮ":12941,"Ġê¸Īê°ĲìĽĲìĿĢ":12942,"Ġacademic":12943,"Ġê¸Īìľµê¸°ê´Ģ":12944,"ĠìºĶ":12945,"íĭ°ëĤĺ":12946,"ë°Ķëĭ¤":12947,"Ġë¶Ģìŀĳìļ©":12948,"Ġë§ĲìĿ´ëĭ¤":12949,"ĠëĶ°ë¡ľ":12950,"Ġfirm":12951,"ë¶ĢìĹĲìĦľ":12952,"Ġ81":12953,"Ġë§¤ëł¥":12954,"ë¹Ĺ":12955,"orning":12956,"Ġë©Ķëª¨ë¦¬":12957,"Ġstandards":12958,"Ġwant":12959,"ĠëĦ£ìĸ´":12960,"Ġê²½íĸ¥ìĿ´":12961,"Ġìłķë¶ĢìĻĢ":12962,"idents":12963,"Ġë¬´ìĹĩë³´ëĭ¤":12964,"Ġdeveloping":12965,"Ġlives":12966,"ĠêµŃíļĮìĿĺìĽĲ":12967,"achus":12968,"ê³łìĿĺ":12969,"ĠìĿ¼ìŀĲ":12970,"Ġroutes":12971,"ì£¼ìĹĲìĦľ":12972,"Ġcombat":12973,"Ġnarrow":12974,"Ġë°©ë²ķìĿĢ":12975,"ë¶Ģìŀ¥":12976,".âĸ¶":12977,"ĠìĨĶë£¨ìħĺìĿĦ":12978,"ĠìŀĲìľłë¡Ńê²Į":12979,"ëĶĶìħĺ":12980,"ìķĦë²Ħ":12981,"Ġcontinuous":12982,"come":12983,"Ġdog":12984,"Ġíĸ¥íķ´":12985,"lywood":12986,"ĠëıĻìĥĿ":12987,"Ġë°°ìłľ":12988,"ì°¾":12989,"aming":12990,"ĠíĻķëĮĢíķł":12991,"å»":12992,"Ġ110":12993,"ĠTai":12994,"ĠíĶĮë¡ľ":12995,"inals":12996,"Ġëĵ¤ê³ł":12997,"ĠLeg":12998,"cription":12999,"ĠìĬ¤íĥł":13000,"ìķĦìķ¼":13001,"ĠíķĺëĵľìĽ¨ìĸ´":13002,"ì§ĦìĿĺ":13003,"ì°¨ìĿĺ":13004,"Ġuniform":13005,"Î±":13006,"ĠShow":13007,"Ġfestival":13008,"Ġvess":13009,"ĠëıĻìĺģìĥģ":13010,"ĠìĬ¤íĨłë¦¬":13011,"ĠíİĺìĿ´ì§Ģ":13012,"ĠOhio":13013,"Ġê±·":13014,"Ġarts":13015,"ĠìłĢìŀĳê¶Į":13016,"ìĪĺì¶ľ":13017,"ëłĺ":13018,"Ġreasons":13019,"Ġcomedy":13020,"ienced":13021,"Ġfr":13022,"ĠTreaty":13023,"Ġíı¬íķ¨íķĺìĹ¬":13024,"ĠíĿĶëĵ¤":13025,"ĠìĹĦê²©":13026,"ĠìĿ´ë°ĸìĹĲ":13027,"Ġë°©íĸ¥ìĿĦ":13028,"book":13029,"ë³µìĿĦ":13030,"Ġsche":13031,"Ġconvers":13032,"Ġtracks":13033,"zer":13034,"opher":13035,"ĠHistoric":13036,"ĠëıĦìĻĢ":13037,"Ġê³µêµ°":13038,"ĠìĤ¬íļĮê³µíĹĮ":13039,"ĠëĭµíĸĪëĭ¤":13040,"Ġformat":13041,"Ġì¶Ķìłģ":13042,"ì¸µìĹĲ":13043,"ë°ľìĿĦ":13044,"Ġíķľíķ´":13045,"ĠìĤ¬ê±´ìĿĦ":13046,"Ġì¤ĳìĹĲìĦľëĬĶ":13047,"ë±ħíĤ¹":13048,"Ġregistered":13049,"ĠCommun":13050,"ì£¼ëħĦ":13051,"Ġìŀ¬ìĥĿ":13052,"ĠìĥĿê²¨":13053,"Ġëª½ê³¨":13054,"Ġreports":13055,"Ġì²łê°ķ":13056,"ĠTim":13057,"Ã¸":13058,"Ġë·°":13059,"ĠãĪľ":13060,"ĠìĿ´ë¯¼":13061,"ĠGro":13062,"Ġacting":13063,"Ġic":13064,"ĠìŀĲìĤ´":13065,"ê¸°ê°ĦìĿĢ":13066,"iary":13067,"ìŀ¬ë£Į":13068,"êº¼":13069,"Ġìĺ¤ëŀĺëĲľ":13070,"Ġmaximum":13071,"Ġspecifically":13072,"Ġhomeowner":13073,"Ġcycle":13074,"Ġê²¹":13075,"Â·<":13076,"Ġrelative":13077,"Ġëª¨ëĵľ":13078,"Ġprincipal":13079,"íĤ·":13080,"ĠìĿ´ìĻ¸ìĹĲëıĦ":13081,"ìĽį":13082,"ĠêµĲìĤ¬":13083,"ĠìķĪìłĦíķľ":13084,"Ġëĭ¨íĸī":13085,"bb":13086,"ĠField":13087,"ìĭĿê³¼":13088,"Ġfolk":13089,"Ġslightly":13090,"ìĭľìŀ¥ìĿĢ":13091,"ëĮĢíķľë¯¼êµŃ":13092,"ĠìľłìĿĺ":13093,"Ġëĭ¬ì½¤":13094,"Ġê°Ĳìĭľ":13095,"Ġdraft":13096,"ieties":13097,"ĠBa":13098,"ĠíĿ¬ìĥĿ":13099,"ìĬ¤íĨłìĸ´":13100,"dp":13101,"ĠìĺĪìĦł":13102,"Ġequivalent":13103,"ëıĦë¥´":13104,"EA":13105,"ĠìľłìĹ°":13106,"êµĲìĿĺ":13107,"etts":13108,"Ġìļ°ë¦¬ìĿĺ":13109,"ë°Ģíķľ":13110,"ĠëĤ´ëĬĶ":13111,"ĠíģĲ":13112,"Ġê°ľìŀ¥":13113,"ĠìĬ¤íĥĢëĶĶìĽĢ":13114,"Ġaccur":13115,"Ġ1934":13116,"Ġíķ«":13117,"ìĺ¤íĶĦ":13118,"ìĤ°ìľ¼ë¡ľ":13119,"ĠìĤ¬ìļ©íĸĪëĭ¤":13120,"Ġpublication":13121,"ĠìĦ¸ê³Ħìłģìľ¼ë¡ľ":13122,"ìĪĺìĪĺ":13123,"iat":13124,"Ġdifferences":13125,"width":13126,"ĠCross":13127,"ĠëĭŃ":13128,"ĠíļĮìĤ¬ì±Ħ":13129,"Ġelim":13130,"ĠíĽĦìĹĲëĬĶ":13131,"Ġstep":13132,"iser":13133,"Ġdetect":13134,"Ġìĭłë¬¸":13135,"Ġstrength":13136,"ĠìĪľíĻĺ":13137,"such":13138,"ĠíħĮíģ¬":13139,"ëĿ¼ëħ¸":13140,"ĠëĬĺìĸ´ëĤł":13141,"ĠìĦ±ë¦½":13142,"ëĭŃ":13143,"Ġë°ľíĳľëĲľ":13144,"ĠCop":13145,"íĺ¸ìĹĲ":13146,"Ġvehicles":13147,"ĠìĤ¬ëĤ´":13148,"term":13149,"ĠEach":13150,"uten":13151,"Ġíŀĺëĵł":13152,"omew":13153,"ĠìĦ¸ëĮĢ":13154,"ìĪľíĻĺ":13155,"Ġclasses":13156,"Ġì²ľíĻ©":13157,"ìĬĪíĥĢ":13158,"Ġëĭ¤ìļ°":13159,"Ġìķ½ê°Ħ":13160,"Ġíı¬íķ¨íķľëĭ¤":13161,"Ġfactor":13162,"ê³ĦëĬĶ":13163,"ĠíķĻìĥĿëĵ¤ìĿ´":13164,"uts":13165,"Ġìĺ¤ë¥¸ìª½":13166,"Ġëĭ¤ìļ´ë¡ľëĵľ":13167,"Ġreaction":13168,"ĠRailroad":13169,"ĠìĹĩ":13170,"rastructure":13171,"Ġìĸ»ìĸ´":13172,"Ġpop":13173,"ĠìłĦíķ´ì¡Įëĭ¤":13174,"Ġunable":13175,"ê°ľìĽĶê°Ħ":13176,"¼ìĨĲ":13177,"ìłķìľ¼ë¡ľ":13178,"ìĹ¬ëªħìĿ´":13179,"ĠìĥģìĥĿ":13180,"law":13181,"Ġì¦Ĳê¸°ëĬĶ":13182,"Ġê²½ë¶ģ":13183,"incoln":13184,"ĠAge":13185,"Ġfacility":13186,"III":13187,"ĠêµĲë¥ĺ":13188,"Ġadvanced":13189,"Ġê³³ìĿ´":13190,"ìłĦìŀĲëĬĶ":13191,"Ġê¸°ìĹħìĿĦ":13192,"Ġë²łìĿ´ìĬ¤":13193,"èĪ":13194,"Ġ1929":13195,"ĠìłĦìŀ¥":13196,"ĠThree":13197,"ì¼°ëĭ¤":13198,"Ġ'(":13199,"Ġìĭłìķ½":13200,"Ġì¤ĳìĹĲëĬĶ":13201,"Ġscore":13202,"âĪĴ":13203,"Ġë³´íķ©":13204,"ĠRh":13205,"Man":13206,"ĠíĮĮìĽĮ":13207,"íĭĢëŀľëĵľ":13208,"Ġoutput":13209,"ĠìłĦì²´ìĿĺ":13210,"íĮĮìĿĺ":13211,"Ġë³´ìĿ´ë©°":13212,"Ġë¯¼ì£¼ëĭ¹":13213,"Ġsetting":13214,"ĠíļĮìĤ¬ê°Ģ":13215,"ĠBrook":13216,"ë¯¸ê°Ģ":13217,"rates":13218,"Ġì§Ģê¸ĪìĿĢ":13219,"ĠìĿ´ìĿµìĿĦ":13220,"ĠìĿ´ìĸ´ì§Ģê³ł":13221,"ulture":13222,"Ġë°ľìĥĿíķľëĭ¤":13223,"Ġcontrolled":13224,"ĠìĭľëĤ´":13225,"ĠìĨĮìĪĺ":13226,"Ġaffected":13227,"ĠIndepend":13228,"Ġobtained":13229,"Ńī":13230,"Ġoffices":13231,"Ġbit":13232,"Ġê±°ëĮĢíķľ":13233,"Ġìłģìļ©íķ´":13234,"?\"":13235,"Ġëĵ¤ìĹ¬":13236,"Ġhosted":13237,"Ġpiece":13238,"ĠíĹĿê°Ģ":13239,"Ġêµ¬ì¡°ì¡°ìłķ":13240,"Ġê°Ģê³µ":13241,"ê²°íķ©":13242,"Ġìłķì§Ģ":13243,"Ġêµ¬ë³Ħ":13244,"ê´Ģê³¼":13245,"Ġê°Ĳì§Ģ":13246,"Ġëĵ¤ìĹĪëĭ¤":13247,"ÑĤ":13248,"íį¼ìĬ¤":13249,"IN":13250,"ĠLife":13251,"ĠSwedish":13252,"ìĤ°ìĿ´":13253,"ëģĦ":13254,"Ġmurder":13255,"ĠëĨĴê²Į":13256,"ĠíĻĶìĿ´íĬ¸":13257,"2002":13258,"Ġë°¥":13259,"êµŃìĹĲìĦľ":13260,"CO":13261,"Ġíĥľìĸ´ëĤľ":13262,"MP":13263,"ĠTre":13264,"ë²łë¦¬":13265,"Ġì´Ŀë¦¬":13266,"ĠìĤ¬ì§ĦìĿĦ":13267,"Ġtal":13268,"ĠìľłìłĦìŀĲ":13269,"comm":13270,"ĠScience":13271,"Ġcas":13272,"ĠClark":13273,"ĠCastle":13274,"ĠMah":13275,"ĠBus":13276,"ouch":13277,"Ġenjoy":13278,"ë§ĪìĿ¼":13279,"Ġcars":13280,"ĠíļĮìŀ¥ìĿĺ":13281,"ëĪĦë¦¬":13282,"Ġroads":13283,"then":13284,"ì£¼ê¸°":13285,"ĠíĮĢìĿĢ":13286,"ìŀĲìľł":13287,"Ġetc":13288,"ĠíĻĶëł¤":13289,"ìķłíĶĮ":13290,"ĠRog":13291,"ĠëĮĢìĥģìĿ´":13292,"ì§ĢìĿ¸":13293,"ĠìĹĨì§Ģë§Į":13294,"1980":13295,"íĻķìĿ¸":13296,"including":13297,"Ġstrateg":13298,"Ġë³´íĹĺìĤ¬":13299,"ìĤ¬ìĹħìŀĲ":13300,"íģ¬ìĿĺ":13301,"Ġbroke":13302,"Ġipo":13303,"vant":13304,"Ġì§ĢìłģìĿ´":13305,"Ġsuggests":13306,"Ġpossibly":13307,"ĠìĤ¬ìĹħìĿĢ":13308,"ĠWilson":13309,"amic":13310,"Ġê³³ìĿĢ":13311,"Ġìĭľë¦¬ìķĦ":13312,"Ġë²łë¥¼ë¦°":13313,"ĠBoston":13314,"Ġring":13315,"Ġìĺ¤ëĶĶìĺ¤":13316,"ë°Ľì¹¨":13317,"ella":13318,"Ġcombination":13319,"Ġë»":13320,"ĠForm":13321,"Ġë¶ĢíĻľ":13322,"ML":13323,"erry":13324,"ìĭľíĶ½":13325,"omy":13326,"ĠìłģìĿĳ":13327,"Ġê±±ìłķ":13328,"ĠìĮĢ":13329,"Ġì¹ĺë£Įë¥¼":13330,"Mus":13331,"ilarly":13332,"ĠìĪĺë°±":13333,"ĠFoot":13334,"Ġexped":13335,"Ġë¹Ħìļ©ìĿ´":13336,"Ġìµľìļ°":13337,"hetic":13338,"150":13339,"ĠíĮĲë§¤ë¥¼":13340,"Ġadministrative":13341,"ĠìĦ¹":13342,"ĠìĹ°ì²´":13343,"êµŃìľ¼ë¡ľ":13344,"Ġ1932":13345,"ĠìĦ¸ê¸Ī":13346,"ìĶ¨ìĨĮíĶĦíĬ¸":13347,"ĠíĪ¬ìŀĲíķĺëĬĶ":13348,"Ġabandoned":13349,"Ġìħĭ":13350,"ĠëĤ©ë¶Ģ":13351,"TS":13352,"Ġë¨¸ë¦¬":13353,"ĠëĨĴìĺĢëĭ¤":13354,"La":13355,"Ġìķī":13356,"ì¹ĺìĻĢ":13357,"ãİŀ":13358,"Ġcoord":13359,"burgh":13360,"def":13361,"Ġagricultural":13362,"Ġcarry":13363,"Ġê¼½íŀĮëĭ¤":13364,"ê±´ìĦ¤ìĿĢ":13365,"Ġê¹Ķ":13366,"Ġì°¸ìĦĿíĸĪëĭ¤":13367,"ëĭ¹ìĭľ":13368,"rete":13369,"eler":13370,"ĠëĬĲê»´":13371,"Ġsafety":13372,"íħĮìĿ¼":13373,"ëĲĲì§Ģë§Į":13374,"ĠìĦ¸ê³ĦìłģìĿ¸":13375,"Ġë¹Ħìľ¨ìĿ´":13376,"Ġconfirmed":13377,"Ġaid":13378,"Ġëĭ¨ìĪľíķľ":13379,"ìĥģëĭ´":13380,"ìłķë³´ë¥¼":13381,"His":13382,"Ġcausing":13383,"ĠíĺĦìĥģ":13384,"Ġdifference":13385,"ĠGuard":13386,"Ġopposite":13387,"ĠíĨłì§Ģ":13388,"Ġmoment":13389,"ëį±":13390,"nament":13391,"ìĿĺìķ½íĴĪ":13392,"US":13393,"rec":13394,"ìĦ±íķľ":13395,"éģĵ":13396,"Ġpermanent":13397,"real":13398,"ìĹħì¢ħ":13399,"gest":13400,"ĠDar":13401,"ĠìľłìĿ¼íķĺê²Į":13402,"Ġpossess":13403,"ĠìĤ¬ëŀĮëĵ¤ìĿĺ":13404,"ĠìĤ½":13405,"Ġë¦´":13406,"Ġpair":13407,"Ġbirds":13408,"Ġê¸īìĹ¬":13409,"Ġcouple":13410,"ĠìķĪìĭ¬":13411,"ĠFire":13412,"Ġê°Ģì§Ī":13413,"aph":13414,"Col":13415,"ĠíĮĢìĿ´":13416,"ĠëĤĺíĥĢëĤľëĭ¤":13417,"Ġcopy":13418,"Ġbodies":13419,"ĠAsh":13420,"Ġìľłëł¥":13421,"ĠëĮĢë¶Ģë¶ĦìĿĢ":13422,"Ġ1917":13423,"Ġpros":13424,"een":13425,"jo":13426,"ë¶Ħìĸĳ":13427,"Ġdeclined":13428,"ĠBell":13429,"Ġrepeated":13430,"2025":13431,"inson":13432,"ëłĪëĤĺ":13433,"ç¦":13434,"íģ¬ë¥¼":13435,"Ġë°©ì¶ľ":13436,"250":13437,"emic":13438,"Ġnotably":13439,"Ġëĭ¹ìĿ¼":13440,"ĠêµŃíĨłêµĲíĨµ":13441,"Ġsun":13442,"Ġë³ĢíĻĶìĹĲ":13443,"Ġë¬´ìĭľ":13444,"Ġì£¼ì§Ģ":13445,"ĠëıĮìŀħ":13446,"Ġì¡°ê±´ìĿĦ":13447,"Ġeld":13448,"Ġëĭ¹ìĤ¬":13449,"ì°¨ìĽĲ":13450,"Ġë³´ê³łìĦľ":13451,"Ġê°ĸëĬĶ":13452,"ê¶Įê³¼":13453,"Ġíķĺê²łëĭ¤":13454,"ĠOcean":13455,"ĠìĿ´ëģĮê³ł":13456,"Ġì¡°ìĤ¬ëĲĲëĭ¤":13457,"Ġburied":13458,"ë³´ëĭĪ":13459,"ĠPrime":13460,"ĠìĬ¹ê²©":13461,"oking":13462,"Ġfiction":13463,"ìĦ¸ê¸°ìĹĲ":13464,"Ġones":13465,"ì§Īëŀľëĵľ":13466,"åŁİ":13467,"Ġê°Ģê²©ìĹĲ":13468,"room":13469,"Ġwides":13470,"Ġê³ĦìĨįíķ´ìĦľ":13471,"Ġì¥Ĳ":13472,"ê¸°ìĦľ":13473,"Ġshop":13474,"Ġíĥľíıīìĸĳ":13475,"ë£¬ëĭ¤":13476,"ĠìĪĺìĿµë¥łìĿĦ":13477,"Ġregarding":13478,"eld":13479,"Ġìŀ¬ë°°":13480,"ĠìĦľìļ¸ëĮĢ":13481,"awn":13482,"ì§Ģê¸ī":13483,"Ġsurvey":13484,"Ġinstitution":13485,"))":13486,"Ġcrim":13487,"Ġtemperatures":13488,"ĠíķľêµŃíĪ¬ìŀĲì¦Ŀê¶Į":13489,"Ġë¶Ģê·¼":13490,"Ġìĭ¤ì§ĪìłģìĿ¸":13491,"Ġê³Ħê¸°ê°Ģ":13492,"Ġdowntown":13493,"ĠMen":13494,"ĠSar":13495,"Ġë©Ī":13496,"Ġepisodes":13497,"If":13498,"ĠíļĮìĪĺ":13499,"Ġë°°ìĨ¡":13500,"ĠíĻķë¦½":13501,"heim":13502,"ĠíĺĲ":13503,"Ġì°¸ìĹ¬íķ´":13504,"iversary":13505,"Ġbond":13506,"ìĦ°":13507,"Ġdance":13508,"Ġê³łìĨį":13509,"Ġê°ĲëıħìĿĢ":13510,"aka":13511,"Ġdeliver":13512,"ÂłčĊ":13513,"Ġsinger":13514,"Ġchoice":13515,"Ġ;":13516,"ìĬ¤íĬ¸ëĿ¼":13517,"ĠìĤ¬ëª¨íİĢëĵľ":13518,"ĠìŀĲë¦¬ìĹĲìĦľ":13519,"Ġëķ":13520,"Ġíķľëĭ¬":13521,"Ġlearning":13522,"ĠMunicip":13523,"ë¡łìĿĺ":13524,"ê´ĳê³ł":13525,"ĠíĥľíĴį":13526,"ĠìŀĪìĹĪëĬĶëį°":13527,"iro":13528,"ĠBul":13529,"ĠìĹ´ìĹĪëĭ¤":13530,"ìĬ¤íĬ¸ëĬĶ":13531,"Ġë¨¸ëĭĪ":13532,"ëĮĢêµ¬":13533,"Ġê·¸ì³¤ëĭ¤":13534,"ë¬¼ìĿ¸íĦ°ëĦ·":13535,"ĠìĿ´ìĥģìľ¼ë¡ľ":13536,"ĠìłĦëŀµìłģ":13537,"Ġìĭ¶ëĭ¤":13538,"ë¦¬ìķĪ":13539,"Ġcoming":13540,"ĠíİĢ":13541,"Ġyounger":13542,"ĠíķľêµŃê±°ëŀĺ":13543,"ĠëĨĴìĿ¼":13544,"ĠêµĲë³´":13545,"Ġì¡°íķŃ":13546,"ĠìĹħê·¸ëłĪìĿ´ëĵľ":13547,"Ġíģ¬ê¸°":13548,"Ġìĭľìŀ¥ìĹĲìĦľëĬĶ":13549,"ĠNetherlands":13550,"Ġê³¼ëıĦíķľ":13551,"pread":13552,"ĠFar":13553,"ĠìĿĺê²¬ìĿ´":13554,"Ġìłľê³µíķ´":13555,"ëĭĪì¦ĺ":13556,"Ġíģ¬ê³ł":13557,"ĠìĿĮë°ĺìĿ´ëĭ¤":13558,"Ġê¸°ë¡Ŀíķ´":13559,"Ġë°ķë¬¼ê´Ģ":13560,"ìĪłìĿĦ":13561,"ĠìķĪìĹĲìĦľ":13562,"ëĵ¤ê³¼ìĿĺ":13563,"ava":13564,"ĠìłĦìĽĲ":13565,"ĠíļĮìĿĺë¥¼":13566,"ì²´ìĻĢ":13567,"ĠSong":13568,"Ġì§ģìŀ¥":13569,"Ġenvironmental":13570,"ê²½ê¸°ìĹĲ":13571,"ë²Ķì£Ħ":13572,"íķĺìĿĺ":13573,"Ġswe":13574,"Ġê·¸ëŁ¬íķľ":13575,"2003":13576,"Ġsolo":13577,"Ġë³´ìĿ¸":13578,"ìĦ¸ì¢ħ":13579,"overnment":13580,"Ġìĥģë¬´":13581,"ĠíĮĢìĿĦ":13582,"Ġìŀ¥ìķħ":13583,"zy":13584,"íĸ¥íĽĦ":13585,"ĠìĤŃìłľ":13586,"Ġì£¼íĮĮìĪĺ":13587,"Ġviolence":13588,"íİĺëĿ¼":13589,"Ġgeneration":13590,"Ġë§ºê³ł":13591,"ĠìŀĪìľ¼ë©´":13592,"ĠëģĮìĸ´ìĺ¬":13593,"ĠBlue":13594,"Ġë±ħ":13595,"ĠìĤ¶ìĿĦ":13596,"ë¯¸ëĬĶ":13597,"ê¾¼":13598,"íĥĢìŀĦ":13599,"ĠGood":13600,"Ġevolution":13601,"chestra":13602,"Ġë°ľíľĺ":13603,"Ġhappen":13604,"Ġë³´ëĤ¸":13605,"ĠíĤ¤ìĽĮ":13606,"ĠìĬ¹ì§Ħ":13607,"Ġestate":13608,"ì¹ĺê¸°":13609,"ĠMarsh":13610,"ë¿":13611,"ĠìĹ°ë£Į":13612,"Ġíķ¸":13613,"Ġìłľìŀĳíķľ":13614,"ĠíĮĲë§¤íķĺëĬĶ":13615,"íĻĶìŀ¬":13616,"Ġë¹Ĺ":13617,"Ġê±´ë¦½":13618,"Ġwall":13619,"ĠDVD":13620,"ĠìĦľìļ¸íĬ¹ë³Ħìĭľ":13621,"Ġìĭłìŀħ":13622,"łíķľ":13623,"Ġê²°ê³¼ëĬĶ":13624,"ĠKong":13625,"Ġgoods":13626,"ãĥ»":13627,"Ġalleged":13628,"Ġwriters":13629,"aug":13630,"ëħĦê²½":13631,"ë¶ĢíĴĪ":13632,"Ġadap":13633,"inois":13634,"Ġdang":13635,"Com":13636,"Ġlegend":13637,"ĠíĶĦëĿ¼ìĿ´":13638,"Ġìłĳëª©":13639,"ĠìĦ¤ë¹Ħ":13640,"worth":13641,"Ġven":13642,"Ġpractices":13643,"Ġì¶Ķì§Ħíķĺê³ł":13644,"ìľłíĨµ":13645,"Ġattacked":13646,"Ġpieces":13647,"ĠHealth":13648,"Ġtypical":13649,"ê³łìļ©":13650,"ĠìŀĲìĦ¸":13651,"Ġadvantage":13652,"CD":13653,"idge":13654,"ìĿ´ëıĻ":13655,"Ġê±°ëŀĺìĨĮ":13656,"Ġíĺ¸íĿ¡":13657,"Ġmap":13658,"Ġ119":13659,"Ġë¶ĢìłķìłģìĿ¸":13660,"Ġëĵ£ê³ł":13661,"Ġfellow":13662,"ĠìĹ°ë§¹":13663,"ĠëĿ¼íĭ´":13664,"Ġë§¡ìĿĢ":13665,"fa":13666,"ĠìĥģìŀĦ":13667,"Ġestablishment":13668,"En":13669,"dr":13670,"ĠìĦ¸ìļ´":13671,"Ġëĭ¹ë¶Ħê°Ħ":13672,"Ġë³¸ìĤ¬":13673,"ìĹĲë¥´":13674,"Ġwarm":13675,"ĠCy":13676,"ĠìĺĪìĥģëĲĺëĬĶ":13677,"Ġunknown":13678,"ĠëĤ©ìŀħ":13679,"ĠTime":13680,"ashion":13681,"Ġê³µê°ĦìĿĦ":13682,"ĠWild":13683,"ëĲĺìĸ´ìķ¼":13684,"Ġê´Ģë¦¬ë¥¼":13685,"Ġì²ĺìĿĮìĹĲëĬĶ":13686,"Ġfram":13687,"licit":13688,"ĠTay":13689,"ĠElect":13690,"ë¥Ń":13691,"Ġbudget":13692,"ĠìķĦë§Īì¡´":13693,"Ġì¤ĳìŀ¥ê¸°":13694,"ĠJr":13695,"ĠGames":13696,"ĠíĸīìĤ¬ëĬĶ":13697,"ĠStephen":13698,"GB":13699,"ĠìĹ´ëł¸ëĭ¤":13700,"ĠìłĢì¶ķìĿĢíĸī":13701,"ìĹħìĿ´":13702,"ëĿ¼ê³łëıĦ":13703,"ĠIslamic":13704,"Ġheight":13705,"TP":13706,"ĠìĥģíļĮ":13707,"Ġìĭ¤ìĭľíķľ":13708,"Ġì¦Ŀìłķíķľëĭ¤":13709,"ëħĦìĹĲìĦľ":13710,"Ġillust":13711,"ëĵ¤ìĿ´ëĭ¤":13712,"ĠìķħìĦ±":13713,"Ġfrequency":13714,"Ġì»¤ì§Ģê³ł":13715,"Ġëĭ¤ëĭĪ":13716,"Ġhomes":13717,"agement":13718,"ĠWars":13719,"ĠDi":13720,"ED":13721,"Ġenfor":13722,"ìĦ¼íĦ°ë¥¼":13723,"ĠìĤ¬ëŀĳìĿĦ":13724,"ê¹Įì§ĢìĿĺ":13725,"ĠíĤ¹":13726,"ìĿ¼ë¶Ģ":13727,"Ġì§Ģë°°êµ¬ì¡°":13728,"ĠìĦ¤ë¬¸":13729,"ĠëłĪì½Ķ":13730,"ĠRay":13731,"Ġê·¸ê²ĥìĿĢ":13732,"ê²¬ìĿĦ":13733,"ĠìķĬìķĺì§Ģë§Į":13734,"ĠìĤ¼ìĦ±ë¬¼":13735,"ĠíĬ¸ëŀĺ":13736,"Ġì£¼ëĭ¹":13737,"occup":13738,"ĠëĿ¼ìĿ´íĶĦ":13739,"ĠJesus":13740,"Ġfreedom":13741,"íĳľì¤Ģ":13742,"Ġshall":13743,"Ġedge":13744,"Ġsolution":13745,"Ġfixed":13746,"Ġê·¸ê°Ħ":13747,"Ġactual":13748,"pet":13749,"wa":13750,"ishes":13751,"Ġvoters":13752,"ĠMP":13753,"essor":13754,"Ġquarter":13755,"ĠìĤ¼ìĦ±ìłĦìŀĲê°Ģ":13756,"Ġpaint":13757,"ìŀĦëĮĢ":13758,"ĠíĨµë³´":13759,"gers":13760,"ĠHun":13761,"Ġëĺĳ":13762,"ĠìķĮëłīìĤ°":13763,"Ġì§ĢìĪĺê°Ģ":13764,"ìķĦíĶĦë¦¬ì¹´":13765,"Ġorders":13766,"ĠìłľìŀĦìĬ¤":13767,"ĠíļĮìłĦ":13768,"ĠìŀĪìĹĪìľ¼ë©°":13769,"ĠìĪľìĿ´ìĿµ":13770,"Ġfocused":13771,"Ġcoll":13772,"ĠìŀĲìľ¨ì£¼íĸī":13773,"ĠíĪ¬ìŀĲê°Ģ":13774,"ë¥´ì§Ģ":13775,"ĠëĿł":13776,"ĠCub":13777,"ĠBat":13778,"Ġë¹Ħìľ¨ìĿĢ":13779,"ĠPu":13780,"ĠìĪŃ":13781,"Ġglass":13782,"Ġë§¤ìĽĶ":13783,"ìłĲê²Ģ":13784,"ĠCorps":13785,"Ġì¹©":13786,"Ġíİł":13787,"ìĨĮìĨ¡":13788,"Ġ1928":13789,"ĠGall":13790,"Ġdecade":13791,"Ġtwice":13792,"Ġëª¨ìĬ¤íģ¬":13793,"ë°©ìķĪ":13794,"Ġëį´ë§Īíģ¬":13795,"ĠìĿ¸ìĩĦ":13796,"ĠìŀħìĿĢ":13797,"box":13798,"Ġìĵ°ê³ł":13799,"ĠìĥģìĨį":13800,"Ġì¤ĳìĨĮíĺķ":13801,"ĠChief":13802,"Ġâĺŀ":13803,"Ġdraw":13804,"Ġexperienced":13805,"ë¦¬ìłģ":13806,"ela":13807,"ìĥĿë¬¼":13808,"Ġimproved":13809,"ì¥":13810,"Ġcrime":13811,"2001":13812,"ì¾Į":13813,"ĠSanta":13814,"Ġë©Ķìĭľì§Ģë¥¼":13815,"Ġign":13816,"Ġë´¤ëĭ¤":13817,"ĠìĨĮë©¸":13818,"Ġthousands":13819,"fully":13820,"Ġì¤ĢìĪĺ":13821,"ãģ®":13822,"ì¡°ë¡ľ":13823,"ë²ķìľ¼ë¡ľ":13824,"ĠíĶĮëĿ¼":13825,"ì¤ĺ":13826,"ê¸°ì¡´":13827,"Ġìŀ¥ìķłìĿ¸":13828,"Ġtwenty":13829,"ê³µíķĻ":13830,"Ġë°©ìĭĿìĿ´ëĭ¤":13831,"mod":13832,"ĠìĤ¼ìĦ±s":13833,"Ġnegoti":13834,"ĠFree":13835,"Ġexclus":13836,"Ġêµ¬ë§¤íķł":13837,"ĠëĳĶíĻĶ":13838,"Ġhall":13839,"car":13840,"ĠíĬ¸ëłĪìĿ´":13841,"Ġê·¼ìľ¡":13842,"Ġdevice":13843,"Ġê³µë¬´ìĽĲ":13844,"Ġë¶ģìĦľ":13845,"ĠMajor":13846,"Ġintroduction":13847,"ĠInf":13848,"ĠìĿ¼ê°ģ":13849,"Ġstatement":13850,"oes":13851,"Ġë°ĺìĺģíķ´":13852,"Ġpromoted":13853,"Ġrival":13854,"bell":13855,"ìĬ¤íĶ¼":13856,"ĠâĨĴ":13857,"Ġê²½ê¸°ìŀ¥":13858,"Ġìłľì¡°ìĹħì²´":13859,"rat":13860,"Ġsupporting":13861,"ĠíĻ©ìłľ":13862,"ì½ĶëĬĶ":13863,"ĠOpen":13864,"ìĤ¬íĤ¤":13865,"Ġì£½ìĿĮ":13866,"Ġìłģìļ©ëĲľëĭ¤":13867,"Ġì»µ":13868,"ĠìłĦê¸°ì°¨":13869,"Ġneighborhood":13870,"Ġfought":13871,"ìłľìĿ¼":13872,"acent":13873,"alend":13874,"osure":13875,"coh":13876,"Ġ101":13877,"Ġì²łíķĻ":13878,"å®ī":13879,"hat":13880,"ĠìĭłìĦ¸ê³Ħ":13881,"Ġactor":13882,"ë¯¸ëħ¸":13883,"achusetts":13884,"ĠCentre":13885,"ĠFurther":13886,"Ġ1922":13887,"ĠìĿ¸íħĶ":13888,"Ġwidespread":13889,"isd":13890,"ĠëįĶë¸Ķ":13891,"kee":13892,"Ġìĥģíĥľë¥¼":13893,"ìī½ê²Į":13894,"Ġassigned":13895,"ithm":13896,"ì£¼ìĿ¼":13897,"Ġcancer":13898,"Ġroll":13899,"Ġcircum":13900,"cts":13901,"êµŃìĿ¸":13902,"ìĹħìĹĲ":13903,"Ġinfluential":13904,"ĠìĪĺíĹĺ":13905,"Ġconcluded":13906,"ĠMic":13907,"ëł¨ìĿĺ":13908,"ìĦ¼íĬ¸":13909,"Ġëĭ¬íĸĪëĭ¤":13910,"ĠìĹĲëĵľ":13911,"Ġchannel":13912,"inus":13913,"ëĦĮ":13914,"ç«":13915,"Ġê±´ê°ķíķľ":13916,"ëłĲ":13917,"also":13918,"ìĦ±ìļ°":13919,"ĠëĮĢëĭ¤":13920,"Ġê¸°ëħĲíķ´":13921,"ë¡Ģë¥¼":13922,"Ġsenior":13923,"throp":13924,"Ġëª¨ëĵĪ":13925,"John":13926,"ĠMarg":13927,"íĥĢë¯¼":13928,"Ġholds":13929,"Ġeasily":13930,"ìĹŃìĹĲìĦľ":13931,"ĠHor":13932,"ĠìĹ¬íĮĮë¡ľ":13933,"ĠìĤ¬ë¦½":13934,"ĠìĤ´ê³ł":13935,"ĠAndrew":13936,"Ġì£¼ìĹĪëĭ¤":13937,"ĠëĨĴìĿ´ê¸°":13938,"igrants":13939,"una":13940,"osphere":13941,"ĠìĸĳêµŃ":13942,"ĠìķŀìĹĲìĦľ":13943,"ĠìĦ¤ëĵĿ":13944,"ĠìĪĺìĪĺ":13945,"ĠìĪĺë¦¬":13946,"Ġdiplom":13947,"Su":13948,"ĠìĹĶíĦ°íħĮìĿ¸ë¨¼íĬ¸":13949,"ìĺĪê¸Ī":13950,"Ġmarg":13951,"Ġfear":13952,"Ġë³´ìĿ¼":13953,"ĠíĢĺ":13954,"Ġlaid":13955,"ĠGeorgia":13956,"ì°¨ìĿµ":13957,"Ġê²½ê¸°ê°Ģ":13958,"Ġë§¤ì¶ľìĿĦ":13959,"Ġengineering":13960,"ìĺ¤ìĬ¤":13961,"Ġproducing":13962,"ëĭ¤ìĿĮìĿĢ":13963,"íĥĢë¥´":13964,"ĠëĳĲëĵľëŁ¬":13965,"ĠìĬ¤íģ¬ë¦°":13966,"Ġë§ĲìĿ´":13967,"ĠíĺĦìĥģìĿ´":13968,"Ġì´Īëĵ±":13969,"ë§ĮìĿĢ":13970,"íĦ°ê°Ģ":13971,"pri":13972,"ĠìĨĲìĥģ":13973,"Ġconvent":13974,"ĠëĤĺìĬ¤ëĭ¥":13975,"Ġcamer":13976,"ĠìĹ°ëĮĢ":13977,"ê·¸ëĿ¼":13978,"Ġê¶Įë¦¬":13979,"Ġabol":13980,"Ġëª¨ìĬµìĿ´ëĭ¤":13981,"Ġflat":13982,"Ġíĺ¼ìŀĲ":13983,"Ġëª©íĳľì£¼ê°Ģ":13984,"Ġearned":13985,"Ġë§¡ìķĦ":13986,"ë§Īë¥´":13987,"ëŀ«ëıĻìķĪ":13988,"ĠìľĦë¡ľ":13989,"ĠìµľëĮĢì£¼ì£¼":13990,"ĠPalest":13991,"Ġíķ©ë¦¬ìłģìĿ¸":13992,"ĠìĥģíĥľìĹĲìĦľ":13993,"ĠìĪĺì¹ĺëĭ¤":13994,"ĠìłĦìĦ¤":13995,"aks":13996,"ĠAbb":13997,"ĠìĿ¼ë³¸ìĹĲìĦľ":13998,"ĠMountain":13999,"Ġaccomp":14000,"ĠMinn":14001,"ê·¸ë£¹ìĿĺ":14002,"ĠEducation":14003,"Ġê°ĢëĬ¥ìĦ±":14004,"ĠíĨµíķĺìĹ¬":14005,"ologist":14006,"ĠëĤ´ìĪĺ":14007,"Ġê¸°ìĨĮ":14008,"ĠìķĦìĽĥ":14009,"sen":14010,"Ġwebs":14011,"iy":14012,"ĠArthur":14013,"ĠìķĬìķĺê³ł":14014,"ê°ĢëŁī":14015,"Ġìĭľì´Ŀ":14016,"ĠëĲĺìĹĪìľ¼ë©°":14017,"hedul":14018,"Ġì§ĢìłģìĿ´ëĭ¤":14019,"Ġíģ¬ë¦¼":14020,"ìŀĲëıĦ":14021,"ìĹĪê¸°":14022,"ĠíĶĦë¦°":14023,"Ġleads":14024,"ulate":14025,"ĠìĦľë¥ĺ":14026,"Ġê·¸íķ´":14027,"Ġê³ĦìłĪ":14028,"Ġìĭłìļ©ëĵ±ê¸ī":14029,"Ġdropped":14030,"Ġê·¸ëŁ¼ìĹĲëıĦ":14031,"íħĮë¥´":14032,"å¤©":14033,"íĬ¹ë³ĦìŀĲì¹ĺ":14034,"ĠìĿ´íĽĦìĹĲëıĦ":14035,"Ġê²½íĹĺìĿ´":14036,"Ġconverted":14037,"RC":14038,"íķĻìĬµ":14039,"ĠWin":14040,"ĠSeveral":14041,"ĠìĭĿë³Ħ":14042,"olis":14043,"Ġíķ´ìłľ":14044,"Ġìľłíĸī":14045,"ì¹´íİĺ":14046,"Ġê¸ĪìľµíļĮìĤ¬":14047,"ĠíĻĪíİĺìĿ´ì§Ģë¥¼":14048,"ĠëĤĺíĥĢëĤĺëĬĶ":14049,"insula":14050,"Ġë³Ģíĺķ":14051,"Ġê±°ëŀĺê°Ģ":14052,"Ġì°©ìĪĺ":14053,"Ġemperor":14054,"ëĿ½ìĿ´":14055,"Ġê°ľì²Ļ":14056,"ompan":14057,"é«ĺ":14058,"ì¼Ħ":14059,"Ġadvance":14060,"Ġë¯¸ëĵľ":14061,"Ġ1924":14062,"Ġëĵ±êµĲ":14063,"ĠLincoln":14064,"ĠìĦłìĪĺê°Ģ":14065,"ì¡°ìĽĲìĿĦ":14066,"Ġê²¬ìĿ¸":14067,"ĠSher":14068,"ìħĪ":14069,"ĠArm":14070,"Ġê´ĢìłĲìĹĲìĦľ":14071,"Following":14072,"ĠìĦ±ê³µìłģìĿ¸":14073,"íķ´ìĺ¨":14074,"ìłķë¶ĢìĿĺ":14075,"Ġê³µìĹ°ìĿĦ":14076,"Ġì¡°ì¢ħ":14077,"Ġì¹´ë¥¼":14078,"Ġê°ĢìĬ´":14079,"ĠìĽ°":14080,"Ġ1931":14081,"Ġì°½ì¡°":14082,"Ġattract":14083,"Ġì²´ê²°íĸĪëĭ¤":14084,"ĠìĹĨìľ¼ë©°":14085,"ãĥ¼":14086,"Ġsport":14087,"erts":14088,"Ġëĭ´ê³ł":14089,"Ġì£¼ì°¨":14090,"Ġê³µì¤ĳ":14091,"iang":14092,"Ġì¤ĳëıĻ":14093,"Ġarmed":14094,"è¦":14095,"irls":14096,"ĠìĿ´ëģĮìĹĪëĭ¤":14097,"Ġanaly":14098,"ĠìĹĩê°Ī":14099,"Ġë¯¸êµŃìĿ´":14100,"íķ´ì§Ī":14101,"Ġonline":14102,"Ġsector":14103,"ĠìłĦíĪ¬ìĹĲìĦľ":14104,"ì£¼êµĲ":14105,"Ġdevices":14106,"ì£¼ê°Ħ":14107,"Ġì¹´ìļ´":14108,"ĠSpring":14109,"Ġì¤ĳëıĦ":14110,"Ġë¶ģëıĻ":14111,"Ġì¤ĳìĪľ":14112,"Ġìĺ¤ë¦¬":14113,"ìĨĶë£¨ìħĺ":14114,"Ġadvert":14115,"ìľĦìĻĢ":14116,"Ġcopies":14117,"Ġbott":14118,"Ġdry":14119,"Ġdates":14120,"Ġê°Ħíİ¸íķĺê²Į":14121,"Many":14122,"Ġpurposes":14123,"ë¸Įëŀľëĵľ":14124,"Ġcrown":14125,"ìĺ¤ê³ł":14126,"íĦ°ìĿĺ":14127,"ĠìĿ¸ê¶Į":14128,"ĠíĶĦë¡ľê·¸ëŀĺ":14129,"ê¸īìĹ¬":14130,"ì¡±ìĿĺ":14131,"ĠìŀħìĤ¬":14132,"Ġíķ´íĤ¹":14133,"ĠTw":14134,"Ġê·ľëª¨ë¥¼":14135,"Ġê°ķíķĺê²Į":14136,"Ġrequest":14137,"Ġê¸°ê´ĢìĿĺ":14138,"ĠíĻĢë¡ľ":14139,"Ġì¡°ìĸ¸íĸĪëĭ¤":14140,"íĥĢëĬĶ":14141,"ì°¸ê³ł":14142,"īìŀ¥":14143,"Ġsand":14144,"Ġdescribe":14145,"ulpt":14146,"ìĿ´ëŁ¬íķľ":14147,"Ġë§¤ì£¼":14148,"ĠíĻĶìŀ¬":14149,"å¿":14150,"ĠìĥĿíĥľê³Ħ":14151,"Ġì°¸ìĹ¬íķĺìĺĢëĭ¤":14152,"aria":14153,"Ġìĺ¨ëĿ¼ìĿ¸":14154,"ĠChap":14155,"Ġì²ĺìĿĮìĿ´ëĭ¤":14156,"Ġdrive":14157,
[...]
